0000000000000000000000000000001a
000000000000000000000000000000ba
00000000000000000000000000000081
0000000000000000000000000000003c
00000000000000000000000000000071
000000000000000000000000000000d4
0000000000000000000000000000003e
000000000000000000000000000000f8
00000000000000000000000000000047
0000000000000000000000000000008d
000000000000000000000000000000fa
00000000000000000000000000000039
000000000000000000000000000000a0
00000000000000000000000000000060
00000000000000000000000000000075
0000000000000000000000000000007f
000000000000000000000000000000ad
000000000000000000000000000000f0
00000000000000000000000000000010
000000000000000000000000000000dd
00000000000000000000000000000007
000000000000000000000000000000ca
00000000000000000000000000000050
00000000000000000000000000000080
00000000000000000000000000000062
00000000000000000000000000000087
000000000000000000000000000000c6
00000000000000000000000000000043
000000000000000000000000000000da
00000000000000000000000000000008
00000000000000000000000000000075
00000000000000000000000000000026
000000000000000000000000000000d6
0000000000000000000000000000007f
0000000000000000000000000000000c
000000000000000000000000000000d1
00000000000000000000000000000095
00000000000000000000000000000051
00000000000000000000000000000024
00000000000000000000000000000051
00000000000000000000000000000080
000000000000000000000000000000be
00000000000000000000000000000005
0000000000000000000000000000001e
00000000000000000000000000000020
00000000000000000000000000000088
00000000000000000000000000000024
000000000000000000000000000000fc
0000000000000000000000000000007f
000000000000000000000000000000c8
00000000000000000000000000000002
0000000000000000000000000000005d
0000000000000000000000000000006e
000000000000000000000000000000bd
000000000000000000000000000000fa
00000000000000000000000000000046
00000000000000000000000000000035
000000000000000000000000000000ea
00000000000000000000000000000024
0000000000000000000000000000002c
0000000000000000000000000000009c
00000000000000000000000000000069
000000000000000000000000000000a2
0000000000000000000000000000001f
000000000000000000000000000000ec
00000000000000000000000000000095
00000000000000000000000000000059
0000000000000000000000000000002c
000000000000000000000000000000d3
000000000000000000000000000000aa
00000000000000000000000000000024
000000000000000000000000000000e3
000000000000000000000000000000a2
000000000000000000000000000000f9
000000000000000000000000000000f1
000000000000000000000000000000bc
00000000000000000000000000000040
00000000000000000000000000000043
000000000000000000000000000000e5
000000000000000000000000000000ed
00000000000000000000000000000053
0000000000000000000000000000002d
00000000000000000000000000000071
0000000000000000000000000000009f
000000000000000000000000000000b6
000000000000000000000000000000dd
0000000000000000000000000000001f
000000000000000000000000000000ef
000000000000000000000000000000c6
00000000000000000000000000000009
0000000000000000000000000000008c
00000000000000000000000000000058
0000000000000000000000000000007f
00000000000000000000000000000002
000000000000000000000000000000de
000000000000000000000000000000d9
000000000000000000000000000000eb
00000000000000000000000000000044
000000000000000000000000000000d6
0000000000000000000000000000007f
00000000000000000000000000000032
0000000000000000000000000000000d
00000000000000000000000000000080
00000000000000000000000000000092
00000000000000000000000000000031
0000000000000000000000000000007a
0000000000000000000000000000007f
0000000000000000000000000000008a
000000000000000000000000000000a1
00000000000000000000000000000080
00000000000000000000000000000080
000000000000000000000000000000f8
000000000000000000000000000000f1
00000000000000000000000000000086
0000000000000000000000000000005d
00000000000000000000000000000006
000000000000000000000000000000d1
0000000000000000000000000000000d
000000000000000000000000000000e5
00000000000000000000000000000099
00000000000000000000000000000003
0000000000000000000000000000007f
000000000000000000000000000000fa
000000000000000000000000000000d3
0000000000000000000000000000000b
00000000000000000000000000000043
000000000000000000000000000000f5
00000000000000000000000000000001
000000000000000000000000000000bc
00000000000000000000000000000055
00000000000000000000000000000037
000000000000000000000000000000b1
00000000000000000000000000000080
0000000000000000000000000000007f
000000000000000000000000000000b3
000000000000000000000000000000b1
000000000000000000000000000000d2
00000000000000000000000000000027
000000000000000000000000000000ed
00000000000000000000000000000081
00000000000000000000000000000038
000000000000000000000000000000ac
000000000000000000000000000000ed
000000000000000000000000000000bc
8b6c61938a1fa3c00ca6376890c1a3cf
09a9f78090326e510cd6f53d0a827f2f
0b9373930cdb5cbf0c8d35fb0cd64723
8b7f4a1f0cb687e28d76986f0cd06835
d2a2723ace254a10c97cbb70a8309963
dbaa3a06918045ee9a2df688971dee5b
809306438f6d20a6cb8f5b4a9b4715f1
e9a303e894f93f31a849228edd1bc328
00000007000000070000000800000008
00000008000000060000000700000007
00000007000000070000000700000007
00000007000000070000000700000007
