b5e3d309f5cdecf936efc4d923c3123a
0229f2fdecca25c9f7fbf0e036ffdcd7
17fb613d1700bec0b00ce9fe191709e7
e6f910ef4604cadbf4ebf3f80000f108
02f5271ce9e1e3110e27f9231907f5ed
0ad5eb2908f8d71b05f8f1fe070723f2
1e0f2bfe0734f142d1eeecfbd12103b0
da241cf6f9ea07ac4243feed67f5ebf2
c04ad9f1bc25cdf5fd36f1f7ecd4d4f5
091c1b0ffcfaf0c5e813f9f5db26edf5
13edebf05e22e8fbf0cad6071b0a3edb
0b494ddbebb9d4c5fb1d50024024b40d
eff640f125a95edd37fcdfe346f0f7d5
ff08d1ea0f3bcc29f5f8f6f4e9f225e9
f8ef0f24ede5ed14f33135ffe0111327
00e8e00709be0bda1717eb150ceed1df
b9f0d2fe1315bf13c4fce20ce020e6c9
30f433fa051a05dffcf8f31ce1bef9f0
13230321d3e6fddcfaf4cde1d91c031c
13f7ebc9e303e6d3fc1b18d308ede605
1e25074ed503fa422c20c7f6163406f3
d0f80a3adf082725fef7fb3ae22c12dd
48fd1afdf6e30826162f23e92fff16ea
1e032ce92f0ff5d82de92c20c617fa0a
27dce825daefd7101b0fcdfad713f90f
26e9133ef5dbea000ffbd618c8f43f15
12fd03ff20f00fe20e013fed1238fb21
070d46f80a13ec0317b609db0bd40521
14ef23f0f30e04a83211e948f33ce6fa
e90a090009dbf3e7010beefd30f2f400
d233271fe6fcda16fe1fe4081ce7dcfa
0604f7d503e0e5d800daf7cbda00dbde
d9ead1cedcefd0c5b3dae1dad732d6fc
d3f7f0feb8fef1f51810eff3102cf645
d9f355b1e2b51e123dfaf1ef1dd2329d
1cfaf2dcc9f904c2d1dce3ccea1cae2f
f339c4005dd7e4d538d30ee81ac03bf2
f20de5bb3bd7e4f5dfc926f432be33ee
06dfde04f5e008dbcffb16c92713fa27
15f1f30c0903e70b14fb2efcea1bebfc
d6c6ddd011d416c6bf1714a7c404cc03
16fd121300fff817f21f0addd516cccb
e900fc13bf00d6dbdefee6f2e532d32c
12edfef3d0d80ff702dff104e105201f
c4e602e73909f30030020afc0537f808
ff4cf7fce2d0e20211b0cde82de8ec19
fd0ae21217e00b3d44f0f205fab41ce8
14d5fdcadcd6dad4b3dfe1c2d0e6e838
d316fdecbccdf60e3806ca302ff7e8c9
e84f2613f6cbf2f12331ce1be4fcd7fa
21eac91e1e0422081809b4c2c733e84d
fe07c308d9d6bfe13b2dfa0318e6041b
092f0519033af6fe3de0f110c4e4e4f8
2b0a0a3b471ffe18310c48ff88f4e701
0216f61c1222fded43471b1cecf112c7
e45122e8fef205de2e1f1124f12b152a
e1db42c1e404c6e3080dd0dcfdf8d8ed
1af80f27cac5d717cddcf4d9c32ccc13
161aca07120710fa160b0ce52b120314
080cedfe37240efd0259e3e7eaf6ce38
fb3d5900d4cad2c5f8dc3643b51808e2
1ce2ddf920e0e5ece81efae01cf4d608
efe801f3e503f60efddbfcd11d2a0b02
1dfafc100606eac20f260af91910ef13
c6fef8e6101ef5c4f2ffbaf7afda37cf
0d0317131e172c2e4bf5f605c823f804
e72a1be2d92cd825e60ff0f21adee5b5
0e271520b0fd9bfbfc14fcfdede0e7c1
02ec07f0dce0d4cd1cedd701e7dcfcef
44f5241c3124144113f8d83001353afb
f3ce33ef30dd28bf3de431e6fadaf8bb
ebf5f1feebc3d3d5bfd7a517ff04debf
fe030eef1affdeddfadf0e0e24f5edda
e331f539e1ef3deb0b3ffaf216e5dddc
fdc605dff018f1f1e8b8d81b18e52614
06df22e82bf934fefe1e450519160c37
e1def90833cff4082725dfe5090632f9
04e1ef0edd0de6080f1fca07b7f6fcae
02fefaffcb1b00f4faf3c7fae3bf1cf5
10091f0cfad80b28fe25291df6ecf3fd
cbfbfada15f2bc30edf0041ff0eeeab9
f535ecf41f081cd01d25cdfe0b0c190f
fbeffdf0bcd9f0100e22fe119c1dc3db
dbd9f2f3ecdb0016f650d50cd2df1238
e009ef0d24c60531f507c80cf802f503
df2a2335fb152c0d284ed42dcbde5bdf
0808fae01718e6df10efdbfce241e509
ac03b013ce11e7c1f9eb1debdce7f6ac
0ff5f1d626ceef110ad6eafd1b2cf210
1afdf804d5cf181cd004ebe6c9f2edf2
b701d2ccce30e52e08f50915073516fc
e6f10b5c1e24f022f0020cf322380037
0b10f001f722ec47fd4bed131d6d32ee
e3f8f14403afeb10f3caf0d1e2d00006
e2e01fca3beb0803b9e4b329eabfdce4
ef211736d9fbe61af61aecfbfb1b0724
f8c7cbe8ecd7c6dbc4c7e724c4fbc4fb
161a3f01d3251b4936241258f229fce3
16e600d736dbd9d0db27fbb2ddf1dd13
08e70b02f1c204e9b64a0b8cecf1d90a
08f007daeb1e00d4e2f5f8210af0fb15
f5344b3de90a0e2547ff0cf91c133a17
cbd4d009fd12fd0324d12424d9eee8f3
18fbc61df9d6ecc516e5eafae4caee28
01dde7e539e109f0fef519f7dee6fa10
ee1400dc11d9f5d5bc1e2dc8ee17e1f5
15eecb1229f3f3cd01c0d7081d08ee61
0c2bf51d7116ea187f0e1040fab624ea
0439e60d14d327cb01d2f21621050416
d6fa0bbec7ed0bf513f52efbf9b243c6
26d114adccd8da00fb02e405f5021ed3
d5012323310b113d42fb1b1404d304e2
9ac3cbf2d1c2e42be1f60cac0feaedf8
26f82d24001f0dedcebe34330bb9e628
00210df8e2e517f5ea0de50f19f6c5fc
0f1dde29fef4e808dae4f8ee083cf1ca
ef0bfbd720fd1111081202f41117ecf7
0af035373a26081f30cb0728d2f5ed13
dc1f0f2af2f810d7fa160332b1350ae2
eec5baf917e5e9e540e9f6fd1dcbd5f8
f2fcd32c19f2dbf0ff16f7ecb5341401
161efb26e6150b0400e81cecd20e03ed
d6bbe0f6e3ffd8f3c80dea50e3c1c805
f1fa051fefff0a37d49dbdfffc1611e9
e71be828e718ff1e48e5d025aad316ed
debffeb3024aeed8f3cf0580112ef6e8
ecd621bbf8100f04c4ea0cc4022627dc
010e04ecf11f0d0b27e2f7e9e836f9e7
dbd39e06d0c2f72aec06acbf0fed0307
e300f626010adf08d03316e10119f002
fbd7dbd5cac12f0231f7e1e761e5f1ea
0f11f6fd06f60fcbfc251ce3dff4e232
25c0f3d5f5c30ae20f0a0bcc1dfc0eea
171de036caf82412010e0504e00751fe
0d15782f5dc6eeb007dde9f0c2203608
e548222e03dee504c43fea0cfb05f5c3
1ce2140524f0bac4fdea37344e04d0c5
ece72d05470fe2dbf1da05e4000a00a5
f346aa03dd37e6ebbafd1bfec2282ef2
f0ff59e2f3ffe7bb13d92fd1dff6b2c3
dc04031ff2fe060a130a1906f80c2bb8
f91e09f6c8340ee9d0f0fddf10ef3ac1
28162af341e6bfc7fc0ccf230ff60606
d01cebdacfa94ced52e62bd9fcdffcee
e4f9e5d1e309e9edd0e6ed00d5aebcce
daedd52ffabee4e4c3e807e5c8e7f0d1
e1f2e589eb37e7e90229ddfcefe8f3e0
d617ddbc2735d81829f30a135b37eb3f
b6eaaaf6bd00b654da28fbe7f436c6ba
e2240c6315f6210b1031f33ddaed1feb
3d33164929d91d8012e71ffcf95f112b
15f50a1bc5b7fb07da05dde5c8f30ad7
19ed1012390315ebf71ee760f5fefef2
2b09ff131af2edfa0c39ffef214a0afa
a31dd7f9e0d9055fc646fde975df29d8
cadce1f707ade2cfd309b32ded12df0f
c32a023c17f2f6ea1329db22bdfafcf5
dfe3dbe708eb120f17b000194bcfdb09
f3082bc91ce30abc3dcde1f6d55b0701
09ef1fec0237dbf11026d016ce33dd36
f7d4fdefb704e4b50002fbfadce8ef11
c3fa06e30dc9f7d60efcbbbedab3fade
f4b1e601a9fde2ebf9d82601ef2bf15e
11e7f6044638ed210ee707012afe00fe
dfbed71a7bd4f1e513d25c0018e7d44c
030b0a1f561c07c146174cca100df2e0
e7eb150764c619386e262d08d0f60ab7
e1eb18ebe7e603f7df18ffc7ec10edf5
eaf80c0edbf3fb17fd080d2fd952fbd6
0404010f52010af50adb08dceb0c0a16
4d2be11861e4faa9fddc44f437bf1d47
f302f0d73e03f9d7522227eedcd701a5
c8d7fe266d00fdf239e92af9f0c134fb
b31cf6d003e110fd270406e414c9f919
bfdfe4d0d8d5d8d0e317d40ac704100d
f0f7e10f1228d72a47fc0918fef5f0e0
ebd4cbf101d7fbe417fef9e428e2c0f5
02d3cef306f2daf015df02c4eaecf21e
c42023e0f001eccd1d44ea4708e2140e
11ddd1fdee0ef8e2acdd23eb27fa26f7
ed02f8d90ff500fed8e013099bdc09bf
0f232f0cf417ea1820ff08dad71f1f16
03da092e09ee05fff5c60fd9a1edceef
f12f30f30c0704effdc202dbbe22eedc
13360d2407ea1211090f0a07d8130de9
0dfddfecf225f3ed1aec14f3801611eb
36daeef22a61120f42ef11ef04ca2b36
f010eb04ee24fae5e1b0338980f3360d
f80811e0f70af10206ea0df6c5ef0005
02cb26a8e4d0deeb81e601d00b0513f8
fe23ec1301fcf5b032202c17eb181403
f8f319e2cecfe1fbaccf1bfa35f9e8c8
152b46f2be2e16dd2f243a1d10000ff7
ea453f240118d9e9e42a1fdb0cfb08e8
0526e0fbaedefc2fcc1dbd17fdebbee1
1edef109130de1f41cd4f20609fb06e4
edf40afed631e935ca2ceb0cd90c1dfd
dc340f46e026c420e4f03d0826bcdcf9
ca1bf2f2fe0be8e8c0f7a1fbbae6e600
cfb8bd01f1d217fb15ede8baface0303
05e03c0716b50ddc261949d211fdfaf8
fd2adc0bf513fed8071bed05ea00c4e1
fc1ac61ca536a3f9e4e413d1cdd5c60d
d3d3fad32acf6800e72d470ff0f61233
18f722216f14c5c916da01da000cf2e1
e3dcf91cf827bdecb30d390448f9dda4
e624e533ab00fcd0d831f5dfe4f41534
2d4d2614fcefccd7dbe8e518fef0f2cc
48100ddb390f07062be012de07cd0241
0fdafa27fbd214e90812fe1ec3ece0f8
9c10a5e3a8ff1e1bd008e0c3e19302bb
36f623da0105e9ee0c0f2ab3cb0efbf0
2bfdf71502d70f35ee07eafd0dd4f9c6
2eead92502a60e27e30a0822cd24ef05
b6ecd7ed44b01926a3ecd51ffccbf0c6
f3e5e1fd240ac86d122bd809223ccffc
0ae3292700010df01e2dc5160043c3f9
efb5f030ccb7051c1fe6c527a609e5f7
053fe8a1eba3b52495bdf6e2d1bcdf14
0cfe1ce2ca3bf6e7483dbd16bd10f422
3bf1060605fffeeaf6f307ea1f500825
e1e305ca1de20b0e14dcec17eef30202
cfabefd9dfa4dc03cdf8e81dbd0bd1d5
19fa0a47dbe1c7164cf7e518d2091209
1c143c06dd370517c82f0db7e33cd9fd
13fcf9f4fd0434d9c11ffaead606d6e1
3ce9f6f53d02fdbad7f2f2a609d30912
04dc03d4b105f8db97fa07e6f849c039
16e72e0239d0fbe8fa001c0afe0906f7
f9efdbb437e3d2e5e50a09cbe1efe3e2
eae7fce2d9d70ae0dcfed4fd0dcbed14
cbfd99337323df093ee7110bf6a7e5d8
d4f5d51a3714f81255cf2f19ceb405f6
f5fd110af500f1e8c42608d8e407e620
42f51bf2addac2bb96d1c8d6ede80a2d
00e6f918460eedf137fff5f939d007cb
ef0f150220dc1f100bdbcc2ce72ef804
ebdb1306d8fce2e1eb0de7fe041816df
b1f4f3c5f1bf3505fd2e0bb8f4abde0f
feed32f5ea0a03e2fd741ecce500dbcb
111eeb062eed21044a24fff6322f1b10
d962ea08ede907f50419f4f8e9f6d50a
debdcdc708110a0016dae1d530a8c8e4
021002fff307e5cf4d530bfc493827f6
ff0f0be2f80d0410320d10fee30a28ff
102bfafedbd40925ef3bfbeced0a09c9
f9bf16c7ca08edf4f011209929d8f8fb
cab525d8d6deed1beedbf5e3fa0ae7d2
d400290af7e2f8f605ab151daa122de1
061afcc4ebde04c615ebdfdfda2bf3d4
e3b9b7ecf5f3d8ff0831de8125a4f8ff
1f0e301ae611ccddf7ef2723b20604e7
24fb095f0403ffca18fe1e070108ed04
25f8c8e8040f01032feb1ffbd3300c03
16122deb00b5dd0ed217e4e9d22cdeca
27521500ea0f10263909d4e1c953e802
e5f7eb08f900131c1932e91038160cec
0716ee05faaf4decaceb0d161fdd08d2
402cf705f3f33ddecbd2e4282e29f6cd
fb07f00917ddddceeb0dd7fe46fa06d9
fdda2fe8f8c21614e1321408fa002f50
14e6d1f8e126052b001def21e6fb3107
f42ce3f4e130ea3df706c0ebfafc453c
07082101e4a9fca4ac4c363eeffad334
e21bce1cbdf709f1e1c5d8bd0bbd06dd
3cfe3507edd5e2e1a714e8f8cfdfe911
f0fd15090fe819e90dd1da14320f16ab
0c0c1bcedfb727abe11c47fdf9433006
12def011d93dfec3fd0a1804301fcb0d
c60ec2e51828da0200ed08f61ce4decb
1600221819d10d28121a2bf2f20b0e7f
f71cf7ff1b0716c6dbebe1fa5bfb0bc8
d212211b00f2cdfd322d4614a02605c5
fafe28c7d6101aefebef21c6cf1119d3
e51ae1c702de26cf7cc73aa2f5184622
250b0fd930f908a722e83d0fe3150300
dd041708c323fe11da649d1a08e8eceb
f8fc0030b415034fc940c816e09a04bb
f3e0260b1821df0d2840004721ddefb5
0eff15c5d40ff8cf1eb3cb918100fcb7
e9c8ddf510e3d3cbf8e1e1dd87ffca27
e310f20cbbed13acd80bc29ff4213908
1b2e0ff52af6f4b739d335111a34ecff
1e3800dec30121af12ae33a407e6070f
ea07f99a1ae6f3112380e4fdd8fbf5c8
d1eb22f600d7d80f07ee222f0109dbfb
de14e51fd72af519eb3b04e4eef2fa08
d9ddefb735fbf5c72ead280bdb05ebf5
d8de0ac8dcedefc4fa042bf0f0c4d961
f6dbf6d32cfb07c6ea1522f91df20718
48d93180b4f62af4030cfcc05cc53cfa
eeddfc0ad5f8fedd04f90af10cf1e72c
d32ce4f21df80ae517dce40e45abfe2f
1213043b26dbef0619d910fee8b60d27
dfee030d17d904f201f8f512fbf4eefa
0eda09d80ee901f1e1f40f94229b0d03
cffbf5e002edf1bfe404f2b6d4fdf3f9
e7bf0c0215cd0d1e220fe0ff22d722ab
e5f00e1bb8e3f0e9e71917f428081220
1a2202c9e5030fdf17e8eb161dc221bc
29e8fca01f14fbe12bfd16fcde14d2fb
2514fd1d00b7fa1e0d26e20d020fefeb
030ef6ed3de6050112ef16e300e7ee15
03c6ebcad9fefeece4f91bf132c9f514
15fada0de0e1eac526e9155cff0511df
f114ee080ded0bb1bdebfc1cf119b814
10f7fded35702efdd100c5bdf524d834
f9fedaeb13e4e1bd5b0ff816d509d712
26cf00e41a12244c26d10422dbe7c428
13d82efc021e1b0926f82b20f6ec0125
07ff0e0f241f3f0670171ee2e9051330
e854dcd61104030dc2deb012040ed8ee
b23105eed0f5f4ee00ffe7cc2e1cd7f9
fbf4e90828e503e6cabdb3b500f9b816
f41800012436e8cd50dc20230cf20def
e42f22e532eb3ad3dff5d6f613f2df09
c73906b80ee50affdcfcea48b7f71bfa
0509f91bdd01e900fb0d38f02c0627d9
03e5f3f1fff4ff12f002ff0eff00cff8
e0f1dbef13fa0cb736fc3b12d3ed18ef
e5efb90ad4f4b6f3ff2ee4e40ac105b5
13243520d015df316c061bef031bfeb1
e446f50cf4fdf2f3d20a1ae8d7e6f0fb
ce28c005cac2e8e6d71cebbfcd523921
01e5fd0af90f2ef6c326f6da0fec24eb
331cfc29e4e509f32a1b092224223a4f
fee4f1face1b23d70f2529ea16faf6eb
f4e726f021e60910e9d6d2eefb352bb4
0b0dd40eedf9fedd0ff7f11831f9efce
dffef701b7fffdfae601d605bbfb16ed
efc6eff7d21d38ead5fecc0202f61a0e
d9df1efb07c924bcea0516e2ced7004e
0eea14ff06dc0f1ae32e0e10e00a3ee9
eceaf90cb729da1026081dc41bc2d9be
f90eeae4f127d805daf8db241ef2b800
0a0f2319f2daef182c3323f3c700dd56
effa064640d3f4f70c33c872ebf6d2cb
ee05cbcd37df09f60706b32c524bf9e0
c5c410feededd4f8e907e1e5d4edbe02
dae20f1db7e607a9feea2fc7ae08b303
e1e700e829ddd6be4a02020a98f012f9
001efd44bef805551942d207229b15f3
eff4e4da0cfdff2efbbfee04ee0b09d8
aee3d1e8e31aea0109c225d5bdf0e0d8
e90cf3daf9e8d5e7f9b8fe0e1bf6fef2
f81af805bdd4ffe9bdf009cbc60201f3
e3edeaf6ec04f7f6015ade19031409f3
dd03d619e00cfd5ce911ffe525f71215
c40ffd39010ef5253159d305d0ffffb9
cbeee8fc0703cc4c1507de0bd80bfc13
29db09d94baadbdbf0c50e4d2c0fd7e8
d8f7d407a7101c5ac4ffe6c504fcec04
e1068d08f7daeb00c403d6ddf908d83a
152735e4e5344555f22313f00e63e6cf
d6defde9c6f30cddec0b2ffdb6e30607
b8d30bc0dc28efc5d824e9a0e9cfeded
0bdaf2dad5060ee6baf653fa37fe4440
d4612b18f7e70f663ef51d151a071327
08db02b4f9080522eae817eb140c0448
000ded0fe70317a5f3f4ec0a00d6f9e4
fe0b09d3f8fafff0f906fdf6fefa170d
f700ebca06f8edd1cb1102f1d2e1d4ea
1fcae0e928f507c132ea020227db2245
e910f60147fd14de2103fff20ec5eddf
fafb0de805f4ef0305f010f4f2ec2b37
d5eed1e8e7c81300e42f0b0615e5fbcb
0af5d608f41de4fcac27e5ea273934db
e712f70410f6131316f2fafb21ed0df0
e8173ff1e5b1070531ff683c03372feb
edffc4fc1bf614061b20281de8fa2e5d
ebfefad0ebdd2fe5e2f1eaf207f6e2ab
d604eddefd03e800e0e3f4cd070ea905
cd1c0cc9f53ff1de031d3c3eaf1b1e01
07fa40c42327ea270a3a1423f4e1023f
030102c9eff400e5f417f531bff105da
c0abbbfd1b11ed8f6b05b4f080efeb0b
ffec08ff0af9061202f71d02e9f0fdff
e818dde5eb0302def4ede8e9ade8bbfd
ef09fde918f5cb0be1bed71dfed50003
06eaddf7ff2cfe52ffd703d80cedddd0
0d16edfe1502f9fa5ee04c14a9b7f7fd
0bc1b0ba021ef3fb1e25d4f5ea0827ff
1f3122c1ed2705ba034d001010171ff3
05f0bbd90f08113513ebfbd10710e731
e70106280324d3dbe6c309df3cfa1fe3
2332ff19cbdad3363a010bf8feebd1eb
d3dccefffd3243f011eee21b34e6b001
fbe108ea0b32f3100eff0001e3e400ff
12c7cdcde6f62904d2e327e004f30b51
16e6e5f2c507f30cfc061603f3221546
05103017e9ed02afc012f316d51de3f9
142a110cd3040ed4a800f705b6f2f1d6
0d06f400f0c9f1e5281cd409291a001d
09ed0deceddcf200f613fa02260417f7
2ee1f4fdf7ebf357c6cfd6120ae56c1c
15cf4224d1d608fc172c20fbebef0010
0ce4ed0dd906ce2706231ef7c5e3e722
dffb010cbe5dd4d7f1df0e0103e9bae8
f0fac010dbea25c6c1d1d3267f151ead
fef200fcc11aff19032413ed0ad4d7c0
09d313ddfa01f1e0f2d426d0d6cfeae1
d608f6e0cadfd20afd29ebd3cceedff7
28e3e1a70613ec0d07a90c00f4d7d7d1
06f02737e5250e15191a01080825dafe
d8d1dc00ed2ad451e103dbb6d6e7e1b8
edfdf700b947127fd11cb8f9ecdd10d7
55f4fcf734fa25f721bc08fbf5103011
f8051916d2dff9e4f1f934b0a1f1f0f3
1e17eb101e1115d425f20502eee61a34
0305ed0924f80401ed01edda0de5f5fe
e5f6ba3cdf08094e6b71ff3ee6bc0694
9afcf6f8e506e1da14d8ddecd8b8d500
ea20f7e8ecfdbf58e013d108e5bce7d5
e4dd05ea08c8ff07d6d2fc5ef8e6e105
d81101a55df9e4c7feba1d0cfbf830f9
1bd70dcef1e8da1a30f5ed0bbc1cd0e4
f8f9f0ede401fee6c7f1f8eb01f5d702
cfbce0e613ccdffcbc0edee1d4c1f1e8
1ed7b7e7b518dee4dcd91bf819f0ca5b
16cdd8083edbf0e5f0eb0edb0d1afa2e
2197c709d4ecefcc0ddeef08fac7e531
d80a20071dda09f516f5fb21fb0808f5
0fc30be610aa03170c1818cdfee1eec1
06be0dda0aecf005df2af1befcd805c2
0e1927f6e6130d2222f1de0ce20dfac7
f717050a050cfbed0ff702f104f0eeed
e702e50cdcb4039900f120c319e6c82a
fad1edf8fbfdfde604cedfbdfe13f7ed
f3eada012befe81733ebffe50adf05f2
f90dea1fe7ce0107dc1e0004d228eeef
dae412dfba2e0209f2e926d41d222f2b
20dbe8d6e7e4c705f3e618db2ccfea22
f0f8de0507ee01d92deafccee00e0af3
fde4ddcaf3ef18fbf2e309f20adb2eee
cbfdf6e525040bde0ce0f243dbef0708
02ed032506f3ec1ae4fd23f5ddd803dc
c69eecdfcfdc0d0c05acf9fac50ef9e3
0ff612d6100bff2105141deaea19e616
26ef0ef53a19041acedc4ec3df241510
fb0bf109021017f5f8d1e8c9e4e0b8c5
181421df09040afefe090f13fdfa04f7
f9f4d4ee010c1a1d2b05fdeefbe2f8f9
d5f91b040cfd13253b081ae9d3c6b401
04e116cd1bd73735cdc239c38fd91613
f2150ba4ec2a0d30e5d61215f207fb12
09fe4e0c09eee002d7eb24ed31020f07
fe10f1e408112cb51509353ba6f8e8ee
f3104013ee04e4050b1a3502e554f9e9
2022240c010e9ff427030bfbd01fd618
102101d301cb06cbccffe219aff01de7
d0fad81c0f0a0b370f2f18e0f4ee2de9
ea17f22c171c0b130405df104e1b03ef
e40df3f6c0110331002023e5f8ff1b39
d6241bf80ccc02d4f3deb1dfe6f41e17
cf24c502cf22d40733f1eded41c3cc00
c6dba1dd0ed51733f4b716c3bab3f61d
d4edf217fbf12b04152d34e306ebf410
012b030f07fcf1f1dfec17f7cfee2312
d432defd4202e21d130007e566d8fdd4
2af8fceee20f2b31e6ea0bfccff34a1f
f002261c1308cf0e1ffbbdfd311211d1
22d5f8fde7bc06cdcdedea0c3bf1f8d5
e72e02f0a40050089e0fda04181e19f3
d72cfd21d8baebb8b3f1f2f3bcfb16fa
3b143a34080afff10e0817c7251d1b2c
0312ddebc5d42991efe6fb8bbd15f3e2
d3dfbacfe228c23f0813c4f2e6cff7f4
0c1249fe1a15f0c62bdd21f9ee0f04e0
ef08deedf033fa2c0a22f8f106d3f301
fddf02f3e4e4f4c613fc0fa1aaf8d2cd
f9e0fee548d7ce0cd4fcb75cf1059cd2
b9e8db2bb60ed236015ef5f4e1e6bfe2
e8eecc1af413d06cde21f7bcc5f6f0de
f3d2ea1d01cffec6e91802b8b0d3db04
cfece1ef2efde21210f236280335a61b
ddf1c221d4421536ff29dbaeabd905ed
2df2f2fb062810c5ded1eb0c32454a0c
b71600d712061ce724801cc208e8fcf7
d707d01ed7b8e9f6fe0ae511bc0aef19
f6f9e425d1d613eff6c2c5939ffc20bf
cde9edf8bff2f806e43dcf010814030c
be16dcc811def7c0ce2d0cc00cb305d5
0af7fde513e502d2070118d8e2a4fdf9
fae7eb02b409e913edf2f41a102fda0e
eb03fe09fdf3fe11261cfb14e1e5f2db
dee4d010f10bf8cdc70d14c7dfe311cf
06e9dad7221bf3ffc429f6e3ff02ea32
b990e9151de2d5d9d0bed9c0c4b5bf00
efe3e7a3111903f158c719f904b1ed22
fd0bf3f407e8ceccd33703a7c0e2eded
19f2e6fab6af10d2f1112be717edbf1d
44f907bd60f80bf16001170720d4d912
083727ffdcf71820121711fefd1b15e6
e5fbf0c0b32ffbcef5f0f1f348001a01
bfdc02c4efe3fee2fadc53b10197e9d6
1feb10c0f1edf9fed5e1d0a2d8c7dcd2
0d30ec46220405f8112e1729361ed41d
0f15f60cf7f4ecd8e7b9c1b013e3d3d7
f0bbcedf3204e7f6f6d40911bad018e7
0133f738ffff19fd502a10f0191d2d05
f02905f6f50d1e2b1f16f3d2391313f5
c52bbefee1ecd4f611d6ea84f1e1dcdd
14d913dbea1c05e5fe210a1c33041416
06ecfb1ce4d7f4fed2c1f218c215ebcc
fc1eefa3eaf7000df0db0d1ec91003ef
cb1bd6f2dbeaefdb0bcfd4d104f106ef
fab1b911e8b5c0e618ddfbd844e0e2c4
fcbaf2aadeeaeef205010b1dbad13219
380deb0ffbff05082e0b211cf0fcdce6
cbf2f8c7000beafbecca33e905210006
f21200e8fceede0eb1dfe098f9bff9d3
ab0e171cf9350bceacf2d298c9c0c5dd
d8d6ce2cd925b80bf21203ecd7baeff6
281ad81236f90c04a6fb391f0123e4dd
741c2314fd16f7ded2e7ea365004e012
e6e7b712fd0b04f8f51924e125f20505
fe08540821ef2073d4f4ebdffff06f16
ffc0f80ef9f0d6bbddd0eed616ec0b3b
ff1b04fae815c1f0e81adff5171c9e64
1af70e4b07ce07cede1d404209f22417
f7420c47f739c1fcf63b30cfecd6de4b
5642183d04dbf8eff82e291bf92fc6ed
e508d6eadd29efff1624f4ee050cfbcd
37ef331df0f5edc80c412a34011febd7
f1e7f9ebeb063c0cb2e536012fd91c2a
f2fecfdb1c0e1c0a240ad0ebc9d107f5
e8f537e91df23d3fdc010afddef038f1
fdfbc025c423f5cfe602fbfbe3f22ced
c2f5c5a318d4ddd7cdb4d70bcdfe0bdb
e91f05feca0530fa18e510efa4da1dc5
e8590ad9f5c60de258f818e009e746d8
f1df0ed81cf707f902c9474b0bc2fafd
c4ffc903d541ec15041debb8ad22daf7
ba05befed6f4cc6bbcf0acd1ebeae022
ebcf29040f11f0e528ef361428eb2d45
c3f2e3d4c10a0d1503faeaaf952231a5
f0e9e2f4059704aaee15e8ecc0ebf302
f826ddbab9ee3fe1fa1b09cae6132a07
fa1aeae40902edca0ceb032400d2f2f6
485239cbe7ea0cf30ae329f8002845f9
d8109bfad236f71212b7001ec4d60fe7
a0e822edeafdeb2fe73d0c17f61dcbe9
0909131ae620cff3f03406cfe055ec15
f90ce0e72de3cc80059ef12ad6b5c60c
00e9d4bafed3a5c6f000ccf6bafffbe6
f6ee560129f505dbf407edd405b705fd
161156edb9ba09121a1911a044c421f2
e1cbf01006f5f3fad908ecf9d2f1efe1
fe1ae104e009fcdd16f31e005d11043f
250bf11adec8e7091af90a04d5eefd41
cef5f1de03e1eafef516e328e9ecfde3
22f5fd085fd72cde6e2912ec4ec3141d
c5ffc8a42cfbe420a92ffde321cdeed3
05eb4c073abf64f80132fee339e526cd
03cf1fe0d7fc1ef60307f2f7e3f931e5
41f835f5dacf1cf11e0507d1fbe920fc
241205ca3a0e02fb30152cf70ee7e800
06ded80a02e7e0f1eeec07fcd8fe08d8
eedcfd1202d4f60a2ff641ea14f7ec32
ff0de0caef05e3e7f4e3f4e209ec2ab2
f6c200bb260cf2cf19030bea3cf934d6
26f610f90e231beefdcee3eeed2be425
3e20d0fc18583bf816f2e105fb091615
ed12ffd7f410e93a17f1f2d129fbd3f8
c2cdf1d7d30df4cb0ee3192594ea1aea
fbde02e6eddaec02eeef1d3efd1ae4ff
f4350cfb041d1e3b0bdeecda2e18f5f6
1444bd06051c4cdbf8e2e0fbc9edd819
310bd0e3dcedf8130e07c7d71e47fcde
3910cbe0172d061208c2d6bae0f1f90a
f00c1afb0ceb211a0a002cf644f7ece6
28f0ce2c04f149013df019de1fb1f522
31f5c1e0081109e5a9eef9c3d0820ffb
f3e1370debd5084638f1071e052ac6d9
e6fdeb1beefaebd709e9201ac3300004
e2ffe3a6f9f2fbcff2e800b232ce26d7
f1dff80fd5ddd3caf646e5cceee3e4ff
f3f3231c25161e3112fb11e7fe26f5cb
f727ed17de37e9b2e1f3eaf108f7ce15
1d7f1437cdeaf4c4c90cec0be2eedbf6
d8cfe2feb2fff5d9d0f519e918f00108
3b0f0acbf9e8e40f1111f03211f64a08
f1fffcfeca204318030e0ffa2ee03021
eae212e91f38abff9ae617cfd9bb39ca
10e70011cbf305060ff4f1faf7fe12db
1632e92ae0f3ced2defffb23cce7ddbb
e2caca09e34bc7f2c8dd1804ecff32e5
fe0452043be3561cd9f722fe18e02749
e0061528df100312edf900ff072435b7
be04bd02c007f93b060de7a2f19c15fb
f4eacafcdac3ebab0c11c5df0adce423
03044d0b52d20b07f1150d02fe00402d
11fa090f14dbc4e4b9e70c2341e1c5b7
67141010320ff9e2b2d3d7f44e131110
e5f6f0f7f9abecf215f0edf5f1ebeffc
eb02f2b4e5b539f2fc0cbed0b4db00f7
bff0bcbff0d7cac60ec427f7c9bfd725
f81e9b08f2f50c210e4a03d8f11b1f1d
f5f8bdc5f90df528f1c9ec26d2dd02f8
83fc91f504cc9edd04c70dc5c58af232
b9fbb6d83ce6eaac34ce121504ddeb04
fbeda9f1edb5fe0bf502eef5bd11e2d0
db14e8110223f318d5e7290cfadaf2fb
06f01233d42cf320256425c8db3cf815
0a24ac0fe8f611e83609fecddf04ebdc
c0c3db0604d1ab0fe148d7dfcb0d9ecd
e7c9efff01c5d1f7ffea1026fcdc0de4
e4190727dd34153be818199101411afc
e0face048f1edecdcfc0f00ed257e5f4
1b06fb59c22b3e66d0e9473811571828
eddfebd2fefdedebfc3906ddcbd710fa
fee915d900ab110ce03cdcb1eaf0eaf5
db270febc301bad722d20af4182e21d7
0a1f213004111c4b29035827263f324a
ff1c21ec1818fcf32ce42ef7020d02f2
e1e5c1b483f8f0afdbcd8cc7b9ab18d2
e7e8f6dff102fad618ee2409f4e128e4
cddd1bcefdcc0d01f0692ad3e9fae9eb
fae5f91512062cb905dec1f524f93bec
09fa000c1afd1fe813df3df8ffc22022
05030d35def8e2f9f80428ddd8311300
fbdab41cfd1ebcdaf3f12de011ea180f
f71ef50702f4dc0413e9f20c08073000
cff9f40312ff28d616ff4bee21ed1104
fb15049fe594fcd01423f9352bf7d0df
17e4b3e3ff1c1b2eff463e1e0fd75c16
090809cee10db7ef1218fbe31bfbffd9
1e29d801f3e60de0f8f6f4c51a220339
f9e2ea97fa0eedd4f8182914f0f432db
281c0bfc053c3de5193a1b35e4dd0528
ec12e8e61c0bd8e6ee09e91c03f016ff
e4b1b3aaf000f2b8f8c2c192aae0c8f2
f7f1161615f7fcf9daef12ed15f9cdfa
2a15f8ebe1f2e1e4db0aede80c26e1f1
eae6e3c20032effeefc6fedbe5db48ef
edf93137f601fcf404db2017b2052008
d1db12ca1902f5d9411e564cbed321f2
ddd4d4c1bb16e001f5ee4fea3b020a8e
152313eae10ffa02dc29d3f627fadedc
1ae8e3f20a18f0ec04040913b4ecc9f1
cbced9d8fc258de1a5e0b7ddd8ce39db
e4fce50ac4f8e57f12f8e3b8fcdeeafa
dcc3fabaeb15251db8e40bd2470a21de
e10c0beece172fdf2af202d7f9d0f20b
eeb3dfdd02433ef7cfc108f6eafe27b0
f7ec3108f2f11065f910e9030c11371e
631001373026b7c1db35291a1861aeee
fd3a1551f2e5eecd9ef6fa4aee22bdfb
1e0f2e10f5ab640def36170925ee0b2d
f6da0a02e7f05208d931261c10e93f27
d3ab3fcc9c1a201ef2d3f2e1daef3eb8
f0f715d1f1fb7e39263827ee36fd1caa
0be82dee29d1012dd6f3e2f9f9e2430f
fae3d2bfdafde9e62e05cfc115be23f3
0be8c80ab2130cc80a0bf508f9e42dd5
da13afeaf8f7fa1015b71cda29e9f2dd
c1f3c8f8efadcedbe8be19a405dddc2a
a1e4fff8f520bb0e062be2ddbff6d8db
b505cfc9daf2f2ed1e971cded4b302eb
52fa462d1a13fb1efee204c92e31b633
0af6b5eb0a18c511ffee2cdfdf17d0e2
d920cc01b756fd581e30feb9bb0b3be1
461c09b351c21ab01bc75e2b26012c2b
fc3ee2d1bfda0f0f000f0fabd7d81ae7
e622fdd5d83a02e63b04ee1ba4000ff6
e2daf2f4021fde1619f12618f0df090c
f10ecc11d21cc00f3524ba0cb3c21cf1
f2db0ee72c1fb90743f7f31296ebf5df
cbfce215da34f734e621b4a4deee0bc3
0fdd2d1e43b6db07092e0225260fc8d0
c50fe19d5bf0fdae0ab7f659dfa306f3
111de6d302e3f82ddc1b91da050edd0c
f202ccbcd606f9e2c7c7bdd3bec510c7
edccf3c9151fceb8d40314c30cd8e629
1106f7c73b24f4d9e4e0e2cceddff0b0
12e8d61af4ece10be0e32b400b23de1e
06f5dbd9fffff6c519c5e6db05f9e134
0208f230210827042502201c22031d47
f00c22c4e49f3ffbfb2728fcf5e015d9
fff63ceb21d31703ea4cdbd120c5f8f6
e0d406ef3e14010c7f013a0defe804e5
c9f1cde417fa28df3c0411e608e409fe
0b02fb41fa0bcf2a1fc3611c5602c571
efe1e5f2e5f600ea17bf7ee3002a1730
d0eae70beef7f6b2fef63bf53322075c
f821e7edc2d9e6f1dc04e60aff36fd18
edbff7e3faf71cee0ed1fcdff6db31be
0923fd3bec04e235e904e7effa29e51c
b5d6aface3e5ecd60cc1afcbdab502fc
e3e3ddcef8dacbfb0cf32911dfe93ad3
e8dadcdceff9d8b7b0d6e7ca19b7220f
cafc3829cd030e16f4f73d280d3225d9
d5ccc4e505ed07da36bbe0e2defb3bc1
f7e918fa05310f181e1a05fef60ee318
4a210524151745f3fefe13c629f80756
0f19c4110b0b28f2c919c4c812eba902
0e0c2ce8fdef1ef3010c132ee6e51c08
fa01e3f201f822e8edee311f18dc06fe
d0a33a1f0903edd1fff90e21a1014efc
f3f8d03afdd20ac417e54232b1042cd3
02d4cfc1051506da3d1d1cfccce6e7ed
fefe321ee0eb06f0f9e010f61bf9d5d9
ec1c27cd17fd09ffd1d5e4a715d61626
eb17050ae504e4d21132f237f50c13cb
1820154a44c9ff97e533f7fc4bf7c811
594ee953f91bd701cf11ff1bda11d6ef
93e9f2ed051b2147f2fd1c81e4b33a01
e229eb4bec2fdcd10e16fa032403cb17
01ee020dfaf5d101e90b0f01e130d43f
134f0e640af8f5a202f213040303bf11
ca0eade09dd1ea181905f0bee69314e8
fea0dbb91cf92d2610c9ead6bf073ef3
15c829f005f35b07f20057e136011800
035ee23ec02a0909e8fb012fdfe3f724
c8cbadd508f0ea0b062cddaff5cb00ce
c20e00c640184c29c3eb022a18f932e4
e6e91c0acf0f15204b1c0c0a19fe26f8
e4eff506d0bd40dbd321fc10340f2704
f952f32fb043b5eed222ff15ef0eef23
365d2b29d608e0b4a3eaee10161adc00
392f5ffd06dd02ed5a06061b7329080b
e209d6eba0ca16ea06f70e16bbf12efb
d9ceb70bdd0bc71a27f5f3b3f0158b15
fc0c03e018ccffcaf2dffc241e00f3fd
eee7061bfa11faf0d40e35f2311dec15
e725e3f9b09e0e08b60a15ffbaec05d1
dd880efdbcccbafb9af380f030e799cb
c3db1c36df17e2e8df3b1dc3ca13d9f6
f2fcd402f21b0f3c0824f0bdb90df71c
e930060dcfe70be2f315f9e1df00f0e0
ceb9f9fa29cfb7d605241f12e501c308
c109dbeb0f28fbec152269d7cf16f91f
300e19fc351f17f8bee9ef3834fa15ec
cf17fdd23aec23be53d71effb3f50df5
13e90e00e2ac0248be00d7e7ede9f7ee
1814edb1e18d4a0fee22e8cdc2bb0bde
3cdb35f7b6d1214adfe514f00e05080c
ebe621e01d9911c6eb4a05b619ca03fa
d7f2fbf9eae5b1c504da13ddeec4a546
ff06fbe8e101fefac507d408fded04c0
f91f200f03e406ea0efb02f4fcfbfffa
fdfb14d0d9c8fbd91e36e6f2faca09c7
a7ffafe2eb04c7eabaffe20db30bc9f7
b010ce45f0fbd0f107c432b7efd0e713
1df412b93615fab315e34aed23ec0a5b
c7e90cb6f4d40de9dc35e903d9bd08dc
f8f2b0c6d80aed85d2e200e69bf7e5f9
2a27fa224f1b26fb24ed35e5fc05cc56
dae201e7d928fd20fdf51bf0e4f9f910
cfd20ee80ff117ce34261ce01ed419df
d6d9f417e480e9dbf025cbc8eebc0fe5
17d5250a0ed20707eb532ff318e303e9
2853135001f611111a1d1cea5201cff5
25f7c3180ef3dccfee2bffc5c6f60013
bc0cf3fc90edc000480bdf2dd00df3a7
101efafef8e71818f3ea120f6204fc06
f22bcffaf0fee217fdedf3050b21e5f9
2922c41afeed00fbeffdffc3f1fff6e7
cc03edd4c6d9e4f4eb1ff61a1f0adb9d
d6f40418b4e7e8f61a1011f6c52e04dd
f00f02e3dfd6eee6de11fd09bff46bd5
e4f0daecd6dc0721c41d1dddf009d802
a2e610f3ccbfe8d63ac00b1d23dd039c
fee623d4fc0620cc16dc2affd0175aef
10d3f30f02dcf74518f236e951f31b07
0705c6de2808fcb0f2e3edd81928dc07
fcf4fd01fbecd93dd8d9cdd1ca190206
2e23001cf21024cad90e08d604eddd32
c3dfd0050c1eddf8cbf3bcfde6ee383d
1c2bd520d1c2f9d1f0392b133dfff203
42fc6a031206f9e7f104191f24540713
d3c6060d290ff6e8fa260ef1e8dbdee7
39de22f72deac9dcfebec10811f32712
25dcebf20003d432f4e8db0d191a19e4
eae1de19195e0b0df80f28d832e3f3a3
e607062529fc1ce5ed3d33172f04c0f0
e95ac01fdc4c23dc054626c417abdfd1
1339263707ed19d5f2712fe90a2e1104
fbebfddb1701c4f5db1fece307f303f7
1e2d3d0bc7c604cfcc2a1a3e1f1ff42c
faf91bd914abfed61b372d1829e0b6c8
df1410e0eff6e3f0dadea202da0543f4
fef6e917e4220e0eecefe9fdf2011604
fcddf3f406ecc5d2eb0011f607f8e902
2dc70146e1d5941db8fc2825db46cbe0
f6fa47df030219bf09ba10090ef50cf7
0e3be5f12ffe1aff1fdaf4e2ed151137
f7fa21f7f3f1d5d7f2e12d02cd11e2fe
e6113d120ced01015841e24a4622f409
151b3d1e3bd6cbc21816092ee01cf1dd
051131f112e5080122112cf1ec073ee2
13fe520a730327da4b0b0310c86fc904
e4c2e4d9d8b1d600f911c5ffe5cca4e7
14f8ebecf61e4405f8d4f51ad83003e5
28ec2049f10ded061aee08d2eb0ad608
0528130210310beb9c99e0f505dd18b7
34f21efc1bff10cd08f0eeeae013ff05
fb06ec0e1becf60bf013d8d7131508f4
cfebdcf512f3edfaeb150f0e23dd091a
43f1fd1ff3f4d9f00abfdad2dcf10d27
ffe2c4f1f9f2cac7d0b8a4e5c2e9e2bf
ebebfaf7dfdcfff61c1a3dfdf21afd22
e6c83af5f5fb4006321301021ee605ce
19fce6ef19ebedc523f133f9bdf9c8f4
eef4e2fed7ed18d40fe6001ee6f9ea95
0f1bef12e7df1e0305c91cecfdbc11fa
41cc27e729f029ceedef35b74efffb27
3026e60b19e204f3ff075cc818dcd12e
38d6c0e4e7a7bd0db20b37edff01a01d
07ff17dfe7f711d6da5d23fdd31ef5ec
143ef410f114e1f3bd0af90ae305eff8
44f53501051b2eeed93e14ec0704e416
db03d45604edfff23b1424cbc410cdeb
e4e70602d5f6ece6db14b8f8eae7f81e
edfee7cd19f1fe0cfcf5e2f6eaec1ec7
1d20e81309c5ea0ac0022907e9f4f7f7
c1ffb801b4f3b2271809fed04acd0da1
2120f2efeeef0c04301b111a020ddff2
00e3d925f1fe4908fcc6d1a0cf023406
e810d0f5dfdbebfd37e1f91fe6f5cade
fe29360211de0836201c12061b16131b
102d0b4a0913fc170de81aa933f610cd
ef1344fb361603f3143021f4d71427e9
031cf70f13110900ff03fc15c84b0bbf
062020f9fdcfd22d01ffceef0e16fea5
1714e80ae9d223f8f1d0d4e8c9f9f626
d604d2f7fdfcf10305fa110bf10ce5de
0bf0c61d35fe55250ce428fee5e6e8ff
f9192e0ae0f904c50d010b14cd2d28c3
06e7dff0f7070006cccfe72305ddf8fe
fff700c30dfd04dbfced02d134fd23ee
e91cc60016260b01eafdf8fc0e3ff3fa
b5b1bb07e91f0ee614f4e2bd01d730e3
43e14fff25fa31ec2929f2130509ec3d
b829ca03a13afd1c26200bee18dfaef5
ed3b1b36e210040aed312b160ad6d99b
0ec8d2e5f727d7d11412e1fc0cf3ebe6
29f6e3fb19251b0f210f112f303135f3
edcf48df11c8f6e005fc241608f7e1f7
06d8c1ee22c5f5e30dffe6d7f1bbe2f1
040206e5ecece2c6c2050e1113f209bc
e064f81c96f108ff0e38f3dc20cbef11
0bd2f4e9e9d5e5d702a3c1f74ae42a36
08de28d8f7e70bf3f4f907132cf42405
f2ccd00615f8f3d10cdab7fdf40c0df5
00f5faf6cc0924edd1eaeff7a0e7e5de
1afd0eeaaa1ddccd54e018f8d1ff0433
121f210615f40c1ef1131b172305fc17
ebe3eaf1f6e9d0e7f7161a57f111ddc2
1e31f44be7370116d5e5ecbe281b0629
ffe10bec4ed50506e5fdf3f9f109ab05
e211edc3c0f10f0fdb1cd7fad8cce3a6
38e10c0014f00c1b1205d81aef0f17eb
61f81103092411071b2d05151b0a44fc
18e218e627f1fcda3c13d30eea24ef07
23d2d53edbf1eef4f6e6d81dcff7fe07
17fe13171cd001151c0afefeeb05f8ef
dddae1c8e2b106dc0302cd02dfe1d8fe
d7d1c119f4f00228dd43f143ece7d8d5
0c141800f5ffe3d40d33ec151924e523
16ccedf44ddce50c3f20f31e0e20e8e4
0acbe7d3cecedce8d2c0dd08f1c7da11
e0dcd8aaf3d70c0cce2de6340d1ac6c8
07ff07f30cea22ee213a17ecff0e1506
d8bdd6d5adddbae0e2da0d04bdfcc406
244fd6351d40105d250efb4313e833e3
fbcdefeaf5ebe0beb353fbd9f5fecbfb
24a7f3c0be01ebe4b249dfb7eafcf012
34ecf6e002f5e5fc1efacfd61bfb17e9
171b4a42fe1e2b1b23fcfb3d1f332801
e812d6fa38e3d6211ee71411d6fee403
3705ff2958f4e9f32505f92cafd6ea04
e619df0d27d6e9f2faff00fbffe2f60b
20fc1acde6ebf7decd471caad10aed28
e6f0e227180ee8d6e9e6c5c5c106f8fe
e3f9e215112feded4f0f0a01f2d307ee
ea17ede8ecf909e226e20d29d93c27ce
0d02f2db05d8e3eddc0adea929c63614
1af9e405ebd1046e03d3fc14ff4b4503
22ddfce91f2f28ca1af31b142ff8f2e1
e0e509c9f6c2df07041dcef7f9fc190b
20fc0732f60ee821baeaf613c4da1a36
04fcdfebd7e8070b4718fbe33513e7f5
ffd1afdfb4d833e8140f08e0d3e6fddb
fa2d2222e218f928e428f1e12753cacc
091630541325122d111125fef5f4e836
eb02152be7d6c1e7fd1727f9ca2b0bdf
deec280b0201fdf30bf41407fdf400dc
e03bfc0dee1deb051ff40fd0a617dd08
f6f2f3d90cecf80a1f27aafbf32e0310
e20d3606f6fbed2df43ce4190ff5b6fd
e9e919210ef808f8f3bc27fbf019df09
06051a08eee2f52756284df912ee02f4
d8fddace0b07fbd6dbffcadc2e2de8d7
0be0e7e6f80720f3942af2f45c1e26f6
0834400a13e819e617e112f1d8020aed
e2ffc0feeb06f606ef2b17a5d8e7ff21
bffdfb10d8170415e3052bbee2ee10e4
fdd0e0c1edebe3d73de8160d22f5f532
1aec35251bacf60be7d90213fcfc083e
d4c7e6e510dddddcefe12bfc2c96df28
1328db0ed2422527130f35da050218bf
15096841e4da3d820a03ef0bf62ab243
ba42e26a06f9f1c40f4904010dd4e3d6
06f11d051efaf2e116093f222d19eeec
09fb21f41c35ccf4d7fd1f1af3f7dfe3
41c104ef0925ccf300d0381625fb34f2
0ecdf4de0f24c1efeacf1cc8f6f1b1b9
fbd1d0e00e122d1ed3ec1005d70b26f4
12eae4d8d10b373ccdb9f3ea230327dd
ecda3ef52cd2ef8bcd0ccf21020bfaf8
fb14380ae6db04ea1bd0fdeaf0fff634
03dbd1cbf2e0dcd7f7e8e0e5cac4d7f9
dce7fd1117fbe7c4ed0315cdcfd3d8fd
2ad92bf1eafad5ed06fa05f4ee0ff1f2
d2f8ebf6250d1c09f43ef0f217e91107
f0ce1c1d21f49ee0f81ef7e6c616def1
f0e0f7e4fcf7f8f42426f113ebe81200
4529ee4fd2d9feebd5caa609f1e219e9
edef12f7cdee1607efebdffe04fadad0
1cff4712281003e124e4f11905210410
2306390539e912ef191611d9f9edf41f
da0d0c1d18e4db6aea4ff80464b904d9
e10e293b3ed3eff9130ad806eaede0ec
ea0efa1b16eed7b926321324ed0a06e2
e2edd8d0f4f60340de210c1245a5ee0d
1af52423070ddfd700e6f6e9f517092d
eef1b0f0df0b19f9f305fa252905f433
0cc8e0fc03cd0ffb1fdad20ab4fc11e9
ecece2cbfac1edf6e7a5fee0e8cd0ec4
0ee2c42a26c4001cfcf707eeccf91c0b
b40101fe471c18eadc0af511e81200f6
84ebd0e961f9d3c425c608f9d110b1e1
060f0b06020418db22d33e010ef5f312
1b111dd5f8eef5372ef8e2ed04a306bf
22001cf7d1c826e1ed401bdee10ce4f1
37281831fcf505f5fd111520d6e3f311
fc15d44021ee14d4f1ff00f3e5eed8f8
591625e906394ef3f4e442260ac9dd08
f5fb0f0f10e4f7f7c5e34224f2dd12dd
d1e00c28f4ecfffd04d32fe311f8f5e7
c617eaece3e9d604eeef1aee00e1e5f5
e96d0032ebc002e402dbfb03b5eedd00
f4fdedff1df8f92c4201d61ed4dbe3c0
d9db2b0404e4e21bf4fef2fa3909f705
d3fbe717fe21b3faeed7e7ce1a2e09cf
e3352cfb0411d9e8da23e5143e3bfdc5
fac7d8dc0ee6f6f00e0d32f82c001b03
c4ff210fb2b9f1220819e803d7dde9eb
18fe3cdafa01ef0ddada210daf0b440a
21cdba3345f82ad2d7d523dfb2f8ec10
1d09cc27fff618b8131cdbfdd2ca0a07
193c0f39f2f8f6411c182b15dc21eeed
dcf7dc1ff310f6f53ae841d592370fe5
14e02cca4afa063f4a0934f7f7dc1e28
e509c73cd604c4ff15d825bfd72f0e42
3afc25f0fe06fae0e7eb04a3e3fe0ff4
f7f41bdef8d3c7c2aaea030c3b040a06
f03ee443d3cffcfb291a4303d05af3d8
e9c3f5ebfd06d603ced9191340143afb
14414850054d12de0741321c1e11d830
e835fa33e42f12dc2650d7edede5f0d2
1ecde206e115e618ddcd070fe8e4f8fe
fa18ed02ff35ffefd6ff250001eee114
0e18e90ed86b3a14f0120d032de0dbcb
c46abd54961ff8f9163c61f613dba803
051201bcfeffff1f0be9f2e7cd0608e3
c9fe01e913f1e800ffdbe3c703e352fc
e4d6f41015d1f6cb19f111f0efe1e0e4
d53dd92f9106d10ff420fddaf6f3bea1
c9f5f5ecd33af228e00fd6c0c4b5adfa
06dd2d0b16d3ed1dfddae6cf080105fc
24e22edb5af4c80822160f0efdfb12db
fef416200609faee1d0726202100eab8
0827fc1c8fea09e3b92ca6e6e3f3d3f4
d02ef251b61610e0df3e33df230dbc07
1e1f08abee332dfa3dd4240d10002d40
f8220012ecd11e05f9fde7f5fbeedac9
d011c0e4e501ed1b07d5d806e8ede9f1
0c0121f8cbee04f3f3fb42cbe236dd35
070607d6ea0a04d2060a021a0fd5eafc
e1cce2eecccff7e9bfe1d421afebfad5
f8f5caeaf7cbf115b81c0bff1d01eef1
c7b1c603d4c30e0b1f3af1512925e1d6
0dea1e4711e3c9c3441cfd1ae637e7d1
cbdce5e2b9e71306f419d608bae6fbc6
edd806e51215e117d6fbcbb830d8d4e1
e61eedcea1fcf204f616defcc810f3f3
fdfa3f53f41a08f410f009c00f4b0045
03f032f53ff8e9f81d04fc3bdf340c2f
05cbf5f8e5d60508e401b8252304bcca
1cfe01e9faaf33f7f7e9ebe9d40be8c7
6af02ff3111921f5ef2337ca294215f1
1cc2a7c9e9c800a7ec25eda41de0e403
ff16e6ca17fcd6cf05ea3ffeedcfd5f7
66e3e9e0ede1f0fae3f124f0d323edfd
46e32cfc05ec2cf501eb32d41c0afe0c
12dce09fd0d2c2fcd66229aaeed1e3ed
ecf4dcf00cb0e217c5fb04d3fefed4f9
c1e7e70b0851960011e3e804f3f4f1dd
ade91df4f801efd41cf713f6c4eaf6d6
fee102c009e8f3f3b452f9c5def0e110
0332c1e3c6e0e2efa80ab1f7f1df033a
e40e110e2f1e070d37e51241fa04bfe4
de51e923de440e0d21efd530c0fe01ee
f7f7e72b09f414de09f814f3eeeef0fb
eff3e0dfd8dddc10101cd3d0e9cfde03
02c2f8efbaffc8e8de4018cce5f62ae1
432beae6231509d02c2bd42eed1b07f4
e7f2220bf2cdffe5f00903e90f060e09
e3dadcddfbfd02240bdeeb0e0fe9dbf8
de17d3f6f20be517290af93e251916c5
0c1513fc08180ae716e51ee0e6f43c05
03d5cae2aff3d32a2401ffdb51f1f4b5
efbaf3d3f5d6e6cb1ffcec19242a0d3e
e4e84000fdc6e7e722d816371d1d12a2
03091512f6f7f5eb10f11712c232fdc2
1fdcf7eae6dce7dd23f4f5cbf1fef7eb
ecb19cecda06eb0de9c3e21b49951d15
e5bf1feb02fcdce8f40b06f5b318f422
140e016102dee309e9c4efcdd2e619f2
1520e4021eee0a070efb40cdda4f10d3
d0241900e7ebdbe9c00ef5cf300bd4e8
eb1708b2ef15f315d3fdf9ffb529efbd
c9f522d508d5e00d0c12c00affe83622
180de60f00b10a19c13f060e0fefdbf2
4a361fece41b37fef415174edf5b17e4
ece114eb1ee4ea0ff81814da04ebf7ed
01c821e0ded8e80e0d06e3f7ccdce608
f0eae802d141f0e9fd1014f919ee020b
e9fdd930162d11351705121ffef2d1f1
f60f0eeff8c50419dd152013f83d1c27
b943d8e511f71d2d051008afe7c5e4d6
e8250903cc140cceb81907ebec0e0bf5
f0fc25ef0ffbef17ffe6e7fbf2fe27cc
0d0c4509dc00e9e0d72ffb0bc1461927
e702d7e1ece2d9e5fa2dfbe91f18040c
f0da08e1ef24fdd8d5f0e4eb36fd159d
2b04d406fccb20170501fbfb25f8f42a
f4fe10f5e9f70eeb17091516fae42ced
17d14769d5f3e20833380f1ffb64bb05
ee1c260ce302040039ef22bfc60305ac
fc55d0e7febb2ec0460e11f6fcfd3f4d
230542111e00fa01f1052320f42bff09
f9f3290c35e91707041fcf06f0e510c3
093e0e16f5b91703f116e83605f2fbd4
1efbe9df00cdf6edc754e5e00dec07f9
22f042c9ec1a0d10e0fd1900e20c02dd
f8c6f6ebb9dbebededb1d5ecd1dcce1d
e6f1d4d7afd813acbedd5ab7f3faed0b
03f6163507010bd90ce705e3fe32f306
0329ddf7f9eb22c123d8fcf505e1330c
f6fa33a6f616fefd07c4f5f1ebfcefc3
12f90b2d090af62b0002e61bf90be920
e905f7a4e9f3fdda06f0180e23090808
e00507f4ec1bc3ed33f61207f91bf0f1
b30bdcdeeef9fc0c20df633730ebd917
dee9e8ec0bfd28c5fee731db38be1c23
28f814e3f6142c12322112f87fdb49e4
cff9e9f5050304be1dfaee06e503e008
fee5fff795d9efce0103f52bf1dfd9b6
09392b24f4eeec06fdff31e8dacd03cb
fde12220f6dc0f0ffe05e027c8dfc410
21d0d4ee4dcff00fe7172c0317eb101f
cc9fe790e4a9bec4d50cf4bee2fc00d2
e8ef1cd3e2001009082717e411af15f8
de09142ad6fcffe91025301823f30bf0
1bbf0fefd1010c012cdfeae408f200ef
fcd0021b18eef20dd010fdf00ef10931
052d0904e0030cf1e7ec12091a07cf32
e6ef06ef0ff709f10806ed0df5e5f0f5
0e230f390af7ff0700d241f62d1efc26
0de3151e15dbe3b23aeb3017120b0eba
0a1adde9c70c0510e9facde5bd08d9f2
24e2e21a16351fe9ebfec6150e08d30b
f9fc0bdfcfe5ed0c19dde423f22923df
e1d531080d22136cf7de3c1edc090a04
0cf64927f6fc0d520515eed7ec260bf6
02060c230e2bf1072ff600df3c20341c
e324021cee32fdf9deee0e22b5e8e2d6
dd17c7b7cedaf0e6cebbd7c926e9c0dd
fd02cf10061117f8f5b4c209cfe9b02d
01f5cf10ef0404d619cf0904e31413f6
35f116fc25ef4d101bb7ee13f0e5ca40
e512e3b9f60104f4012ee51ad32318ec
0ee0e30f0512d3f40ce51e10060e16f3
f8c300de05e7f319151202bc46ef230e
09dde607d810f6ad1d05323d020cef26
e001d625e7f4e6201333f20e03e3f4d4
1c2e261311fafa200b16040fc224f8ca
c52adb1ad2f8f20315d111d304c71af8
db2df5f5b6161ac8f9e8f7e7edec17f0
e3daf21202d42b074b08e9b900e70ae0
0ee3e5ff1b09e0f70b18d21a080f0614
e0cae5f9f4ebe1e6f30ee80c02f3dff7
021b01d7e4afbf09f7f7ff0bcabfe740
06020ce3fe01140b09fef8040af20dd9
c630cf24f0e90dd5fe3e0804ede2f2f6
1edbd8e1d506f3f200f9e2080bcc240d
07deeef906ebd0feeafd1c2001fcd622
e4cbe807f4c50a082d0cfffdfa0bffee
f7fdc432fc2108e6e6daf5c012c2a4e1
00f9e9f702e8f0f226f6fa180315d2e9
f4ec04ff080fe9f316042e2609f3de2a
13cc182b50d49929fb1f1236fe2cecfc
eb1fee25e9121ceaefeb09c5c74c3d2e
01f0bdebd9bbe21cf4ddc8f8d402c336
d1e5b209d2db0df8d8d6efe7addb00ff
07fa321afae4d2c92b2616268001fc2b
2323f706de0730e3ef2ff1253dda2cfe
08f217b4f5e9dc1c0e09f4edfb0e00dc
1afac9c3ac43ec0befdfc31ad79ff59a
f8fd0ce0e8f6fdf904f113ea2f08f9ef
beb5cff3c4a6d9f12ce6ead4c9edf4cb
e3ed1a0312eef0ff167f1213c4dbefa0
fd24d8fef20ef80cd01000143bebfdf7
3e2f2d3f57d8f0c918350011e8dd13ed
ed08f2f108b3e2f8f3e0f623f7d1121f
d3ccdae216f11a4f0e253317fb3e1bdf
c9f7dce418db002cedfb08ea1cf1072a
fdf5e1d9bc0301fcc8ce3ce4ad2fb4d7
134500feff3c1519260c0b37035dff14
d8dcebe5eae6f8c6c513facbe3b4001b
18de0fadbaf3019ab109ccb1d79f06d8
0614dbf9daf6e2fdf1e74eef64e42d30
043625f8d20b10031e10092deb0345e8
23e6f0e911dff114eeebe2cf3414110c
a225cf3014d30f4b30d40628040ae6c5
120be903ebd405f1090102e51403eb2d
f10602bbd7e9dbaeedfb11b51206fafe
b8daf4e7e80613e522d0e6f306daf24d
09fadec83ad401e5b9fdd9d504ae17f9
033df413def7d3bd3aceeb1ced07131f
08e8f2c41a0603e7ea1b24c52bee0dd8
ffd9142cdc1012f5d9020f0f185de9f4
ef36040a20e10517fe02db000aed0dc8
c4232a15e0cbd317303c0d190a3b11e9
1304d6e30ef900e3ec12e01998230212
b1fdf6bfe0f1cbdb17fddbff10eaf6c8
efebf4d5010109e1ecdba0eb26f9dddf
c34e0d25f121e804021b0a2efa38e709
33250628fdfb20261d45324504092333
f80be5ccf1fae9eaf6210009eae11de0
0cf327cd1affdf3607231eef0723e9f9
02ed03f61adcf1f418d3050df501ea0f
dbf7bdf0b8f5e4fcefdad9e2f2b9f1f1
d5161517043d08f9ffdafd2b00f3f735
e3fa09fc05ea0b32f5eae1f8e1c7fd17
f92a3f01faf3fad212ed2307d8baf2dc
e7ccceeeedecffcbcf3107d622384104
0320121bfd020dc3253fd9081a1521f9
190efaff20fdf308ffe6d6ef20f22d12
dbf6050aebe2cfe4f917d3ece6e4c505
e107d50104f8e0e804f426b803cda7f5
f5edfae4e1df0224ac53e5e913d6ed0b
07efeae71012331dd5b3e50edffd2cef
e8e8dce2e1c7f40106de13070afde11b
efdeaefa040b180603011c06e106031f
253d16250b392aeee40c170be73f0e3d
1628cc3ceae62af0fc2ecc0dcdeffdb8
ed0906e2dfebfaee1a1602e60504f718
f10701f1dee4e9f704f6fb09fdfefb0c
ecd7b60101335805bfd5c41215097fb9
169ff755d6d5dce710cffcbf27e5be08
07d9d10cd1f4d8d90bf951eef206b4fb
07f100ede43fd3e9dbb51dc714f2b8df
07eb031cf1f7330c1d10e1f11ef04a07
1202e630fefae220fdea1befe5e1fae6
d0f4f8088011e448b6e6faec0a280aba
eff8d3e712b3e7d70ef10cd012dbddf4
e7dc11dad910ee3c1f17c6190715fcc8
1e05e1152016060e0e1e110a00faf51a
b5fdfa1ac60ece1d072305eaf7fa06c5
07f5f2f8f0f52430affbecd9faddf40b
fe16c0e130fb050304bc1ed90a091b06
fffddf02d6ca1af5e7ecd5d2d7d6f9f4
f520190718f30ffb07cdfd01e5ef10fa
f1f0050528e3f4e4ea13f7eb29ebff08
c728e061f8efdbdd2b322f38edc301bd
ce0bcfd30cecdbacd9e71eefe7d207ff
efe809b4d2f2e116e8f40313dd26f2d3
d0e0cee606b618eeb8d7f35af0e5e6e1
d50a0e03072aeddd20f32706b906330e
e2f21402c7e7151310e64913e34edb01
eb0ce8fc30edf40e09f009080d2fe9f6
0ef8fff003d3e2f1cde1c5eab0dacfc2
d4e9dc340fe6f1f704c707f22625ea42
ffe20c17322e02f9e1090e05e5eefb14
fbd6fec00ec3edf015e323052ae5d7f9
16e3080ff6c209ea0cf8ff0ae80ce6e5
3d0e1df1e2c0fedcd53c0f25461350cc
fbe40ad7b1eafad7eff806affddb20ec
3b06150d06070cfbf71eeafcd8dff6f5
f9faf8dfceed05c7f2fce404f2dce7e9
f616f9c4c7cb19adf0ef2be72e020d20
ffd5f80fe2e4d8ecc4eaf6eaefe85de1
0c05f5e4dacb1d0eee1afa0904ec10bb
f72ef722cd05f8ebce0cebf0be27f807
be0315fb21fb3cf624f53ed74bf51d07
0dfdefe5fd15f503e50d03f2fae82df0
cbebdafff8fbf41f230303c0e20b0a0d
01efddebf2f3e0efc61af2001b12e631
eb160e0016390416f3e6e43bfff8ebf4
fedff9fcf804fcd8eb172febb3e60405
ae10d720ef18dd1411dfce16cb03cdf9
fb06131dff08fe09fd220eda01f117de
1325f81a240e3a07ca0ef12320f4d71e
edf5100905060fcceeda9fe9bfd7c612
2a2304f6f4090c111ee31b20f91404f7
0813f2df27fd08151de9ecf905e8030d
1408efe1ff0e27061a0c3f00d797ec24
e31fecd224f4141cfae017f2eb18f002
fcec3dfaeef81f2ae414e3c4f50405e0
27fe230fdde3130dce3d3e2e3a180aea
08f0ecddf9ebfdd008df342b04dc0706
0a09c5f204ed05e3202cef2aae03deec
f1230af4041df8c155e54418c1feeb26
f6fc1006e5ccdcbfd502ef0fdbf4f2f3
f4f2f1e6f22af5ef0013fec80ccfbe03
f7fefbf9320112f3e5fa17f1170d1402
1de6e5e2e9501a0208182b0d1704d82b
bf43eef9dfd3ef01e20605eed9e9f3df
002ced0bd107163125ec2a0947cad3e5
ffe8aae3cbf003071fe7eae5bcf5070b
07e4cff6cde908deddfeda010102c614
ef1f0a01bb15ecedf5e720bfdd01ffe6
f81108f9ede6d7d795d0e4c754b4bdc0
0c02e413facd091f1c09df14c2f21dfc
dd095e15f7c0e0cee30aee03dcdd40e0
06ecebfae60f1be2200e1ee80605fede
050dc208c02b5fecf2d3f7c722c211ce
0716ed4bb0fe24f6cc30d81bf02321df
440616f50f5a2eeb20f627d9f5350d61
fb0ecfd8bbb012b4f6effec7c0c4bde7
ece5fbc2cad5a415dcde02ebbfedccbe
04f439f7280d02fe1f1c1e090f17270d
06fbf3c81804f2eefbfe0d10fcf2091b
f924efffc8d0e3f8ecc4e9bbb8fec5fb
0ccaffd91401ca2af00208fc0d24eae6
f8f2efebc4d0ea35ea2522020543dbd9
14e7f0cef2dfeff0f3de231b10e1e2dc
25e804cddc9be0e1d20211c9e9ece7f9
d9fbb834f6f4bd0e2df7e50c2af4bff7
b33297ddc83c12650736b5adc4f8ffed
e60007381bdb03adfcedf3f71525fa4b
e304f2de24d314ee14e808e7d113ed06
dffabfe298ddf0dcfc0cc112d2d8e828
dfffcaced9b7158bd9c7dfb4f6cb11ff
fdb20d1330cc060d06311619e004fbed
0af5f8bde2f4fac1d43df9020eaa0ef5
daeaf2c9f60011e9c5e5f4bbdcd9b7da
e8dfee080afced01081f34ec231a1a14
21e30a1925f6f2f3fe06d3ffe4e00cf0
cecfe380cae7ebbcd6f5e9a0fbe6f511
eefdfffcf400e60ce2f12be12452e614
bcde07e1dfc1e1f8ef00c810f3bdc1ee
dad7f3b6fd05f2cbddecff06f0e9d0fa
e0c0e59c08e9e7d4e819fbbc02d3d2da
cefbd1feeefacbf3b8f30418ee04a9cb
1ad9f4e256de0bccf50401f3eaf7c1e3
0b2621cfdd1a08060a0abe120bf624f3
f93112e9f2def4092af4fcff48d63dff
fccfd2bcfbf0dfce01ff32c910f80a0d
e8bcf2fae71c10dcfd3ceadd16bdfbe1
341afc1627ee4ae22af1cf3e34edfd1a
e90702eed5ece6da05bccfd7f5dfc5c6
ffdcefed02feed120f163bb202f4100b
0519cc3eeaeaece8f71a0d0e2f310d06
03ca301b0bf1fa034605d6d54beef7fd
bff5f407c6dff0ca1fe2b8bcf50abec0
e6f2e0d1ffcdf2c90443eacb48223813
c1b62c1c01d320ebe703dff002f2d6bc
f525eae925f5cc1a0f130307ba0033f1
deeff7bee5fbd7e1fcc6e5cef3d3eae2
e4adcdf1e1f2c4e9d0f6fda251d7d9d5
e3b805ec152007eff8f2e239ebfb0105
120bf201f20d0dbbfee22d02c7fd0af0
0e2419e00113f7fae5d62d09f0511dfc
d5f0eafdf2f2decc12b9c1c4041ceceb
d50fdfb72ff81bfb069cdbfcec0cedfa
2aee121dc110d51df3ebc611fae3e5d0
300e091702e20303d32dfe01ce1ec928
5519f643ff150cbede15280ff34230fe
dce0e3c80c0505f41506f2f109fe20f7
e8022003ece2eb2b1003d60136071003
ead61dccff46cb20e9ee292862e2dd58
1411e5091202d0f40eca0afdf1fefa5c
f83c022314b0c60ab336270df540f62c
d144ed34ef2702fbba1736c419afdb02
5c16df6cda2ae6e18a3f3514f434dcd8
faeef1ecd01419db07e9330cd00c0be2
351c071dedf412d3c61a1012d35ef60c
150407f9eac333fee6e7f903fad740ee
f5fed0f2e800fdfa29cd06de0ac3febe
f3ff1cfc0afd0e28fd0a02edefe1ff04
ede3deefeb0422eafcf02cefc40311c5
e4fed5de1ef9cbf9c930b4f2f0a8fdf2
e323f427a8f4331fdf35e010c5081adc
cc1624fc00b931f822f73c32da145e31
090437f11016c00adc132a00f510e311
03edd926fec9d5c6130dd5b6d8d5feca
e0eaf00adbdd053eda32ed050a0d2d14
dcfa430e23ca031f22e62d143df20cf1
fe11f5f500db224d036beac7cae70ede
d6ddd3e4e2d4ec33f7e9e7f8e3d0d4f3
d214daccf4b33c0a0dffd6dec0124718
ffe604111013fbe3d60714380feaf81b
054302d0eacb19d20ff013dff9e41723
d300d4e6092ff21f0cf9f60be0d8eaf1
07f519ddd42dd909fbd5f402ee50bb01
000210cfe2eb0be70bfcf2fbd2311202
06ccf10b2708d7d3fa15373819fbdd00
d7b1ebd1fd12e2d1d6e81b0fc933e529
3c1e1ff727df14e22807fb021d04f507
45f85305fb051efe27311cf631a716f5
d6cadeee00f8d0ed1afd05cbe4c4cdf4
d4caedf2c6111bed10f30f0ed82fd61b
3336e8e6d3c40f1e0ffae715e2ff0726
ebd61bdbd22f1901c705cb30e70cfdfa
333a001f3eb703e5146239292b11f411
23b0c0aeddd7a4a2cf22efc2d7c30ef0
fdbc7fae20e039d3e33ef5eceeb3e5e3
0ad6fff8f0def0111c0e2305eae7d9f2
0af664c8e4e547efffeef4d81fe011e8
d3071cd42df408b6002c18fc11e8f218
d4fe1e15fbf9da0fe7f640f10c01e005
fbfdf8f41af711f50aec1a06f6f6e607
11f7d9f5ffdcedbc26fa1bd619fcee15
d9c618c9f9ed12feff280d1df0fd36dc
26c9dbf7021020f0f9c502d6fde9fe1e
2822ebfe0b150401a8cee9e1173a1f2a
f9f81edaeddcf640eeebf0d62efbedfa
df0d15f8dbe408e2e111f157acfb2ceb
e03b50dbf4edfb17fa25f7231328f5e9
d8ec0811cfc00817dcf3ee22452cf321
29e6caee20eb38ce3ce333d7a8bf1716
c5fddabddfdad821ecf20fdaf23c07e6
31ebc5fd191930061dd2eaedf9bafd23
e6edf1e2fcf6ee0fc6df21f5200d32f4
5efae1ec261266e7d0dba0e1f4edecfa
00e6cdaffb0b0ab8f7071ec9c1f12dfd
e5d3f6fcdef5ef0feadd25f931042eda
eb071809190f08091df71717d3f629ff
d7dcfbccdee2ddd3def44bd303f824f7
cdd71a0bcac3db152a27bef706dcedea
f20e1214d14c53360cfc1932c4ffeeaa
da38bd18d20518ccfb0e10d016d5c6ea
e049a84fc3210eccde3409d814ded5a3
d1c4bcbcce042b1ff8e5f5f531e002e4
22191dfc0adfd8f3cc24142d5e1821e9
f0d8e6d914e3080ad9f6f3fb09e11808
cfef11effe28dcc723fbf8e409cf0fde
0eeeeef4d9f55ff0edf0faea0dfc43f8
1e5dd832a60aefeaee0fffd4d50cd6ba
1ee1e9cee62fed0ea6cde52a09ee11eb
17fc1af418f61346eed6f40f0e050b35
0dccdfece20b1103cefad5002bfd15f5
d9ebcd03ef0f3e0e4bde4095fbb3fffa
fedff0f3fb02b0dee80d29ea0ceee0e5
0001fcf737d8d910e71f05182df0360d
dade02ff13dcb50aca15d8e11b3ef7fc
0433fffd4c400df4c5ec2de939f91831
d2ddb70e12c5cef0d2e0d9eefbebfb11
b2e1b50214c9170fce03bbd7afd3f8df
f50ff7c2c7d2d4e404ead92becc1d304
2507302ccf1127fc4c183e021f01031e
b3f4faf4012f07f11823fe17f6e009d6
fcc0110931e0e62ac4deeef413badade
24f0e90b2f08eddd48f0281abf03f6f5
cef3cd1afdc9f9eed1f9d0d4d0def911
fed7cf0d0315f267da2bec1fceedf7d5
0cece81edfe6dee623f2fdf8db0a1210
09fa8ff9d2db2a0f0a06c81e02d32aca
1a9102dee7dbc0d50e121102010c960d
e912f3f5f3ba0530e80dfae1ec1613e1
f5ea1e04d7d30adf63f32fcffa121207
05fdb306d20ceffdb9fcfbf0bc22b7fa
21fa281ee554f34513ff2614094d2822
0eec02b81bd8f7b8e7121beee0bfd8f9
2bad0b89e2eef9f9c630d0f2cddcef0e
1a08f8d2e5f309ded30f0ed90a052841
105a2c07d3172bf514e6ed54fb4929f4
f817ec130405ee040b010c1efa1aec14
49ccdde501d902dd16cdeacccd0d36f8
ffd7d1dde7dd06e21b1956da15bf1115
f5dde9a50fcc10cdc72201cee2d504f7
c1e6eb2316f6f6e4f0de110217011f41
ffd9ebd202f714bb00e517d4f9fbeb10
1d1bf108ab01e9fcf5f7dc000e3d1a44
f8fab2e60214d9e4e1e0eb03e3d7f9ee
e120ffe1fb2b22fb05330fee15fb05ed
e90d06e507f50fd628f812f9f0110d05
e2092cec27ace3fbeb13be2f291c18e0
2df691dd13f80720f83511f407035af4
c9ffcfafc6eecfe4f0f6eef123020cce
fd08d2e9f9e2f0e311f6def1b9fbf8e9
c114e2d9f8f2f7bcde321c3922271ce2
28372023090b3ffc2545030e1c14ee30
f00cf6b91119ffe408f024fbf20225d7
f3f22adddb14e733ec26fbb2df270908
d9f8e5f0e2f9ece5e9de0b05220b2afb
f506ffcb03edf5a8f4f8c5e1d91a1111
17ce17d81106f9f9fdf507250ae427f3
fe07d00204fce7f019ebe600facd08ed
d32646df03d918ef2b160460acda1af8
b0eef602cce0dbcd0d262ebae3f10fa3
08400b41fdf107f7f01603de23030d00
0438ef020621fef833f43811e3d7ebe9
f8f127c70bdeccd9f6eedfd3d8bc101e
c2d5ebe7f6b715531212e9b804c9fa28
e4321b08e822fc00fae9e8f4f5f8f5f0
e6cb12e5edeb1c0b37010af40ad6e509
fcd91b0b1fec083de9f5e1ccfeebe9e9
ffe6fd1706fdeef9f803271a2215412d
4f2d13473d1207c602170516f10e2e43
0e2df838f822e8fac4f6ecf0fbf1cfd6
111dee17f7ad1c00f208fd2bf31e1f23
0b01220710e72f2cd9041a1de9142928
ecd62afbc831fced0422e7e64f010400
10fb22f4d0ca743bfb13dcc016b3dbea
d7e1feef1fdec319ee21c50931fc1a0f
e1d008cf170ba7c3fec3b3e4351c03bc
fc11cefbd2061cf4e0f011ede9de05c5
f408ecfae9fadd10eae4f507f9f4e7cc
f2e2bf0818140524c5e3f4ddf700dee0
d6e410dde104d1fedc09fee4e428d8c3
d6e5e403eb18e8ef111bea04f406ee9a
32e5361ae910e5eec1fed0d407e8db06
dbf3e209cbde020312f7edf2b90116d7
040be80bfa1bfdf62c061502e9181af7
d537fcd427c346b4f1b860cbfc093c26
d31d9b1606b144e6d029d003dcd5d3ee
e80ffef5180f06da2fe81848d2f4302e
01eed8fb3116fbee01f345f6e7ed001d
3fe3ac03fc04bde75cfca010cce1e8eb
e8ce11e9031ae99e5e09253cb8efc7e1
fc132bdceccef21f011bf6f3f13215db
0008011ee7ca0721ead906120e1fcbcc
d5ebd3e45c2ce70c040cec3fc8e01df4
18e20ebed7c8d9f6f00ac1f4fdd9f6f2
0df9c7da0d07f2d3d6f419f909fe0cca
d8d6eaccdf14f3d9ccc925dcae14ae0a
1c31f7130f35ebde25fcf0000f052138
0017cd0814fbdc13fedc00e5fd13f408
1ff5dc0de908d9a3e508daae15f9ec62
e8e8fc16f309ef06eef72c1025222f0e
39e573dbef9c32f2055b2de0d9e61de2
2ae151cce2ef1cfbeb370e12e2a920da
dbf8fdf91e0507122b0d40f32c011812
caf6ef12dddb0fee30f55909ffe5f3f3
1126d265f0db17dbfbd80eeb42efd242
e9d20ae0e125161fd8e1630b19f6141f
fb060b01aefffee3ead60eedfb0802f4
f861f911dff4f3f5c5e0cdd81f3204de
1100f91e22e211e43c0b3ddf25b90627
1827e90529ece8fece06d0130d131a00
d2e00ef1f1dfe205e100bac4f4fad2de
bbf01cefc6e9ea041a2106f2dcf62eb1
05acc7e705edefd2df00e7b80af2061b
ab0211e3f306e030180af416142c3afd
ddc302ebebf7d1e027f5a42bbdd6fb08
0512ff16fcf612eb1811f903ffd80df2
3d13eaee07e42fc916d6001d3a2db910
3ef7cdf504eafab61afff5c7baee27ea
0efaeedd20f619e4fde126fc00d21023
f80adecff2d8fcd0e6eb15e628e0120d
feea500403d40ce8f631fc69dd151fdc
bee8c6fbe1f6e9d5d70afd33e4ebfbee
0e03fd0c16f6fee62824e432f3290cef
e8f6142ee005e8fb061d24d5ea18ecc3
edd4f89a0c09cf25e4e529dc040f33dd
ee10ffe6f123ead50a1e030be5072de4
3024170a0b05d8a5e6fb3716f00afd28
f34aeb62ccfee4d8b200ff16fb0dbe0c
d8ffeed6c514fb30faeb13ba26a53a0f
0c2fdce9d81efbf3fef51b0ae9eafad8
f5f712091c0ae5f1fa0a10f91ffbec1b
0a42cc55f7020f1513f30cf31420ecd8
c7eac70dcd35f7e3151a2be5dea201c9
f0bde4fc08e5094efcd88efbf10212c6
09f6f4f1130e427fb309d4013aed2d00
ef7fe71be117f5dde421e903f9f4f0fb
d7001204e4ff2efd3cdf0ab0f2cadd1f
0b020efe2bfcff3ad7d4fee7fd153fc8
1512040ecc0132fc18fe1608f1f511f4
2517e508eee542e50d1c1eef1a220ef9
d528d104da3616f8df3348cad0c50128
27260f4bea00e2bf995932f50f3ce0ad
0a341e1516ee2f1557045b20fc532b4c
d5c9bdd5f3a7270de914b7c6e1b6deda
31b2f6f0e002b3012d1cfef8fb0390d5
0ce6122600d6fdd9eb0b31fb4bdd0c0a
dcfa12ea13e3fe102add42f514ff1602
cbf19ee2c7871f1cb700e4d3cfadfae0
cea8dcef02c5d543d71504db414895d0
f8dee728f1add9f2532b87108a0401e1
e907d9efd716082221e9fd45bde0ecd3
cbf0ecf1c5b8ee02c707b8dbcec2dece
360dd7d1eafaf0e9e8ef0ecbc51ea5e9
b3e9d7f02f4404071d09e2c3cd2618f0
f9090404413ef6c514b3083f29daf446
030c0df516eb1dfb30ed15f0ce1519ff
d6afd624139c0f269dbb01ffffd5100a
cf14c7eedaa1250ee11be2adf3e80739
1ed81404efcd21090221d02020fe2814
f7e127cad9f137d1e87f11befe8de5cf
fef7c3e3ddbf05d0c2e014dee9f8a318
f0ef0dee1011dd0dd12dfcf717022314
f8fdf6ef080709d4f010eae9f7f8f3d8
0a0de2aedafdfd93ca1ffaaeeaedb8e0
0a09bdeb2038dc00e5c307fbee07c4db
e6d0fcf6b6dac8cdf5ffd2eaf420dd21
02e5dade051125cde0e550c9110ee231
d52b14c2f9a3f6d5cc3a01cee0d1ff1c
f6ecdbc0b226daf4c7041bb2fdf3cbbc
e4da0618180230ec30150d0729e1f30e
d30202ecdafaff41220b0d14201b0704
ea340bbcf5cb06de161837ff37e93602
d426f1b7d70123d9e33a17a4ebb7e1d1
29e3129f02db35b7b540f633f9e6e0c4
3626271d1f37200c0609fe212303dd2e
08ccd0f9fce311db1de3c3ad0dedf424
f6fc15f1c5d2df0406defbefeefe07ca
04ddf4de0c0ccf04d6161ded2d2bf7e9
090f003ce6d9f0eb04d1e9fa51f8f916
05f98922cbf4fabff1f3e9b32dfb0f01
c0190efafebccce3120239ee10f92dca
c9e4df50d3e2cdc82227e021d1002230
fb0d2a07d608ecd7f5151018c6e332e6
10fac3f208edebcfebf1d1dcf50cf3db
d0ed01f501f3d80402e3ecf2d22c4ce2
20ecd5a6cf1406bc4ace0533d2fd0316
ffe3e5e902fa1242e7ed32033604320e
16e3e50a05171bd4ec1b2ce7fd112310
a3eff5ef171be6e2b4d423d2d6070cf4
49c6e4e7130e25ef03c4edf8c0fcddcf
d6e405cd1939f4faed04ecc4c0e92950
daffd008efd8fddcd62a54f80117e83d
37021d00d0e606bda9070d15eb18cd33
eed720cb2e2407ed03017fefc9ddbb1c
0fc225f30830fde4f4bbe8fafc1826c4
13e4fdc606100cfe21c8a7d1d1032bd1
230ecb020b5e142019417c084b0807bc
162c2adc1d0ba4b8d612fee00de3e1d1
a933be619f5324f40905e9b44ff1b890
f7564cecfaf6fce1b01426ef1203fdd4
ded32f0b34f8e137fb1c09bee3fe1109
503f2c1fba131a18d4271c272749fded
f5f9e6d046e29bd1c2f006ffd7f9a82f
07110fe0fabae81a1ad6940902fa07eb
0bff1303c7eaf9f8fae2d1f9091affe3
f0e008f8302902d7dac415e0dae902fe
c7c3011ce3d5f9c7abdb13df2905d716
fc0047ecd60009f508f8f50cf441ea0f
dc092229ec0028fa33f3ec160607051f
08d8451bd4f8fae305c542cebb25e413
22f83d1560c8efb21c15f03f00fef040
021417206796f7fa475f086b2e10e843
151408b4edfdf80b46180323dbf31a0f
ee0b210fddd008db02ef1a3db9ece9eb
e5ecd8b100a9fd0116dadacb15ecabea
d3f50ecc0eca25b71bbc020dc5e50709
18e82719d1ff0808eed3089fef50fe10
fe31fdb0111441f808e6edbba8c52eff
4fd24e3cf0dafcc20ac511f5eaeffce5
cf30b31ee3ddfafbf51ce0eaf904dafa
dffcbbd22bef070cecfbe1471dd4f906
36d70111dfc8e3bf15aa0bd32410de19
09e3c0e3192be6decbfb02008031c7c7
02c4e5ba13c1e320f01810ac13ff03ce
e4312ff3faf02ff91419f60f66b04dec
3ff3cde42aea05dc10d241def4daefdb
fbe604f800ecf610efe90bcccb1c04e7
1914dade9ed8c5e10ad8f12e0e3626e5
701ef4ff35c305e016236ac145a70c1f
1feff412f5a619c62d2e08cedaf1f5ce
159c1d80e4dbfbd8b52002a10de58955
11d823e5fccb010b123b2ba205b9edbc
de0be0f10509ffcbe9030df5ef07f302
34dc27d9d6f81ceb1879d8fa0511f502
f10cd7311ad2f028fcf4eefdb516c7ac
82bf08bbe8fa11ceb00fbbd817e3dd46
c800f216011cf3052afec905fb112401
1a24e41718daece3e3da1ec9eef033c7
d7f9dbeff5d2be23fb62f19448d737bf
0817cb1e09f1fbe311f8b4f7e415dcf0
63daa108ff1f1725e7b3e5c3fd11f9fb
271eeb2bf2eaf00afde20ae1ec17cecc
fae923e1d8e2f5eb230731b64b0a17c9
0f063c08fe1c0b1f430a3b065aef080a
011d0af60c16152413ae1910df23efe8
f8dac30ffd0011fd03c209c2c8cd29e7
c31d0cd7c4cee3c61f22c1b9f0eeb5ff
130fb0f8061814bffbf9dff2c5fadc03
f622be03f803f7f93a11e8f9e7f6f5f1
3c0ec6e037197fe4f9f7ebe3dbe8df30
f2f80c3ef6def0fdff2ed2b2d94b0ee6
f0daa1ae142015b7f0d59d3309bcc200
f5e22eb40cfeece23aea140a280afc07
dc0fd222ed30cc20f32af2d3fe0de9e0
ecd2bd07e1f8360f3b13dccdbc0405b8
1acffaf42ad8281c1c20cdd8052ad857
c640de0d9c0de0f63312129b0ccab1ae
166d0b5e853a02d20114e701170fab95
f912f7c80a26e5f3e00450dae31d0df1
10d421fefc12efd6e8d5d223440d3ef0
fce804d540e08095bef4eaf0f9edd41e
f7c3dceff14f25ab2b2458a9afdef1f9
feed02ee1becc2f4d3ff07effdfc01db
006c233edf2d0ed6ee1ff1e117efc9d3
f2b1b8cbe53acaf4fde83ddf12fc04f7
faf711eb1010fff617e5c60d26f223ee
d6eae703181dd8fa09e3c81208dd2509
f214e10ce0d736fc0d07e9f500ede0d6
f8080409f522d5ecf211eced27e6e220
032b14fef50c04ef0a02f50813fe27c8
3ed10ddfedf6c7e4fb2042453650afdc
3511521e185e110fecd70fc535ef2420
f3dfd2d5daa3e4f7d1e700fff70fdbc8
e205e0bf00e220cefbfeb92800dcedbe
200d06fa04abe30c04eb321c35ffdffb
00182cee2829063d48020b31240b331c
2bff443600f3e3e2f1e1fbf7291be306
06fd0f1409dff0fbdf971cab280dfa47
0ceb2a4809afea0f010519f20426e6f0
b3d4cdcaebc6ebdee6fde7f8d2e1def3
ead9e0fab5e9edeaf3f00c2f04fc09ec
4a04083127fdec141a58da2e0900e6ef
1b1e082635cfe2e933f8f4183a03f820
e70105e0fcd4ca142823e8ec31f90e38
dfe9eaae12ba0209e72bda0f78bccc27
230232f0311200204d18090bfa0307e3
b5bcfec4c7230523e2e0a6eefd09cd27
b2010b41006bf2383df9cf7f13201a15
29d4dfbad3c905c8b525f7b6fef4d9fc
0d9e50d6edbdf4d5ea4df6afc7cddcfa
1427f1dce6e100ff07fd0bf80e012adf
f51814189d15d94842efc42f38532fd4
0120de0a1ff9db111afedcf7cc0fced5
262d06ec17adfd2d0ce733e4eb21f7b9
c613c404f9e901fdebf313fbdbf0e0d2
05ca40c0cdbbcfd7a558c4c70be6f4db
fa12fc09c5eacd0ae5e30c05c7f5e798
f0f2ed170d17e4091600dc15e0d6e7f3
1114d206c90ee80cfce6e8f7092623e3
f202f7f2eecc0898b0c4eac521f2fe13
13210cf8d236f23102ede827ec3a1835
fce10834ecee0cfe190e10191114ff2e
a8d111f9c0bed6fdea33e93424f424ea
2c3bcb2d24311949be4adedb2bed1929
e30f01f1d104dfe63109e5c0eedecbc7
05fbc1d5fb15f2be18f4ddea22d2ea02
e021fbfdf91afb2fef1c1df7346229dc
0220e616ff1a32cc1039120f221bbf4d
f509fd0ef1fbcb09ee37edf7fc292efb
da2a58f3d4ced62711ee0fd9c90706ec
efe2db2dde06ddd51ef228e1de19cff2
1a0abbe4fe0ff3ee15dedd9ae0e5bbdb
e50d08efd9d80d45fe0100f6371cfee8
0bff350d03e3f4f6190f0733232ae0f8
080ce7fa1ae9e61b3b250bdb300a2fcf
e1b6e1eb021bfdf5cefbdaf1250926f5
f3d10fb3f20f0601e0faeefa1afc3917
fa292a17fc0b11f9260d141406111c0e
f8d2cfe70625ef08240b4edbb8eaf240
ef37c2dfe61f0ac217fa13f98de40e17
dfa707f04924b5aafcec0c30e7b7d234
03fa25fec19ff91a1df491eb07fc0c2b
d7b40ab32032d4863ed835c6cfc10530
140cd3edcf1a1829fc021007280f30d7
103f496603bbd4becb1fdde2034ebbfb
e7232434ec1013c1d3300b1e02ffda11
19021b0157f201f4ed0d31fe2104f0ed
28e520f858eecae6cc151ef9f404dc03
15d0ec17bcff17e937efebc3230a22ce
eae9f627121bc0de02ec15f7c3eba2dc
faeafa0f031402321ad5f80c1dfe069b
d825ca12aceee2424f10a21b43d615d9
03b10cfb5308b5c809fcf215f2d1f541
e81a2036cfd70901dff6c311e2f8aa1f
34f6c6e6d806e5cec3b2eac2e1040304
21b339ff26d0f011ddf8141ef7091015
2edc700bcbdcbb13ecf661d72d3bd339
f502aa0e1001230d80ffc91715cc081d
2fd554ab15d6d2d509320b122a41be08
f8fde4f805eb030f425ae544fecd1ded
d4fce632000004cfc2c7ac9c09d94ee8
b7f7fbd6edb709cef2fe07dfdd07f1ed
44d8712918ef10ca28e9f912bc09e01b
290d460e3fe50e071b2025fad91708fa
f814eefefde4b521ed40de18f4f719e7
3ae248286beeed2c141ce80bd5fadd23
13ff27fe2fc712cf2f390e4b0903e70d
da09db2a0acce33f1657b25318ef26ec
2ad35b7fb2e1f1f729b11bd30f2bdb2b
e6dab010e1f0013bc4d48bfc34b41f05
1522ccf00cd1ede6f6c7f0dbf80dccd7
d3cfc7f6d3c2d1efe0ec02e8fbd71a00
28e2bfe659f6eee7d9e4f3eac91fd190
a6020be7ff57f3031117b51cfcf3d828
05eeb31933fccfc8b1f718c1c2fbd8df
0828c40befcf100202e02bd205283121
072b0d1f13f20f295d58e703ddaf0ad6
eae3f801df040eff0f3801ebecdaebed
11fa0b1d1fcc0f171f0745ede0f1fbe0
13f70d160cb6e400ffe1ff15def0e3fb
4e12fce3e8db01f0241008f10326013c
0dfcec2435bcd0dae60d3ed71cdb08df
d71cde2fa70a0efbdefbfcfe0322250f
a1e8d7e5a8130122eccef249ef14ff53
f539bc1637ebdc1248f20c1fca09e38f
f5ef27fa1220fe1a1527807cea1109f0
dd1220dfdfcee035eb1102d1120754d5
d2f5290b06ffb6160b05f2e50a29130f
f6100427e9e6da2ef249e4db1924ded9
20c3e4ed29e717d92526eb243c05fd19
b62b3f1ac0b19e01d918d8dc3b3b2e01
fc0978facd03ddf60f02163fec35ebff
5fe7a602260f35ebccf3d001dbdad3fe
0a040406fc0004b92b01ebe3f5e0dcef
02580d62fbef03fefdfb20d8ed36e0f4
fa09f02df0ffe8fa4fe92804d63ad9fa
230223ebf0fa1c49f60a022102230b08
a5190919f328fd1821f469f6cb47ffd7
1c407f13f3ebdfdffd053c08082754f9
f6f610efd4d009b2bbf3e4552000fd0d
e90bae25e0b7f0ea2d0b29a9d03fbeac
17bfc1f20b1b19edd41fede82aed2efb
2639f8493e332ce5016372fb2a45f229
15350217cb15fb06c80e16d2fed0cac1
cff4f30dbb051af804e235e895d921db
172cde1c0a2f26f5d1147ff807fdcff3
0e1dda04d97f370cf712470c56f80fbd
e65b0842cbf72cd1ebff18f11d18d7b9
ebf2d8e5b6eaf0c01bf6bd15f7f2fa02
e4ec2601da1df9ede498b4b91c0b34df
e2103de0edea15d3fecbe8e2ebd0e6e2
eb52074dd70908d1ed34c50c3d25ac99
0cd8faf0d9e7cae31d009aca07d3fbef
f9eefa24c6cfe0fdfee9c618f32ededa
11f32cde1f06052f14eefb1b03f40805
0405010832fef7ecc6112cf426ff11d4
c811b333a4dc03fa2821b4d850efdab3
223b5233b30a1bd00f080701070cc4ac
072b0996f3353dff613428e5f02f143d
cf30f1b5face2b15dffcd6f2e4b80de3
d8f7f9dd0cd5ca071219ffd8f5edd1d2
f0eaf5d3fa1606f41de335cae425e533
e3feefe5290702df082ed71718c01f06
be160fde00b0f014eb179435d0d3fefc
c8d0b30918e4eaecd84ce2e70aeb1ffb
edd41c1ee4cfe23b0414b15b40fecebd
5bd9392b21bfc7c42808eb26eebffd0d
a61fd1ee0dbb0ed7d6f5b5beddd6e8db
e0ab313008b3fd26c814d2c624fce9bd
b518e51ad3ff25249e32d22dcc36fed2
0b0d1c3d0e56edfd0b1f22f5f9341312
0a1a5617fdb702e320ef2b25040d101d
c6cdf4bf1fd6e81cec44c7fcf0dfa29d
dc03ca99090c00d4deb004109dc9fecb
78d83dee401516f1181d63d367ce2417
36ac19e4fccadebafd680cb908fdf9ec
1be7fdcdfad61ebaa5fa5ab20def1712
58db09e9613201b5ead74ddb22fce01c
641b070b15e6e5d7051864ef2312052a
1ea209ded8c1fdacf529f4b3eee5f3d9
cee3fdf4cfe10d04b9fcd905f05531fd
9a42e5fcb424e61d3f00d205b6ebfced
eff3e700d9dab9201313c11fb7e006ed
f4c00da0d1cb03d3bb3c04aa00f3d507
b817b6d29ec910d5a4ded4db40ec2830
c929ec052f391014192ce235c5f5d5f0
1552ed28f7241b111d00db3de2e4061f
dbf90b090bcb0f1a08f7132c06f1f1ef
e8f0f2e6d9f5d315fe14afed14df01f8
0eac10e4fdfdf9e2d849e0acfce8d5fc
16f5020b36234247ecc93902ec16f021
18e3d1ec16fe47c205f4dca7caedc2db
c4f014d8f415e910fec107fd211bfdfc
f2fbcde900eef62cfd0d3bd5e60428f4
0af62ff80b16101bffd54a27fdec37f9
e6f2d4d00dd1f8bbfb01dfcdf8d3ee00
00e6eef4f221c6ebceeedf152bc3350c
f4d92fefe2c3de11e4d11aff4555f6da
d21129fae5dc18f3f02e150313411201
00ccbff02af40014fcfadae0d6d8a90e
b5ecfec3fc18f51122de8516e7c0f810
1fa126d5fcdc09c8f3fb13e8f2fae006
2111e4180af2ef1d1c1e09e3ae0ced06
02fbd9180b1a0fd41df54ecd0354150b
b2dbf8fcf9c1facfeaf5dafc48e8bcdd
2b02c0e6170000a31503e0a8fcf8d90b
f9c54c0b29cb1d0707cf27dfb0cbebf8
0724c3f518e1d8f9e4e017dfd7fff5ef
14141d17010017e4c0fcdb0cf6f2141e
0b0b28e0f8fe1c00d71d5bfadae3ec28
02c2d7d8cceefad64ff8b606db1a0706
f1defe15ef260ed255ddef082fe1c308
f4fecc0d1844c2fb0f2d63fe1617d611
d217ca1d0ed2e6cba7d6040af60006f2
ff398a1498ef1ec5240a25e51a8cc0de
1220dfedf105d2d5ed14e921eb12dfde
05dc29f3151a4e1bd7e915f003170ceb
2c17ce069b0711de0604ef21d137e8dd
daedcdfd33a9c010e80af9fec5f421f9
fb16011fd41544361af5d52b330df495
09f9fd0afdd8efc8f0e9ed0822fbf7c2
f012f7f4f8030f1cda0026ec00c52506
14cb224af9bdcae2b33def06b24addd7
e6080ff9a0e412fbf2fb02a8d61d1ae8
e6f6b2dcc4f71eff0c0514f209e42313
07ecf80be0f909f9011a30eade5b041f
08cc321a20d8e5eafb800c3407f7ccf1
0b033af7ddb202dde1e7de110930f812
2917f48969fbf040fe2325000cdb1208
a4d1eab61acf0a58e808eeebf9e8eaec
e5e8a30be2c301c80bcebae60d42c2c4
f61b00a3eeb0f001d2cd159cc3f504b0
04141629020ee3b420f40cc6c743f72b
ba2ec2911d1131b0bbd501c0c5d038de
01f6fbe4c405e709002ad7a40720dff1
e3f42c48f9e2f200fe08ed0dff051117
c1ec14fb0d24fad316bbf42adae70402
fcf8022efcf2e5d03221180411240cf3
a9949fe9c831f703f3ce320ab9eced25
e603eadf15f1dde10004eac912eb1a0b
f2fd0a24160bfb15f62708044cdb08aa
fdcde0141edc161328f231d107e0cfeb
37cce42497c9df1afac2f1ecc40538e7
3bd01340c5cdef3100bc17f6d1e5241e
28f92b2b280819e60f0ffff9d8c7cf1f
2f0629e308b6faffe2c9b8e913e815fa
1cf9f086ee2be4c6f9150ac900cab10a
19e332bfeef3e1eff12fd5ab1b8eebdb
0bee00f1211011f630f65e0f2bf90303
5de63c09f80c00d93a4ff5df17af2902
c1eddb24fed20d20d610ea35e900f2ca
bff523ebd906eff5e5f9dfe912f5e17f
ecf0e807f1fc1ff9fcf8fcdde9f8050d
0211eb010cffd9070be242e82d01eb19
e3d1040eebe7f1cdf8d82d200a2a48ea
f9f7a403ed47faf607ddb7c8dcefe806
fd0cb0f812151eeef5b9e4b0fcfccf34
db0300edf7edf840fe0d06f7dd0addd1
d52a55f4dfe8d762c71afefc4437ede0
d1565d4a03c507740522f7ed3f4814fc
08fd141de70eee5f1efbda2115faeb10
f9e3ebd5f724000125d9c7a6c0fdc1e4
acedb8c005fdde09011a9fcf30a6d79c
0cf4cfce25fb1caaf1e0ada2b9a98c1e
0df9e3fded10edc9f7caf5d9d9ff3ee6
0201d3fa05f457e808efd21df7f1c2fe
f110fceae7f3d8d9f8db0edddeefdbdc
03f1e0dff012deccf7cde52e081d1f11
02e20bc30ea40bfcfc2913e835fd0803
dd160924e7dbe6e0ebf509faf41321d3
e311c9d7d737ead52e133ce619bbad84
02f9582920f43bdd0c23f331fe13f701
c52ab104d50106c026f3d6d111c4fd0c
2d26d7118e1d05dcf705c6c30f0dedeb
0deafb0bf51e07e3183ff9fffc12dee2
1ae0e7e20a11f2e83ad7f41f440c0c00
ffea00f120cdcdefd408d20ee4ee0816
15e1e1e81800d0d2d4286dcef2f7ec44
09ddf5ee14151925f2fbe9f1daf61de9
f72ae3ffb1d20ae6fc1dbad8d8f40efe
05dbd2fff73cdc055d172ddde9e2f909
f6fceb08f0e9f1fa28f4d61404132506
e0aecf06e837360a2cedd1f70c0025df
c11ed4fccf1e1e02df00fed727cbcbf4
e803371c22cefbf4f60dff19441101f5
21f7f102fbfae5c700f7fee62af8f711
0d0409050eb9c5faf3f8115c3e36feec
c4051fe8fc792fd41f15f1c3cce92823
cfde99e7d5b4fff6c4b8e41bffffc3c3
c9d7dbf5f4c114f7f8fce4f5beb7eed2
2bf609e9d0b211d12a11ee17c936ebf0
0c103120250206e634041f3c0beb0d07
09ff0df7f3e70c05ff43fde00314f3d8
f8d20629f1e9e71a05e8bc28fb1314ef
f4f9fefb09d90bf3e833e3de280309f4
e5f8d1d1f3cfcff8dd14d0e1f5c7c405
fbe7e02001f5c61fb326e0180713fea8
1beb050135f4f732efeae20103fc14df
35051531240ce1c51cd3073001fffac2
f7dfe5c31208f401e61cd829f2f6d532
e8ddd5e4ace81ef407e31a544406e928
19faf9091e040623fade14261ce8121f
17ace406d413c203eae93423d131fd03
05103535175516250f061c4c1f243ae0
f9eb1ab0d806faacda21099f40e2dce3
ff0515a2fbf9edcce853f9c6f6a4f2cd
fa14e30406f1bdefeae605df320a1cfb
1c411c0592ef0f4d18042c422a2723fe
e4f8c21d14d007fae3f4f1fbc50cd9d2
020de0e9fea1f527efde0e0ffe251df3
fb0e04eb03d4eee8ea1708eb0bf8e3e0
2fd9eda30ff7fa81cc4704a007f0f5ce
e3e1f5bef00405db03fbf4f7f4d90bfa
fb24d3d600f9e9e0e80fc6f3b4e4e619
391ec40ccd18e3f3e4dc3f14fbe82ec5
ea0bcae1f1f5eb04d1ed2ae8252efafd
d40705151b2e0c3e1fe30c512a7ff3ec
271d030214e2f0fcfaeaf50fd400f8fb
e52c1d35d7d606050f13483ee8145f0b
fa1fe31afd001aabe3f1f3e3bcbeef26
e011f6bfc5e9f3e2feecbcbd0dcbc9aa
ea12d601fe0125caf50cc4ac03aca5f6
d0190517d41401fcd8ece8de182e1cfc
2f4c374c111b0df83535ce53293b0d2a
f4fbf80801ed0f0630fb05c5ea06db03
0106f40dcdc41532bb5b01e52e021702
eee713e6fb17f802e7cb0cf6ef142600
e8fecee6ccece9e4fdcad399dea9b9d4
03021724ef221717ec2aef10080b17dd
ec2f14f2d80d0e3efc05fc15092a040a
ef432458f3f60c04fbdfee16f2f013ec
17edbccde701c2cf28ed1d290df413d5
24ebf5f30100eacd283026291ffbdb02
1028361708ec08310b1e38142211fdf9
f1d5f1074008c5c9c5fc121504fddc34
ff13df0bee16f5ff07fc26da14dd93b5
f60acdfe27e6b4baa93513eefe04fc1c
08ff032101ebfe0b22cfb61ffe0f39d0
e6f0f70614def9f5181b04f2c80c0c4a
fbf5f2e8f6170bec08f9ff110c27f310
0925392d1cd1cecce5df0f02ed2edc45
eb0fe411d6ce03fab11fd50113f0e6e6
f332fa0de1081ef414fcf927fb0cf505
04fd2409ed02c6ffe7221523ef0c05fe
24ce19ca1b495430f6fadd3446e22ddd
031c07e8dee3e2f0ec58e0dfcbd2bfdb
ffdd04040808e8da28e317f8fbeba704
eeed14d6f802d2031f12ff175af907f5
ebe21a12e9fb2717b50341ede3f456fc
fdfc21080ee5ebf5fdfcbbe3da0a05f0
0c1edee6fa1ce42de3ef0ef61520f1ec
0fe9f918f3e5efd2e501094e2a00e5f6
e5162e0fc4aa07261762f2ff3a26e0d3
dc0ecee33de72b06f9ea03e5b4e626ec
03cc00f523ecf92f0b31ee1d3017e6c4
0a00ecb60509ef52ebe8120e28ef0706
d627ece4e0fef8e008a1f3e2f2f70024
9b1cb4ccaeea202ac6baf1eeff02ffd6
15160a0df8082b0803dbfaeb13340417
09f61518341d1de1f008efd01fee01d6
300eb8016bf7d104f10611feab2706a9
ea0b43e14217f717c4271b290908f1e8
14d927c4bac51702e1c4050defe8e727
efc8f528edba17f7f222c05df3d0091e
0207ff31000319b40f17f6e7e648ec0f
1500e3f4cc0a2cedfed717ddd7ec0900
bd0b070812e1f633f5f0f920df1fb7e4
0710e4f6f0ce13f4c4d4e4e1e8e1effc
b103fb0c0fdf0eedc300f12c00420eed
bae912ea0b5303cf07fbf102fc0ff021
0edae50de3c8dff3daf8c3e1fac9bcf7
2aff19eddecc1ef3fffd00eae6f4f12b
25111fe904ea021efb1ef3e7292ef411
01c014a3dbd8e4f0191702d0f3b715bd
24060a1905b42702f8fb0df9e3d9f0d5
132d1df6f5d2f2eae515e0e3d5c9e9bc
22eb0bade01c10ee002a1caaea15092d
12b0f6ff2ad6eb0ebf202408c8ddf2df
1919d70408c7eb28fafedc2005fdf9ef
eb06f7f7b2eff70afcfde2f5e8ebea4d
b032e1f4feca07f93bff3a0031fff9e7
0bf4030e1a30f316f31ef303233309e6
1aff261eeded080d032509dbfe1212e3
d0190bebc4fae001e538011a3d1c5ac9
0bcb2734170ff31542edf0f3f400dfe8
05efd7f92906e9daf02921278ad2e525
e11ef72e0301ee3de208e3f332dafee5
f1363811e9ebfa4911f816f84e1bfafe
e0dded1109d4ff00c9b5dae83998f90a
fbe8bedffce1f60607aecf8006c4d901
231b20090b03082503e1f605eb1b16fe
0b07021506edfc2f28f2f1f7ea06fc11
de0afc150af5f516f71b0a0afce81c08
fc3a1ff014f4f55fdb18fe160a332002
c83d0c0618f20c11eb2311da341336e8
13ebfd1e06c403bc0c0fe3760214fc3c
fdf010ff040a05a134c11ff8cbf62cf7
0bf8d1f619ec00c90eede11dd1decbfc
26c210194be6ebb922192015fd0d0a2c
df27d146c0fbe2c8bde1e505f408d2db
f2ea0206344bf8be210c29c9f4e3ae05
eef2db0a1c05fbf411143e06f410fc05
04fdeef10426f6f808f415f81605dd42
ed3ffbf5d8f0f6f6bbefb7cd22f0eff0
f714032dbf0817ea130400cb4d11d399
d2df01f7fde106e751cbebf3fefbe3f3
db17b9001cebf0d4e8dbd7f4fdff0a04
cd4bcd03a9080a0cf6f7ea0af6b1c3c1
e4d22f0de6c90b442326df0234efc7cd
fc09fbd0d6ce0b2cfcf5e8159ecf7418
09da091cfbf805f8d2fffa30cb2013f5
00f4d422b8e113edeaf514faed00efc3
de14abf9b5fb17eef0d5a5df19dbfc96
0034ec28a3d620c8c0f8d5c5f6d21add
c60c17a62f310b610e143aee111e3a0d
d7e9c9b6ace505f3a6c8ebcaa006f7a7
1be800fbeff6ef0912fce902ecf202ff
ddf20ec2f813f2e8f32e31000725042d
0009e7aefc1e1322dc0ad92523eff209
cbfc02d601f5070ad5d1f5e4d4eecba4
fde9e1e0ddebdae2d121fa65ef2ad80d
130428d308d1f01becead1090eebf3ee
0bfe0de6fefce8280de20a1214efe1f5
c4eddab2c6e4fd0dd3dcc8edd1d4f5e2
3fe7f844eff61ea4bf1ca8442fc4f7f4
b1f7a3cbd0140f30b449dcbecaeb07d6
f5fc042033fc20c53ef216f2a93b2a0e
f9effc11d7acd3f4171ce7e50dd30234
d2b106c0b7ffbcbfef0ed23aeceaffd2
eef9d0b8e2da0e1304b615add8a704e2
e7de2ce02afe08bc2615ffd201c94ceb
f5ee02aefee40ad6e602e9acead3e4f6
00e8ebeefba4e8ebb3e410da00f1dc29
04cb1c1238eb20edfc0c17ff3eff16e4
46ffe0f2141afdfa26f0ed18e314dd0a
0dbefb93b1fef196e2200fb1f2c522dd
ef32ebd7070a1405b8eade32f25e203b
b1fedac5bdb4e2f7d6f5d803ebbfc4f5
1ad2ece6f3d9edf9b628b8e9ad14e9f1
13b30296c104f0bfe628d4e9e5d4ed01
bd1ace0d9b2ae535b8d9300e29d2c24a
f6f00c051be402d00d2cdc0ecfdfd0f6
0fe50df60e2a28fb223d23160efb2be4
f52cf4e702bff4f9e816f20329f305fb
ec0800c8c40be4d5e3d4e2e5fdcfde1c
2cec2da9eded00e01c24f0cfcab405c5
eb000721f20cf94acfbfefdf0742bb1d
04e8d60723e224dc14e9efa7f9b59cca
fc0de6ea000af61be21d19f91df82bee
0005e3f1de2c0e1a15f821e9f21135fd
e60c163a0bee192e1a010143100000f4
dddfbeebf30dddd90fd0c494f28dcedb
0eefd3fb0bc0e9b80f0afe3c11fd28fb
ccb5f7e8130bf71cfa0d1304e21a0502
f500000af5fde431e12610f91222f7e5
d0e2f8e6de0006d300cdd6c4f9a8d6c5
b3f1e8e1cc01ef0ec9dced35fa0a2104
27a403a8f5030aed020743dedbe32a0b
1ceccced01d7e3d320d91dfdccf2f9e7
1ce60c031304feebcfe9f4ff06331df9
e0f6d506d514b8ddf5c6eb18e2bdc8c8
f0c2dac5f314121af7e9ddbc06b79011
cbeb24bcc26e1e2a60ebf1ccfee9d6ca
001b070ff4e9e9eabddaec14b213e705
26fda5242bfa2304f20b013c201ef3f6
f8e715211e1406e022f84e05ec01e72b
0ac20edffaf30b74391abdbffeefeb11
0ec1e0c63e089d185144f4e777f9f848
2305c5181fcf98e321dadb171ad72654
202dd23437c7df20c737f204062712e3
ec52b453d302a5c204e1fcee2ab4ccf7
003fe83ad8e2d3ecf31f0028e114f4ee
f5f8120ee23d4fe3eef45ff9f90bdb0c
2544ee3bc4f901cd270c2b00c12fdb13
1a070624f7c7f7169efee318c5d52dee
e5e50b02c3622903f7ed0ce6f8f6f3e6
09deb2f1f9e8edf73a00e50b07022ce6
c70d2ad7ca0e63e3cef71addf3ea24f5
e5d4f6f5fccadd1add7aec2fdf2ceff3
b717abf4cff52b23de4fafe9f3e51d81
ed401113e2c12cd530251ede06d62452
03f004e80a1dc90b2b276ed8091aeb1f
6bf6223003fddffefad9f8dfd3fcf8e2
3add3332dcc7fa3ef79aeaee2f29d907
04f71600e6110a2321cd7f1b3d0bf825
f302e40ce7e1fb1ff620c1f3bfb420c2
c7cdc5f6dec6ed03fff6f8dfd5bad5fc
d630cad4e4dc322bf8f4edf1dfd515f0
dffbeadc180cf1cef80418fd0be9fa12
d25d1cce19ae17f7fa0d3cd60feb2601
b5f9db0411111ce40e51ea00d0ed20db
13edf1efd8f6f5c9ddc90312ff35cffe
000519e72116080a1ae21904e006ea10
bed700dc3002cfcd0d4a111b0dd5f21b
c18bdbc8e622ee2709ef19c8ce00e90a
eb0d00e9289f140df61bccfb06d80ce8
3e0f1ad605dc12d0f5312ac439af56ee
ce93e4022fcbd9fb1ffd2cc5c7d2ddf8
06c1c4efb907fedfb9d3f7e6002fca45
0a29caf08912ce20b7bdc1080547fb30
c808e4f9eff9e8c9da0b8df30703ee14
2125dd1afecc09082d2ee126f6db07dc
01d6ff8d0bebe4a7be27d290dfb4cbcd
190943a510dc3b0ffb24f9f60ef41fb3
d8d5ebfe49f8f6192e083fe909a61aec
2cf669cee7c22cd9fd27d3ed190116f2
c8d8e62d06e624c83e05190f17ea01f2
e7e7dba203fcf802e8d843e726031615
d8f10411f412fcdef30815e01c440711
f6c4c9dc22cedbf729c838d606bcebe4
d6ea37c591eae3e1f9241cf7e0fa5602
0bbefdd9231cf01406e8c9c9da9eed29
48e8ebda1b495204cdc5e0e5d33eea0f
ebebf80aede7ec2ef0e4feb9130e26db
ec3a35240cd7be1ff45bdf7d095c24c5
cb430c0dd3f9e968ef68d46f7f4f00ed
e40ef4f701c1174dde12dd2447fde71d
1ed6e8d90613f4cc36c907bda6e8a14a
cedbf2cfe90ecedfdbe9dad1dce9e2cc
040b02d121303cf306e6dbd610dcc712
05d90fe1edeadbf4b7f216a9180b7f0b
24dbdfd3270648fd2cd90507f0e2c748
22e5e6dd0d06f1da3dec1fc6f5d01913
00e0d0e0f1ede7bbc4ccdffffffa4e06
d4f60f2707ef09fe17141135e9f9f1e0
bcd2ecdbc718d5ffd1f133c21de425de
80defef6fb17b6faf61a0ce7f7b70210
0ee72ef5f1202cecb2dff6169ffcd8d5
f473c95be901d9e30b23f1ef23fdc5d5
fa6acd55c7d3ec0b0929b9ed2808d5f1
010bd5f7d1211147e1f702ec3303c3c8
0fda110311f7f5f7ebcef6087f0b0deb
fde80b09f9d41e39ca18e5f9fbf52ce7
fac6fefb05ec07c221e3fadd1005d85a
fd1a0609c2197ffcc4ccf10aef012513
e475c242b6e8cae3f623fbe52a02abd9
f9c5e2c9f709095e1b20eae4f3d70600
f7e3d50708ea0b2c0012bbd622ea24f2
02d0c6f3e1052c7f1afdf00444e7f6c3
c5eac8fcd6283bfe16fa01e019c309d1
2300fe0ecb21d8de0c05de0f1714eda8
06e5271733d7c4f30afffb0b2e1a7ff9
2ab00aeed7d0be19c00701f20d12beda
bf0600b72434f1d91c3826061bdcec4b
10c190debb9e17eff4d3dff8efca00e4
b3fca8e0dba036f1f3d4f9e4b9971ae2
e9cfecdae5bbd01e0439d9ceefdcedfa
2b330f43ed0c2af734a823100be3092d
d5e9eb16240be80c0c4a0916bee6f3e9
1d0d07f9fe0d823709a517fb1c3dd6b7
e7ebb3f3081debd7fbec2b18edefdff3
a6f3b312ebd41ffae6f5cddfcbda10c0
030bd118f1dcdf2db550eb0b173af9cb
4905330f272a0bfe27f909f2e6fc06f5
46e1da0df7e9e00c26fcf502d1f6db02
05ecfdf4f602e5f330cff805d827adde
e9d304f8f8b61bcc460ecb1a0e37f1fd
3dfa184127fef7f042cf3ce4c915fa12
0c01c3ffe73dee04b6a6d106a932f807
373cf9194dfd2313eb1055393d432e31
f5ede981f39beeadd317ecd6ecc3e821
de0a1ebaccc11beed23ed8e0ef9be918
2df1ee29d4f7c0ecc8e5d0c1161a212a
451f3e49ba480105132603330414472c
c408041fdfe215b21aff1823f3d000e7
bfabf11a04c6e52bdad41dc1f819c9e7
1fcae3edf40701ca25f31fed11fbef19
0cd601cbe8aa19a0de1fef9b16ca0308
ee02f3eae0eeecf1e106e6dbd4d61c26
1f2fdd24e2e312dbd6f805031f23df14
2b040221d010bf29d8f0fcfd133e0434
06f9dee513e6e6eff5fb2dd90e16f10c
002d1d0e1a3c0fd20207fb254d361cce
0011f9f206fcf8d916f80d03fa2deefb
c8fe3304f0d0cb1d0707c72435fffefb
14c0b1cf1aef11dc38126233e9cf363b
f9fe06dcdb18fafbfbfcdfc9df08e8c5
15d2ddca06e5faed0accdc0ab612e9ed
df2b3214db00d3d80f22071404fb29cb
26452a0d0ec8de1b161ce828333c02ef
08e109dd180defde38f232f5f00b0000
ebfff40af203f243da3d08b7fafff5ce
0207f2f2fb22e3c2ebf401ef23d82f08
04eff6d40ce9fec7f600eedde5c701ec
0f0bf9180a4bf0db1910c860fe080df2
e62bf732f8fbe6f41c300e2d1e11020f
e23e0fff06eb09d7243a1849e2ef2500
dde6e71dd4ece90ae0d001fbd00841d4
f9e9f90f00f2faed06f73508e515ebeb
f3412937ffede9ed311b20102223ed03
14df38ddedf2d393f6f4cfe4f0d6ed35
cbfde8e5f40226222cfd41b224cdf3f4
ea03061c020ced14bbe4c5029822f8ee
f81addf00926e277faffae020be4fadd
e6f124ff1911cf440bfed402fef605d5
0ebde6ed1ccdece6eddb06e138fe2010
556d141a4ab82ce2ec29fcf3051b0d11
2e68d858c2cfe6edd9370c07e41db6ee
0508291d00e5190edc051ffc3a163a21
f3003907e1d8471710e50816eaf63a21
c003a5e4bd76f20e1a33f5056c22e4ee
fa1afd03e0c570290c2fccf20efef5e9
cee7d5cafa15cdf81a07a9d5382204ee
ded3ed15e6f5b935d0fcd9e262ece9e6
12cf2ae9ad3a76ddffb14afdc6f535db
070df90df316df3fe908971ecffcdfc9
0902e3ec13f3df0d17231a170f32ecdb
0ed127e8f822bce73bd627cbe531c6fc
c6f9ce1bd2be021adb72b721160ddd80
fdef21f3fd11fd15e427fb2106ebf4bc
f8f8cd14b8dce91fc47fcb23ef0bfc89
1fec06091bfefd0455ac2b20ec15f42e
023dfa2920d525ce35d641da17ff2d02
a7dadeddbdba1517e10df5dfe9b01edd
f426fc12153230ea26172201e0e30612
f2d0e0fe4111f3d2170f110cd5e3041d
4afba9f74dfdebd831f4f302e6f2ca08
3f0a05d00022d4e22d103832b902f1dc
4ef53f1aaed7e7ec18be03fcd330e7d2
fcd9ea38d3c3f7050d9cf10f1a2ee6e6
ce0ac8e7f9ed16dbfe62f72ec6f30607
ea16f608e8f8faf8060ab7f1e6b9fd08
e3bbecf1e004f5c5f2cd0dfae900cfd4
edb8e0d70a14b8c7f8ba38dc062ee20d
1ce9fc03d8cc15d2e9fde2103ac4df09
f408fe05020c11efe60ee1311c00e447
07e9dee8c2d519dff4d2e1dcebdcba07
efe80e07f00bfd0e13f542ce08181603
efe4671ac7c80eef191c3add02aafcda
160a13cdee1039bef440b00800b4f606
f928f7fb1aed16dc12134efe14fb1419
ed08fdeef6f300ce301360e50914fc0b
38e0b75bb8c900ea15ec01c80d04e343
03a9eaff04f717b9d4155ae41e072c61
ef0ed9e9bafd14e9d7c3dcd9f03c0ff8
0859d4e7c526f02fbae1defb371caff1
0df7eceb15b0e71532090ee60ad1f4ae
3b17e111e9e9ff11d01eb7f7fb102ef3
d713ef06c6fabf21fe501db92b03d301
d90a0b07cac1e123e6382117f42126ba
03bde4ee07660fe223dfdef202cfecf7
d2f6eee40922f4e731fc025315002b21
0ed01a2efc37a2e40620cb2ab6f50eff
ed5b1117fae70cfd1b1d153d3cefe6eb
4917f6f8411a27fe2beee214daf2f23e
3bf9f3dc091e262e14dcdecfd9d7cffd
ed06fdfd0efbe5e52bfe39041ceb211d
0126ea1c0ef0f0f2eef8fffc45fa1900
085631e2dfeeead0193ee876191c6df6
ca5a151206e8cfff083ac35b241548df
0e2bf46300e806fcf240ea2d0c38bef3
f5ed9e1ecde514d7fd0dbe1f03e5d7f0
12d9eab6ee18cf2203c65696390d481a
1ce3feff01520acd400bfef9e9edbdd4
5a3930fe5adffec7e41c51eb091f163d
1f71c042b502d7d3fa3fbe2016f7b0dc
ebe6ead91ef6f5f20621000d0bbe122e
10ffb2f4dd0a0dd50707131dd804e52b
f9efda065fb2b0c0f6db090831fb3217
0c76ea2dc7e0fae40438cdeeedf0bcaa
f4110508d43a45f1140cf8defbc4eeca
ee03d4f2e6e9b45c2b318019c511f30e
18f8aeedf2cf2a5deaebbdee3bf43afc
fc6ce111b108ffd5fb0bf81c0602f8d5
bb050d02e2494fe90ff61bd2f9b8dcf2
351e2124ebf71e7d241f010cd8125ce8
190c0f1cb7076bff0bde5312e2f201ed
f423f80fcad33403d4f9d9f5e62805f5
eb268f1f991720d20918ee1c33e7f80e
266d8172cb00e6eaf402e003fdf8bbc6
f40d1b070d342b0c57f07fd132eb225b
865bf4eadd9cfeefcedff5e402ba28e4
5c19201de6fdc20218e1fbf9e017baf7
d7ee18e6f8fdfd0f0e0816f83b0bfaf6
0efe1604f6fd18122daf3c02fcf8e7eb
aef0c2e3c89f272ac50fd5b3e1ceefee
bad60fffe0bc0bdbcbd1e4f11e11b7c5
2d0be50ef1a004e80932b00bdbe40a95
09e321d7ed170600032b200db1dbf1f8
d6e0d0ea07b91e27e4f1f200df87edf5
59fff70bfe4ee6abf181eac5d74fd8dc
bb42fd160b3d1e14ef7c28efd71521be
e5e214bc6931e9c3ccf4330202ce142d
cf07d2e3d2e8f0f50625ee12c3d41bf3
b3e485d2d6eebb20e4e7b502eecadfb2
d300cbb5cdaa2af50323acdaca9524fc
4b1f010423e411cdf21b0cede20223c0
f4f111b6d8e803dde53ec3bae8e6ee00
e8bbc3d2d1f8d2f6d6ef0faad202ece5
decb1bea41e323c8f72afbe7ffdf120f
1518f6ec1fe507b6eae8e1f0cce80800
ed023cafd0bf0cc3cb34d0d6f2a40d00
f7f1eacb0940fda7ddfbfefefd24dd14
16e7f8fad91125edc7d4aa09ea12f80e
d9cf00f2ca0efed7b42636e1df37c421
ea1c32c4f6dbe3f7d346efcbece8e1f3
facff5f31fedd9efd2da03d12117eeec
f0d42712dc2a14c9234f33260b02e2ef
eedc02f323f7060c0df946dcf2011e1e
fa161fe501d9ee16ff2713d7190c1fbd
c933e8dae021f8d9d50bf705d5cbece0
19fb29e9dce20ed4d039f3e7fa930cfc
651efefa0f3d423f05da24f5002ae20d
35f6cbf109fc2105e90cc40009cafe0c
e718ed36cbf2c5f5e44206d83b16fef8
18de05e6260fff3cf0ce34dd2320fb10
1510fe270c071b1cee0c10230ef3bcef
fdf7e00f06ecf1ebe8d0eef7bbc5f70a
dafde6eaeecdefe7e9e51cbf0dbf09f6
eb3cf75814e3fcf3152bb951f60e11e6
dd25ea2be60a13e72dfcfd300af30a03
11d607f70c1f2a0619d5eec700e4e2ca
ea10f0f9c80a14e89807ff37f10833c8
2bc540b30c0802d355e5587ff025171d
f3e5f7b7cceef50bf6de6117183f7fc3
f802e3e0f22a20d2fc0319f4f6dd2818
ea0f16d8dce7f9d4fbe3d415d4c2e1f1
3ddf16c928e838d807da9fdfabeeadfc
06e3974c8659d93606e3018205eb97fa
07eb4655865079d58774018c07ab2c01
8874028208bc295d0591efb704cf5e1e
059e28dd08e6ce55058d594805844f85
04a8b5f604abbc838519d85705e5bed5
0485476e06c0b3548453fd9a06baf3a1
880f134505808d2a04a70c5406d18a6e
862c1e7a079824b50483eff988783fda
0bec38d6059d7c950487b4910494d643
05ea164b871f392d864828fc05ff435a
06e9bd288825dd9209b37d958601587f
06d4c208069d0ba20598b598068cc783
87640e0d048b9a1b04980f1384748c87
0480e07a05f20edd04b3347c8741c902
08d7f88204a924bb04a8ec6b06c9f5a0
05ffefe104b5fc8f07a1e22f864a009b
f0ec706497e55a75843dac2da610f676
ab2ca11a85b7f202bcaf2947d0027677
923ecd36fd596edd987c4199d1435995
f9d9dd66b1350210a178630f873a9002
b7c6a745db1d2d75f3ab2f91e00c4918
94714ecd83faaf74e0830d5ae64ae429
d7f134f18caeccdce38b820ebe51534d
963a13239cd88e11db8343618fd89731
e4f70a6291f0a22d8370a00d9be4b75a
ae299e14b9fe3c4485350502d6bc86a2
ef77d0cda32c8b54b7e898c994615782
eb1d8c4bcb4629f3c5394d73a3f5f426
916497e2e594c175a0f8a3b39f09e8fb
9fe325e4bc20812be2312dd4981e64ab
fda7d841e83eb953e80405b0da99e2ed
aebf8dcebc22d08ae087db5cf4b7951b
000000090000000a0000000900000009
00000009000000080000000900000009
0000000a000000090000000a00000009
00000009000000080000000800000008
0000000a00000009000000090000000a
00000008000000080000000900000009
00000009000000080000000a00000008
00000008000000080000000900000009
00000009000000080000000800000008
0000000a0000000a0000000800000009
00000009000000090000000800000008
00000009000000090000000900000008
00000008000000090000000a00000009
00000009000000090000000a00000008
0000000a000000090000000a00000009
0000000a000000090000000900000009
