eb080c161e0f07fe07e1e0e0f6f0fa08
ecf621331c1bd4e02507ae0e12d0e100
e414180a08fd2a0bd7ebc220e6eb2cec
d4dfd1d7f4e51201be367fda0027c218
0deefe05e00dc70ab60e0b03fbc60bc9
3ee529e1fa01f5f2deea27e602132030
e8342c0ef30acae108ead7101bbafa2b
d215f9d50fd62211072ae5cf01f526fa
2b501904f80f03f1d846d9e6ec1225e4
08d41a1235f70ff7f115f906eaf9f0f7
f6e9d9fcdbfc0f26f2183901ea19f5fe
280f0f252c00000c0af517ee19ed05f7
a50f17110909fb0e06cf5aef3fe5110a
ebf1f0e615d1c3121d10df141f00ca1f
d400392cf807dceec516c53b00c20fda
dff417ee142cbb0bdac9d5192ba5e018
fb0306fceb12fb05effd00dbfdeb1715
280af40fa51af32102eb04b3ff11131d
154d0d00d31b110e26f91bf722e009f7
0701adf939d7ed1d1cfd191d2349e9dd
0d051c11cbf405d41f121bbdc5cf2be3
efd91122e6b7df17e34d10d0e04736df
611b121eb80cdd402cf306e003141b0c
000cede612cb0afcdb0e10d30af4e3f0
0e113e1107e9f0f9ccfe0df0fce810f7
ed1405f9cf120bfa03f005fcfa09100f
15d137dbfcf6450212051025d824e40d
462814e0e7100528f7050bc7003037e4
282ff31ae622f302f2da4ce103033207
e4ecfc2104e314ef390135e8efc8c1ec
0d32d7ee1217fa25faa719c51ee6043e
34e1e20cd52f0d0f1fcd19ba090b3a00
eb0c040afce80e21fb08fff827fb1408
d32325da27e0221e0ef4f6d609f2fe21
9c0ced151807240e31c1f2f8092d0808
cad7d818fa1dbcd2f115d1e7e4fdc2b0
eac01dd5e9ec32f111f201a9ef04ba15
250342f3f41d20ea0031e62c0bd0081d
ce1d2309dfec45101ee804fd26202565
f30df003e3f0fafff331dee6f014facc
bc0d0508fb46efec0ef6f20ad30fdae7
e1f9070ff7eb0011ecf0f4b8e6ef1d06
1ce709f7c05902d413f32022d7cd24d7
1a1ffb35e70227302606f3ceecf6373c
f10b10ddec9e190b06f014b70ef3de3e
0fe7ffe3eac7ced5fe0ee31ae2ece501
c5e8cc2115c126202a09f5cf16e63244
e631fecdc6e11cfc36ff1dc2f310fc0b
fb17021714120005f5111e22050205f2
0914140f265b03ebf424342bf522eae8
dc0701fa211f03fa1afb1b3f15c6e0f6
daf79b0722cfc7fa0df1de20eb60c548
ec0324d4e107efa3e7fc2e3fa8f0f6d9
0ec9130ffae118b4fcca130be82afae8
cff922f00b08131cfddf352223f4d3ff
1918fd0409e210f5dcee25e2f11bfffa
e5e2def3e7f80f2d17d920ffdae62bf5
0c070f1512e1ecff0cf81f0000250eed
cbbfffb9f6fe1eda14e4f301c147d7ea
fee2ec06f14105161d192202f8d802f0
0c08190108cf19d0d0f4412dddfdfff4
ebf7d30efda9def715c9cfebe60f040c
f807ecec134ecef9040141173eb904b9
0def1e05e80a0fcae4eceef0f0ade9e6
0709fb02e9fefcfaef0313fedc0e04f5
fc1e101ccacb10e00cc0db1d0312011c
36fe0f61f721e4d6d808f402f9dce4e4
c3dcebe8f5f014153af50b0b1de0e747
25e7dcf6ba1620f5d4d9e31ceb53010e
59d34cd7d44413ff271e120b1c0fddfe
f6fd163cd74127acf5d2d51dea14eec2
21ef0ec9e1270430021750e4df11e7ef
d9dc2b00282213b7c3092110e50b291b
ef11ff0019e6090f12fafb03ec110511
0cd0f9cc2828b2b5b036dae3edefd4ff
232fe4372cfcf2f0c823f6351ef7d7dd
38043e07cb1331c11395bf06ec26f4ad
e2dff8c2d107fa3406e401dc3ae0d2af
e22a1b40efebe7f918e5e608f3fe01f1
072b0336c1cb23f812c5b3bd3308b2c2
0ddf0ffee8f1f7071c0510f41f14f22d
18f502dbedd211e3f51c3ef2f822dc07
010603e6f0f6fed034fb22fee034ad35
dce8d6303008fe59030dc6fb17ae73f7
e0f616e6edd1f5f647c3fcf2f10723ee
f7e90120ab0f070cfae7ef03e3f907fd
c5ea0ebae1f81220edb01cf20b14edf0
190d055e05fcdc1be53825fb193ddb1d
05f659c808124b44fcdf502e1b101b1f
f6f4f608e40a1ce80df311190b13e015
f017e2020dd330dc36d7d5f5e8c52fa9
cb300132d3f4da0be9df11f2f225c931
e8e714cad1aae70a3ae04007df2d36e0
02c0dc26f201c406f612e1f9001bd019
230401eed4f202edfadf242eff43ad35
e8fe16c8d7cd1db442f517d2fc1a01f9
0522eee7e203f9fd16fb0015fb090300
e303f7d8e706f6232001e91e01460112
e82127cde81cdbf205fefb210b0ee5f6
15ef093216031374e431fbe2e1bffbe6
e8faffe905e9fa0113fe8c0b061c30ea
09aa1d23e91bfbcab3ee374102d2063d
d10d0fca05f1e6efecbeed4a2e29f33e
0ceb1624f22de9f30ce607e91b1f0008
ddd9ffe94f334dcde6042b102f100ff1
f3d8f0f3d7ff0df8db16fb090bf00208
ece1ebd431fe400edd242003e7ecd406
190022f7e929d003ede41bfb0d01dde2
b925ffdadeecdff509a1c31afa072cdd
04d9f00b9feebd0af50ccaecedf10ae9
fb5f08e5eb09ebe8ea0ee02316ec4afe
cbeb1ae3ddece00006e7da23f30a34f4
f001120514010efefefaea01e2fdd60f
14efe9dff90ed12ada0eee20c5ffdc0b
0ad90ae7fdeae40c03f7120dc203eef0
e9e9e2f4065e020331fc0cf40f2927f7
dfd8d9ce0215fff9ead213dbebd505ef
32fbe122f11f0105fcf63dee2d27fb2e
18eae8eeeb0bcbf6e5e13218be0eea10
e80225ede5f81d1207b9db001dd3f118
d7e2f6f6371df1cded072df0f0f4d509
f7e61c260c01db05f815f4e7f1312115
ec000d013a03f214251406cee7f93e07
f707402837f8d77de6e2e41ce2ec0dc5
15bbcbf7ec0da60cb5c01af5d60210f7
e009d9190d29fadfece61f05eeee3244
0de51aff180be724c8110ad6c9e702e7
ffe1fe0e1404ee00bae3071fb0eb2ae9
fe020b03fed60f01fb07f3e8110dffff
0bec13192bf53748d81839ddda5522f4
e2d0f4162befd317eff0f7e1d3130e0d
c306ebe4b24c2ae3e9f20bf0fee0ecf2
15f8340811f62b0ee604e8e4ad091bea
e9130724f71a0dd8301b2a2ae5f426f2
04cd0a2226cf0017ed2801dfe3305b0b
f9f114e3e4f2f80000f8540aff06f700
fb30fb09f0f0f0f6032ef40df6f00427
030cf3c8e0eb1bf0ece0efe312daf426
d4ffedfd0ae3e8ef2adbf31800cede04
38ff1b2130dcf7280a0c38ed19fe0501
1a9e154639dcc7ffad1ff9eeea1228c8
fc0711ddde5a14b5e228230614daddff
fed30cf612fdee2fd9fffa0604181310
edf3335817d21a07cfec0ef6e3170de2
01fd110b160b06f11b0a160909f80bee
14091d22e61df9372111eacf151e04de
01f5e522ee0814fff111f7daef2defe3
ccfbd2c04104e1e4ceced7c0141ec210
06ef12ddf327e2e9b6e109f403e1fd1e
eff6f0f104daf01eb30b38ef03141829
1e322737e3e20d3a103520dae20727ec
c5feee2b07eb02e4d006ea25f9f2f3df
f134295afc1732cff8e60ff7cd102d02
e61135f7ee0c10e60c001e27270912fd
3e0bd2ed01d811ea14ca0407fa0f031d
0e001be219e63c11150fc937da173e20
1e0e16edf308ca03e2012e9bcdd022fc
eabcf4def40fafd3d6e518cb3116e6e7
0cdc15e9e301090b2f0ef3effe140e38
450b06eefa1df7f524f23bb821f733da
0b0a16f8fe1111f8162bf604051beb17
01290a14ec0c25e42c1411d50018e406
e524070bf12fecbc280509ed1d55e418
31b8d932fae30e7bdfb126380cf93ddf
0404e0dfdff11224f30def1a070bcaf1
30c70c51dce80d11194f0601e5cf27b7
d8f8ff1ce20e48fa4c3d34f71c10fd20
f8dc06e6dbc00fa8ff122fdb002ae9f8
29e33e35ad1d0eed032dece0e6e5eed2
34f6e721ff190307ff01f0f0f4fedbdc
14e6ea20e0f2eb070bddf227ecdc27cc
2318fc18b65af602fb344804fe2d3500
f30ff9eca420180b26141ad00615cf23
40fcc4e813dc29faeac0f9ddf6d5f40a
c81ff7ea021df1d42019f1c3e910d11e
e93215072214f901d2feefeef909e8f8
03090307fee30b051114f309d40ef5f5
36f710d10ee11603ee1be228d6f6ffd5
f5cf1cd508df0d26ddf8d1e8eb0cc9b1
c507c201061335d2231e2e17e6db352c
10c4e7d7efd01bf70f320011ded2f8fe
10cc2e1cb4d72bf130100906d6063648
1fae27b7f9a3cbfce217c535ed2104e9
02f2f82c18f4041720f11addf4da4b2d
1c220e081de1ec0407edf90f3bb7f6ce
020c171100cb21e80c22f0f9202825e4
fa11f204db0afbd0f0f31dfd0514eefe
0dbf35e7bcbf97031118050708d902ee
26eb03ce15bd0734fa020240bcfedf9d
e2b80511fc0526181aff00e9b6eb2328
3df305f60dc8d835d0170407b2cbebb8
20def5e912bb02f31104f5ecaae110ea
fdfefd0cff14f4fe1103f218dc101f10
fa0cf6ec462af5010925ff25fc13f317
e5fbc7db07eef0cafa000012e320203f
67f2c8f7d7de1232093801c65202c1e3
2fc0d6f41de4e91b0d0fe6e2ead8ddfc
e107ec153bb819f2d53626e12cf10819
d4f6e9162703cc0ddb2efa0916060ae9
f216ed1105ae19f3f2e0d8232213f5fa
36da322deee628d00d191d12e5f42100
1ce3f31e040910271a16efd9c6d70fff
3bf76600f00724fae7f910ee09dfee05
bf2801e9f4fd0243e9252335f9103859
e6f8e715301c9c37b724edfb32e9fdfb
dc1fba0df7f8d3d3f3ebfbf8efc0b807
dd0bf70e6b1fbe27e5340a2d0b292a4a
ebe1b90d002bc50cfaf31606f8e80f2d
0d2212faf7242012312af301010203f9
0a09200ed71a1afc162a01ed422ffb03
d1f640ff2300491a13e904d2fb24040d
1212c618e40713ebf11a0726acc5edc4
41e8de060afa0ce731f719c200010ad2
43dcea0f31d00c3d361e03079281d41e
1504dc121e0ff62327f0ecdc2300fe27
ec07fff736abe1e8fd14fe03f80330db
f104ca3218cbf919fb3016efdde636d9
11fdf1f2f9ff31060c20121eedd50ae7
fd07b915fd09ef4aeaf1d8d9f8ebd4d3
220d054424f1d91309ec21140816d62c
21fb161834f8c0c54805fafd4f120f29
23ee04e5ec0c31e5f303ec20e0fccbc3
edf31ff7e2e72a15bd042c801a071e0f
fbfb19eb02e6d3ec5702e1f1132f071e
ee0ef9fd0cf2070f0a0512072ef710f7
0a17d0411226f6f9f20028eff2f422ee
005ae53705fcc1d8f5cf28fc06be17d0
ecfb25c9092b18f7f642f0f89e21f62c
e818e800e2cbb202c9dacfe3efd92ccc
ffcd25222155fa19f613e52ef01adfed
f2319e42162c02ef11040f3218fa2ff2
29e25ce8ec1f200a14e3f7caf5c92ff3
1adfe7111bfbf9c3fd02e413ec207f20
cbfb0322f3f2cd12f4e3f00009dd12ea
09ff92f62adfbbd9e117ea21033ee927
003e124038f0c608c4012b21173ad9f7
fd16bc3cb900e1d9f20c1aff1db53ecb
09e52002bdeaef29fc28eccbd591fbb3
1432d80bc9bcfb0416d6f2060acd21d8
3b0415f900e3ce05f5feeeda08f60dd7
06fcfe05ff200720f401261700ff07e9
162a12e609ff0addf60048d313d8eb07
0f2e26f6f30815050e2bdcba0ce2c8ef
0ee9b22c3ce4ccde06d5f90c095c2ebe
2de4ffbe1705dfc0cde7f9aa082edb0d
24f53422240f2013fcec1d052826e7fb
174e3bf61f0f2f10220340d5f2dfca18
2cf9e204f1fd140138f3060815d9fb0d
11da3432d619daf40209d0c517f4f2e5
07f8bdfc080afa070fe5facf06f4dae1
f1e2084235e7e33bf9c604d2ad41e8de
f23a2e3213f6dd40f82c06cb0ff0ee42
170f06b61afe0bb2fd08f7a71724e601
e3d4f7ea00f5e1e52fefe8c6d50efbf4
fa2442dd2af240d322564dbeb505bd16
d5f612e5ea14ebb2eb3412e407d6f6ef
1c1a1108fe1c15eed2391625f7f80eec
1bf0fbc61cf001c7f9ee8008ffd5efd4
fff911f71aea1e0c160f1bf90deb0f21
0be9331c22e4bce40cb3c01704fe1a19
ebfb2615d90ed2eff4f0e31af5b205f6
0f0be5e5cdf8c024e5b8dd43f2e40106
0a14043ae5172ee4fc26a108050bd29d
310c13f469a0220ae51cd6dcd41717fb
1b0f4a0611e53d291e05f6c1fbe71916
faef1d0938f0f1e42be0bfd70cfe1df4
f9222d57f33ffb15cdfafe461016e0db
f52a154ae51da905062224291ae4e92b
0e032be036c507020c0108ca1cf31b28
e31a21fd212bdfe0d5cde8120de1fff1
d0fcbc02dfe4ebf32c221627f20fe50f
0a530314f41f0129e831ee0deb061edd
0d051d1be817100bc2cf05f5e2cf240a
e7f8ed07d62817fee4d6fdee2e9b0002
18091606fe05f61a080a1cf600231ef2
e1f0e31ac30af3072ee915d80acb11fc
18ff1902e2ffd34b0b001bebcd0e38f0
25dd09043506fce808fd26d83317171d
dd1abd0918e6ecf4f7c8effa0ae9dbea
eac7f3fffdde4af4da0fc601e9f9bce7
242529280e010913d42517241508f2ea
f4fad6f8b5ef32f2f108f41714f3d5f5
3306030205faf91604c630dfe009f0f8
2e0df61af535ad291bf30eea23077f13
15111be6e806e524e41b05fb110e02f9
02f3f3f2ee29e91910f805dc02051409
fb12cb613023dbf9313d011b5d26f31d
ff281c0517fcdc0dda0cf50efed0f5ed
2e23f007fd461b1bf813f53c1dd82222
bbda09e1003d0301cd05f3ee061536e6
01163124eb052e06ebfa2d2611cb152d
db0138ecfde40624ef19e3be18e4e310
c7210fd210c1292d08010b1d3e190a35
0f2c0fd2af1cebde0c0aea17fbf9f021
c5003d18ef24d50dff05f4fa0e01fc0d
fee9f015d924ddf0ca34d60e04e11305
1c17f21cd7211b11fe1ae8381eea0810
f01102ed0bf8df170de8b0c50b12f62b
ca2d2007000b00031d28f40400f73e28
fd0c1fd4eabe390d19e44cd937fbe24f
010b1c13d8f11efdf012f9f901dd0b21
f0f727d3eaca23eee81808d3f0e7c4f3
2de3e207fad7cefb42fdf912f70df5db
f61e14fb1012f20df119f2fef4f316ff
14fb0fddd0070714fee219f6e11ec80e
14ff21f5d8da250bcffef8f0fed1fdd6
e5d7ecff02e00b2601da0c12e4140906
0202caf30f14e7d007101eebd7fdcdf3
f1ed07e90a1b12030ff7351d05e11be2
f6f328eb0cecf407daed16f80311f2e3
fd1019f502f3fbf61df210eba8dbccf5
fbc4f0fce5b1f61c10eac003c62312f5
dfbad1e201ef0f3e2f07ec0ce3180f1f
261005f1f11af1f8dbf1f0ed07092dfa
10edf3d3da09dd08ff1027fad1d4d7e2
20fb0a15f90f1000f8ed35ff0aef230b
f1e9e90520f41e130bd40dda08f6f707
25eb3c04e8ed1ff5e4ee102ddce5dae6
2b17f8c5ee31e3e51f12f0db08fbe803
371608f6d7d8fcf20716fdf9ecd706e7
0f1a10faf1e103b222f6d60b1c101d13
090be406321ef621fbd424f1c8d50fe0
23fb21f90cf60ef0bc05f21116f9ef05
1c13e0d5e8f9382504bcedea0810cfae
16011b10ee1027d0ddd4bafe01f2f1e7
0c0125d2fa1812ff29ccd1fdfae2f3cf
db100beef632e6f529fc20f0c8f0221c
d91c01e80c1cd448e0504be6e5fff60d
0506250c12f555f7d21a22401b13e306
0106f4ebf1040804f6f3f001ea1fd406
190c3a190ff609ca1de0db3203e5ebf0
4af02f25da1b1cb2f1cbbf0aff3efff2
2702eee8d7f60f23f80e382bfef3bed8
1f0e21c2c02e291f09c7191aed15cbd6
09f8e9fc42ccf95e56c3f71637fafbff
fbf528fe1200ece407143503ec29491e
17ee6fe810f82f3ae6124334241a0807
24cf010900f502ec2420c2ebcdffaa1f
c811e6fdde3af829e8fb07f3ef0d1af3
1be500eacad3eff714e9fd261e00ed37
f9f20af2c3edee102bde31fbfa0eef10
0b02ed060406081a2c09d6d6f4030204
191a07ae17f0201eca28550d3a25f040
f950e2e20a0cdaf8f21bd80add39bb23
d83e3725cc121614f70af813fe1adb44
0ff3e4f7ffbdcef1ee1327f2ec26f923
21f547d80331043fe0d020270de52beb
0d001adef6f8124626af200c17131213
1014f013b702d81de9142c0001fdedf4
160af4d6f1d819e015030afe2834eb3b
13e2fb1dc9120d3b08000c1302fb29f6
41f94f1018130e30db2d24657feeda0a
b5e92abd052d4cfb1211f1096d15391c
c00ae9e2e6eff19ee41908f60f0ce3de
35c7e9e5fb0be3f918fb4a131bf203fb
04d92bf79ed9fbd8f809da0dd205ef17
e304fcebf6f803c614b4fc2c1302111d
e1d2ded2cc110c1ac4f91b4d02e6d80c
10db28021003fec2d7ee0c2233314b1b
4edede173255e51834fe31d9c7d2cf27
2ae2150c0f1600fe160661012e1c0f22
1fdc2416d2eac1e9f6f9f0f3060b31da
b51907c50fee01eb0ac80814383c2523
0c0f0ff7e3e3040405daca2845322801
0bd4d90ae6f6c0f4f0ec22001ffef9f8
ebf714f9d70e02f312e4e21a31283217
2003371fd6f5e70c003539f7fb02da09
0cf3530a240339fd10d721fb3c4a2528
12da0e07fd43b4ed07012cd6f831e6cc
eceb00fbf6931306ef160320b4eed3f9
15332a05f8fbd3fc31112ef9f3fee353
ecce0a0b1b12d3e2cef120fd13dcf71a
1cd8e8c6f20de90be7d02832e5f104fc
260df30ff90dfb0825ca00271305ffe7
15fe0bd51c2603efe7fd25e5f712de16
011e50df38dd2abe312f17ce1ffade0d
053538ee300921ff1eeffcf10a1af43f
ff100ae83bfc17f3ebfdf6f1f6f2e305
11d209dbf54ec0faf4e62ae3d7f9ff28
2eefe11ec825e10ddfa5f1ffd4ff3ce3
fd2810fa0dd2fc0d19ccfcdefc04e141
f00614f513ee040500d63918dcffd211
4827faf2d64904ea10f1de1f16462004
f20e03d3f048f3fb26cb2dd30014ea06
de340e1c12fff0f2f2d2ec9cf6060609
1c3224ec09e6abf0e7e9b6041fd4dbe0
0806141223e7fcf93311fd2627192c1e
c9ef22fc01fb121d040515cbdd18073b
14ee312725bffff604101f0ddf3422ec
2dd70202f5ece303f40bdf2d14cbdb13
b3aff8e70702eee2f42cba0123061811
d104edc4bf1a0bc601f6d5fa3bf4fe3e
e3e2081bfeef0ee5340d002f3d242c30
d00eef0f0901fcefe80b16f72805f3fc
e72519102407ea1ff9150c07dc0d232d
43d0307e4eebd5efe0e3041fd92036d6
00ff1bfd10fbecf208071d0407020ee3
0ad2251d02df0d08ef1beb10ef001a30
e9e8f4ef05072b170dcbfc29370729f5
be0cf0050b120ee4ff17e8f30b20f50f
1f203300e3102110fafeefece3151f44
01d7cfddbee5dfbd08f90ffae1d3f9ad
0f2e13fa15ee0b1ce3031c17d0480e3c
2edf04b52022ddea0eccf9f62010fff4
370f2c0ef9ec27350b2626fbde0017fa
0d1701d726f4fa40330724cfe6f5d518
d61802f712ff10fe18e01c0eeb2823fc
e413daec21da0bbde6fce83718f3f0f4
18241e37f4092c0cdbcc0e34211f2409
f3fd250bff06e3f1edef2d1232fa10e2
2518221605f725150ff300d9cd131628
3c1927dbde38123af3291db8d2080e0d
f713100d0312f5fff600f127db092727
10041411fd26e4e0fefa13e211010e40
f2eec1f10d05f6151df8f0d8353209c8
f3131a05153006fb20e802e6ec0f3a1a
f601283bcb09ec0f31feee1bf62b23dc
e921f0e00beaf3e6d5ec9ce0ce0bcf1f
0b0af82dd7082d212508fe10eed81ed1
19e9f90321d52908f70407ab14f4e90c
eee61b0ee20c23f5282a21ff0f1311ff
2de9c42e1d071eff09df1bf4e0e61711
f3141429fccefe052842d5fc040eecf8
39c4de320ddffef103eef5f2ddfb0a03
09d8102df30410062e3b0c23f3e629b7
e01202e51a1eeafd1ef518ef1302191c
fa2dfb2cd7150f1a253902f81b250dd5
0a070decdf031b043d1a210a23fa2e08
12d9130dc7190ca7160915dee427130d
e12f14ff06df19fb1319ece90229c9f9
f9eff3f732f90e14ccfc102023e20f0c
e7095705d91304ebe816ef0f12f4eb0e
341905d723f904eae918b21e2302d2dc
17ffc6f7f3e60700bbaef2ccf805eb00
fc0d3010c71cedd72a21f8111f2f1c1e
e2bcff10faf9ff42e2f72be6c9f5fa0a
03e431e11ee1d70c13efd11add0105ec
0ffd0ef1fbd8d41c0b1e2cea0ee3d6fd
1a1919fa1ee6c313ead8e4041925a4e0
ea13da32ca1fd9d2e62c2beb4a42140e
e5fc4b28d9fd03dc20fce52a0c3436f4
20d50108f8e900f61eebf1f6daf0f4fa
1e291ee1472be3ef0026f64c3017e2e8
3df736ea2dbb16f71ee0c913c9f81dee
fff50c02f72ef5fc44fe0e2dfcf9edfd
17e8f8f331f710021a21050ea504f018
0118100317f007370910ef40033a0b12
0c180cf9621c180805e410271605f5f7
4ab9e726061105070910170214da2419
dacfefe5ea08e606edec01119fe3f307
e82b2806361c0f11e01afed52dd2151d
f0efc92d02dbe51d1914e80ed20fe41d
ecedff0d2909e521ce1e21f8fde608e4
151317eeff05e9fbf9f510d626f3d7b3
f92b1f3ae5e814ee1af7462fd4002022
fb03f823dfcd32de01f030e0ef4a3302
ee20101718ed0505192015dde604070b
ea14e807f6fbd2121102fa00ef27e8ea
16ed280a273214e8dc1afe4f0ffe2f00
0cf103113015c81ad901f90c12fed1ea
d410f90e34d315f2022316ef29f00af5
fdf7d5412bfad1171eee0e42f1d8cd1e
eb0dedd10f14eb172501fa031420ead7
28d6140b050111f4fff43540f338f6ef
17f7ef1fe612eb0b43edd7e410f135ea
c30ef7d0090e000233e812d00afedccf
14c5f2410af7183f0ff4e13ccff3e82d
230ef90bdbed130f0b221503d4100cf2
2325f22116f0d61544f7d2f91900e534
210abcff1c0af303071d19f613f3f115
d60fd026efd73d0cfbe4fdd2d70c160d
b9f8f8230c0a34f098e20a10bcf8f61d
e8e2ee1401ee1c13130fec13e7e71f2f
0ff40feb10dc120ffa2b0bf2f9db09f5
470bfb04d3f2ec0a23eb15ca1bef15fe
361af90409e7ce2364fb0a18fe020e21
14f3de0c19d6de21fe05ed1defd10826
f20aea3027fb1f171d3f06e1fd071210
1bfbf90efb2a2d21e1dd172008060106
e32615fdf8fcede8f1f3e6fff6c738f7
efecb4ff31cc32e53a2af31a1bf33d06
1c1702d606d10210faa70fda1cedd2ef
fcd61720352cef10e729dd3b1522d701
bcccf0fde7f6dffa02e002e2f3b5249c
ee0efc0b0de7f1e21b2213f91b0c0005
0413cf1b090d16160e27d90cf307f31b
1b01dd09f6f8fff113c9f70dd7eb78f5
e9e3511405fff50f0a000505dd1bda28
11be253f3c2ef009f523fb1d0209101a
f2e80108dd0dfc18d4d231faf6f21fd6
ec1b801f170246e85df5f0210c035522
2614dd301e12f0bf273a05eaf1ff1413
0bc3350af0250019fa04fe2c0fddd815
1414021dfcf5fa0c09d2f5f50ad303f2
201029ff14fb2216e64c1d0eef09bbfc
2112fef118090be05fe7f112f006644c
5df63d2512390422080826b6b22224e3
edd7f4dabde9da00fe26cdd90ceffdd7
11fe29ff2b11f13707dc112a1be6f436
f514d4de04f607e51c0701f111bb0101
f0113b0b3ce519f1eaff11ffedd3e924
f9eaeddf2ef8c010280404c9fe060125
2901f83cf635fb140117fdc103eab8d4
0400f8f7062fff33f6fedf3403fc02fd
f406440d2c420539f9df430c1df2f241
171bf7c80802140310f225f00615e5ed
3e2f2d321019f208022cfbe8d9fa160b
fb0e17df1e370cefec11320713eb06ea
0ffb0a062805f60c02f70b1916d00d2c
04e4f0e9062f05f4ec042be416f20115
2612f60bd8eaf6fc4afdec49e30d000c
23f9321e0411f211010207d4f8ff28ef
d6bdd2bb43992bf3062213bdc9fbbe23
1038fe1b1123e7bec815d4f6abe2d2cd
f20c1d131ff4f8d808a3e70021c8111d
f32514441dc2f237e7e2c7d902270acb
f60ffdfb22dcf9026fd41e03f51603f6
dd02fafef2f3c221de0ce7f5cec2f4d6
d22d162c3223dc1203f43629f2bb16ed
f6f6f3111c1afb00dfcce90300dcd6e0
0c3d210cfc0acbdeddefde0729cf0efc
eaf1bec1d9e0044e3917f0e0f0dacb02
052b0cf4e3222d0be41c0418df0814cb
331102290e0bebd60de7e11ad008f001
ed07fbceddeeb0ebe0c8daf7ddbacce2
20e4f3db01d62035f20543b2f930e136
ee250afcc5c3460efd0bd5ca10ff1e2d
ed07ce00e0014116f040b7c4d91c0beb
eff2b0fb01d705b6f40ddf03280cb8e9
0110ed360e3209ff07e419c716c3c000
eaeaf2f8dd0d27010b0013ca14e9e01c
d80de2caf0db050aaceff9a7fbe8e7a3
ec23fe15ecfc2b330f041af9f5361e11
eef6c90c9f28f201e4e00de9ebeabef1
2920f4f2bf080c4924a91bd3f718232d
261de3effa0318d9d3f6fcc7f1f8d109
0efa3af8c727ab0e03a319e2fc194e0d
fbe9e407f9e8e8ea0c0706ce2dd4dcb7
08181b0802031e16eaebf3f6d6e7e00a
0523f2e400100002df1e0ef5fee0f009
29e410e3b1cb08e3c1c917d10cfd0b16
dffbadee2cdff3c8ddeede2915f4caa6
090a33e5f3de14f9ed11eed8f9cc3fc7
f216fedc2b231c10f1ff03e700b0cd25
15f0d4ecd6dfb7001c1ea68ad01ad1bb
e70fee02e604c9eef3fbf0b90bf9e3fb
040627e7e3bbf30de5db04f7ebeef600
fd160842eadc191df21fd1dbfd1af11f
4215ddf90615d6f40dde25f0073727d2
cfe6dbe4d4d51605131bf5b5fadad9dc
c1f10baadf01f32b070d39d016f9ef0b
f6e4e0e7eaedcc0e28e40ac8fed7f4fc
e71324d3f7b11e23f2c52ee2da1dea52
0bcccdf5dbe2d0fc0507ea0fdcead8c8
f205e9001541f6fc1e16da24eb0b1031
c7f2dd0bfb01f62300c2fcf700110d09
c2fefa15e5e1f0f13bb7fdeeed11dcce
ffe2e32df100c5e40c11bed6c5f201dd
15dff5fd072eed18effb0def38f5ef0a
e4fdf6fefb02e5043a0dd6ef2ad41d16
c1f5c8cc0be4bbe8cf2bcadb10170316
35151aeef208d6360b17dd3c30f1e9d4
efe7fdf3f8e6050ef3faee03d4f100f8
0e0ad60ca807eeff0013eeebd10efcee
ee103260f910cb3d1e19fe2b161b1718
f103cbe7f826baf5eb16ff02f4bfd1e2
15fd28e4f71503d8e1fe3242dc0bebf9
1c29c0e0e82002b4f715fc08eaeef2da
07f6000ffeeffbf317f328f4bdccf6e6
e3dedceef1e5ab0bc50fa7d7dbfcf610
0dfae8faec12f52e06faf414c605fcd4
e205fbfe081a042a09f6090503fbfbd0
091326d1e4241eb8d5d6180bf6e307db
0720f9bd13f6ee02f400efe5ee10e020
18f3f7cb180a11f4e6d4fce214e034e7
4eef15c6e81fbde80308d6d0ebb6c7ba
ded4051edbcfc63fff0af8edf6daf7d6
b606e926dfeedebd2ec81b0cc52605f4
101f0dfacd021105d6e7eaf005fedfee
d3fe0904f93b3bd4af102f1bad041de4
f03b061b21dfe9f2fa0a090f0edf08c8
e01bd1e9e1e0e7092abbe10626e8d0bd
2b060c04bc231eda10dad738e925f5ec
d120fcf6ddb3efeefcfbe406ceebefe1
0e0af8ead90f2da4d4e9bb1e1f0bdedd
f8fabb0adbf0112e0e041f0614a9fdf1
f6151cfa170ef2010d3a2607f644f750
ef0d0207180005f3e6d8daf2e310fff1
e7ffcffbbec301dff7c6ccefd9ddd6b4
ef0ccfded70bdb1fe3ea00f926dce602
0ad60719eb1a0a28f4117b1a2718dff4
bfead822fd20d6def20a15f7bb1e47e6
b5dbda1752e3bdffd413bfd8fb03db3e
2c013908e689082ffce53d235de6ee2e
edfcc44adfba1cd010ce01dd01f0cb46
00f410ccf7f0fd4ce5f2ec102ef328f8
e10bfa2ef816ebfb3cfb10f7d5320b38
0d180bf1dbc8e5f7e303e30401def519
13f232b1f5d7100521f9350f0a07002f
f2e9f403f9e6cb03b7fbccddbde911f3
f8d11fd0f6cefa2007c333f7f30ffdf5
eb0cea4b01e9db33e20bdacf08fa0606
fa0f3bd500e9fd31f1fd1242240be5cc
e72006f0eaee22ecea07fd01e70ab11f
e4da9db8f1f7c5d2f6f1fcc707138fbc
faf7e3202710f22fd4ffeff72be5fc18
06ed0b08e1039912e3f31bfd2b20dcfd
25ee2ef1d9051031bef916081dfda5cc
12ef1c41f11c1620e8fdf4bddda6dbee
b0063addbe0bffdeed0fda1615291506
dfea1bfaf1e8f8daf403cdf912de0306
f6cf1fccfb0801effec42526f61f1630
27000916d918ef13124f38ffe51e0019
d7f610c9e6fde72de2d4a5f00302cd18
c8dff8bec01104fafdd9c52a27f71615
ff081d18c2cae4f9fae4e724ea13d6eb
d2e71ad3fceae8ddc3d3d8fa1a2646e5
220d1226cfdbdd4bdbcedfd417e1cfe2
dd0becd21c1c76e50e19441e6f290916
c809f0f10deff1c610f108f707090906
d2072418f5ebbeceedd3df04d61411e1
2101f62506f5fc41f536f4d1090125ed
06081a38b2fceafcd8d10d0235e72034
d01157e812f90df50dd60ff4093a0600
c90100fde2001112ec17ed0b03d942c1
d9e5eded2d27f7cee9fbddebf9d6d0ea
1b19ede20cd7f2eaca1b12fe04044201
04db1bb4db2cf909e5e1dfd2fcfbf118
3241f4250e213eeb030ae034273fdff4
daf015c51ef9da04f4d117d5ba0b04d6
f9ba07fb453ee5f6e3c90bfbe3fff706
f0d2fce90cdee805bff7dd05fddbf1fb
02e808c8070ee62becc81804a6e2fa15
dd27f50df4fcfafa03e8c80e14e41f06
03c408bd4b18d4df2ceb27cf052d2104
e10d1ef90fd6f2e4021304ed0a0e0e04
f8d107d8d70adeeabde7efe8bcc2e4c5
ef061ef9ea23fc01df18fe023b0afdec
16e505fe33e0341225ef09ec01dacb27
f6fc11ac040aa80d19e000cd2ec2f5e0
fe06d1aca5ff14f3dcf404f713c0b2fc
d3e4becbddfa181dccd5dbf8ec20e9dd
efff10f9d3e10aedf21cf42cf6de121c
ce25dbfa0507c6d0e704e7cdd3f2f7e1
35fdfce5090e37e6f9f0e8252bf61809
ecdc0ac40becbefdeee2fdb6ebf4f800
08be281917cf112de9070da8fb1d410f
c3e6d4d001f9f617decafce6e2e2f8eb
fda10c2c1bd7e4d50619ec18fcf865e6
e80a21d7e0ff24d1f6dd210cf7d3cee0
e224fde4f012db0c1efdebc0f71804e6
f90a00f1d7d6023809f9eb0016f40412
0cc7ff10ee07d504c4daded1deeff2d4
db12eac2a42707db01ddf10cd8c4e2ef
f70004200c0fdaeef62113f33c37070f
e714c806e207e820e7dee4f2b401f6ff
cbc8cccf37e80fc8d4fbc8db27e3edd7
dd0ef3e50915b6e81f1217d7e6d1f0f8
160af10ae50e04dafcf216132bf3f109
e4014af11617faade8f0e50ce2f5f225
09cfc81a3ae60017061cdd172932cee2
03e9e8e916ddd929ccfee7f7f0e701df
180e42ee2332fa08e5f133f31ff80b36
00e400ec1df5cefdfa02eeebe1dd03ec
18201ee2eb212a0ef82419badc0823f0
d8d5cecd24e5f1f0ded78ae9e8f7c6e6
0c30f0ef22fb38def9fd1231e90f2afa
e8f70533c61a02e5ebf20d1d2e19f0ea
08ce2df4ecebe0f52b0efbd1eff204e7
daecf5c61e1007e8daf5d4b81205c7fe
0712fa0407da0913e50c1d04b8df24f8
f9fe1a3a15132cf21a06f1fef1034af9
39f7dde10c11d607b7ee19d8ef05fd1b
0f0133ede80de5e6e9d6cda62727d916
35e4ec0006e41c07fddffbd71bfae90d
57cf3309d50e091b38f8def3f20dedcb
fcf3e6012619c13800dfdf0514fef8f9
0904dbecc7fb29daeaec1af9fff6c0cf
1a16ec21bb0014fe2c0f1ff11d29f103
cc1ae6da0906e80311fc06ee0c08cce5
d9e0061ce80138f8322711d7f51fdcdf
5216e0ffec0804cfd7cc0f0706c6fe06
41eb3346df15f724ed1204d4f1052ebe
11f3ffdbea08f2e7eff1ddd916f9d901
bffee2a2ede5cad3fdfd0bd51410bd05
4d0708271cfe111deeff0ff1ebf1070f
30ca202caf173addf41e1bbaefefd823
d1252020c7fbeabbfe1313dfede9db16
87c7f208ce351b10363a32e3f5f2f9e8
08f8e8e638f70211ea0e3406f0eaf7e7
e2d2190fe80a1e01fb14f003ddf8fe20
e1520827ea12d1e324de0ff427fc1018
efd9f62fd307020f0312fb2ee42e2020
02bfe1e5decbd2e9d42b1f02c2dbf9d8
31fa31bb0bcf1419da5eee17d4cbc2da
e9ebe5c8e504f53be212150ef0e0dcc6
e5e049f117a6070201f4ab08060ae4df
aef7ab2cf231e9190b1e1be605d428ed
4a46d7e2391a12ec0b1f090d0cd2f6f2
1ad62c0106f0d4f00116dcfc0504fff4
39ece4bff100c0f8b9ddc515a7dbcbd7
ade5e9f5d92726cfeb294cce11ea110a
fbef28181a20b7e459f5310a1ce92221
180fe80a0430fa28e621160affbdf7f0
0011aedcd7d9fcd633deabe61000fbe2
faf5d939f32caf1a0fe1fe308a28c62d
ef07e7f600fe081e26fc02e3e0e614f9
42f330f907b50eede9f7fa0fd5202011
030714c0f416fcf10b12fb0e281d0e14
c4e6dffd0308d210bb04e1e1fbeceb17
21b9d82f1ae8cd0b1211130a10fdeb0d
c6e9d4e2d9e5c9f80609fa261dcb0a10
cacfd42319f8c713d8fce8f9f7130fe0
ec0ed2c6d5ece8edffe0c7e01306ecd9
3ac14fe7120913d7f20e02fcf2072df9
efff040102f8fff6090f23f2b208012c
c9c5e90821fad1e2bbe4322ec8f30f15
24e8d213ecc11baee5d5f7d0ecf7d903
07f90c320fd4f206d40a150626e5fc40
f9efe0eb07c711f0e407d10a0ec6f7d7
05efe7d501e721e0be2bf63fc6ecdedc
cd0c14dc160a30d095ff340537c3151d
e616e804ed0306fc053214e0f0c60ff3
e909063ae2e90ee8e6cc161df7e90bea
12112301fe03403dff1037f2101cfc05
d82015e41e110ffbfcf90ddb060ef9f0
4d12011e06030f3d1f15058efee82329
f4320aedca02c4fa0ddc440406f30cfd
0a21edf8f0eb10123102e4dee707073f
ffece3eb03e4eae9d8f40c2e0208f8e8
f5fddf04fdf6c8e8f0daf4bde7d515fe
ff321ad71cf83d19de12f9d7ef021407
09fa2eea11fef5f215e318bc3e30020c
e3f0eafd03f6fb0aa91aed0bd9d0d2fb
110108411bc4dc23e7f0e639d2051a0f
ef05fa33f314f8cd01c4f6e12af71911
edf61d05ddedfe0806b5dcf0a0c0efd8
251fa5d8abaaf50d20ce4acc18e215f3
16010c14f6ede1f3d3c8d525f5d30bd7
f3fa03fed8fd2a044b0032f9e2dd4cde
d4072739250ad212f409140c271cecda
130ac8f8070203ffd7d6edced7b8d8d7
e93db527e7ddf1233bdff60efbc532c8
1024b7f0fcded21fdcfd00f9fee3eeb2
08fcd5052c02f6be3ae2fd2130e836f1
00ed38eb181dfaedfae3f0f1cbcbc1eb
fd1a20fd0ef81cfc31ef051a2d063d32
d909ce0802e3ee07dee912f214fae9fa
0210cab7d005ecfce612f19bf1e7b6cb
ff092eefd91efff0010cf624e304db28
01e2340ef72e184c11f8e8eff90d11f3
03fc2fbed4c61d110ab4d9f01ce329f8
f5b4b0cfdde0080517fdd63008d32fc1
48fefad9091c22ee083ff1c5ced5f2ea
c7e310bde829060212df0fea062207fa
450ef91a0d09ef27ff3001d4cb190bf8
3413e0f1dcc10dfa0d2af9291ff2ec0d
b6d3e9d4ff07e2c4def6d8defcb8fcdf
1627f9e80b34e8ff1e110eb80dfed7fb
da30ffad1af6f9d6e1120bc8dc08e609
241255f80eeadf04e30b0ecfeef4ce0e
dbd4b4fae5daeb12ffe3ebfb08b33efa
440ef0350a0cfee7060605e7d70e401a
c5f7fe060109f5f1092e1fe0f0fbdefb
efe207c90fdafcc3f61f12e119d0fef4
f9f9f14af5ede8e2e6f5db16124707f5
180c16062b2115272ae604caccd2f632
0cffe8fe0ece0de7d7f809a0d2ec0e12
f7213f17b9f926f6c424e1d307dbdc07
fe3aff3e1602dfe715fdce040de1e0f4
030ff53a23edf6bbf2a5c6f1e8ccfdec
0df9f0fc24e9f2fb19fb19e8100dfe1a
0b0f0dfbf6f9d6a3fed5de3bf2e455f6
d50f0715b304fcddf314b8d704e61a0c
0b22e81c3db408021401e2bdddd246f5
ef222b1be529e017c7f7053b32defded
ccdbfc090306becd77c5fcfdf8baee09
1314d6bcddeb2f47bb210ce3ee44e634
ebcf22e2ffe0395adb0539ca0820d61b
fadf1202fdd9e725060622be05fae600
c700dae1e9f1d8ff15d7d247c4c9f0e6
fd48fbd3bccb40dffcfefed711fc32ec
be363b10ed10fae0130c08d525e4fa17
effe0802240cac11c3e21c281fc4dd0e
38433dea50f7d040fa033f1adcff3cf8
2f3316f7f80aec2b13ec1202392f3818
1b12deffbef60911f31a08cf3e021bf9
def6dfee1004f4e718f6fbf11706eff7
fb1158cfd51be30bee1704d4dff8360d
302bfd25f5f7b8ffde0cbad3fbd745e5
e4f0ff051dec10fbe2f8db06f425d8d6
333603fac231eaf905f604e2eaf93b09
1a31f90bda32c8152b2420092855e522
dbf11ab635e72ee999230cfee405fcfc
decf06e30ce50aeacbedfcf6d70ae4f6
0106d3faf5effeece809152cf434fce4
f0f688fce82207ac01d2c5e84ccbbb0c
dbe529cf26001acbd3eae79b099ac3f2
0339fb10e00ad31421d6110a211912ec
f40316d1c3fff9f714d21fffe1c11c02
042e1f18062f01ebf6ff3ff12cf9ee5a
e603f5d410cc1b0f1dc0f8003c0e0d27
0f1201f5efcb13f41c09d9c5fefbdaeb
15e4c6fae92002f6f1fbe4e6f5e1d0f8
f00914130cec4ed004c501ea1dd0e7fa
121c500201e11f07d8edcfee0d3fe232
23d2f501fbf8d0050911e9e70f2229bd
f01606b70acb39151cee13f917e80845
2a2826b0e1ade50001e91aec04112626
db33f022ff30d2d5c614e814ede9fdda
e80efc11da02eb17fb1ce20512c9d2ff
e7f9ede221f6e9f2e804d918f3f70e07
04edbff61ca9da0716e7f4cdd51dede7
0adaf92ed81be7162f2ac71c183c1ffb
f106ece50800ed36320005fd0b22f63d
f92619c5c00046f5155040dbfdedab16
11fad00b14ec31d632e04740e4ef3ff0
10fe0c214c21d3fc3a296a2032e4e0cb
2818f5021215ffeef91307461af701dc
ecfdc10dd9deed1e0bf602f0d409fa40
101e3b4530f1171fdae72b22e7f824ed
34f0e9f6fa00f0d0f7031802dfa6f2d6
fa16b509eae7e003e315e1ebe8f335e9
16060813002520c90e2720e7fedd32ff
0649fc070b17bc0ae411f93237cd2af3
e8f8c9e80de9d230fc0ddcdff5c3070f
c3cfe8dae3fedffefbd7e6efec33cb0c
e5201ad70b14dbe51b240405120709cc
dbfe14050513cae3d827adf033de0000
1a142af50f171808d637deb3e8c6fbca
f3f0f22e23fd12e0024216282efa0417
24f7d6f4ed45159e24ec1827d9bffd0b
4d05feed1d1c17b9c4f0e147010acdec
1510212b12d000dc06eaef05073df6e9
17191ae5cdf0070b17c7e1feb900f5ee
f912e0d3dcf0def1ffffec001beeecff
27f10539eef34102d6d5f7f8e72bbdd8
e1e92919e21422d7e2c0ffefe70fe3c5
1aeff61e0e00ca21fa053bd8f90c06ff
2f040613ce2336d810dbdd2f0cffe4fb
d7110918c413033221e928fb0e18d4d7
dffa02e23934dafc002337fcfee82157
2012fb031d06ebf6fa021703e5e009f7
0606ece80f200622fee82308e9f4031e
b928dd05b898aa190fbce9d2d3fc1eba
0001bd0940f8f50f102428efd9e0f4eb
23323520e90612b9fbd7f1030314f1cb
1f0afd13de221fcb38ecf34616ffe1f4
e707272cc30aed3d2ce01febbe1314a4
06ea382801ef3513f8e42b2dffe0dde4
f0ebd6ffc5a3d7e821bcf008f406d331
f2e80812c7e5f93114ed01f8bad2fcf0
b617d7e9cdc9d4943ae4e6def3f5e331
2bd8f4f1ddc1ae01f000f612060bbb18
0d3deb1706dfbec2fa43ecf8eef5fc32
f000f1d8e9dc08082ff90d0dfd1df101
29c3d105dbbd10cce80e07e1fc04f526
d20e22fe1d521e1cb5fcbcf5002e13f5
0e20e603f119e207e70cc1ef29f619dc
f212d920fd1cefdce810e9f8ee321e05
18bddcc52f9ddd03e91dac15f8eee9e0
10fb14da1efec8f1bc10f01d54ede9d2
04f91d10f6c9ebfafa0702f0ed0ff704
17e925b5fbd3dc2132fd1001fb1902c3
ecccb60d340816ccf4e8f7133e062036
bf170fcaf72702d8f3d3e6ff69141f09
e1ed040adbeef1e90807e20aea0500fe
00e1e4dcd4f6170c1227d2ef14fa01f8
2509e718f3e5f8f32dc129f1f806c8f3
030cedf3dae009c00ad59cf61d00ec07
0e03fa271b1cc10004171bc805d60305
0e1ce9e7dff40b0e12e5c52e452429f8
0701f257e33dd0ef4609cd21f2fb000d
21f1eaf533ff312ecae737f10606f904
140d24d3fef61222d8d8edded2eb18e5
12030b430018ea0a0b1a0810c6ccd320
fdfc2225e1f2aaf3e5f7ad08fb0e00f1
0f0141efec0ff0e8e9da02ed302913fd
ce211806d4f1e1e11312c412f9fd0d02
c30a03c9e3dfe7e425d5ae271c3a06cf
10e80bfaf6fb3c1ae2dc02f90a2039fb
f12f090bf10cf202f8fc1c00ee350623
180aeaf20814cfe4f400ecd0d6fbce03
fe0203e80d00ccfbde1d02d423fb0aec
050afa200c9ffe20f339d0e8f6d512e0
0e9fc3e8ffeeff10b1c80c01ebcdf90b
fe1d0d0207fd320c0f11f0060ce5101f
3ce0c8e3e515f70ce3ddf50cd4160601
4b14bd28def61ffb0b160319f02fe3ee
dedb28f3fcd4f921f2056dd50ee10932
ea040a000913e1f1b2d8110227e10d02
f61110f6fbd325f00fe21106090ae910
c104e716d7e03ae191fba016f007afb0
d301189f04fcdf08e607e4b5fcf5c810
0500e81c171814fbe0fd0b20ece90208
3be9d3ed1432cf2db7c3fbffd3ba0ed4
ea061afa4cd1d1f7040033e1bb4f2ae5
35e630ff2cc60be101da0f0a2705311b
ebfafafa0be21b05bb10ef1e160df7ea
e33a0ef1e5322105d207250ed4ebf4ef
17f5fa2725aaf4f50f1d29e2f8f2fe09
0e1011ff11cff234cbfbe6d701f608f3
0105ecd7c0e93ffdffdddf0b1c00eb0f
2fe118233dee022ad208ddf2f71a45e5
07cbf607fcfe01e9ef04f21b2307c902
ef13ecc69919f2c5223cf896d5c50413
be1931d7f247faf017f405e1ca1d0fe1
eaf9f3ded615fae5124b2ffafd05f417
ff26c2e8def0de3b91fdd1eed8fdd2d3
cb15f0dad920ba131deafae6c327e120
2a07f60209042138e4fa1427fd0621fc
e3c0311bffd8f526e2fa0feafafd3cce
5f3451dcf31d3058fce80b00aa022c0d
fffd4b1dccf12427fc1e250ce9de2b0c
130a0ef9fc03d1dd06f0feea1bef120e
0504e2df3befe4f2f3d8f6d93303f40a
14040061c31d260b0ee9303607fbe0f7
0a1925c8ebdb04fae5fad5dab50021d4
c9eed3fb03d31dca0103c12c2b08ede5
26ee2cfc154df6081ddc43daf7062bff
14d80bd8a9f83921ed29f1f313001808
dd3403d624b5fcf6d7cdf601920f11fe
0430e603410de337f203fe01e401eaff
03fa08e0260dde05e104dde335e31815
09b8e4b3eff2a0fb260417ecfdcfdfda
eae8dc08f9d90be3db12befdc8e209de
0c0c1edde3f716df422c29fb09fe12fb
40fb2cd01b3afefc05de0dd31ce6280e
52f60942a5ecf7f04426eef317f81ff4
ee2b4202eb3a24ee172412d3f823f90b
031c18ea091d0e020bf815d03330c533
2bf39cf5f9da0d0ff30b43c2f6eadee9
1927d4a1ff00fbf016d7d2fb02d6fdcb
c5f80dc7bf0d18d0260deac9f919ccfc
f9fa01dcf92e28ece2ef11ef4d09c421
fd0606f8d4fe2f1a220e23ee3011d217
17fc05c065210b2518281b1631080afe
0d000d41c6db09deb5fa02fdd3085af6
48fbce2bdff417fa1003f2f6fbd51d04
12fce028fa1af2200e1aff15ffd8e7de
fb3210c8ddfdc6cf09dbcbc60e8aa4fc
011a4418d61ef1c7dbdfe8e8eb1ecf14
081b06f31014fddf17ffe6f31cf0fd04
f6faee0dd5070a0f132235150f12f4d6
21e241ea20d904143e1fac36f9ea0ae4
3e141ef200b0daf6dcfbc61cc535da15
f4bf2ff6e2caf710daf7e803de35f3f8
dbf7e8f4fe16e4dc3b330400ef0b2ff6
39b71a14f981280917daf2eaf6fadf22
10ea0fec12c3fff3e6c3c4f6fcf207d4
e302e729fce6f0141f1f26cef62a3115
260231e01ce10213fe070719c3051cd8
1ff01e47e0e2e632031cf42eb05c2d12
c02de3ffef3eddf247e623af49bd1901
f1f3eefb0c4d20d2fd0a24fb0beb300a
ed201702d6292017030f1d13e5e9d011
01ecdafa11d2bd35d9c415deb0e6beee
ee1cf4101122eb2c16f0279cfdbedb0a
08371be8f6ccd918f7f1d305ebc8fef7
1601f9ad12f110e21148130ae303f7e3
140d3b2329e01404970a15e920013e0a
dee4f80a1019d3f6f82037e3ff0f0ef6
110fcb18f50aec171603fe1ed5200a2b
ef02e0d0ddebc3fa2def17061c05bd0c
c40fe7d0f6170c191af614ecf9f21510
d2ced6d3120aa4cadd1cec4e0a34ee0e
aeefd9fcfce40a102fd5e1e8f11af949
1ffafa203d21d43ff31f0c191bf9ecfa
b831d0090330882307ffddf50b4308ce
05b2262ec0d327a8abe537fe12e12014
2acdff07f9d819e6fe2cfae70307defb
2506f22e12ceeb080c2e10c811e2e6f5
d2c194e6b91ec61117e7b636df4aa0e0
d6e30706dbb221feebc2fb25073109e7
e4fce6290300c90dd3ff1619080d0812
fdc8c10e3119cb330f03ec06f7cded08
001019fe71fb9b1748c6f2d9dbfde4ea
27ed23dce90919fc300d01c93f3019fb
171815f9ede0311d044718f418f803ff
09be06f2dcd3f9e6d51e0902e2bae5dc
f0c2f1e1322a0602f81a0601e72de406
01e4f7fe23ec08f42925eae20ebd1f23
f0f31918141330e1eb18241bda042406
111f1e0b17ec0d0b3816e2ef161e170f
111b12ed3828383011071d401220c640
d8db2331e6fab4f9e1aef923eedc04cd
eed5fa0de7f7d3e908c2f0fbe6d7c2ec
3edd001c22f60505f8e70408e3dedaf5
f5eb0cb8dd070cbccaf6efdb16170cd5
000d35f40e1dcde9c700102903ce5bc6
132c0efc45e1f000060a10f9272d10f0
143ae5df00ccec154a1806153d130f22
051c3418e83107e2e761bd1d1f07fc44
fa2fee4f2f1aefdd01db0e1f550508bc
f222e10ee0e9f125ecdef1ce14cf00c2
de00fb19d81afeffd8fbeb02fbcdf0df
06f8f11ce0eb99208be3eb050f0ad9f0
31e8ff20eb000ee512fbfde1e8d1e6f8
01de58f5d523f32716e800f5eff529f4
150df004041109e60e032bfd03d6fded
26054a14150dd00fc8272b47f417d6d1
f1041adee709dcdd05ebeff7dffa1a01
d504f8e905cb36faede4d1ec1002f7f5
d7002add1800cf560700091be510e611
1ede0fbaf4bf160408ab0583e791fac9
05020ec3ebfc08ed1fd10cc4ecf440f9
152df229f82e0df70ffd0de9fadfeadb
f724b61cf9d610dfe902e20016d704d2
0e0327f65eeb05f4fd0c0cd0f90b1b2b
f8403ee127e81beded2154d105f4d310
f71eefe2ed0526c72113f3e7e70fd215
e60afbd8f716dad1f4f7f7f63d11e2e1
c1e2fdaefdfc1200e61807230ddbcbf5
0b2b43a8f8e004c91909f4d8de9ce92f
f9fcd8ddd0eb1038f41ee92d051822cd
031a18dd291809c0f712ebc51e09e1fd
fe1a20800f1e172121f326391ae7e93b
17fee15bdde9e81609e1fae2fddc170f
3713e8290ff9e1f1f6dfe3ca252e28f9
e4e5cc0ff821e5f605eff7132c05f21a
f1d4c1d2c8e2e1d82244f2f9dbaee4e7
2a12f216b5c928cc160520bdd6da16f1
05fa23f80e1b19f8333014e908f92624
0e321ad7fd09efc8d819fdf8de0f13f4
27000ef617c11f1327e9e3ea12ff1401
fd0df5030f9cf22612de0504e8f8fe29
e60e2043000dbc06f4fc11210feae7fc
27f6280c57f3d9d5dceae804eff512f6
29f106ff30e02ff93ddbe7c4010f1c1b
0fb4ecefc7c92031e44c3cd8f352fc30
d1e4f601f52bc9eb10e9e9fc36c50eff
d8141a1f44efb0069803272206dcbd00
091d1aee12f0241415e7f6e8020b0e22
f6c3f40a18fcfdebc1b5f63507e6f0fc
0101e7fa0619ecc852fdb8e2d6a2e8f6
e503f507e61301f4ec0ff46609ea0b0e
08dfb52651dafa4bbc3a30b0cf0ee1ed
1b2409f6011316bc25dff4bc1a1026e7
e6fd120b1ed5fbbb0cb7a0e0e8c2c8d0
0c2b40f10ffd35fee0f6241c19e6e703
02e2ffc12bfc2fd9dfffd5ebe4d7f6ee
07e6c5fa1fd6ebc9e300ee0712f9bafe
2b491aff05f52327bfa21d20da5c571b
b9d3e8e6c8f20ff2f4e925bb1ce105f7
fd2b0b0d24ed060bfd37160ff7fac4cd
0a04c4d944e12bc9db0e0c60092810bd
bcf122fdd119e708e3f72f15e2434314
340602f2e81e203501d2f9d2ccff36ea
fdf223e600e00518e40f04ff071bf3f2
f303dddffae12a12bde828c4ffed0dfe
ddf2db24d20cddf7d803da0a1d1edcc0
e1e813091c22ede1180035200f14fd09
d4e799d602ec00e6f0f4f10d181bb9fb
f5501ecbe51e0900d51802250315e802
0e22190af20dbff9ea11e6faf4d80ef4
0e0a2839f8c8f630cadd1efccceeea10
df03ea12e321f1f60105f508df0ce40c
0fcdf0e8e619dee5c62281c9e0ede9b5
fb112b0e0c040a01071e292221e4f336
e906f1ecf3d12ce3e204b2f3cddceef1
ff06df3d0e07f710e50fd705f8e4f205
eafc0400f455dfe0e617d73aed05ffff
19023d18ccd02512f700481014f40013
be0b0be5a7ebf8051420fddf1ef4e923
1c290120f1ed0215edebddf810004015
9f33f8f9d7c1060a151a41ade3b1d034
111ab8b7fea5d424fb07d2fcd21bdccd
102215eaf42f2704eaee1cfeeefd03e4
d6dec61e03ecadf4c45697c7c909e8cc
ddfe04223323e5244eebc3fbec1c1dea
d7f3fbe2f3ca02fbeef6eefb03f6fbfb
fa402214cc22fcf3eddafb293f13235a
0d27e9f3e9170803ef1fe8070be809e6
f51eb4fff4dac8bfe5ffe909d1fd1d0a
2b0cf1e5d90a0ee91acc1523d8ef03c5
2107e000cbc3d20de5fff634bbf9d0b8
d3e3012915cdfb2a0af70fde10173011
19e2b5da09eefb03e7f0d0efff43c652
1ce943f711ec1de00b15fcfffaff2d14
3115e00c15fee5b903fc0627f808f2f8
02e7f902f2110c365ae003dd11f4190b
29f1f7f200f204dcfa040024e1ebc952
1749ff12e1ebf733fd44df0c18e72de2
f4fd13fde0eed809f1fcd3da35f7e005
2305c7d8f011b515dc0be802ee2dfcbc
23020b250a17063521061e033cf6ebd8
f605e0df08ea0bd9f605ecb70ee20ccd
01e9e7fdeced052f31db3a05d8dea8ee
e301ee0cfe070febdb1606f5d0edcfea
ddfdf7e8ea18f10afc04f8eb09fa01d9
260e1eea0be2ff84c2f1d32af51f01f6
e1012ee6a510f91b00bde8f2d109e0f5
03ed12ef0efde925f6203d140404f3ea
e8090a0b37200fd9f73305d22fe3fc58
040ef42ffd0fede6def6e7141123afef
031bf313f7d62bf5ffebd6fb07edacf9
fe0623df0ae6faeae4301e00130dfa14
1d18edf5803d52f1d9dad72a0fd9c0db
9f1501f3ddc1ef3d3ba7b7f101fcfdee
f0e8c3eff7e50f301601e8e228e7e1f5
9a0eef02e31bb63013f526f4e2fcf1ce
ff2afe4a0f0fdad30f311401d409e8bf
00e5eb0caef704cbfbd1fcc7cceaf2ec
0f1f322d232b09aaea06152dfb31dc1b
e121ede30c1be0ded4f6d8cbea2fc3e6
23fcd4090a12c913b711dfe6f4e7d236
d2292ebf2b38ee59f6ea1d06211a57b7
46f70dddf1a8e5c41ad505ec08221e36
ccecd24ff6c7120ffadc16f8fcf8db24
e70c2af22733ed36f009d400f1fc3dc3
c4e9dec6e715c9fe0ff6fddd0af4f6d5
ea1f1bb6cac2f10011ee24ec0d092cf2
f928f625c916f9e6dc01101cfbfc1b10
ecf1d9efd39ec2e2e0e232d10811cef9
37f521002404e7e91905f72324f8af45
fb09f51aed3f0926ebf1ed0b1bef39e3
e61abb161afcdae4cf11efe0db122230
f2edf5ee1ad2f5de093ae8ccc120e213
d7d3f705c6edcb0a06f3e0d8d314c7ee
0ce63cc0df2d1118bde11c0fff0d1ff8
e011cbc91704ebfdc6daeecdeff1e6d9
0f03f100fdd7c706130506c8f5d2ebdd
e90701c3e40d1ffd03ec1c1f21365922
dca52811b30e13abfe28dfdcf7120ff3
47e0eb531ffcf2dddbf822f513d2f010
d7c6a6e11ff6564ae1050a12ead3bc00
2e24fae2e70aed2404d6e516dbfe1508
d8fdfed7cefdec0f06dcbd1f080307f4
f8eee1fcfa2cfbf0f6fa2c0e26061107
f508d4f3c802bb10c8feaf0bf115eeea
0b182654f7ca28b43316f905d8d8cef8
1101d91decf408161008d3f93319d9d0
3bd7fc5cdf18fb1b0dd8ecd8e9e4feda
f04113e238f3e5c200ebfd13b2d5fb16
f91afdf9fbb8b1a9dff40605f819e1f9
91cef9b3ff262a15d4c0462949f9491a
d2e21b03f9dbd724b4e918f5fae3e700
eafef7e0edf424ebf9f3f8f8071705f0
04d8d4da0c4edf082cf636f2cf11f4e7
efe51ecc7f3107ba1a1910c6d8f00e42
e02718f236fef025fd22f6274b02fc15
cafee31831fe040d0e0b1701182422ef
2618de03b015eb19f7dfebeff5fecd0c
01dfeb063228b100ebc4f527a5e80df8
0927141118f50cfe15fb06fb2e1ff52e
d7c1ede5eb17eb009a000d16e3ebfbfc
3f1ad920fc0834ebf4ecce0943eccdf0
2d26e53a0b17dde80b080601e8e72514
f2f70d010d384d05491ff9ec0023bcdb
cc05411cfdf21a0abc0641edc905ffe7
cd1c15e3ebb6e8e9c1d8eee0ffd6f404
0fbf12da1116ac300eca2ae0f215ff27
1b0910fd2cffd018f5e60bc8d3fe18f3
e6ec05d2bb0d05f6dd17f21a00d8dcde
e6eb2b2e482ad90d252d04cb051824e7
dad3dee7d2d2ffd801f2f3e514dcd0fd
14ffe4eaedfe20e520fd142254fdfd02
0a2c1cf4f73de71823f507dae3cb06ce
efc435681ff6bd19ffdf540505e821f6
16c2500717efd3f0e5f3fef5cd142cc2
0b08fe021f0f1aea04f9060e3f1b1221
2ce21c202609d32cc5f026a0aff812be
04ebc8cfccf2140afce9e71e1bf90d05
130c0b08220be1f40df4080826ecbeea
b6f6cab9d808e4f0f6ee09c30f0dbfd2
effde4fbfdd30b5b0135cff2f41cff17
e6dff31b20b7d62fda0dfff2c60402f9
c3ff202e3b0ef0123623dfdbfe332c14
fd2d270c14e7f2f9fd0dee19fef014da
d2f702de38d6f7f9e60eab092fdc1119
4c262bfa3e17132c0d24faf8f60e1819
eff6ed03bef90a00bf0be601130d164b
edc8eb162ab91efb100bc32016210bec
0a17c9e565b31aed38bbe4f8b1d5f11f
20d0f9ecf3e7da32213f0b0304fb1b28
2fd70cdbf44be012f9f423f6fbdf203f
0cfd112f17e7260bf6f3ff45df202310
fbd308c42c1bc0fe05f3e9d7f8f0e80f
98fec71ed8c5d110f401de0749d50ba5
fe0febf708feea071805061ce701f12a
9bfedec4fff4f7fcd3ddae200e0cf246
f50a3312c80bff0c003521dfc01207cc
0de7e324d802d30d1304fae1abf816c1
ef3147182413180ee10539f495264718
e90ee2ebb92418a40df1fed2d807d3f7
10d7e1cf1d0b02d9dfe112df05f10122
fe0a2012d325b9233410160cf5280810
dc06f8fd221a01e40d26ecf8ef28ee35
2fda0216000814cdcef6eee8060a0be8
3deace25fc03f70ef51c2b10da1936da
f70edff52df312fa180f28100ff526fd
0de508230110f3f9230d2513031333ef
01d00c25f50b10fc1c1613e8f1011ef6
132de813dffbef0402f40ab702efe7c3
e2d70abe0bfcdcf91ce711f93118e7f7
142216fbf005f207cfe3182f14e125ed
57dff5f7140bd12acccbe8faea0afbf2
d816100ad84401cc2648ddc11d17cdfe
13b000fb12080d8423fcfea5eebfebf1
240cfc45b712fff250420d0cf2f23dcf
e5dd05edf010f108f2d60ade09df1fe1
c4d1d12cfaf20800f61200f5ea060a14
462b40b71803fce2bb022a25faf8e1aa
e91addfa130640f3f74fd3fff4f7aa06
d3f12b430b1ddcfb1f331c1116312130
b304e9e4092ef9e51ae04afd5fdd14da
0eb507fce7b903ee10e1f81bd414381c
0ecc15df28c91606ef2aff14b1d506a0
f3f70f18260a17061212f31311211c1c
fb0c02ac0cf8e2e2112d04fde3d9e5ff
bfcbe51240d5f0250be9c800cc16f01f
e3e4f00a0200ffca27d809f4313b3f0c
b7e9c90506ecfde4e63544dbf7dbf209
1609410a16d8cb1022e2ff0f0202f5e5
ecde0efae2e8e5fb0aced404f20ffe09
2d1e15cb2bf5e2cb07fcc9f63a11d302
bec0c5110dd92beea5030ce4fc06e221
bb0db000cae2dc1718db05e7ebfdf7f7
38e245480ff3fce9ff180a0d39f127e5
1609d70f13e1bcf26023262dd5ffe713
cf0bee0ce3df10f01a0ae2e2da0d0f52
590422e4f9fe50ece6def1c431ed41f8
22fd07efea33c70bb3eee0f13d11f6fe
f1d3ef100cefd62ef53921153aeb0e3d
ba2b1bf719f515e7021bf10826001d13
cfb5c41d20f203fdd6eb1af207ecd817
111adde0210fd31825370f39062a09fc
0ee7fe060e381510fcf5ea0711e9d1c0
45e4d3c7d0090ed7fb04fbff11d3ef09
a8ddcc19130deae6d8e01aead63840fd
9fd8f71ee200cff1ede2f9ebe3ab2af1
e7ff362d1fc112c2b33a36d3d9fc2c0c
ee001c10ff11e1e0e1fa07eff7122507
e40f2202efdc1fc9c1010201d3cb1bf3
450d0843ee06fe3013d4e1c527e6fc0e
202afc01f2e11408c51107ffd5e4fa27
f2dff7152bf12b30da3eef3ee618feef
eef30216f10ccde4e1a0e50609e7b80c
05e5ea0f111acb2c58d7000a170fbe07
231c031002ea210044eb0d0d21f3fe1e
04ecf11b07fc2607eeede32adde70b0b
11eff8f8af0100d7f4d6fcc70edd0915
e844f2dd05e80720e10d2718e119dee8
d20cedf0f519ef1b3518f02416f9fcfa
fffaec0fca0c12cb93f317f4fb06eed4
e6f21d01080ff431f2083ef93717c9d4
fafd34c70fedd0f50deaead835e2f5fc
dc01fb4ec3ddf42327e7f9b7f2c3de07
c6ee04fc10e9ed0bc7c313bb10dff300
e4d734bed719fa180c00f8fee7e5e9f2
e80cc6351fde27e60cf2110e35213921
0bf818fc08e3082420fdf7f603ac03a8
09f038f7221a0adaf80300fa033304d3
d907f3ea021901fae5240301e724f833
18f9161531000de8e92e16192132e515
333ccf1c04f0df060901fa0df6e007c1
10ef2a28211512ed1111f30ffd130b0d
2f0adbf6e3c106ffcee406cbefb900c7
f4212005fad917ff3ad4fc1fecf5f888
0f010f05003105e82e2801040854f50f
e0293feb0c19132a06f40beeccf5f9ee
180ddd2cdee8a5ea07ec260323f51b00
f116f507f0febdfad2abefdefcbae9fc
e3eec227f0fe07d02dedfb1f0f16533c
da1bfc0fcc03f22cf536fed4f7dbd601
ef00aff2d50af9010affef2018020dfd
51312a15232b19f0d2fdd6cee9023727
180503b81624f8cd0dec15ceea1baee4
11080502d0130e0c0cd6eb433c0f0a1b
fccf0b4ddea6eef7d8f6d0f6fd363603
e4332dd10bf0e80e1abdc93102dded30
da1ef6e22011efe907071aeff6f2cb1b
0a10e90609060a0704e904231febe510
e802f0c00b06ead1e21811cee9f21608
c906d9b2d0e0f90e502cd943ff2c0e02
2e08f8170ceef70723fde31a0cf7f518
18dbbbfc131d05efe71c0a08d7282e05
e81cfb06fdf323202d3120d5ed0417ed
db0e0bd6f2cb03e0123907e5ebbdca15
26082f24155614fa01e722e3bce3f01e
16f824f61f962e1a2ecbdcb3dbe72e19
361ae9f4e204370be51a3316b802f6e4
db10f4060100e5020cd51de828e5e118
da20ff16b00ac8081e31430ae1ebf034
1cf711e83de630003bfeefd5d70b17f0
ede42020f7fdcdf8f9dd301a1b2202f5
f331ee46232d8007e6f2e012d7ebecad
e7f5d8ff561eca0bb3d8d810e9bfd4e0
190c1b3752f71807eed830f01604c60e
ba352b5cc1fdd8dbf0f7d53c26b1d00f
1deddafbed0efbe2c301f907fadbf1e8
fa10bb021ef6453e0918eff9d7eb0cfc
2a162774180d3a0ddbe9110a2a11e30f
d0032d2d0f071928f9faf5e04ad5172e
00f12e2ce205f9eefae7df13ffba2ee4
dee9e41009e813e9f1f2f7c0fbf1dade
feff4a01d7be2be3e030eefddb2ce2d6
f1d007e5cded17f20ce0f7f2e8110305
f20201dff20efedc1c1cf7fcf0ee17ff
e83203eb2416d30dfef6edb9e11be449
0500fd0bfdd52c27df1b0e0acf21d6e6
10250e1ef809c92d31ed3a3408f2e938
d0fd0e07e2040ae9e5ba05f10de30008
06ff02f1cb1ff9f7dccf1bb0e8093007
061cdc17d8100e0edbd725ec0521ebf3
25030846120ed2f83bebfaf01d0b100a
ea10d4dace0c1802ebeaebdde6c3091d
09e434fc33082fdbad32f5dcdea7ce17
3b1bfb3cf211e519e9f223e5aa1823d3
300e092115d905380cf5f5ccdcef14e6
202811bade09041c13b734dde43f0616
00f6eae6eb120dd3f5f5e7e20af4e0f4
fe293d090fe7f1041b01b7e3ecf7090f
eb00e543ed2303ecfffbf3f8cde715bd
fb21eff9e40ff7ef23ee0de6dff60ff2
1c0f3ee2e62afc252206ead8c0e51e3c
1dfa0c280603dbf9fe35c81c18f929d7
fc2efd001ce5ed18fded03e725050c0a
e03502f51af02403071fe9c5fe2cef00
e9eff917c2c540f0260719b0e7d4d6ff
c10906d9f4e505482726e4bc39ebf718
fbf809c9dcc2e325b3e316c002d3e601
fbdcfae4efecc1fdd71903f40702d403
ad110d0606d30ae708f2f7f3d1f6dbe9
f9280220cb0b1d24e6e8311cf5db0839
ec1623fed0cf26f605fd060528f5302e
a904f81b02eefb1753f5feed351cf61e
d7cfeff3eaf3d2090ef0e7ccf6e9db02
f2d7cd2ce7e622153ffb00ddae052106
d2f2e6dbfbfbe70a23e9fa20df02de11
0aed0c2115fff503f21909fb191727ff
120002f9f501eef2b7130af0190885fb
d1f9e829ecf7f44e400de4fff20e35f3
0019ee00441cf6320eed2a24ff3202d7
47fd1bdfe31ae4bddbf7490e26d706d2
27e819f003fc15c90a15281fdfbcfacd
2013f0c7e018f4cafb132318ea0f0bc5
f1061dee0bdb02eb00dd4ecbec3721ff
e3fd23eb29cc06d9d7eb00ecffe1eed0
fee2da27ffcfe3fbc50de0e9e9db0eee
e8f5dd170c0dfc092cf57029f63e0014
20da06ef2e07ed12ede22906d10409d4
1d6921113074f207162eef29ffdf12ce
30fc1ec7e807efe2fb250be0fad5d6f0
03fc14d0fe330c0ed83f22c40df4fc24
db04ea131ef2e3eaf135fdd8a3092617
33fe07f3f60924120cd9eeecd210dedc
c802f5f5d0e8d4ceecdddb20fc350a42
01f908de1b0de823f63e4ae2e7ec0ae6
e6f1274807e220f9fcfcd2fe36ffebe8
de3e3606eff2f2c02dc0cc14fb14f812
010113f2a71738f802d1e607e00cd6dd
11f9152b0d0becd218dbfa15193de4e1
3ddf06d8c9434bfa05a1c419b033d6a0
07f2fe10ffe40409f8d7f901d1f8fce6
1ed835e1fa00d20ed10373fefbfc2b01
fb1947fb1c0a20c6c839fb472514f82f
11e922fcc433f908c10df00cf6feefc1
e64f1447ed04fae9fee50720d4191dd1
b617d307d3e90625efeaf1ebdcdce704
f837d122eff3feeafd3e00171538d72f
111b06c1141212dc29e8efeaf0062c18
2c06d7f1e8cfc3ee07ec0eea240ad54f
1dbd32f1f505ee2fd40eef453ee1d300
022eea38eefcfdfa0826deddf841eb1d
04ecfffd09fd30af1cf902fbdaef34e6
31fa3df716d805f642fa2a2627e90a04
03ed03d5d4b2ccd817e82a05090af60e
1eea35d9d1e1ee32ecf22edc023e144e
12b9310ded0408ffd9a73c513c123002
f207f90fd9b0fdd822eaf3ecfebd0ee3
0414ff0ff103b7f9f52bf8f93ae0a6ed
f3073627bdf91d0809fa3f00f906ff2b
b410f102a2f2bb28ecf22adaf32bf4f5
f7eb08e4ee1fefc8dbd6fcf0d700df1d
ede9e9f4ddd7d5d8f205d8e0e710ed04
25d5a81aee48cafa25e41cf8e0bb0133
d2f1edc8292911dfe80700cae21518fe
efe2d9d2020cd10ff8f3e72d14212412
f22319f2e9e41d17dfe6c311263a24d4
59daf249170ad9f6060140f7c8ebf106
e9dee705fc0009c3091ae53eeff21c0b
d7f946d0e50d35fa06e8caff567967de
f9f9cbbbaad60ef5dec9d508fb0e07f5
f91412f41315ff14030cce2dfd2a140e
fec02feaf4ac20fbb61cc3da52243de4
fe03f22401cd16bafbebeae50c11d7d9
1619e2031d39e7dd1e0b49daf50debdf
f9fa0fb20cff060d05022a1607fc3523
fcfbf303c1f8d7f427cedd3634093a21
e225f8caedf9dad227dcf9310c0cf703
ca0001e6e41be7f6eee3e4f6d3f3e1f9
fa0f3f0e13e90bde2010050516060f24
d30609e71702e9f3f4071eeff733f8f5
2c250a010e021823fb23020dfd2aebfb
28f6ca05de0dcdf1e0e12906efe8e1ef
101f0102311838cf0e4425d84e281509
55120ffefc0cfa33e40d3c2e0329fcc8
e5bcf9e53063d3eaf0e9fcefaee9e9a6
f5dbe6050e13cffdcba30912b4ccf8d1
eddeeddbfb32e1fae8ff06bfdd0438e0
3df504d7d128f1eabbca18fbe9f256b4
05eeddf6f3e80e3ecb06d00ad8f9fec9
940027e317c726f209c9e9fe45cdb417
461124014d08b727f5f8142fedfc1a00
360431f3ee2af11d24e712ebf6f0fd17
0509d119f810e04cddf3f1fbce1ef5ff
d2eb0af403dadceadbc5c0d4fbf3ecec
c904edd8dc032ef211f4ec0722f8f029
ef0adbfae902f4c9280181e1ece2e80d
d0010a0918f6070d07f203f11608260b
de05450c17062007c2c000f6081efed4
dd26dcccce18f2ea0d2ded2a5c1e062c
1c0913050bf10336f9fb001f22152912
06ad030409deebfddf02cefe023610ca
09d3f51fceb0e703e9f00cdcc70a2007
e6bee9ec043418480429d8a20e3d2f06
0bebe821ebec13b9f8341d08e5dfeef7
0f031f3010d6f709d1ba2016dcf3f504
f024efe7f0d20c1605e537bcfd0beaf1
030802172d012406091e03b013184ec9
020220f50bf3f5f9dd410ddffd293f13
fbf72417dee20445ef1223e90b113215
fff8dee2e806deedeb01c5e2f8dff9f1
df02f12b0ece3cbeca12e440212e3f07
e2fdd1021f2326d601b1fa151405e006
210f1cf7d41dfed210f332310b1aee12
2903dd0afaf7f627010cd2e5f9140413
e70404341cf024fbf109fc343533070f
02f3203ae7fd241cf634fe0b1b1c2d0c
fcc553ecea2ee3d533f701eae4e928f0
1bf00cd0df39ef0918e01fd3f7e10a12
e82735f8270f17f3f73d0bfa23c310fc
2b130c99e52fdfcb0eb941c41327f5c4
f8ece7fde9040a111afc1ff20de3e8fa
d9dfeee902f2e9c4ffdae21fb5021c01
fa354d01db24243d14051909eefa2cf8
1f2826ee29fe084ee6ff2030ca0c1226
1f1013f4e5f0131b0d1f14e410fb1d11
e6d60de0e204e5f0f5fbd6f8f0f6e5fc
3ccef2f9031219edf319f8e6e1eb1ec4
03ee15f807d7da0cbcdcdf2ac6041ce3
0d00dc0f15f2060331fb0a020519f428
1704121af916042520e333d61d25f715
16fd0c072aec1401eb2ee5e5d9f9fce5
0fe10d02462402340e461a1b05f3f3f7
e61603e7e827fad800ef2cda5054d41f
da1eebe9fe35ff2a15fd0fff1df7b5fa
0c0ad61df4f60f082509010319f0e117
22080eecfeb01f112a1e392817efdeda
01fc12c90f0febe1f6e812f11ed8dff4
1b1163fddfdaf3c1e3e0f504e8fdcf02
270f186ad4150ffa173e170016fef202
23b2fa2dd00b2df74c1632fafdd714d0
0d2ee9181324e8c33b0500cbeb4cdf3a
f701fbecea11d9c9f7e2f8d2f7f5d7ed
dddb1b09d3fae1e23821ff133c292c1d
0a0cdfce201d2601de0221f125e0cfed
eff5e6e9e6e4fe122219eef1f60aeffd
2e2632fd38f8021fd4f6dd191504fc20
b5f4113ee2f5ceeecf1503df0d2f3041
18df390512e3d812faefe23e01010c08
154010f14cf90218bd24e404eaead0f3
1ca3f2bd23cd04d7de2f0211e5f2c2dd
fce03400f00f15e9db313713d20fc3af
2fc6f6fa0fbe16fd1cadf11cd5cef6fa
17b2dd0117beff1b1ac0f722f4eed0ce
3302bffd3401cef36002eec9e70c2cfb
08f130ebeaed18ea3650123a0bf5dfed
fdd10a38f9e2dbf026171620de0a10fa
22cfe40e27c3e104f51206ebf603d90b
e5d80515edf8fbfde71af103d6ecddea
dc3f04f603dd12fd10ec30d703fe0a32
5cfa23f3e7f922fb2c1a05f3d0e21f17
0af1e60c0be6db1a06f6eb23dbf8e41f
f8f8d8ea11fee4f1eb11f90aeaf8f013
e319fa06fecd1ef628051aecf33a0d46
180b0f0d2c16edfe152f20fb1629190b
25af06dd051ef0ec06ffd348e80b0d05
d7c4edf60806f536f50f11141abb0026
04d9e6f2e7e80bf7f5fd1721e3d11108
0deb000904fcb1121936fa0004e2b6b4
dec4d7e90ceffb2f05f8d7f4d8f6e1fc
e303e90df8d808d4fee81728f4e5f143
0412191f17efef221b4718ed2dfa2333
bbc30a300aeb270bb31117d3ecdaee04
d4f3efdd3736dc0bed1c095de509f858
e5efdfefeacafaf7e2f5d6e6fbd6d805
03fc12222dec0e20d448bd1a8be7f9e4
00e1e022ebfa12fef5fb18d4eef00acc
2a1ff5f921fb16120d1e141c10f2001e
0114020532ef10d2fad2f8c21af2fc13
ebdcf916fafa2a09c503dd16cdcb1a20
410d1705ec0c081d242413ec4914e9ff
fb3629dfc3f8ee0efc24fdca570c39fb
0ef0f4c5fd09f9eb22180cbc07e2d802
2525f813d0ec151712f422d330e3f609
2df3f318e0ef4de12a16ff0c1acd1a15
f1ee00bb070df8d123f00cebf01fe7f9
e80dfc0d13a01eb3d2fff63eded732f3
1f01ff0431fce02c24ed0af30dfae828
29effc1708ac010017df10fdfec10d36
1f010eea01221d1aee0d16e03c1c012d
e2f10d06e811f5f7efea16fbf80cf300
bbc23c1c2001f5f6ec1df61906330bf8
0bdccaf904d80ae901e0fd110b06152c
1a17f8230113f6fbebd9fff200f7f2f4
df240bd502b71cdd46113f16e3cffd8d
eadc29f3ff3deff71decd3f10a25e112
f718d62115ead320030401251ef9fff2
3a44a1fee0a94bcd5ef3f8f2f3cf53ec
071b97efe410dbf8f41ed8b6ecd401a2
0c46b6191aed0d1afb0230e6f2c53ae5
46e7ff12f4dc0908410f10e70b00ebcd
03e9edf7e708092e09f2e2e441f9d9da
03c36510c54b0b13eee8dae104d93907
dffac41a1608d1e7cd36d82c2012fcf7
0d07200cf6031d062202ee0fedf91e1d
083dca1303ddd631e1f11eee11f0d7c7
fd1a12e4edf8cde8c0e504c2fbdfe7fe
c506d1ea1b08033e25dd0d3a0ef30afe
0bd3f73fcee3d318fee80ac9d90af6e4
ed1ff6d2fc2f0b13020ef0fb0509e22f
2c0e1df516e7290820050004061422f9
dff5e706f2fad744d5f50f340ffd2516
032c4f1cee1322fcf9130f20e03dee13
2ee404c71e26e7c30208f9a3cdef23fb
dff7f1e21505feb0ed0affa2def9ca1b
f021faef2d21eae3fa3f30b8011d04e5
df0e2c9b2d44d5e90f010120033bf0fd
24fb0ecae2bbdf02ee2415fbe72f0be0
08d2e80bfcebf90a58f9feef1d9b04ea
092e5c2d29f7e82de4dff1ec1415e413
002e14072c1df7cc20faff34f3f70b0c
161b33bb36fb2fe2e94c3bb9ecd0e91d
17060ef901da06d6fbf311d1ec0addfc
e2d5e404e130bbeb17b7063516d6e5dd
e4ee06412d1cd6e918d5980f0ad8ea2b
fc18cd05befec6eb04f498f1f5e7d402
e7e0e6f01ecfed0126b7b4dafec0ebcf
0834151930de0d381408f7d008cafd21
f705d1e4ec09b1bdfee8f82402f5fcd2
0ce3aaed49df45e044020803210eda32
1d1d02152fe92dd949e6d1f40a02f91d
22f1ea1ef22b37f3d90a151dd61300db
122c0f19f509b830e3fc02153ad513d4
1cf5e81dba0ff819243e49e4dff8e5fc
f616f007f42ad9f4e0d5e43dfcf4faff
15f2ea041cda320deaf1d9d9e425d019
0050e2f326fcc40ec001010de9eae906
2eedeae9feef17e6f01f21d5e10fdfea
fadae1b8fdcaee23ea1a04d9fffb071d
10050afbdc22f90cfdd00efcef093a2e
2d2b0219c92ae12753db34c110fad02b
0927df02e53006e2deea29c92bbde606
e7c4f110cf09d7f20bc4e9e2e6ed0c17
3a071c19e2dd083bfa2422c900faf707
fdfb08e8e3fbfbf003c029e4e2e70a36
06e9cd1408dbe9280e2ae9243019f4eb
fefc2408fee309f9f718efe30be1dce5
fcdc11fa19d944de0115e934cfea1b18
14221c20ecfff913fcb111e91c1414ed
0eeaf1fd28d4bfe9e92e2732482807d9
06fa01ebd8f6161006cdeac120f10519
ead0a0fa230809a8bffab6d6f7eeb2e5
3404e218cbe7f30605ba33aee4ee27fa
cbfbf4ff0f151cc1fedbe70ee0dbcdf3
efcecad62fcc27fc07f4fc00020dd1da
e4ec27cde9ec21011707541a070ffc1b
e81c17dfedd5323ef9d8ffa9231a1b3c
f019ffb91ef7f9412aedc68fdf1d2b1d
b6100cdef7051cf8c6ee0499fcede7e9
2f242223c9130c0cccec15f22af91a02
df0ffd22d5ed27c014b3fef4e0d9f2eb
43e1d223e8d2f7400529dcd1172bc80d
2efaf0e90f08ed33f4f1ed37f9e30701
f2f20854c92301effde10909c1fcf5d6
1312fdf101271f0a32fdf4e222f41df5
20e106ffdd2adac5df22ce000d0230a8
be2f0eb9fad203ff0609d2d0fbdf9a04
c9a9bc1df31cd931f91a92c9d6dc16f0
fe16decbb9d414db132106d2ebfce133
e5d6d21f221ec91814f3c8d5d80214e6
1e0cda19f3f7c3f7e528d5d6e1d4d0e2
3c21591bee22f921da16c916d7f0fe05
cd0719fd451ec2d115371b31f6fde0d1
0029f1d4fb2df5a3e12f21de21c5bbe5
fdfb10fdf6f009e3d6fbe722cfb6f8d6
06d8ecd3f5f1d80afedb15fceaeffc05
fec5efebf90ce90dfaffe74adbe2c5e0
041f15400b0ff83a30e9fcd42afe070f
280fee05ffefee08f2e4e5cf210d2ac2
cfeceed700ecf3edf312fb02cf2cd1df
3e1728c5323216f8e8132016faeee913
23be2beedfebc63d03ddeb4755303fd4
0b142e26e309fdf711042325d8f3ffd5
e3f3f41604eed4faf911f2dc03f4c1fc
3deeeeeb981012c7ef001724c9efc1f3
d00af60a1e14d408ff24e1042cf3ffe4
1800e3ccf3f0f001eec00b22f3f4fb21
2215e22902c31b07d3e4dc181c22f5f2
0a1b343dfff90b051fa9b30ed926f9f2
c118ef34f0cc901425d205f204e520f6
db1af0bed5ed0f1a17b0c8dff2e4d1b5
edf81605fc03170bfc31ea51130fe5c3
071ff2082beee6e213e4bc09bc3b0df1
de20dde0e9c8f646fc00160d000f3d05
ffede2041202ed18fc1012f41c121504
ca0a1ef21cf90ca60144ec0fc303d41e
0800fa20b8f919d713d6020ae9090dec
ebc6fcdf02ef0763fcf442ed1706e3dd
ea15f7f0a01b12401dbdeff7db36f6f8
f10bfff2320dea11fb2f33d306c40efe
262e27c0be220aead9c1e631f71dcfca
bd0ffffb0ff8b8f7d837f2faf00bf02a
fc01f4ddf6091a3200313de9e0e602f3
dcd2fad6dd14ea081efdeef3c41705cc
fe2fd425cee541d1280d1ef7c415b202
3adf35170bd6dc0a050310cbf2c8c6eb
eef6b6ff17b6d7fdbc09eee5bae9d227
f00cf939caeee41cd1dd0226f424f8db
d2dcd5bf0ed508134019e5f603ebf318
03e0fa69d91bfcfcdfe5e7e5fc10e1f0
1118f917d1f1fb12f411f92527f7f622
0afe1ad91c21310c0a0112f1efe22f24
26df52d83f0ee54df901322d3bd10bd3
b1dfd0330b09004510f4c51ebce04ab1
23d22dfdc1bf07e814f106f62120163c
d2fbfe0a1812d203c40bc6eb0313da05
fffc0fe1c7f5db002aae05041f1b1b11
df1a111007043503e624d5e3eb0d0712
0d2ce62af2faf722e8f2ccecf4fd1b0d
fd241fdfe206eb091714e523e5110c10
a3373fc8c90ddafa10e4d41f13d228f7
ba382fe6e9d30115e2e792fd1e180f13
0703d209e4e4fbfad4f0e207bde1e100
f4da06e3cb08fdfffdeb13113c104a0e
e6fbfecbd6effdfa0a30f112e90b18ed
4f08f232ebe7c91cff32ebe4bddae2c0
2cf11405012100e7e512330e26103cd1
bbd013f52c14290deb2327fbf4f9f419
d330fcdbdc08150635fcea3a3c4822e0
20eae44b20fcf82b102a00f9cfdad21a
ead41508e6fbcddb02f6c2d8f5261908
f801fb591bf00f3ac9da14e1ccdabd1b
f70e01bfa6f1f1ef15dcc7eb2d262c0a
d728f3fd0c1113fddfd710fae7e5ed12
0cbcef2c11d7fe20ecf01cd3d9d720fc
0a02f912f103f109e4ebe405d2f4edf4
10d2f80ada0907f4ca1203122c26e90a
d7d9cce0d9fe26e1def8e1f4e8c3ccd9
04da170e27f0c7ea19fe13fe01020802
23e31ef4100fca1d0bef100df2f5f231
06dbf7d5f2d9fa01221df5edbdde13e6
1b15ec1cf51d4614e50212072f071512
f334f70bf5f0001e24e4e9f2ffe6f21e
00cf1bdf15fdd9c316f12cf3044521ca
ddcadbd9d717d3fdfdec0520bfd4dd07
0a0720f9031858e323f7f3072d1db9fc
fffd04f9f6ff02eef6dc01d0defde308
bdd93b0d0dd5feeab6ec0bf72713fd08
e6b7e5c81d22e5f1eed500ffb5e207f2
dff104d115f210040a2de40d00140534
001926edf6f8fd1028d307f62a07fd17
fdc92a6358e9ceeed1e32a0fff18eb11
e8dc030025c87519fff9311ff01054fc
eae8e9fafc05d61996f20810f12505a8
c3f623c1e1e30ffcdc17d00412db12eb
ee08340a1925eff452382302113a362f
e6b40702e2fe06e833d6e4001334c12c
1f250ddbd30d2df3d4e81729330bf1d1
0d3df4f8f8f524f6f9ef2a091e12e926
d935e4d2b32312f91e06bae3f5e2c30a
d2e430031c0f00f9e405f8bfd60c27d0
ed1e1fe0f04d0de400d8440bffe4def8
1ee81902f4cf0a2bee090cf91efd0107
da11bf848d4bdaebd2f0efe0e1dfd4df
00d70a260ff8e7e4ec1bf1bdf6f0eff2
e020e0beac09f61405fbd6f303d4ec1c
f30ef9e0f51e15ecded8f9dae2dec9e8
1fd6152705209a56061413e4c9050a12
13f8550cd9f80411104df3090b08491b
ebe207d7c705d5eb0c0ef9d1e5e9dbec
f8e1c50c1bf1f20ee418e2fb1aecdbf9
fd25180bfaf60745d306e3f4df1d404e
07f51809c12416fce51b0a102303cc10
bff3cded1fc1ddad0d0ae31f0e0cecf9
eef10d37f0f41ff7d716ed13152a0706
f31cdc0b0c0c1eee110b13232a0d092a
16fc4efb0308060cf9fef5d7f5f20c07
c7fdb11514f6151e19d8eeda06d3dbff
110620e0e22bf00bd9fc21cc45b71619
d906d1d12dd2dac8bcf5c308f41cedfd
18f121dd3710000ecbe007db16d9ff15
daf0cd03060a0bd0e9dbe3350effd3ee
e70adabb37dfe1c4b2dbb9fc1bf6ed20
232bf6d9daf309063decfeeb0ed00aff
2040ed121725e5182b32f2c15034e3da
b64826b6e22ff7a90f20d9c12a4ba234
0936c9f6f709fed3fceef6f5ced7b238
2111221bb04625dd322f3cfc1004fced
db0bd0ae03d1db0c1cfcdfe0d203aad3
20f7f6ec3a0dd3f20cf7fefb25e8d9da
e4d53e05e307f8c9190b01dce9fe20ea
1cf8f546f1cdd42cbbc9df20f4e8f3e0
0e243607f43707d3012b2aeffe41c64f
1705de1631e60472a7cf19471ebc24d0
ecf7e4c9f00ffaf23ff1e0d5e401b13d
1d21f31af7f7209beec8e5d4e6dc000f
ffedf5efe8eef5fc43e5e4150614cadc
001a071b1315e9e9cfe3d4faef0de22e
37ccc81d1af4282001d9f303ded40aef
10e30a05c8f41200f52de8fbd620fff0
02dc371a29e724d4c832e71fc72dcf08
293c38fbfb1ed819c7c50ac7d701aafd
01e10af20e09152bc92bf5c3ceffdcef
2ec734f01edfd8ec4034191b1a14da04
feeddebfdcbcebdcc7e5fe041005afd5
d60a1e39f404031ffb1d030fdc294464
e4fdfb2e31eefb0d4200d6fbef1c1c28
ed25dfdef71519f0edda03e733f89efb
fb1202d81cf0e00dd61127f60de4ddd7
f80dd038b82917f4fff72f14fe172e4a
20fe120845e9facb0427f1ecb4e3f5f0
bffee900d239e12347001fe220af0e02
2afa1cd6eed12ce7df3b0e1b88e8e8ba
03edd8ee2107e411ea0b321a20c8dce0
c3fae625f72a18cb2c0e2b1625e44b0e
0e0430e32123e2fd000fd21b2f012307
cb29a2142a10ca1032250e2ae114e43b
bb0caef0180ebcebd4eae763d319161b
cbe0b7ebfc11bc0d3afeddf6eefee528
07030e2838e31bd1d21d44dfe6d11802
2c14e9dcf3ddf617080d04f3d607e7ef
be40dcd4f113d8e5fe32d4f011440bd6
b60205faeeca01ec0612e52fd7e01713
15eb33cddfc128f9090a05cde7fbeb02
ebf30bf1fb1ac60ef412f4172103211b
3d1110d6dee4f03502240308522be8ae
fbdccdfb0922dd073100f214f9e80513
f7c4da06f3b522a5b8c30e10da24d923
facfd11827ebda1310141be3faf1d20e
19d9edd6e1bf22e732ee01f2c913012a
4807db0c11ae14d6daf3dce002e6ddf8
0ee010e2f76fd3d93e001ef1460be21b
55e01aeaf4fc31f3ee4ef5d63102f77d
d23e2a130809e8f4e2f2ece956e134d9
f40809020abf02efdbfb21f8c000ebed
eefbee370cd9dd3b07f500e920ca0d1a
fdc50ad19338f8ca27e3d0c6eb1c04bf
1a1a131414e73e1fcf102f7cd2fdfe17
e81f2c0b13d2341cf932080eecd526fb
fc05c910ef080dd1e4fd06b5dcec03ec
0f2c2a0dd8eff4011ddd29eb471032eb
1d20cefff02d0209c7f0092bcfe8e029
f71dc8f3f9e41de8f838ea011fd811f2
81feea23edecd3c699dd0a1de9f402d1
2d1ae7e704e20cf2341300fb2ad70412
e7f91313cfef07eef40210d612fbe4e7
eaf0d0f807e12be9c9081920d3daeeec
f912ddd8dedf0844d720f40a0efccefd
cdf8f907efc8c703f8d8010c20c1e5df
2feddbe8ed9b1409fff5270206b246a7
dbf0030fe5f8d00df2e427d310b7fca4
19072416fb19ddef3014dd17160bfe03
fd4381d9f6f7f3f2e9dbf1e1e2efb3f0
0b067c1e1924de11f31501ecfaf3e2e0
1bf22b2ffe0a0fe22000051af60238e1
fbbeadf10fedfef1fe0cfe00f0fd0715
0d16c01fe0fe09f82f1512d3f0f121d5
fc216aea1cfaeddf0423b736fa14911e
14e5c520f9f5f50624dae8d6e1cc20c0
a5ef2bf8ce0bfbeccbddf1bddce1f9f6
2219e01119e4faf02ef3f3ffe6a82dd5
0204d5dbf3e6e5fcefdcfee70feb2207
d1e939f0e5331e0dfd0a02f9d8e0d62d
f02528f5f0e610c5e320f12b16f6e709
e72c220f16171325dd4722d73314a234
1d2714cafeea29a93b29fcdad8b80302
c501cbc5ec1fd213f6c304faeecce207
23e015190e00fee5f2da02f4f7e1df37
00010eb3d419ee04e6b9e7d0eb08a0f8
100bedef00f9201b440ef34d090e210c
1dde1603fdeaf91227fcf4fc290ffe11
1decf023e50accf6e702facdfa19e2da
23201bff1e0bf6c51b23f3d6e30125ef
dff9a607e5cde4f2f9d8bd4c150538be
f6fdf6e3430b01e2f5f71bd401efec00
e4d0c34ef7ffeff0e9fae2d90b0223db
1e061ac3253afcdada18de99fe0e1c1d
e40bc81de2d2ffcf02f1efeadc211a03
ebf6c102f9f1f9f611e6e5f0f92e2218
ec253ffadd09153501f5e6072adfee27
186df61deaf6194e092f220fe51a1f2f
ce05da030314daad15e1b0f0c1941d26
0df00bebeb95f7fdeee6ca97eeee3a0e
e6d1f3fee5da11390e102cdae418f310
07f6c2080af531e0f9074d0e0824fce8
d6e7bf2438e225f95e1002dbff02e60a
11d51714172ad730e5d219fddcf6e712
19f107d7f2e4144bc41a1ae5063fe926
190101f213ff09fbec12f0d4c7fb04e9
e6f8ed0945eabbcade0526122adfc1fd
f2131939d408cbe7f20d2b141efdebd6
2d2a0329d910151dc6fbf211a037f8da
2604df1541e82208e31f02a59c1e0fd4
d610e81724221d1f54eac20f01f7f8f2
26d9cdc74900eaecbfead5e0d8eb05eb
09211be8f8f5cb2915e110ceb50c45fa
04ff23f43eeee51aed44422bf029eff6
ff380016e6fac80e09e5e997efdb23d3
e9ee30c21bbf301bc81134cf09dc00f9
fbebd5e508fcf403de3910f70d51e7e2
09c9b4fa0ce31cf4ede20c23d81e0cda
2f26981ef209d0150836db031d00d404
4f2e05f9ba401f23ffadf9f10a16e2ec
f0fcefe228e5fee4d307fef1cff4f3e9
eef3c5ea09d91a0adb08e3fff505cef4
18f6bbefc1210ae536d55fd002ebf21d
0f1c240edaf8c41c05ee15cf010b3022
bfd5ddca2edd1bf2d9ecbdcbede89d1a
c400e00beadc5effaac4faddf0d4a0fa
ee09e926012816e3cae805b426caf81d
cdf208afe5fe0dfafdd91dcd29c9b306
cf223a0cd22a3517edee262b19d5f764
f707ff1ce41f0613fe0fcb20060b1d1d
bc290bf9ced00b204ebc00b2db50110c
fbf81315ce11dad4011f050716112b03
23d61217edf3f0091d1fbb24f7e70002
f40ed328fd35f7d707e3f91ae2ede6fd
3afab5e802e5bdd40fdbe504f41cede7
f9421732ceddef317802fffa0f1f2dfa
c7ff0d0af93eed03e72cd616d3cf09d1
05f5ff1eda08e2c6ce17cdfde8e90ec0
f2f3f2d4bfb61317eb0e0e8b13f4e836
05e717e4eee103ee0d1813fd1014ed24
bb0acc3ff629a5fdfb369c07dd1906f2
fc08f02e04eacd120052b10af5f416d0
d3040adf0de3e70c2c20e7acce32d6e6
dbd5c502ff0ce5ee3e0993b9ce0ee0f0
02eceffe05e31bd71cd84cfff88de3fd
0001f0eaed081ddffb0119d4ddcee21b
1e30183046241aa22663162b35db47e6
f5fa01350502211112d4f8f0f0d52b0b
bd090649ff00be0e07ffffb70e2f0e07
d0f5c80af60cf10ded09f119d64ffd17
dc032f3713fffb111909d3f7342504ef
c23502e80c1de82635531ffd10ead1f6
d6dbecd7f1daf9e2faf40af4ddfff804
ffe5ddfeebeaf1260bdffcede71c13d7
fbea0802fed7d1c30724100cfe30bcdb
16e81df9d90c08bdd1011532da0cebfa
bffb06c8ead6c70c23e3d0b9fafae1e3
1a07f1c9e4dfcefe1511f716e517dafb
0a3ff1eee23125caf630d8020ee7e112
250fd1b9ca13d6d0bb65031515ceaaef
5b091ee436f437afd206f43d2b1ee0f0
1000e00429261cf6191121391b11151f
0d46e725c82913ff11bcd308f8f3b3af
1ffe08ff091d0405d81e48fbf9ebd906
f2c215fd091c075700f23a041efcf1d2
c411f8e01f0cd3edf01fded8b5e2ec37
0dfa0022decb0a3a22e1f5d11437e0ec
df540f2ccdffe5e8fee5121dfde70ed8
f8fceee826480bf3e62434e409f80b0a
d4f3e8e4ecf6d03cfc1f2ed3f202e911
0807fdeda8ee34ff3af6b62b0de7e3cc
30120600c7f330d102c1af17df2d00ea
bd1b04e84920d90f1a1034f8dde6f620
800f0310de1dbeecce13380dd128eef8
0822d00be7eedbfa26c6fb0ae2eb02de
b5f9ea01e0d1d82f07daeccd100af6ed
14e30710eb250133e7dc2bf8061333dd
500141fe24131a6ff426f4041b0016e2
efa1d118e5da07c8fbfc14e12512e8fb
2230de15cccfbe26f3261ceb1327c81c
ceebde17f023e40eea25d5d5d3ea2723
0bfde6dd3edf11f4fce8d7f2ecee24fe
ae22ff71c9e00e03fdfee71df5e5f409
dc1dc3dbd4fe0af3df1200d6e8e4e725
191fe524201aed05d519dcfb001d01e3
0908e92204d20112d61313bdf314042b
0eef0dfad5dbc3eb32f7f50703193b39
0fdb28d604f7de2402cb1a27f70907f5
2524f6d211291c11853825061500cf3a
223e2ada21c8f6faeef55eebe9161a27
04fdd3f9dca8dbed3b1d02fafd01ba08
1d07d7f3e1d294b5b030d5f0c5d9f7ff
d3fb0dc91efbe7d7f1d2ef4207370b12
06ff25090e121236eded350922fe3910
0954ed29e2e8d4cc15dabc0d10f5fbef
07c1182ada23cffc3bcf24d130f1fc32
40dcda153413bd2cef011208f4d7e3ff
cfc6e1020cf90209e239170bc0d9efeb
5319fe4cfbe5ede41d3f0bf610df20ed
d83b1bb7e61ba81913c3323cc0cdf800
05cfd30f200a271fd3f816f50a00f1fe
04d1f12a180fed10ea1e19dedfdbeb19
da14fec4bcdcea3a0000961df808f6fc
d0e10dccd9eb121701d3d7130a4c2ce1
ebc9f1103843050bcef71b0a0bf4ed30
d9c4ea07181afbd6090df8e1d5c7330d
203349edc6f2e4d717169700f404ffc7
ef1419ef0bfce30308f2c803dd03dd00
14b9f9ceef10a603f2c43922d7da01e9
f91cf1d6035509fc1ce904f605d8f7ef
f7f613ff01df2ad58cdef722eafb1be0
e5fe1bdd3d1f14f612f6ee12f3d6e13f
fc03eaebd90e121436e4ead003f9cf1c
fe241a13faedeef4f52ae5f8ec132bed
026b1e38fe0313053ad7dc3b240aeaf3
20d7210b0cc4f904ea1a24d4bc04d039
bde31cfdf1102710e7e539f606d8f23a
f32219ea1dfc20cf412501c22618df37
36cbb8352a1fb5e4f1e90928efeb23df
efd1d6b2f814dd18e4d10300ceadfded
acdf10d9fc0b0cc5de1d08d6e3f5fe37
f3cb54b32b1d15b14a2518bffe13f41f
1ad31113d9fee7d1af0ce417dce6d2f8
f7c414fa28d7f915e9eeccc9fc01e5d7
09e8035257019cf40a3215f3a94c2a01
dd171bedf937dbebe8132709f90e19e7
10c40d3820e610ffe70439f0e93eeba9
e710eefefa0cddf6290a25000108ee12
eefe08e4015042ed03f732062102f8f1
de050af4ec330bc6140002f7f9e0f0ea
093afac8301b3a1eeff9065305ebc10d
e8c601d0fde60d3dd2091e07e74c19f0
ed2909f1ee09dfef190212d9e5d8ebe9
8dfeccbeb31710b41c1fe0072ccae80e
0cb52c2736fe04f3ab3af5f2f2181cc3
01f91b202be0e4f8e40503e4ae1c2709
b90287fadb45d0c5f010aef9fab1d600
b9ede397c026f6d3d545cbd82fbce129
edf1dbec141dd03ad9b2bbc1e4fc23da
e314b4ea00ecdff71bc5f0d2dfebfadd
274f603201ef032103492fb4b40a65fe
e9e7050a62d22229d3f00effcefe220f
41e91af0f92a3fcb180031f9fb0414e4
ebf2203bf5bb16e4cde5c539fb370335
e214ffd128dde1f0cd07cff51a111e15
e719cff5180020d8ead9f70d4015ed0b
bde0e7f9f1d6f0f0fee9f2f137e9a0e9
0d06ffe700d333560b63d3fbf71e12fc
de1507e312e200dfc5f9caf6cd13d721
c3f7e72a29ed17d7eceeee2c1f091315
270e22ac0312cd04f92c22dc10fe09e0
3bfd1cff0146f2040c0647b4f4f9e9f3
c2faeafb2205fba7c7ecbf3bd44816f8
c607f1c616fcfebcc0ffef3231130a1a
fb1e1ad604efd80c0efa19bb08ee0cc5
c6f70400f0ccdd0fdcf6a508fa10e311
fb10fb0d9b0204df463bf906dd1207e8
1e1e0f17f01fff2613fc0c0211084c18
0de2fee5e21915cc17f3c8b6ef31cf2a
04d7251990fd3f970523efc2f20223e6
15a9fe0d070a1a00da2b1ce014de0904
26eaf61626ec0c42c3d3d828f0fa0aec
e9f2f0de5df9003fbc16091136021611
eb0adb0f1c4be4e70e502bf12d2a370e
540e183be0f425f5f8c7e6e9d20d15dc
0cd0ebd929f2171201e7d526f1e6f5cf
ddfdcf03f4c90e1c41fd2cf213f4e4f5
e9f108c8cc0ef3eb221611f12e180003
f8053768d71ddaf2d9d0f413d7fbccff
0bec0f2519ebecfadb169b00fd0de1e7
b3f70bec20152d1b12dbbdd12a04ad31
e6eee9b81fe2c5f2c9e3f8c50a20ba2a
2520f6e1fbd9f8e91be0f21b20e1e7cd
066123f11e24d2100e201b2d3fe50feb
10cbf619f9b4de2f1ed0e6eaace103fb
e0003112261ef7ea4411f8db01ea0e2a
ddf50144c3130e0f37d53b2ce1282412
ec11e7efe71e17eee22f1e2633ffebf5
f6cdfa6bea01fa1b16ecdc13f2290d29
30dd3ef1bfe1cd09c5470e19e9e80aea
cd00ea1a1247dbe616eb14e60eed0e1e
ead6ea0efdf70d07ea312210f415f407
1db602c107052326e4571a23bce9ecdb
3deeec0226eb04fd02ffe933e0dadec0
ee30ebc31041dd21dffe3ccd1c05d5e1
d337f4c2ec1df4e4cb2825fb0014b9f6
152ff6e105f7aa17eb0023e8eaf3dbd5
de15f6e7bd06e4ecac2d0fb3edf4f2b6
0bf6332c50100d13980f09f3070e2811
28d313ef1fd918f5e31e011523052610
99e186fc17c89eeae11510eeba251612
930fedf72be917d5fef419d2e207352c
111edcf1e6f1d4c1fe40f5ca29c2f2da
3f22f7f6e6f81dedfcfdf903f1cae3ef
1349ffe60f09ffda2a18c0dbfb1b05ac
d31bf0e554fab6e90a532b24c6281e34
30d3ff3003c711c9e81430f30efe01f7
e402dd08fbea20d431fef2ebf20be41d
1ccfb9071b1d97f7250e9c0704f9f411
ecf40305170a08f5edfdf90af5f93603
fdbc16f401d816b1d5f147dfd7d60c03
1003060a9cc231c63f0621e2b9f42436
c5f99cf21b57f3fbe2f8f02f9e22dcdb
e1cbdbe5eaf3f1ebe5fbdb070b05fa04
2218eb1b16b8de5257e5dfe4290cea1f
1d05f7fafc09f1f8efd4090710f01e13
e9141ffb3b1717101cf953d6410e0629
0604ff2d15ca192203020934e4ebf716
25e6cc0039152a08b70cee4ab903d01e
02ff090fd4121102dc000621e6d3e9f5
0809169e20094ff0ec1e2543f20f0fff
290a3717da17243a05012a04291cdc10
f2c7e62c07cbcdf30bd3f009d5de290f
f1ebe21eece525f9e1f7f816d5dbdfee
1f2be9bfe5dc100d180c04eb1910143a
0c14eded0316f1e150f503d924f42135
b9ffef35dadc0af8c4f7e8fed6d615ea
0afbf018dc163408b50720e9cda60ef0
0e2e1ae1e72e00fe0ba42d155a2e1508
0efb04d2bf06d1e1ddc617fa1815f4eb
03150320151402cb141e1dee13171943
2a2642150a28371134e6ee35fc2d4952
011e26e30607ee0de19f27bd1fd011e4
dcd45e3afa3af20cfa0bd4f601061ee3
e2f73ef21c400bf0cf18fe3deb18d5e2
dff8e6c8f2dcf6e210f6c603fa08ff2d
e3bf3dfa0132d51adb05033008f0d51b
e838891323eac8f6b7c011523814da02
0fe00105eb1d0c1b2be5e7f8e5041104
d90536e91105eff901e3e707eee2f418
fd12aefd0bd8ebfbed0eed08f1e807b2
fa09d902d9f309ea0f1e06dd04ec2bfc
dee2ffead109f305f3bcf201d8071a0f
d2f70d0b11d9da491ce40c081ff4e108
2c47c5fbf6ecf3e522092bc9e3b71cc1
e623f8ec1b0d2c1d00de10dad8efdc03
ff383e36521419edf3fbe308ecce1b21
3c15ea1917190e07ff05f41bdd0b493b
eb130ecb12ef38c8252c37d631d9d1c9
f0fafa280115f5451bdc011f03a4f037
e01cb30bf5eef0231616ef2a38e71c01
e0d1e91f0fe0ea15dceafb12f72a14ec
020304eedef8ed3935200948fc191bf2
050df60025fa402ffe2733fbdf0bc404
1ee6d742f2f2e600d6cbf0cc210823e6
d70300fafd29dc4816d6f021f621f0f1
cdfa28b5030b02b3fa1ffffdee4e0dd0
481b1ad80f21f7d3f01ee6e4fa08fd12
e6d9ce39e3d3162503e812cbfbef10dc
0111d413042b0d20fa0e0ce39f10ebfa
d7fc000201dbf8a93f0c07f8edcdd5ea
c4e0f0efe4eceb051211e4b6d6f730d3
41efc0dc07f91730c5eb29c4894191a0
e7e0eff91413fdd10cb4afe7eac3f407
02fb261027e8141bf914ecd2f3f81a20
f70ece08d63dcdfcfce20023ee17dffc
de121f0c0114d2ffcbe3ffef41fb02e8
c7f7f7d7460bd2f9cbff3ff01dd70320
24f00f17190e1cdacb161d17c321ecc6
f7c0fd10e5ee1129c513aa430d1406fb
f309160726d60b33e309bcd505f3fa0d
f12240080833ca14d1c3e51f34c4f8f9
14262933082200d1fc35ee0eeae201e6
1dd1f1200231d70ed5e5115021b9e0df
01f716e50be61bf7e6e7f0dfe7f41711
110d1afef416c9e1ee0d08dc40d0e72c
20ebeec43bd439cef3e5fabc91efecca
dae2e8e3482df332fd1219f3dd18d711
bdecd4f1ece707e1e3e4b018e1fe96fb
e8000901b5f6ff07e9d50cd50ae80507
13142a22ff0a1816e41d1ce3f207f9f5
f90034ecd6ee03f50b02e4fff2321124
1dd536e9f209df00e40cefddc7005ae9
3904f304f4190ef2ffdf16daf54c23ff
18fff90707e72af0e713cc13fdd0d3cf
42000aea1715ce2c270a02ddf5f91729
f70b01fedff11b4bf62800dbe312e6fa
fc270610e82bd11527f612c0fb113c13
2332282fcc20c1171cb1fa14e1e41eff
f601d6ddc20219001399e7ddf1ff0af6
d71103d5150cf4cd07e8d8e50ddbd607
39213afee315e6360a0209ead1022f12
badcc9defbed38d6ca01ff01f0bfaff3
efe4c911ec1615cd25cd0bccfaf2ebe3
dcdc8f550b429212e922bc149e04efac
e30318cff6c80fefe707d9cefedcccdf
f10a1108f4eaec0efaf6f20705e20b09
f6080d18e822190920e12a1406fa10fa
f93745f0f2d21c23ff1037142332ec2e
cd010defd4e20e1c060900f0ffeae939
d4d3e625f529f4f100e7ea39d406f5d0
00f63e1405fa36e23831f52d18e106fb
151c0d22fdebf9f2b210b52812dde719
b81edacde1ce6756efce3e034b211467
2d1c28f60ded39fef6cfe712f9de2323
fbecd00ed4eee1faf94b30d601e5f4fd
c4d9f9fffa080df5f0f2d704e2e0eef5
f4340be8daee17f809f60a1f1ed6014a
efd8e229f0fdf4b8d60e8cdec9e9f5c6
fef3fcef0fd4f1291c4bd5f7fe1f0de8
cb2a09dad6019a07bb0ad6e3e80ab9e9
59e5ee0edcfc14eff8fff52fedf509a2
1d07dbf708fe2011050b07f8ecf90011
1be922fcd0fc0a33f9fdfbdb16e2e910
180029d4ec0a42ddfafc0d31f1d6070c
1d0c01131f14fabc1df72f06d9e2132d
ef05e9fff8d7fe0a03ef0effd9160900
f40cf8d2231d2f450e2bf9312be0eadd
f3d207e70609391216ea0df7d0d70aeb
2af602212d20ecf32a322dff22e22006
f1edd529f7fcf6fa4b0844c9f82cd8d9
11ff0deee51ed6e0f2f6f1f608d7d6e6
d0081d00f2e6eaf6f410ddc1efe7dbed
dbd1e9f0fa29170d20f22a06d6ef3406
1ff3f3c6fbb1ef240812ce08e429d9d5
17ef12eddb23dae21bfadbf729b6e0f4
a216d5d860cba906e45214bebdcfff19
08d8f9ced90d120523c8dcdcedfe1014
0efe3422f4ee0908f809f3040330e3f8
07fee1d019c60402f6f7dc20e906e3d3
26f9fd0ecb1852a4fcc8e8f726fdbbb2
05231bfddd073cdb08f1e82a330be60d
e1f7fce21b06f3e1db1f10f7bf38052b
ebcf29f6def7ec13faece7eecee126f6
291215ee0b3921e0b3381922fbfed1fa
25ff0636ec1c388718a9e239bd03e9c6
f3223808c11f21a011d8d406ff2aec38
e118df06b3bde017fbbac811fbc2edf0
e011e4eccf0dda190c1bfbe812d6f1f7
1d0c3e130d1122d4d306001e0c17f404
c207f4e5e208a22dfa142eedd4f7a9f7
0011e518c2f4e52a3aef0bd630b51cbc
0e04cde015de22e80b288dd9f2d20b21
1203e40de7a8d0e8f2d712f517f7c937
161c10fdbfe1ed2fcf1227160a35ea17
e3f3fecafe1aed18ff01ccd9cef508e4
fcdbf8c61ef3cd3304f015d3fafc14da
e0051113d0c5c33915ebf8fced1b200b
111dfaf517fc30eb0aee140df9eb2324
fcdf2fcbf6f128082bdd001e0defd421
07291efca931df19a8e5fcf903021113
e9ebfddc06d4021e10c229e110e8e8dd
59de5505f7ef5e3909bd60283b332d1b
fa06d7c8f3fbacf91cdbf7def9f90bdf
28e3dde108eef0ebbffff4d9f9f7f202
cb04f805e9f01d3523c42bf2e01d09db
d905ee2f25f1e6d4e72311d9ec10de08
f6fad117faf4e7f7bf06ccccda090309
dbf1f3e859f526eebf0635d28fa6e4e7
f4bafdf6f5cfcacae3e3c6e0ff0d0fee
08f6e9f3f1010727ef022409381d421b
f910d9e6eae4d007effd3214fef90afd
1afafde412f7c7fe1be5e2ff173ff1fd
13f7eddedefad3233ef4ae27fb141a38
d114edeb2e1536df0f052f0626e9e903
e2fe0800abfaf0f6e9d8fd07172c0201
26f31fd5e21d10fe07de5e12710c4b39
c03aefdbe418d5f3f0e6cf6a27171eee
addd36d51f0140c8cd1a273463324a1b
f9f4d7dfece8b00bf1c2a4e4e71aebd3
fd1819e901fcde10e5d0d90dfa00c529
ca0af102f32409b103ea0d1e01211b2d
f7dc1c3e174208d40d0927aebcf5e705
fc2af6fbdf3ac613d9d2f103dad410c2
a1fd39ba0adf2dd8e42409bdf01202f0
e8feffce0213d906cb06f0fae603e3ff
220119f4fd13f2121b21fb101e09de19
00f2fe0cf4daf70105f7c8c4f61ed802
10eeda0c03f8c835fce8030bbdf2e104
f9ddefef2819bd28e6c43502d9da34d8
d5ef19d338f6d9e2ee321aa4ee213408
22e8f211e3f502d02dedfad422e6482a
15e85ab707fed2390fc3f1f843ffd620
10e9e614de32df33c8e71934b6c900fb
10d800f31808c510b3e60cdcee2ae3ec
eec205d6ee02ed26ec10dff1c2d522c5
ef0cf1edf2cae01be90707ecebd6c5f0
15dbecdfd924f5f2ebd805fae3c81e23
e9f8fae312cffedf3e0635e81207ec21
f7f71534070bf5f6ef18153ae3e2fb2b
16fba19b8017bae5d8e09dc7efdba0c0
dae6fff5e7de280fcd1fde2813d21dfd
fd041e0df1ec00ff03040ff90f042e15
09d5df463d04ce0b2db4f6e01eeecb1d
24c12b714dccd41613ee31ed1504331d
1bd93b1b1edffc07e80e0dd2cb012bf9
dd16dee4e2020ae11721dbcbf5dac71c
e501ea1311fe40fe1415efa9e1342304
f13b1a170af906e3185602d40814322d
05a81d2a38db0841e5db34fb043c47f8
e702ea14f2b00422343ff61c1a33522a
17bf03ec24dea222dad4eeb7ce0807c0
dacef2e9cbfae5ffd71b170af9e7edff
03f5413a2ad90100e71917ecfa252f10
e032eaa7b00411d218dab7fa0ed9ef19
16f106c00c1ce0ecf201122ae9e91be7
c9f9acc4ff19e4c6feea012a20f1dbfd
f4fa02e2bb0adbc6ff01012218e7ee02
101024eff8f8fe2bda150a14e4ef3108
27efda39ede9de2a1c280d15e2fb06c5
40e31016f4021b34e30426e2cef4231b
291a2bd01ffaeb12ec0125fc06f40a23
0d070a36f7393bf0e7e5356120040e38
3416faca4b270d00311004ee10ff19f7
3b351f4418a72318df28fd44c60e3101
1d164aff203c0a4cff0b1297ccfb2aee
25683005fc342e583002faea11364520
e1fff4faece8a5fdddf9f6df18e3c5d5
d6f200d11dd7ebf0faf7ec15e8ed01ef
301647f7a9ff02311b2b0611ee0f23eb
b913c317ef03eacfc7d1c31318f31308
0523dcae5603e0e6f5f3f1e72c3ffce5
3bedfd121a40bf0bf4d2d1f9d1e81ade
e435e5edfeed0f05f8e5d6de02e5b5e7
04ea321ce6270f11032108f1f11019ee
fd1f16cc14ca0610fde7fa010ec04903
ef202aeae200f0d41f1916043d270ce8
2007cc1ec3fff10636022cf4f4090428
0302ee06efdaed1ef1ebbcfcccfb05bb
362aed02fc10f5f802f7f5921709ce12
34f5f20997ef1cd82d2a0ce114c519f8
e00c0a12ed5113ea573519003e1df4f8
bcc343ea0d19150e531bfb0d280fefeb
fcfd08d8c54abc9105acfef6fb11e1f2
0801f31509d9e7cdfee0fea9f0e2ee05
11e3ee17e51cf4e83d2b0c0721f823e3
11fbf30c2bf4deeaa6dba9f5b034abf6
f6f9fa32eadf1408eb1b0913de23f131
d31bafda172622eea1253d0a30f7ac09
e0dc07fb21d01304010bffe8de13ee07
1c0b0b310ce9ed121f0f1528fc280f08
05f611c4edd0c304e9bcfbe0fefffdcd
1c12f7db11b3e70202d7d2f9f1fa2db6
fbd82ce11efffbf526530329bcf604e2
e1dfe7da2b110cdde3f92d0d17f8c6d8
00131007ebf30f04250cf1d9d5081afc
fef5033118fbd900212c1e05253113f7
25f217e527cce10f0c15bd219c0c04d5
52e012eb41c83ed6fdef9e560502c820
0eb800ccb7e8feb6c0f7f6f7dedfd3c5
d8dcdfecf00aa9151608ffd4eb14e1dc
1fde33f1f7fbd0fafbf5b523e921f4cd
b2eed10ebe1b04f7022a1ed300d8e6f3
04061b18df3dee0be94c01f8d6d60ae8
28e9dcbec1c510b8e8eff7c8d3e5a8ce
e708c311efeff1f5260cc7ebcc09dcf7
d218f0f92cfef3e4f305e5ef18f4f911
f6221ac62830f6fcbf15d4133ffaec15
0fd975f31a10f9e6bff0eff6162d20f1
2614ed1d23e3bafa010f082329dcfefe
0dff1b02dedb4bec42e016f2bee92138
d4c9ef0a0733ce18e1181511b5e01fd3
c7ff1d2a66c4fbeeea142dd41aee3206
c7082f0c1a2acb2ae5ee102df8fb3508
ef202739250308ed1e013e240eeae9ce
02cfccbeff03c2f4fff6efede8d313fe
cacde002eeedf4cbd3edfae5f5e20818
01f70a1713efe100cb1429122df03cea
f802c2d2d7c020c7f1f5f4e6a8ce02eb
f700e806ba09cdc7ed1326fe065a011f
c6ca09fe881e03f1a4eb1cf3eedcf6bf
f2eed304fec6102ae32500f9e5e0d6f6
fe0d1b33eee21f130a170f14e203101e
edda0acc042dbfe925ded70f0929e903
13ef0ddef922c4095cd6d80c4ef90f09
26eef8081cdd03141a0d17dd3306002e
d6be1726b20a1df1cb00f4f4d8021bc0
2506e5fae834e31d19f7f91b15e7060a
04f4f45019de1b2515f7d713e8df212c
361429ee00f6cf4832ce0fea3917332f
daeef842cfd823383bfce8de12f31147
2df250ebd618f0fa13e90ded1a14dd08
dc0417facefaf5fc00f5f5ff00f7e1f5
1c05fa1e32dbba331eddf0ceebfadc2f
c7daf415140218fe9d07f0f9e2d201f7
2e0700faee000c1d32fa09f202efe5fc
b8dad0c6e2bc0de6aaaed8b5a5ff0a14
01f1ddf3ecdae63911c6dddbf8baedf0
e9f426130916ee1a09ea13ef10fe1dd0
46f721c91c0012e3e332e947560ce127
fb05f3fb1313e7ca265ce21a0e16e6e7
2e29cd12e105dbf918190c0fe7dcefd3
13f2c0ee2ae1ebd8dafddff90c161919
c22d121c051ecdf9f8eeead12b0532f5
13c1f941220fe6f7faefe11c3c1ded1e
fe2ac42c0603e8ef092116273ef113dc
03dfda700cf405f631ddde1a27ef50ee
ed18bedd18c5c9fadef3f5ea08dcf7f6
e018fae4ccfdd503ec0715d9f3c2dde9
ed02d82400fc0fce10f60915492e1ae7
ab21fdf8dec812140fc2e2e9ea070906
000ada30e5f6e9fde51ae7c5e8c7f3e0
fae6b8541fccd5f702a7ea8ec631fad5
e8f612c4f33007081b05ede5e4fde1f2
11f818fa112c03210e07fa0b0618eb1d
f0ee32d8ead6f60b240c102d2102ecf8
edef450a0feee9f3122d21102ddf1510
fd040ef0310fe6e417f728bde5f90406
1ac8f92d010df42ef3fcc0c62142f7df
2224e512fe2a2b3a200006cdeae9db03
3921080540240bfa00e9120608c8f94d
08f04ace06043b04ea0b0fc0f8d20d4a
4007680a20280e0700081007041cde37
d30be7fa13e810f8f621e4e9e2fe01fa
d800ce02fb07fce2e7e809e801d2fceb
102668d224f9f306ec1c39ece0d3092b
0ffee80b0f12e205f8f4e211e50ffbcf
ef00b809e6180fce2123fcd9efe80ef8
0ecbe204dd02c8f518f00f250cea052c
2230181103083220061ee3ffd21cf9cb
ff2ccef6ec19f9d933c8da11d2c4d4d8
02f1e0d4ed3cfafde7dda40b04d7f7fd
fb02303e57dfe4d5ffb206e7ecde2113
f42b2708224b0cd9fffefafcfafaf917
212a1000ed1dea12ce063edd4cefefe7
0518d4351d2bc91ec2ce191b151ba5db
57052c081dd45c62a614f0adaa2ed0fe
043ec6f810f800cf26fcd6ebf2cfe4d4
24d7e0e4ceea141fe60b26dedd1fd0fe
f428120ef40d09f6f9fff112e7eff4d1
0e112946b8060604e8fb08e903f414ee
fff6041a16fbd103d9f2fefdf8d2e8f3
d6fa0c07d2dff0da32b4a4c2ecbf09eb
ca06e40ffff3e60bcce1a4dad8d213cf
24f4f106f2fee1272c462c1d1e7f28f7
000a0a1208d30b12c71a19dce5f6d702
14020107de3009e8cdfcbcbf219af117
e9fd2109e6fcf6f7002cdaeef1e5062e
18ccef10b60d342004f7160305ecfd24
1410fbfbe5f9f74007edefde14fee2d0
10e900fe1bea1b18f5c005f8eff6370b
34d0f122ac1ffef6dace01e0cb2ddd22
dddbd4dc37ca1ad7b2f6c7c0d5d08ed5
0cfaed1dec352705d71e00f8f2f2091b
ebeebfea1dd005d2b4f2d809f9e2f3e9
1c28ea14123528ed11e8fce71910f80f
3b1034e4121a0251efe108f7f0f63def
01e9d121b3100de3edd0eab20ce8f3dd
f421fcc9e50fc4f8e712efe1c5ff340f
0d15e2df0922fe15e7d2169d22fdd02f
543206fccadb1ed7fee90924f1ccf94c
f50af41d161dfb0cf9e6d60e03fc44fd
fa12c21137de091b11a2bfd2dd1d03f9
ee001fed1f391bd2ebd81a39141b4a0c
030403dd0adeeb24220fffd709ebe01b
dd45e0f02428ff0a28c3edfddf165016
fd1b2fb1d9f30bfc2824163bfdf2ce20
2102e7c1e7d31efc621a1dbe2105c309
b4eae82bd219cdefbb04a1eebdb21ec6
04d8c206da1cf2ca1ce4eaff28051a06
c6c9dd180b3abbd0e112bafbdcda01c7
0522dfe422fa0a0b0cf7cde403f1010f
da1019e9d407f91c0aed101723182018
b8d3faeb11d0c7fe32251481d100d411
f3002fd4edceed11efdaf8eaf509de27
d114ebd0ff0c1c0e4fe8eb99fe002016
bdc0140e0fdd0f1e09f824f31434220e
13f0e4fbee1de00904ff062ceafb12ee
eee23a1b062f0e0ae60bd3da17dde0df
1af3170d2d03353b1ad5d50312ba09fb
260a110f0e1fe213e51bf839ecf5f6de
f6d816da05e9e7130ceb1503cbdad90c
08140f24f2e2f8cffa0c2330c51a31e8
580ce5f9ee4baccae3f6e42d0dccd1de
b7dffad1e2e0bc2a1207dff6fafa0804
5af6fceeecf7e40eff14f40de01e17df
f9feeae20e0a02edcad4c1f0ffffe519
0e1605e6181af5e9dd350f0a02ebded9
fadf1502050cf0e227035ce0000a111d
ff0fededf50125cad11c0df0c2e9cdf3
fdc9ea11150a10d8f4f302f202e2f7d8
fb172a01182ff3d9ec26db111da9caea
05e9250405142e34ff13b30b2ffdcd0b
e6100c131b06deddf71f30090408222a
d920c0141bc2ed0703f30303f8d201e6
0a1be8f6fae5132acf09d1ef22f9e50b
34021a09d4f6180319c9d801ed03dff8
022c20160affe6e11ddc410aa20202ff
28060d26c404339ef5d98b0a0510f8f4
ea08ff1cf5b6020afcaeda2ae8eddd0d
d036f3062bfcb7f7ce4c50b8f3eff723
0404f4eadcdd06f71712eff0defb011f
ec20e5d333d0dde6cf2923ef29e5d707
e421161bed0fbffdfbee0d23ed040ef5
22202913082b2796e408c70cec2fc5f7
e70503ddc3df0609e3f61422bd0cc9f2
f6231c06c21113f2f6b6cc09cd1ad1d1
cd13f41ee6a3e80fefbf27e51af61bb1
e3f6e826e6ea060929fdf0fadbf009f7
131f361e0123052bf41621381e02d90c
ded71adce8eef6d6f8e1ef0ad4d9d30a
f5f3ecf9c7f90608261fd5e6eef7f2db
efeee901e0b8c7f0f5d30bfbf9e2d62e
0bf43ce7090720de02f9432c0f1ef443
fcf140ec1ce53f2f11bc330225f21fe2
0ef425f4eedadbf313ffee1a0d2cfa32
e531f0ef0f2b3c09c7ffdef0f65df3f5
12d927f8f8e8be15f1e72a3003f3ee0c
090b1bf50cf50c08f41dd415e20d0df7
19c708d705ef1f18de0a1f151b01baf4
d2f91310d908fc0a42ea040bc400f691
eaf1dab804c2da2ab14de9dc1bf5f313
08cbdff2e3dbc5fe070d00edc1efd4d4
1301dffee0b9e7e9e50dc6f6010ca9f9
16f9c51f0537d2d40d4621dcf1dc19e7
18ef1de0e9213be02afa2bfb44462f3f
da1108fafc20fcb204dbefe5db0df6ba
fcf4dc23081410f61eca1dfcef13d4fc
c90227f8d6f6f1a40f20c718d4021e04
dddc14d7101529d90afc41eb16033911
fc0af5a61d0e2203f506110b3c222c17
e34e05fcb9d81dfbd9ddee04092cc3f1
fca2db4239131021e1ff1ed1f6affd03
054004f5f2152ab60c01f10b012c27ff
dae6cf0e1c1d3effe61a1ef0e1edd40a
c2221ed9e424fe26f5f6f5e83426e4ee
9602ede417f202f0fc07223d0f11f011
faf2f1f7bdf4ae11fccfbcfae9f0f7cf
ff23f234ede7989413fcdd200be7ebf2
da50fed6d8e7ccea21d7e0ef021bd107
1a210e34f313f3f619090bf6e833e216
ef0137b81231dfd81af226ea29ed1b07
c3ecf82affbd20cfc80bcdcc26f9e9e7
232ef5e0240628e71916dae0c0f8f413
ea0b0d0e3e0eff09d524dbec0129ccf6
02e00eeb071ce6dffe2f1dc4f306a709
fde4c4031840b30caee0070bd8e8e1bb
4dc3e8d9053cb80bd60fdcb4c8dfe7c3
dc0451b523fd00d84f221584250610fd
4b330abf0315cdf90acfba1aef330def
b2e93bd90ff7e304f6f8edeef725121d
e6e3ccf8e4dfbd04d212fded0c19e1f2
03e109daff2bbd2cf5e83f0ef6fd1c06
f6d5f7b607f30822d5e3ededf90810d3
eaf825e7f3e0fb07e6cef6f3f2d6e81d
f4f2cedb01fce1f3f4f2e1d6d7b7afdb
19122a360d0a2dd52e1a2a2c3f080a39
d113c8c3f2061ffaea34b5000b1d0f27
e406ccdecfcee7eaa9e2d4e603e4f41c
11fa0b1823d0d5062dd230fd0e0bde0e
000af9d0e2e6040cd7181030f502dffb
dddec6efefeefa001746c90c3113f925
04e9272f4ddaee1512f6ffd6ed2d2ef2
c7dbef123af5f62fb4efbaefe41e1fc3
d513daa6921c10ce1b36e0b3e8bea3eb
cd08f7cdf7f01fddffe9eff12017f9fb
f623c9bfba25dfd00dca03c0c6e0d8e4
fe01c4f6ebd5fdf2f224dae713f025fc
2af6f0153fcd11e1fc110deadc3c3cc7
c2efe3e5f31aeb15c1d7f5eefc08e5d6
f6cd351719c8ad18eff5fb02f4fc02f0
f7bcf5debac6bf16c9fffd96b12bead5
e60ffc1bfd0f2117d3044dfefa0d0018
f74121f8150d1ff7cf08f33af8341f2a
e310e5edaefdf9d6f30c28300ac0cdd5
c601ef28c50125f331100135eb1508fa
12f92e07d2ea07ce0c23f91f0ff11613
f92a291fd32221fee36015ff20ff2d16
0ae8f83aec28192224e835ffce09160d
19cc0dea18fabf3fe332fd0605d20c11
c51ba6e4492910bfbcd4eb0dfc1100f6
f9f8f9dccc0606161f03f2202c010d03
b2f2e5eb37f502f7e2ced22de7e0ccf1
05c8def3df13dc0122e90c0826f31bd7
5133471d1add1f19150431e0020d1300
04e8e7e3e105b8c4edf3fdd4cef1d6f3
280e1b10f1e6e4f807d9ebd1f7bf14be
f5c106fc062a0af64c2902e40afcc8fa
f9f2f72f44e41740f62b34380d0140e2
0c001c1ed72b05f22903cad5e81c0115
e808f3b8fb20cfbfdff5b8a6e7f1d6fd
dd180be00ffbe6e8f6f406cd19b309ff
001612c4141e1408f3080fe30000f019
f52028f73133eef213fdb31bf226e2da
f2fb12d9c912fe045c2b06d512041009
d6190ef9080ad0ff091e0bc10b3ae215
4002ff4cf3d615fecbcec9f6bb0002e8
b7402af0fd2fe8e2ebe125de4113fe30
fbc6f50cedfad7f1ffeee301d5c406d3
0b331fca0a17cedff7fcede10a26dd15
05151447ba3320f7424610f203ce12c6
f5431dea040cfe360b1e1ee4b4e9c81b
100c00c3c4e83cd7e3fef5f61fe6bfe4
d3382ffae211b0baf60deec11008d43b
21b70a06e3ff13e30a08fb14e31d3e14
182b29dd1a2401fcf70a15083d110209
1d01d4ccd2d01313c1c8c7b7050aae13
e4bbf1e0edbfd5f213f4deef050c04f7
0311080cefadfa1dd421f919e8eae01e
2a0919df29ffec2cf6f51127f53de9de
2afe0fdb36e118f81cffe2f80ce326c9
1df22bd22d0df41da2253c16e9e2d2d5
c920fce12848f9dce01042f141e3fcf9
24f50a25e1faf90b170ce521f135fb03
f336c7df032816c7091c2cc321c504cf
120be6013e0ee52ce4f8ffffedfbb5bd
05b932e603c0140affd5d60b16d5fe19
ea2ef6dde2030abef32c21efb4f2ccf3
07bd0518d2f6ba0709c9e7219538e418
f6e526dfe8c8afe3e5de0915bddcdbd3
ea38f712022ece3f043005df2dec02f0
41ed14de25e710dd08fe17f4dbfa4515
e6e3cdcdd4ed09fff2efb71dbf3cfa14
0be16ed519421bf5f1efee00001d261c
03f7f81517fee52b1d18d51c04370435
1ec828ef1527f9dbff1c5315b5e9e5d9
fa1915184be6ee0f0dfe0b002afa2104
1ae8f6f6ffffe40a041cd62126231532
fed21915efb053af29f219dce9031535
06eff0ee04f8f80bea0cdef8c61efd10
32c5fbe5dedc4ff8e8e8fbd2f1191d1e
e6e8a8e72e02f2d4160110130b0704ef
17f90f3532f3e8edf12f16030eee40e6
0edbd90506eae7eb0818f0faf30efafb
a6f0e6fe1cc2c7c2d1cd02f7e403f9f2
bbcaad050c10c90aeff8fe5017f913ec
18d8d5052422302d040e0a30dafc0622
ff17143021e4f7f10cf0ef0127e82426
e2ef2bd3fc13dcf6f822fbea321838cc
e4d7f4c60f35f51816dcd1001e4cabdc
0f2210f0e71e10ef120613d101e7e422
0c2b0434ddfa1505c012e5fdf2c24502
0e2902c60be1c34a1e0e24dbe4fb113e
7ae61dc8bc06ba1717ee33ac210c071a
fabae90efce7ebf6a8d81cedc4cce9ef
2efbe1010acb1c02e14614f9f8eb0703
e1c9e516b420ef04bfd0050cddfad1a4
f50a0fd0dcff15efcc38e1da0c000fe0
3303091e2ccdb70e28ccfe001708eb1d
f812f7f9d9e7f5ff1f14f9db23f1110f
011531be35dece1a27da04eafffc1d10
07ef2fdb0509f0f4d3bd19e12f341cff
0ec23cfd2300cef3c23be1102412e9f0
000ee2f0f80226131edb16fd0cf52cf3
ede6f1cce1f6cbf906b4f3ba2de80ef3
d8df08f920f405f0e6130724ff17fae4
031bda060affdb16fa060ee61fd802c0
161ffe2d0aeeff1a0e0d064607103fed
1125fc2820b6fcbf4f0cd41f051a2a13
b93793fae1af07d2312514d3f6e604ef
d8f10d18eae72bff04e6fdf0d9fcff15
0f3f1514f6d5063814e5e60fe8d324e2
eb1312e2c7e0efeaeeec04f4e9fbf42d
1d04e1f4d8e6f30e24d311e11fb51ed5
fafdd95518f6d2fdb714dd20fde11418
041bb4ebd3c7c112c8e103d3fbd80dcb
1c06f001e507beebd3d9e2d5fccbd7f5
d7500ef805a20a20f5b50be42ac5fcb6
03e30afc2c1ebc2cedcc032e1b2cad15
5704232b060afe26f6110ad6b9e23112
e0e5e9fec4b920fe0e31e113e3fbfcea
d7f905d9e2cef929fdec0a2415d71e1f
f0ffefb4dd132af30dfc4a0bdd27dbf1
211c340f091b140712c460b9de08fee0
03f559090645f3f0eb0706d407eb0722
0e1f2af007db0d14f24514ead217fd0d
e8dacb3ae1e69f1ce2badba8072414f9
302dd1cbf3fe05f2043dd4030300f6d8
2a18ca50ceccda27ba0df9d2202910c9
ef0e0adde2133cf4243902fc130cf1fb
fcf358343ffed6f4dadf03cf0cccfb2e
ef022ba809d007d4f62d29e2e1fed803
c10121d9d4f816d824fe22d71ddb1708
1613250ac2034fef1f21f6c8e08fcbf3
bfef02f64101d5c4eaa1acf701b9f6ce
1dbe04fc2e8335fa062ae0a0090f0033
fefef6e2e0dbd729ff2d3bee09ebdb0f
db1e04ec0bd3f53efc1127fe10001c13
0d3b32bf0d157b28df34d4fd0f3926d3
02f3f2e7e5b4162fb73d29aefa380e3b
19eac30836bd047f2d1a2cdf1222c43d
541d19ec030e0dc8ff13ce32f0fffbf0
14d6dde90009dffb10fb5cf2db04f8e6
f402e7cf13e7fe000b1aeccabdd0ff06
bb17f0301e348043a4f35234110d061f
fdd71ff536e2fcf6ffd7cdcbf2e92e0d
0cf1ebdbce9f132cf70ea8833c0c2437
41cffaf028dd3d1209fadebace112a19
48fbf3d90bb94228d5e05bcdb437f4de
edefe6f22280ede729f3ecba09e72b30
d7f4d017b4dcecdc20c914bd18f6fce9
ee16e7c516982712f25de5112c02e7b3
f6f3e7070f0c06f711e80317df40b3e1
21040e06eaff09f4fb11edfb01140cf2
0afc1c01f9d634f9dfcdfaeccbe82122
f448c0ef66e208f3ea2ff814e315b7dd
12e9890c231a28be232105072a33a2da
03f4161b0b081d27e40a05e4f5d9eff1
e507cc12f5f82dead2b2101fb22d0ce8
d4e5c6d905c413c5e835f2f805f5a2c6
231fc11beb0ee93c25f01e2f0734331b
040a0ae8efcd1ae6002728ce3ed0d5e8
e50ffacf10b3050ce700d89a0bcef3d2
d7cd09010fc41905c90fd5e7e4f7b4ae
c408b3a90ef645f6daf8fe28d117c0f3
1219ddbc0ada0ef7f16205f218132bbc
dcde23d3cc94e4e9c2dedcbdbff6f7dd
0ac3ad1c0913c1eee031e3d5e001e2c7
0d15d9f00dfce1f7fd27c6efedf40bf0
fb2024d805fb0df4140bd60c272cef24
b4ed0647da14fff3e2fef1fbf500e700
09ecd40cf013d0d2f01ebe1fd1e9e3b0
fb1baaf2e3c5e31ffe75c700dd16ceee
0c280a22e810f3f70bfee52802d9fcf4
fec1e015e92edfd3fbf6f606f001d7c5
ed01d2eafec9cbe0bbebc8dcd515d7d0
2e10fac7d4c12ae10a2a10c6fef8d003
0c0617f902eafbf8e5ffd72400131e05
0212dc05f2ed25fbe520f51afbddedf1
17ecf134e9ffdcfaee0cb812fd0e11f8
07e5b93bcf28b0efeffdcb18ceef1bb2
f2e0fd151cdaf9f1e405edf8f30aeb9f
32ce14efd7c41802d5f0e6f2c4e2ddaf
03f6cf1904d9f727f2e3efe0062f2e2d
d80bc7fe2200de10dcc7f3010f25fc3c
0ffeececeb00cff017ff00d4f5e7de0e
efeef5d8d4e8d010fcef14ec0ae60609
d8e888e9f815c0f3f906a6eebc29e40f
fe21eee016ffa4241300d1f54411180e
e2e1d124fdf5ec1d20ee0ef209ede4e8
cde7ef0106faf4e515190ef6ef29fafe
e61bc7fae9c7e9ff03d0f8bd00140cf0
16f9cbfa070b0be6ee28fb21f2020f01
f5f0fe35e7db211609d8fdf6cad22ce3
3ce9f21bd5d709d3fdfa0ff9d20119e1
dcdfe005ed0fe2392120f509e8f90600
dcf1ef9a13eccce1ea09f5e1fefad6e8
0a10ef06f6fb16dbfdebf22812204eed
19f4ece4a2ed482908df13d8f620c7cf
e40abadff80d082014261aeddfe20220
f2d8d5da0e1c16281be61ac132f7ed30
2b1617fe1f061bf420f5d74a16040ff0
21fbf11531faf4c4c71f5abddcf63f0d
e9f7cdd11a31dc123a18dd1123de06fc
d600e404bdced43b37fb402a15fbeacd
fe15ebf31d19c0df0c19060aac071f18
d4f706ea1a01d0dce02ede010efbdcec
c3dafcd0f6eda83221f21409d4ed18fc
05e50912a922332d37baf5443005e6dc
1cfe14f5fd0d1427ccf224191ef0d0f1
22f008bbf21bfd16053622fe38fe2ce5
dafc10fc21fdfb21ce263cf7d1e4050b
c62ec5d930dad408f42432dd10d0f32d
f6e1daeecce8fa2af22d29e8e100e9f5
05e1d9fec7a5cbc40c1128220403c11a
2d2bd758061ab612f429f50a1f39f77b
fb23fd282a24191bdeea03f6e3e03cf5
211a2010e710eb5001e8f81af3fefb30
303152fe0cfc251ade0e2ee03c01bddd
ebeb07f6312edc21d24dfcfbfb04fd06
d101c83eee3efe1136f504beb0e71220
f119310812cb36f517de2a06ec4bcafd
e60ae2013bd52c05c3eee82201ce4f04
141fe24721e0f3ffd514fd03e30dcc2a
031e14e523e6df0b03afdfdf0cf14313
e8f2e114c4f4bcfc26061207f8d3bb1c
15171d0bfb01ca24e416ec16f4f40c02
161ad208f9e7f807efef00d8ec31c454
0c13dcd81f260f1bcad2d119f51734f6
1136d533e8eadcffef082cf0221df10a
0e9df006d6fff9dbdff9a00ef9ebfdf4
1cd1e8161bffce111713172a00efddfa
0506d911f5052253f43000fefaceecf2
08132ee10107da05fc21051de847181c
08effdfb1b0b22ef17d130053cfb1a35
081ad63123fafb17ce07130cfdd0e5ff
7800e046ddc9c56fffe6c8e8b7cbccf0
aad6fa0e233a01b8faf65df6373b1c29
d7d10b0034ed3cf1ce2cfd0dd7dde0fc
3ae4f728f7e1ce29e1f000caf5ded9ff
fc1c0cdf85e50249fc1ac035fcfd01e6
12d200eeeffecdec26dd1013f8ccf504
fec6e83af40de1e314d439e615f52819
09fffd1a3ef8f5ee15f217dfd4f30045
e0b7e42c09191df911231bebc1eec80e
19cdf352ffeedff7f7d2d7ff0603e805
f3e4fef20ce9e0ccf8dd10efe909efe6
0c251ed6422950fa0633ef1274e9fcfb
fc14c90d14fb080d0916fee91eee1de0
12061ff7ff0aefe7270614dbfef8010b
e8c534d25011d9f1ebeb272d01e7f760
c8f2fceb03fc062a0bf71ae63c00d4d8
140607e8f9fb263f192d013321cae506
f1071df13afeeb02f8f3ef19e70e1502
f3cc01dc1424c20ff43e07e4ec161bda
d71eebe30d1e19f7f108f40e42e3ff0e
3320dac8e55db903f0d10c29a3df1ffe
00181e01f2cf1bd2eaf026022330b3f3
c60467dbf90fef3723affae716fa020f
e52a3fd028fb0bf62e2606f32109bef7
adbe1bec1b261fe7e70e1afc11ee0411
dd1a280800f9eef300ec05da21dce126
c6db10ffd4bdf7cff60b0fcc11f9faeb
f847bfb59ffb0822f51dfe1be9deec0c
fa0b18b8ca2e0110bcf82238f4e4f6ca
eb0f091b0dedf1e41915f7e0f4f31f19
0710dd1a1613fdebf718eba0ef19eff6
c90020efd524e5e8ebef0303f5ccf9c5
354bfac6ec2e37e9b8113806ffe8c3d4
fe15ebf2e7f707282838abde17f7261c
d6faceb5dc18e40711e8e31f10b6dce6
e402c6aeba0d1a00f0130d090aefeede
f8adeeff090c020df10ff5e7eafa1519
f70cf2e1febef2fe2ffc14143817f92c
e70defd4dde8f0eb0f1003e8e80be609
c815cab3dc21fdc90b1d020526eee510
e8ecb4bfdd37e0fc1f11edb3f1b5a714
e90de9dee7cee0e30f012922e6eb070b
eb00e405f126c9c1ddce14eb07ebf6fa
96fbe600f3c9e1d1cd02d631e3e2dff1
f3e0ccb116f8dffcf7fcd3c3340ddbfb
11421dfdfdd01f07f036f3f7ef270a33
e029230d1034e7e11907fff4abdb1503
f4dff3db4ea3fbd5cc0ea4ce1aff06de
c8b18dba6bc3f0e12429c1d8f7fcbcf4
0f16fa5dfe2c36eb2bea0f500834f8f2
f416d4f232f60cd6e5c6d4042b00da23
c3eed9de28c3dde8cacdb00716ef11d1
20e030d01d31e342fd16f9002116fe23
ed1f1a27f9d80fd5eefdf00214150708
0022e7f6080000a7c9e7de190ae5eaed
a505f5320be72ae2dab4e64d111019eb
cef8f6d4310003f802f6a2261cdec0e9
08e50d2108bb09cdc10d11f4fbed0022
e2f90fca02e62bdffef510c20518aa0c
36cbf3111cf902ec01e91ef6ec25e5f4
27ff0f1716fa0804f10a1e3310c32c03
f510030b0e1e0e0b35221921ff0bf816
0a1c1a2ce8040ac801e3f3f2dcf115f7
40f31315070d0c17d5d1130b02d11611
39f0d03e4beeeb24d2d62a073d1b0cf0
161a1c07f40409d0e718d6e4e4f8e4e0
28b5f6f80af8a541e8cef549bdc4f5d6
00b9fcf3fdd1dae6d1fcc0f7e91cdff6
e8f6eb24effbfb072f32623ce4e1ebe9
07c2eae00616f3d8ed12fed81bee1002
3ed83313a4fe21c6f8ec0ba7e7200be1
10db1010f2e605e404f5f5faff0a06cd
0b09eb13ef08d6fdd7d6de00d7e2fcff
17e51204e7f028e808f802d30544e234
c0c8080d0ec713e30bf7cbdaaed9f2e8
b5ffd75d0819e60a41271edb1404484e
fafd0df40b3106f40907270ee0e93af5
ff252bff08e7c424fd081110fe17e1fd
060d0cee3924e4ea0ce2260036c5feec
e514f8ed043cf6fb580151f6f7aa4fee
cc0dea45fc13fd291a48591cde093f34
04fbf3e901d312fbcbebbefbf61ddcfc
fbdee018e8f8fcfcf6141a1ef8ed0106
e308c70dfd26f536230ffce3ebe8133c
f2ee01fc01fa2912de45354baaedeee7
0ea51224b3f2efedecf7e0b01a52331c
c52f023b4e0ff9d329ee25da03d80a2c
d10e0719e519f9e90b2a18df0a2bff25
cef7c6da064808e9f14d0ec12f9f15e9
a4ba063919fbe2fc45e52ff3d115382f
d8e399f7fddb980021f822fcffe49efa
f511f615efd21d1406cb1adcda1d0114
22f3d8f4e40be6f208fd0bd939ee04d6
0cebfc0232e9fff7f50619ff15071907
02cf1a220cff1ddf10ca25fdce1a3727
27ddefc102ed29c303eaf00315e5050d
fd08dfd7dd020345ee35efec432718d0
f5e30e03f1dd20c10cf83005b613050d
270be4c9d1c101da21eef8000eed0d0d
ef01bb0ad3f7f1f700f5f7f1013ce7e2
3ce1d007bae0d05329380c1a1fb5ca23
dd2406f500e5dd151b0ef9f104ebf2f0
a40ffff405b1395bcef200f00cff0607
de001512f3b50bd51b02f4f0e70b01ea
3ceb0ed3d1d134d703d6fecbe4fe1d20
b83ebb06dcbc08fb2bfde7eaf0ecf1f7
f2e2f106fbd436f91800ddf8e0e9e5e3
f10fed2028b50709ab2e0927d5b9e3d6
20fbe4f8eae3200002091626d5dc08f9
f80cee1ec417e511111206de0bee200b
d9ebde02eee8c4d6e910f4eac2fc1ee5
f2f50e14c6eef6c6bed51c22eabafdfd
281a0d1d1b1c4a1fe41e432c0328e214
d3f1d91509e429f0e92a0301dcdd20f2
fee2f9eeb126f7d509de08eeffc51f04
e322fed5ebe705d4b5ee141dc1e4c0cb
3ef00418d5f4ed143608fff31004b91b
f9ffe3f014daf8d4e83c114fc8e41b06
1e15cf1917bbf4ecd8ddf82eb3bd3efe
d8edec0f18c82201c015f009b8daf3d7
f4f42418d701f0f1c6ef33c905cdcef8
e223e4fd59ba16f10c01e117dd1823c7
17fef7e8e616e2fbdfa6ea05cebf26b7
f2b966ccf74dc510f2ef0dec19cbe4d2
d50924f4fffdfefbec17082be0ede217
b905001903ed17043b0b1c2204093a14
fd02e00ded261b2a0fe715baeebe2819
e509fec4f1261e000ee1eef9b5bb2113
ff015bdf462c1b130424210915fab303
0306e40bf907d7cef9fa05e614e01b2d
ef0ca6f009fdfe07f41a00f6ee17fb16
11ce3bdfd7f80ef009e709e6ebd907e4
4203a1f5dfe8f70c3f13fe0ecbedfabf
18d7490a2e20ec0bdffbee36f3e9fc10
15bd7919fb14fd1e05afd7a3eee122ed
cfca24f70d06c835fee102f5f3fc071c
db030dd0e8de07f7ffdef1f2f9070133
fae072e1d130e51603e3e9fdc9cee903
1512f9d3f708ebd417bafaf6e91b0d02
fae7a2f1e30dc9fe15faf5232aec44e6
e403d5ff03defadb1804ff07033201e3
041d0af60f13e715cf1a01dfd307f702
2e0ef230f605b90020f3d7c211f51af4
04dfd23a05f5daf0eafceef0fb2532cc
eb24f6dd06cb1f0b191b0e41301712fc
12cbe5200325d133c80affd9e504c30d
f9efdbf600d0dae6f4e81ae7ad25fc07
efcbbafedaf6def70dd4e51eec0f36f0
2240fdcd1c1614b0b10be91103162a17
bcdd0c1c130b03f8490a0c3d1fe4c41c
470fe708070bf3e30cd9ef020ecc0904
f9d4d42ad0102037fadc101df2ff0dfb
e8e6d2791404ee24e21ceccbe10918cd
ee12e60510ddfa0337eefb0f2abe0afe
2f310d43f2162ad7fe1c151c08daf1ec
2006d7d3ebda27f80ffbf4f7d439dbd3
22170ed6ec022df5a206f2f303e40ce6
0c0f0355fdf7f036e4021917f9dacb1c
b6e804f3d32deac5f9cee0dbecd6e417
11d508fbe5fed51c2c091b3d0ace2424
1afedef826f024f00fc1c2f41bf70afb
df4ce3f30509b701bcf2d72b00df1214
15e2f6d100d6ee19fae30cadda1b0a10
fc6cf9152cb2332f0627ce9ef2e50cf3
fa141e1e0823ee11d8d9e61e1dcc0c0e
257600220a26dc2cce2be33817f5ffee
2af0dff706eb2117eadae8feb145bafe
2cf20f1e003ae1cdeae4ee192fcf03f2
d3e6121b3c03f30207fcff1d05e0f510
24e9dcc4fcbf5618fd0b38b7bb36f7c6
23152605e0fd37212fde2236fef21b17
daf0e1ca18f907f6bffad715fe80cdf6
dbfce3df27ce06ccb905bd1900ceca1c
3542e9c2cd1d484615cb39e0cd113aeb
ec4010f6d6dfcfeaee0504bef9e339d5
faf912c70601a91a0fe70413f5453116
0ee8f1e9bcdaeef703de03cbfcb91cee
fa09e111d3f8dbf4028f08ccddf30006
0cc7cfcc22cefc05bbf0ee0be501c6dd
031e05e5f7d20e04eb2cf4bd14f8f30a
0e1f1307d9040d04f51505caddeb5a16
431d220be6f00215f1ae1bd0f01406f5
bfd4b8db29ed3cf0ccf9bf0004c180ca
1e23ef18b61d300227f806f6f31cfe1e
2b03b7111930e02c3029010922fafd40
acd9dcc916bf27eea3fcadfed4ab97d0
f2220809043c1610dfbb08f70a071f33
d0b6df70206ab901dee0b91ffde6f3b5
c6e0e548121be0fb03e7d100f51f21c4
e10f13f4c3020c0becf8241202cf2450
cac326dafec7fff6fee5e7b4de10c5e4
f9ff6bbb050e3ee3ddfd421d1e08cd31
ecfc09c126b910fd120616ca0730ffe8
f2dae6e3dff3fcfc00f3f9bd0c1bd412
d9cef71de315e7000e22c8ddddedf7ef
c4f71228fa0be5f01210da04001accf1
dfe300c2e0ec322604f537f050f2e342
f73b13e820221019354614da4435e30f
b8d8ae2ef020d2efdb1ebff0eeee02bf
faefe406e1ed160713a7f4e005e43425
5717d548c8ad15211c0f121b13ecef11
efbda52e3225e0d5f4e192dad4ff19af
d3ef17261fe9420c2efb3c03fe2710fc
f2f82debcd0ef606ddeee8d6101df928
e5300bbff5100fedf81acedcfdfd05d9
e2ede3e43e07dbe7fd043c2300fccf0a
f715f7cad10402eae40e01dff5e93215
e8f4ee49f2f222f629c7eddcfde42524
4204d5f817eb0bcadcf70625f9f911e6
091019dee7e10ccae80710350804f4ee
e3d3ccf9f5d6f3ec0ccdf405d3d2f741
1b1117e409e011e1e3ed0503f4f34ae0
111f0707ecf20fb7fafe333af3ddedf5
1df4c0c9d115ebc513f40715dce9d7bd
f409c1050dc9e12ad9e8d4ee2310d9ed
f4fafc2d3b061d1228de2e2efe1511d2
1905123c440d2b202831ec1410212efe
d2efd0c4ddf3f801ebfca1e5e9dabe21
221638f8fd00d6ca000312faed440f19
010beaf642e2cef5ba4c0de7ebd0191b
f3f015090b0cc813fc2e1cadc9c7260f
ea3d360de1ee15ded802d92d232fb40d
07101c04ba3a4d17fa94d0e2e320c0bf
fbfa0bf805e91d080bf9b81d36f1f8f6
160716eec7f41307ffb4f212cfeefbeb
e3060b1fc5e016f50b9ac21ad4fbeedd
d8f3eeb40d2905fbf92effd40ffb1d24
4201ed0ece1607270c073614fdfb13d0
0b0e2b14b9eb00b5dee9c1fbf4f2ccc5
f43cfc060b0114a601d9b01cf10b101d
bc03da05eef7b21ee01815d7fecb131a
f9151f0fd8fe38d8f005e8faf516f0e0
fd2df025fbce2a14fdf0eb0bccede0c6
c41ab6c632d8db0b085c24bfea001f06
f03e2ffdfacc4ff540d92928ecfcf204
1843e8bf341c05e0c03bbef21f0401fb
ec15f1db43dc1efde6fafbf90918c0f4
cadaf9e9c91ae703ecaf1c00e62c5114
d0e8c9deefb0b3c3f0e7fee2f508e820
e60c06f4c62aec2b0dfe00ffec0c37a6
f1e6f006f980e0d707182af116f8c018
1006fde7eac5ef08fbf91ff9eb0302f7
f60201081520ca291b07d5f8ff060327
0f40130ef809ab00ddfadd152d09ec09
f8d339c5ead1002d06c8302405fe18ef
351063f7f8f12826fac7251b3a100101
effaefe3270208e6f01bf5e60404e519
e0e8f5ecd2e017c12ff11d09c11a1d23
f0efc829dbe915d728c8dc04ecdcfe32
e233ea050c01f9eb9ff7a5ccd1edef2a
a1eafed31a2224c7e3053fe433e41a51
cae1e2ca452603e8f90825d8d4ffed14
ddf12201031927c9e6fde7e0f5e0fbf7
d2f401b5c504e3df22bced6201eace13
02de0a1f12c9cad104bcc9cef2fcf5f8
2ff4e8dcc7f006231de7272b4524fce5
fed005e2cf01d5f2040f9107d10012f3
eb1503d207f2d4c8fdf2c500e51e0b03
f0e81c25f507fb4ceee3ddd71412cdf8
31d01a36d9e0070324e91bf206260d0b
bc04cc80e9cfe5f30ae6d8121c2730ea
a62d19c4df0940fc07cade234c142305
cde218200d2801fbfafa10ccd5fbd51a
ebe9eae9e91011c5371be63bfd0a0604
5d21d71db606c8fdd20a32110bcc0412
eac1d20d123323f735f41ec7d7d9df1a
fbf503130cd7e72af8242a091b541013
93e630e2f1c9ed06e90537dc0df7d0fd
a1f13f2a02db13fcc04522d51bfee6fd
3cfae8bc1417c90a30da240dcc0dfcfb
0ef4f5e2cfd9fdd8b5dbf9f8dae8fccf
2b060957c10d1d1725c43437eddefe12
fce9e5f026040fead61500ff0709fcf7
cee4b9c2f206b5fdc6ccd510b2ddf7da
bfd80ef45218d50f00d545fd06e7f918
e3f123ed2e0bf6edf9baf8010fcafdf9
0cd0e3eec5feb11dd9081114bcd9f6ea
17a5f4ec1834d0eaf6d4f8c6d3010de0
d5db3af614d71de7f144efcd1ef7e0f6
210ce8fb24fbe1100021fe0f121f33f0
3e1a191becdf2bf4fa13ea3e3928290b
9dd91dfe2d021dcd080614d6ee0df8da
022e34030cf312f01e35f6f2201c210d
d534bdcdc830cfe81ef09f8ee3d6cb0b
ef0dedddb9d8ee312515eecdfacff614
0edf2a032ef20b0de6e80aeed92d58d1
1afd1305f7d2f1eed11efddef4e216c8
280f064d2eb6eff9053f121f10ff2a19
e0db00ee09d129f1ecfd0601ddea0cda
1ab3010f32dfc10fabcae5efd10d0bda
eef9f1c0c03cf2d9dfe0f5cad1bee2e7
e63b19e0fd07f8f6eaf42ef002d6f1f6
22da512e35d5dd02f0d41cdbe02f2fcc
03e70d2923f3cf08dfc9b984ce1325e6
d036aaa8880d0d192dc9be960bdcb815
1cf8030e41de11020604f2131d101adc
102211e7f9d1220811f52e2c311a0205
d932e195d41ff6d345daacdbedd8b602
12391a1fe91d242e07335c311908271e
bf19c4022ddfd793ef04eb3dc8e0f2f7
fe10fcf01400dbdada10fc08cadcf1dc
1d444bf11a0f0f35f9200cf823fe1e2b
e9f432e2f3dfbcfcd0f30dd4e0eaefce
0c2d2d20051a022def1d06dec4191dfe
f8f6f106eb28d7dde4f21bd017e608f1
eced10d20808f6ddebf7fceaeff0e9bd
df05e6bb2acefebfbcebd7cbf019d401
fbf7f12029e6d09ff301db02b91301db
3f034306f333ed3bef0826d6c40c141e
180f32fb39071d27f51a12ebc8de1015
d6e1b6f3f304fbdac0e9f80717b7c4e0
24fa3bfbd9283746153b181d38171728
0bffe40237e5261f3b1fdffe22f5cef1
ae06ae00e1c5fe9adfc5bb4311d1f3fb
18ee171a1a2cf4ef1a1d21e00b03f2e7
1a0d0236edf5dcd1b0caade0d121e5fe
090a18110ff2f1d0eadacd9fc8e3dd20
1ffdb81ef8301d2e14293f19faf605ee
f3180ac103f20b04100bfac6f71ea217
09cdfefcdfecf9fc1420011f14fa30dd
1af7efdbfbe131fdfaecf2d9ef2bc32f
f71d10d2e10de0ecfdd11dc5ed41d12b
1f151e3de103143ddfdcfd11a9e80af3
03e52727c9f2fac8e41805aef51cd71f
0910f1cec30f0bd205351716ec0cd818
1f4c2327fa54dbed0b1a1f060929ef02
08ea1afee917f8e2b5bbe0eef4ebee0d
14efd30e12232b2a2b3b071405e105f8
fee5c613283bf2fbe50cda370c0612f2
f9abeafeddd2dff5b399ded7bde6df0d
33f13fe510f23011fe16cfdcff1ef6de
f951ec20f036ebfd0bda2faa1fdae5e9
ba49d9e000fed913fbe000a725ecd1cf
12bc2cdcd2d0f2ef037a070f040f07fa
1ec5ebeb09e9fa1617fccbddc01af6f6
30e92af0f0fdf3f410e209ef48eb27f8
dee5fe1f0ff60612ff0ff00efaece307
11fb04d117ee0ee8e3f6ec00f9e7e1e0
c20a1f0fd72cf2ce13f640e90ef100df
ed26eb14d046e2304a0f4ced37fc15eb
2d0009d904d3f70701efefe89ed0fbca
081d22a465061307db1e161a0bf3e0b8
f4ebcaee0628f80eecf139b9f8d206de
13ca3410e4e521f50c360d13ea08ba12
fdce0305dbe013fd320af620c939205f
a43cbdf2e41deffdc30817ca28eed2d9
fafc12fde1f54f30f5f33dfff9d90926
e1c0dee70cf147b3cea013f8e50900fb
04dc0907e1ca23c4d3cf29fb9e0cfc03
e221183025ff2812074e160affe1271a
d8d9c71211ddc80ccbdff61eedededea
30300b1e192625e2dd2330d543da1ef1
f932b12900e0d0031113c81ae928dd03
fce8deed1df9c20112eed0291017ddf7
02cecf10dccc26ddda091ee90af10104
dce6dde0f6c730dad3f80f3afc290d0f
f2eb05293e01dd01d1d8ef07f3c013f9
3b8f17ec1ee521140dfe1b49e22456f1
0ecee8d5cba728abe7ddf9ffda02e414
0e2b0b100a0fee3729220300f93e2e43
d73106e5d705ea11211317eb171226bf
03cdfbe1b4c907e707c8fbcad4fd0307
2502f23af8e4300629fcdcfc1cdb0216
d6e9030de7cbc3ecf5d0e820f3d8f6d1
f4e4e502fd33bdf7b5c8db02f1d815f4
1020e23a10e6e43a27fbd5f1f6d5d74b
2b18201352e4e1cf31f1f6c810f10706
f1e3cfe939e8da1659edde18d416d634
