fef6ff0622e1e2f01501f202042efb05
e2d8dde2d5e928ea00f1cb11bcf11df0
eeee0feb10c00216f70701e121f8ff3f
fed4e8330dd2dbf61e0ee129e936fdf6
28f4123407fcc5c046f9ff2bf906e317
dae4f6040612303cf6240f110bfb4907
17fcf4fa27c6f6c805f3fb12e8e3de22
fe0eeb0404e1fef201e130fdf301f2dd
12c7e7f8fde51afcdde515f213e7ee0d
3afafcfb200ae8b3180b140af314d7fa
fbd109d8ec0b01e9f2e312da261b0e18
e1ee0aeafb1413fae014ffd914041011
3501f70ee38cd2d524c95012faf7b8ef
e9d2f8f3d6f60f191811e000e2202ffb
2f0cfcedc50810eae7ba100de1fee6e6
fdeae111ecfa17e839f32522120d08cc
11ff13e0f405fe0e1cf5f817fc130b02
d0f2f9ead4e1f0ebf2dafdd4151afbd9
eb1ccb0cc1f8edf60e0e1807daf1de20
0519f0cbe5ffeeec35fde7ee35282cfe
e10b02d60af6fe1f1a08edf533473809
1b0ae3def4f616f318260803f2d9f20a
b420dc16db161413f91105f0231cfb1f
effb15dd13f5efe1f1cf14ebf9f4eee1
11da16ca1b00f0c0e200fae8ffeffee6
00ed15e8fb2117fa18180119101e1b0e
24d6f30afe26faf90702160bd7e7cae0
08e6dc16e5050402062803faecfef812
f70ad9b8f50d2aa1f7de33e6260f22f7
ae05fde0d6d4fce200f42d22fdf3fc0b
e7110a0215e32ee300eafac4fc0311dc
e92e0dbefefef9df36e008eb322918e2
10fffe1d01f9f008f50911fd02090bf5
0105f4fad8e8f70c18fae9fddded1500
cbe7dce21aeb0ad0fdecdafd0c000423
3223c53bfede093004fd14fadbfbe902
5221e031feeae745f7f54802e5eeeef2
e8fdeff52af4fecc2419e32cfad92653
01231418d307e806d0cb03f2f3e0f9ee
07fcda0c05e00403f7efff02ffe45bf9
e6f7e9e107f806ebeed7ebfde220104e
2409f30b01070a08e50b0a08ea050cf1
e2cce8d9100127e7103fc7eef403ebf2
e0e215d915121de6130fe9e709dde6fe
1212bb20e701db09c3cd4326d5ec43eb
06eedb0d21fc1d053302ef07d5e4f40f
0104e105f8e416f3ca020c201d29f9f0
281fe437d4e9f808e30c2c09e7f3f0be
f118030bf1100900f0fe2501f210d80a
3df60aca04f1e90300b3f31ee3b8f8ea
0803e029f5d20ff0f39ef4fbeb22eefd
f81e08d4f91f0cfcfee32df2e8e9f5f7
e71d1cefe031030eeee62f0c11f2f31b
eb05f8db210adf0711f3f631f5e723fc
dcef52e6e3061dce02fa17081c2fda3c
10021b2a0df8eefbddd00c1dfd0fdcdf
f0ea0510c4e2fbdbfedcf91eeee71214
f0000eedda1aec13fe151e3e0af6ef42
f40efc0fd3e0ed250fe2da0308e40bfa
03f809e6deeafa0608ffe304f6071a02
00030806da32fbd0f1f8272e6a0ed02b
ef00f3e1e9f2e5ebd1df110adee6efe5
f3faf1fb6a091f04f50f0f3714d6fa01
03fef7f80112fdf008f53704fbe8e409
28160829f9ed15f8e6120ffaed1608e7
04e6e3e0f4ff1bfeef09090c1afb0f3e
dbedb111ec27e6f615d30be4f7eae601
232de700e4001201f00b012fdb0b3915
1529191a0a0f26e30b11ff3bf31533fe
e90108fd1e1901160b0909e5f5f6e8f6
141fdd06effbfa030b153c28d5fe27e9
0014d60612e4eef41a0e28fc1defe400
f1d7dcde2ae2e7f9fcd2fb0111e20431
400c070b12fd1fde0df80612100e08ff
cceff7fec4c0eb0c06070ff5ddf7b10c
e601e8e6d6f9f4f8ef0b00ee00dbe7f9
221fdd184bfd1be0671e73fd0a2c10d8
f1f1ede7ece9f6fceaecf5f30bdf2209
00fc06e843d5e7e2352914f6fe17eb31
1bfa01b3091a1cf91a02222eef012b06
0e2500380f140c370a09dff20911170e
fdfce7fb10ecf41225dd281e04f3d0e8
f6fb3927e40fd6200240122f0827f3ef
2eece64d28ec3d2414edf904f209e61a
fdedd6333afe3312fef8d4d606f0f511
ec08faf9f4e2e71a16f20219f2fcfdf4
0ff9fb040a282b131fe5bafa40090826
040f0decf42ef31b23d7ead72eff0f00
f802ddd9ec1609e218fbf1060aecf5de
02f6fe38141b1b192ad8faf22a2b17f7
02fa04eae4ebc6f513060c14d5d6eb04
ecfa0c1ee8e9f009eb160610e8e70101
2bbd151a2c1624136dec86c4731e110b
0118c6e9f40a0c1dfa02211cee09f7d5
1eefe6faeae8f7da2f040dd723d6fdee
f6cb14370d052e2513dff7d9f6f8e2ff
07fe070d2cf1191813f80c130e18e710
f6f11c32ebe6edd309210112111df7df
27edf620e521e915f811d2e7e5e701e1
e001300d4214fcf52f11400e2d21e404
e9071efe4709db0a30e535ff2f1cd9f9
051ff91be31ef1d90b40e30606fa16f2
ec3900f211f112ef02e909e8e802db38
4117fcfa09de1b170d3fea1bf9fbe1fa
dee5ea0cf009e5ecdd230c17d4f2f6e2
024114201310ec0e0b07111ffa03e81a
f3dbb900d5fe05e9db06de15f1cf2ee3
f4f7ea32df1cf3f6e318e7f7e0f01ef7
f45508f817fff30bf73c0cf618129d5d
fdf90c5a0902fcf3064104ff0f140ee8
cc01eefd1309ef2f0b4d07f60efe3b22
ef023804240cfcc933192733182a0bdb
ef07f20cfa0c0a010a0ee5ee12d202e4
fff7eee42fe8e5e3e9d423efffd8d809
fbaceefbf3dd23f8d011f8e60eda140d
0408ca3c0c07f6d1230af0e81b04eff8
0713d448e107f9d324ec0d0503e8f4e5
06e515e73703123aeb02f020f134ed14
5e19c81bd50309f516f30b1e221a1a0b
eee0ecfaf8f5f60bf70fe3edfbffeb0a
ecd9f7f3f5e503e6f1fc0a0411e1be05
070ce613dd04e4fff41cfd1e05f116e9
1bf00be9f8fd1424d5fc00fafefeea38
f8ede9e11ee708fee8d708f1fe00022d
3bafcdf9db06bbe7fe1fabcc100e12d3
eef4eb1034cf07f20ded07def7e0d321
fdebeeea1c10eefc070a021a0637f7ea
f31ae53efa06d1f63713e5f6e7f8de16
10e8f1250ff615fa26ebd606fefc1cfc
08ec08f518dfff22ec001ffbf50818e4
feea0e14090cf6e7030b0712fce9ffea
2fe9e104e5000ae7f8eaddfa1302000c
2021d5fd04f00bfb2f10f1461022191f
df09eaf631eff8fcfb0131ef0c21fff6
fa11f60c06eed6173209202619310617
ffc7f1e617ed07f8cbe01dd1eb0513fa
04f4c71223f2f4024ddde4440a1fd501
f40ee41b12e4f2ec1be5032afa14f30e
e81ae80f0a06f3f50914ef0efafc12fb
ddf10de5fbf43a2afbfcf4e6f9ff282d
ef07dfea1ee40106d4df07ecf6cf08fa
f60006f7fd030719d40deaf0d3263f21
dffff510f50714030efe081014ebf017
250ee63e23d1b9e632ed16591836f9ca
ec20b0f6bdece0fae3e5713a0e1805f0
e4f208e6dcfc05e0fdc0143a140ff102
d9f31ed103c4c9cd2b0be8190d1a0205
01fbf4fefbef060df613f0c5f8fff8d0
c83cfdb4131001130eeaf4043f352bea
f50c081cea0e04ef29e50f2b07fafeee
f10effda19ed00ea20e607df2a0f0ef3
fbde111303ed2cfcf800ef49e2b6c702
ee3be7ad1201f5e316c910f83c2842f2
ed08ffcefd00f80b09eaf4062f163106
f50ff3ebf0000e1f05eaef0c01061211
e4d6e4f12301e517fe000905f8fde8fa
fdc9f529eafe1c07ecf7083cd4e2dfdc
f1d703e805191846fb0f0604e8d1ef17
e90ee8f5ebeafef22315cffb0c0cfafc
c63809c100f226f327bcfcf93b454302
2818112304d8defdf8c510f20c07da19
00ff2e0a0ade07f708e01228ff3a5336
1702f004ffe9ed21d7f5f3c6f1e3f8da
f410e7e815f81f08ddd9ff1a0a0fe5f1
562ac348c2d70212a3e739feda07fae4
1017150df9e5fd0502f6000402f24ad8
1f12cf16f4fbfb04eacf1702f70802e0
e2ddf8e5f400feee01fbe6e405fe0204
4225eb57f2dbf72cefe2330e152205e8
2b0dd63a00ebf310f3e517f0f51afc05
f714fb17fcf9f91aeced0deef0f7daf3
e2f90e0e12ec5cf301e7f2f3d2da0412
d1f628ec0df708ef1205d420f123291d
e1edf7fb2415f9f73cfcd8f9e2bc03e5
0300b022090bcb09e12208bf1bebc0e6
593fd955f3ebde0ce3df55060c0921f8
1b160ec0e5160fe9f6f3f713e4d60915
ec10011f0a15d004f2f712162e0525dd
23d30f0fe00fe52011ff1ad2c0e20419
0de714f641f3f9fc15f31721edfdc815
fa2c0dcf2016e1e1eaf51b11e2fede25
1af63c16050727fffb01f4d51dfcece7
e0f209f40217fc0613ee13070608fb06
f904fa02c6d316e3151cd6f30529f321
09111fe3fd350be3f5be181a16ecef16
eb1625f3ed2e12e802f7260306f9e603
090506e90deb090308ec0c0ddcf0fcfd
04ce25f612df1cfdf1d9143efae9eae0
f819f22a26dff802e6fef62c0d1f05c8
0ff708c409e9f617f908d11c0c0306f3
edfef2fcd9f1cef61ce5fce8d0fbdf05
e2f602060f49f4f308c7480313f9f2fd
0202f3f515e11aedfbf6ea0b31161c23
0416fae00cf4f0ff082723fc070d020e
fd1cede5c81011dad3be070acd0302f9
0f15001dfbebf10affd9d20efff61100
2210eefb140723e421fa053eeffa4717
1a31db25ea17fbed1aef2f13e6fa0bf1
090611f00c062302ff05132ade0f15d4
0720f320d5f5dc1412f206b7def6c8fc
150bf2f416d72bf61115163d030f3e02
15f4f2080ce72bf5fdf5023bf6fb1d07
1122f126dcea14e2e504eb12fe1706f6
f7efe603fc06ea0c2c07d9050af40502
e2fbf4093ef4d5fa222106e94e0bd4e1
f9edf1f90c01e612ff310bfa08dfeadc
010ce218ee0e00f3d5dce620da060ff9
041cdcfd063b36c8071a064208252d2c
2011fe0c091b03ecf7f205f30842f5d9
11f7ed0b07fefaec38f402013227fcf5
02ce26fc11b81008ddec03e5db0cfee1
2f23d6f9f8feff36f50bff020fbe2cfc
102f02293bef531efbf1ddcd1118caf4
07eb151f14160ffe1de6eedd1235d91b
f202f70e1def1e0f060012df01070226
d4f70614ddefd505f10efd0fe615ede1
0f19ef2d33073b1c0405d0e20c19f4f3
17f2e2103e02391a18f5f0eb090dec0f
012903f61c050b08ecff14e5dafe0af4
f60e07e1ed52001434f628f624e3facb
2b3024cfd929f8f33f0f101b4825ffe7
e40ef12ae318d4eb1123f42029de21e2
f4020b1207cc1411caf2f9f0cbfd0219
0f12001f3cfc4a1d2ef1e7d937fefb09
fc1f2c561519b9e704fb0d010a1107e1
1a31fcfc0524efe4ff4411fce201faff
a9fd1aeb1ffcd2da0ccf0d17230813e4
eae0000100d90325feea04ddf405fcf0
fce81ae91feef3e149ea31134c20d926
f90905f50ff117e71119ed31fb16fc18
02f31c0a142114f9160d2816280df2e8
f8cbf6fcd502f403da03e0ffc0faef08
dd0438e545fbf20b1f1043f24325c0fc
05042c0b38fde40122f820021f18d8f2
fb001bfa2006f30009d7f5f30d0013ee
1dda1961d511dd0af50ded1002f323e6
2905d401ecf40622e231c8f2ebd010f1
1eea0533f832ef08e70be529c6d00feb
c206130b1cead0ea0dc5170e040df705
0e1356d36bdfe8f33e0e4b0f352fdef6
f9e4da092ed1ffeb10031d0d10ffdb09
ecf4e3191422fceb112ff90103f8f028
0000e5052ee71ecc07fd0dd3f7c5b50d
15f7e8f11715d9f70bd1e4eb01f21413
0c18c850e8100adc402be3f4ec11f107
1cf6ef0feffac5fb0afffdfc0017e6f2
ecff002b0806e5000d16eaf3fb09e511
1213fcd507f513fdd8fa0bf3ef240806
0400d243d6fed3fb4720fa16100c04f6
f609e913f9ebf9e22f09010010e6fbe4
d612ed0904141be1eeca04050904060c
e8e7d3fe23030303f2091e2219f8f820
c7c908f300f604fcf4060a1f02172de5
ecf6e3d307020317fdde0626e6102d17
e9eaed0bfaf0fddaf1cae50a18c7cef9
060be244e40decd54920f5f71f02fc06
d6f5f600f8dc0df903f8d5fc1f19f819
03fc102408ece4e62d08ee360125d82d
10fcebf7ea030001dbfdf80f06180005
201efbe905d4ea2648ed2f2a24400dbb
63fc0ee5f0e905f2e403b8072b0ec7a4
e936d9f1f0fb441fe3f72be1dedd19f2
ef00d9e913094b25eddc0c08d5040d0f
e7f5e2d8f701ef07ae2111adf60e0e11
d5c701f810081915eb20bae6cefbfb0e
e8c115e811e26ee2f236f5bd02e81646
e8edffe2f7dd06e9effc01e0e4e048f9
faf417d3eee4ec0aec1504ee1102fd0b
41f2ed010706f0e3def10beb010fba06
17f9f9db16fbe7e50de50405ee40ffea
e8f0f9ee1efe1205d2f21be4e8e2fa15
d5f5e40ccf240feae017c7e4eafb1f3a
e008edf30f09cafdf3f907f513eff81b
1716f9bf0f00ea01f71203f041382bf8
19fb0513ec0eebf900f40a1bf8efd6da
e732f3d80fd50505229e32f8382d3cce
0deac005ede50a10d1f20f9b132c0dd1
f813fe01fbfcf8df22ef3719f6f1f3ec
ef2405e710041ce3f4df5cddf5eff412
f0aefb1fe8100a20011fe618b3a2a6fd
e70b17fdeefdb60823ed0527e5e6dce1
e9d7f0fdd4c6e807372d2323c6f6e2e9
0b04b50ed6e2ebfcdc14423ed10bdcea
f600ecf3e9f20de528ed0eebeff6e500
250737e0fc0d29e713e4cf10cbfdfacb
e5e3fef3f001fd091ce80f04fc1002fa
03e70deff8e4eaeef4ed08f9d5ece0f2
1b0501ffd7041d0cd90d2bf9d6e6f9f4
eb22ec00fafb00fa0ae300fb0d00fee8
4612d84aee1ff317e4eb39fed51b0301
f4f7e3f3dadf32e4ee09fe0609f714fd
3e50e241e8e0e520c3e332060b0eeed3
0c06f9ee01e80000f7f0e8fdea0025dd
0f002a01e9d3140e201a0afadfecfce3
0ae201ece4dbf6f00bf8fd4ceff827f0
b7c0f6cf09faf4d80108aee10ce4effe
e4e019e2f5fffee603fdea150cf7fccc
e6e922f7321a45f3fee5e1f3e3e8152a
0ff8ed0249efeaf72b00fb08d71ae90f
0aeeeef51100f9de0007e1f52ae4fd06
f4f1ccd0ceeacd090314e20d3020d5ee
090c04fceff7ef0beceaff1f10fa0bd3
f2ec09d827df31eef2e3f307f8f65626
f5fce4f405ed29e4f1f407f503ffce25
0e0316d413fbf4e90bf50410c3c8fde9
e2e903f0f639f4f9deea2711f1fbf305
fc01ebe310f314090606f60d08dc1202
d8dae8041c2adce014cc30fcf91dce0d
06f6170066f7f633ef0af337edffda3c
33f8f31c2df41b0cefddfafcdbd6f6da
fd12def017081903ecd9f8f41c0c05da
02f4e1f9d9a1fb030602af04000f090c
f903e4a5e0dafc00fa01f807b6be00d9
1703ecffe9e2c718edd4c32cbbee09dd
0500f7fae1faff0a0bdcfc07d4fa32f3
f20bf520eef009f9e0d0ed1016ffe808
02f92d0a1bf6effd1009e30f1711c139
fd04f60412fa01180e0907f106ecfdf2
f825f1191dd21901d2e2def5fae5e3fd
f12d10d60f0707070cf3e22ff0d609e4
e2fbe40d04faf807ee14d4020406f709
300ce6ee1ced39ebdb07015106182908
e9f103edf8dce60508fc04fcedf4edf6
1217f3ce151629f208103027010533f9
ebe1e50420020df0e3edc2fbf81eeb49
05fcefee07f5071ffafa00eb10f00e11
0ce1eed318b3f3ef142b0bcd1aee0c07
edf0fe1fcd0ebb06fce4e8a500becce3
ffff0d07ed1ef00ef809cfe9f919f12d
c2e7ecd5070b0ed9faecd8dd36c3ee0b
df15e3f90203f0e306d3f70e2106fd0d
f9ffb6f407e1fdeb16f102ed040af505
0605341a0d0c0032490410edf6e00afc
f51e0131f9fd05fc08031d0deb0d19f1
dffced101efcd20101fef3d627f6d216
ec0224f2e9edecfa07dceefd49dedb00
f61f08f7fb10fd021a08e4190d0ffdf5
0f18d13d3f0538291604d2fa00ef0007
04f2ebe6010600fd05fc0d04dfe3f9f2
ffe72f1b42fa1d21fbf2efee002df00f
27190604fa18fc09063f2b100b9ff202
06d925091701f704d608080de247e1d8
0ae603f9e5f9f1eb1f040234151bd9c3
e400fb0fb3ee9806f8111314d7e5f0ed
e110f303f2d8f41003fcfe05f210f100
e7f926eee420d21afbf2130ed2e8fdc1
1b0c26cff8f9efb5f817390c3730f700
09f719de0a07021106050512070ef70e
27fbf6fbdc11eaf1090ee9f6fbf2f004
0fd70225fafbfe10faff00d20efb02fd
e5321beadd35dcf41611dbfd41090ee2
fc45fcdaef3bf6feca34062be9e7f9d4
fb04ff0e0302e211fa0e010aebf800f7
f8023dee4909cfeb3ef440241c27f408
e8eaf91ef402e709ef23eb1dfdee0df2
16fa34f431ffd0d73c0a300a2b2ed2fb
e300e70b0522f447000bf2edfd03071a
ece3e239ed1524eff24914f20e0017ea
1708f915ee190bcf1261f4e9ee01e9f5
f9c6a61aa40efd0ab2f3ae06bdc310f3
ece2ea10ec1211f5e8f8d8fff6e622df
2cfbd16abb02ed07ec2cd931ddda16d0
f205ef280618dddbf1ee01edee1119fd
131afc13f00ee918e71ff3f7fef80202
ce01f5cfe9d43905f5f8e1def300d911
faebf80e0c010a070a2e0707fd01eafc
3c1df9fbfce40925d241ea0fe0f3e8f8
00def619ee1a0515fdfb04f001fafa01
dfc8e7fe0adabae7fff0e40ff60ffafe
dafce62eef05ebfd320dffdb0eecf7ea
f7e30b02f0e5f90cfc19d71ae5f5ee21
05e5f4300ce8e2de2913b6e8defdda24
f7ddebe5f610d6fdf2facef8f503f6e6
d5f7c1f7411de72d06f30e0bff06f919
d9dcd6ee1ef80d11edf6ee000837fb15
09ff02c122f21c0aa4f719e8d6eb1507
b7000bf70901c305ef14effccdf61018
d0cace024aaf2400e8ec45eaf9c3d60b
dedbe8e308d4f6ceeacd1d0906dae1fe
ffdce5eb02ede6f5ed0b09fdf406f317
5e1511dad43ffd0eef4ae82e0e510acd
0505eb08fe0aeefd00ee01e7f2f4eb0f
dcb5e90009f1f52508f50816fbfd0618
e8caeff2310cfa08e7caea09ef0b2b18
e7c1e2f2f2f01c20d50acde0f1f00303
1b04f12a0dd3e7dc33ea1521f1fbf031
ede20afff6f62c02f100f413e8fa38fc
1c090b060401e4f20ce21513021dfbdb
1bf5e43d01f901f11ceaeb27f61cfe05
08cad40019da29cef5fff1edc91adafc
f4170803ed271d0cf312e60811eb1a05
f20208f525e4ebfc0deb5203fb2105d6
dacfe103de23470fdefa0be205f439f2
abf8e4f0e2103fe3d747c8d2f125330c
ffe82ae2fbc303ece4023ae51de1f525
440ce9a83ff9fbe09fd218a00af601f0
cfaee5f1edfa10f7d706fbe0f1fd06f3
1704fb1bfee2011447e5f43cec1cff1f
280ae22512fbfae543d4f824ef25e012
33faf5010deafa040ffc2a03fc2af3c3
fafa15eafde7b02dfad91e22d6f7e3f2
001000d41bf3030504fbf5f9181230ff
fe0506d5e3f5f5fdf6f51afaf50600ba
e310e9e70f110bfe24ebfdf4200812ee
0249daddfb09f1f319e007ff402236e2
e9e9e7c4c3d1c8d6f7fce22adee910cd
02000e080dfd0217003401f20502f817
03fdf3dee0db07fe2dc9153ef61000ec
b8d109e9a5cf2dee11ef08f4f00e1426
fbb5eefad3eccbee1222e9fde2b9cb09
edd2ca0ade0205cd220723fff1f8ebf9
0ce6070a2b2611210ddb1725a598b903
fdee0819dde7dee71f0024f4c3c8caea
f83501befc0307fd1be304d93d4c49e3
ef120bbc0308f40716e807fd263332f8
f703f9f6fa0317f72ce60b09080a02fa
d9d710f508d3e9e20ff8e80be400fdf8
3339d823d9eef822dde33005100925f8
0ffb00012edd1cf505d8da03f5e9e116
2a16eb15f7f2ce19fc071adef7fb04f4
291edd2eeaf6f21bef0126f5e4edf0ed
ca05cbfc15d508ebc3f7fee919fc0806
070d160c2031fb051afffd07f806f717
f10d03f8f007f701f300051f0d1543e0
e808de173ccc32e6ef06eae608f8cd74
e4ac0bec10e903111730d2cb18e4e312
ebf7c9fe2cfae8cfc9f5edf807f94354
c9dcf9aeeaca24d4fdd1c31f2e3e1113
deec10e20500eed70b0ec51bf4e1f61d
2e11f619f7fc011ceef6301adff613db
2f24da33e2ef0e1be5fa4122ff1108ef
0d050103e4faf50fe7020801fa0019e1
f40fea80d7dc12f70e0ae614bbc5dad8
f3eff4e607111bc3dff9340303fef313
12f9f7f8e2fa19f70be2fcf4d70cde0d
f50f00e9fa010c0505e718f7faf00816
050e1be2f825f4f6f1de2004f704fbf8
ed0106dae1050bc3d924ea16ade1ecfa
1903f50c041d0821ec18fdfff81c1afd
130e0d25fcf520ea23e7fff5fd0accf0
163fe717cbf22cdfc8b2046ed3e0f3ed
38f6cdd8f1d9f910fe06d804cdc00ba7
01dfda49e1f52a080ea7eaf5ff2ffbf2
f71cf61114b922c30807a8fb2115eb0f
03f2dbdfe8dcfc160b16e0facae40abc
ed08fbebfb3104ecf1eb1e251af5f10e
f50110ea112b0ae2eaf923100ef0f214
f2091f03f915f50d0303fefe1bf0e72a
02e7fbe00412e01f060bb5eafe05df03
21100327261137ec12061136fe1a25fc
0708f32dffcfeb0ffceb03ef29041702
f926ef11082f1be813ffff1c10f9f9eb
ff0ee6ea0edb1504f0f60728e8181af5
f729eb18f802f71008b5faf409140c04
06fe1314ddf4070ceeeeee08f30a13e3
1734d00dd10c031011e620f50aff0cfc
0c1edc1ebc0bf71bd6e7f71f2c23feee
f1f5d5e6aff4e3ebef19c6e4f0eacbfc
e9059e2cfe1912f50ac013eef325fbf0
ec0e19322cadcd41180b23a31cd99bd8
0312e701e115e4f7efdcbfd406eedef2
17fc12e315de2d150c0a1533ee2a3eea
2407f91509e836f81211072ef01037ed
1b12ecfefffffef11f1f040d01081005
ea0ff0f7d31ae1fa20f72506ec20e0ef
2305d9e929fd3a251eef03ed4215070f
e2fdded8f5f00cfbf2f016eefdf3f9da
f912ed2329f81e2d01ff02091e14e012
00e2014b34e13937020de412ff19e1fc
0c332aecedf3eb1d16fdd1eef239fbce
042bd3fef3fb02fdf1281e31eee60718
f7cc01fa01e9121f48c3fbdc0c39c8f2
f35be7fcf5f6ee05cf2ddf2eb1fcf4bb
09fb0bfaecf2e1f7a9000f13d4f6d8f5
e90a4207fd0ceb1af1fee1e5051613dc
fb3ae4e1991db9060d11e4ec2d17ebb3
01e9dfeae0faf00f22fc1101f5f2f9f5
fbfdea1e3cf845110012e906fe09f0ff
06fdd91a2205422213f7e8e92306f5fc
1ce50a2bfd110bfe29e5f6fb0d20e111
05e8ef28eef00716b903d7e5d7e9d4cc
192e320942e90019380a4a102738e61a
25ecf31efc22e5d50000ec19fa0ff8f9
0bef0d08130ff7ff271bff201e072101
d7fb2a2a38e2e9d525f1370c1f1eeff1
fafbfb28f1f4be0cfd1fea16f818e10b
ee17f313ff2e140e00110f00f7181afc
031cf3110fe207eefd4e00221a35dc04
37fde15d0d0ba727e5151cebe6fbfd01
f6b5e52be101f700cdf6bae2dbd413ac
06f9e2f9f208ed17f612cc1bf7f00513
eff7bae5c3e7ea21be0bb4e3b6e4e522
f9ddde08dce810feda12d3fdeff60ddc
010837e93406feee33242a1e291bc613
f70738fd2efceffc3b183e2e3c18e302
fd080c0b0901f9ee0429130b0e130419
b209fad8f2fec5ebf2f0ca0bef06e216
defbe841edeb14eb270601f60e0df8e9
e700f50f27e90814fedcf70cf5f60e10
05f602120001f31217f608fcfef2f9ee
02ffe02605f5dbd53500d9190119f306
c1cfd8ea3401f2d9fd09f7d511fbd515
fc101a2117091b200dd207e90f08faf5
1506f201f204e7f2fc1ae8d20429cdf6
c4eed8064dcb671602ca29c7d0b40532
d8f0eff115e137ebbaab1ec311c5ce3e
e5bdf6e618d928d5de1226cd0edbf9f0
1f2bd9aee91908f690530816e90d1b1d
e40921e112f1efffd3def5f9ed02c302
04ece81de8fedf08371bde04f32df6fc
f026dd3bef01e1e9290dfdfe0206fe07
0e08fc0bfd02d407090df50df725e7de
d5f2fe1105ce1ef5e50d04de18f4fa24
e700d024f0f21db2daf604e7e2ccf7f4
fef7df0702ecf8da1fe2f223eb1dfad0
e70003d80af2b6d601ee2be021f5c5e8
17f3ee02f4ea04d10cf0f8090817db29
1109e4111320170204ee0e031529f324
d7111c2816c1cd2845074d43181a1be4
68d012d71af12be8f6283405f000f21b
e8e7ec0fde0cfbe700e1070214fee8e6
d50a1ec4eb3400dacd2421b0fbf10ff4
48f21a00fef2ff01ef163604e7eae5f5
0009f6050ff6ed042efe0934172a01f5
08a9b9ef11e300e6ebbe5bf4b7e0e6de
2314fb0e2ac900d546ebf52bf309f727
fcf2f0021bdcf8d72007ec4b1818fb08
2afb0e010ce6dcfc0216eaff12d90bed
0416ef16d3eeed191d0132f3e7e4e0fa
e117fbf2d1f206ff00dc24fe09edf6fd
e10cfff6f1f1faee1bdcfafa242d29fe
f70efc0efe001416f7f710c7ecf3e5ec
f307e9e8f512f81e161dfff611050b19
c2ed48c02107fc10251a07d21617220d
db43b8dde2cff6f2f21cf5d149533112
ed09eedc0a0d12e9202431230908f9f4
fef7e0f50efbcfbffbfc19db1e0409e2
1ce2250cf6f60cf7133b17cdbeabc217
fcffe7f4f9ec06f0031e024a04fefe15
ee1ffbd216eaf80215eaeef0232e31fa
f8ffbdfcc1b50acdedb52943dae4fece
eb1df0bb07fa00ff19e9f2191f1f28f3
d02a06bbf2f9f30119f400fa2f322400
12e4e5051203fa29f3240a62ffeeef21
ccece7f117fd0ef310f5f4122ee6f20b
f904e2f908eb1ae2efe5f2e609f41e13
3104fa19f9d9e42007eb1af4e8fcd9f1
fbeef4f3f0f4c8f7e5d3f6d8e9ecdced
0012e20d070c02fb08dd13e3f9eb1d06
181103230de1fc0adef000f0f11af2ee
3f1af76cf00ebf3cead856b5f6f10fd1
1cfee405150832f4f0020b1cfbf552dd
100a00100bf2ed07e9e9f6ddcdfef5f6
cfb6f3f301200ae31830bdf811e9ee04
f402d400e40d0df40b11fe2bf1d34fb2
1914d740de05e12bd7fc20efe70bfbd5
defffdeee999f7fbf402fc2a08e87de8
2630b921cbe5f311e6f131f7f2151801
2905d727fee4121be5e930f4e42a05fb
0bebf619fb1eff052c1bf9190216e1e4
fa1000f701e3130801d6e1e6f1e3e8f3
fe0b08f1e5e503cae4fff319ebcbcf01
110dfffae03701fa0b0538f4e9f8d60c
10c9f51ee9cf030316f1bfa90835c6ef
15fd28f5e11100f3f40014f81b110f17
03db17f90115f91004041b140915e134
d7fefa030447e34136fb4afcf8e71121
1ef405f9cb0911fcf2e5222916dfdd39
12e10602d5dfdefae40804eaf1e30910
fce5c50bf7d70125151dc4e100d334dc
1c0a0fd9abf00b0801dffcce23c6fa58
fffa12020b33f8f7030830f3fa07fa11
0c2302eb0af2fed2dc0207e01d11dde2
f3fd12df062c15d1e5dd35ff290be123
fef10aedc92eec0008f21615e5e4f334
e012f4f425140d17f5fe0d230c08e267
f2f9d9180b03d7f404e9fee40fe1dfff
dedcd8f3f5ebf7fffbeaf20d2bfbff01
1730dd39eb1d13d6fd01ef32e0f42b10
1817fb04dd41dfc6f9ed1701e0f1fd27
04f4e9390af903f3f602fa0ff80513ef
152aff4c091b1825e6fe130f00e904e9
2707f6060e3c4bcedd0a202ef321332a
0506e4091cf1f91b34fd06f7290df7db
0800f3f7fce205c2e4e71811f10b03f8
1b0518f7d7e3d0fcf0dbeabceccacce0
071302f61e1ef8dc1a1221ff2009f3cc
110bfde8fb10260afcfe111ef7fe02f8
eff9f7c93dd0e9eb460d5ded6422fffa
1d2a080e0d141cf1fff7ec2e102b2eec
27effdfaef1335e9fb140033f5072ffc
111a22f8e90cef1bf800ecf9e0f1f312
19060bfdf311eae2ec1b0c00ff0bf3eb
f91200d4fff4e8f9f4f5d3f4ec0b04ca
19e40e2517e02911e40af9f1f71ef123
e9f32417ed1fd9facdd9d0ebbfee0428
f300e627f91710ff14ffe7f71ce30a15
fe1fe726fc230743f3e9fe26edf50a10
02b2fe1d6cde3f2dccebf8cd09f5ea35
0ad9d8dffce8f26c47d30de13743cfea
0dfdd81cf9edf2070cdff9db2edbfbda
dfd3e60fd6cbd70fea0f28ffb6f6e2fc
08b2120e00e70a042be021e6275200e0
0bec153131fe2b1aefe1fbe2e612d808
270bf9ceef01e31b4116eada4469eac7
0f11e10d17fb2a241dd4fff41525f600
0bf4e74d27fa2636f8f0e7e4ef0ceef6
e404290509f00afb05002a1ffe1e102a
f910e330dbf7d10ec0fbcfefe0e207da
13070614efbbe80b040b13eefff8e4f5
ee0433ee250af4e71cf824f92efdeaf6
17f0f4c3e6e31cc405affcfe0400e609
fa1c08f40eede307ff0cf80df901ec1f
f0091ce215fd220633e8181027190120
fcd550f555f80bd456fb25283d270212
db23ec590d09fa100577060207162728
f20006dcf0f6ebfb00f60c16f4f4ea06
cfcbb80fd727faf4d22ebf0ed3d849d9
e7fdf938fbe00130ff51f7ff091e2734
f2dc20fc3624e9d0340e3c041500d8fc
171ceef003b9e6faf941f5d2f41bd218
10071fef2ef3f40326fa1bfa192cea14
070f37ec26fff3f017f334f81e1af205
fcfd0508fc2530f91ddeec01eb1509ff
08a5def820e3f7e2e8f9ff0500d5e80c
d0f3e102f3d208e9e5e70714fce917e8
06ecf01bfdfef4da24cd10f2f8f1ed05
e725e2f4d10bf4e6e6f1cd23131bf8e8
11fde80ae31afdf6f80707160ff912f0
e322dd13f814f224130f1adf160ede08
bedd0033f9ddfd0e44e505dbebdbd716
e2f8e7092809f600082211d9e7f9ed22
fbf4fe0106f1d9f2f609ec0bf5e4dbe3
e0050ac707ff0b20ccdb15c5edf8eb22
f4eaf8031cf5ed04e23706ce1504fdd8
f1fff11101e6d50624ffd7e9010ef70d
02f5c9fefaeeabe3f425e3dbff23ecf0
1019e010e9eb0df52717f6ef0811f3fa
e620ea25f2fcf3e22609f10616d0f7f7
ef13e208fa11e708f515f017f9330204
d4b1ebf8a50b1ae1b820ffd61417120b
1c15fbf20221f801feeb1303f8310505
39e902ed15f1f9f7fc0f16f0f9130707
04f5c4e5b7cef9dfe3b5e8fcd4eebdc8
f417fae80dfc2200ef0a05b8ecf422f9
3bf2f5f0df08fee0eee205f00cfbd5dd
160407192aefdc0f60130361f72304e0
fbeafdfa0a07e414070d0e01071100f5
3c10dce713bb05cbd6cdeccfeff9dc0d
1f0001401ef5e6b419f6e828fd0ad307
01f102fa13ebf8eb16ecfe12052cff0f
f61e0e282fe6c9f016f8dd35e513cb1e
2e01fef7f4d9f3ceeed2070904dfc2c4
ecfcfa0718f0170eecedf0ffe9011503
2313d52d17bee00c3d050f3d0242f20f
e80cfcec0c1205040704fa15fe263405
0dbeff0a0512cdc8ec02f3d0fcdeccc4
f1ec0317e10a031df9ff371cf50b13f0
06f900ef0cf3feedf506112cfff5f8ed
ddf4e8aee0c5f288fdc6f4c5f2ffe0f7
faedf9f9fb1ffeff2403f207cddacd19
ebde0adf0e0adcbcfaf032f8ccdf03da
eb2005e515e902f94ae1f8eb2e3c1dfd
fdfc17f5ff05f6faf909e7f90d02ff04
ecf7e3c7ffea14eba5de11e3f0f6f6fb
0401f0ace9ebd8e6280505f6341a290e
f70900def2fdf7f925040cf0222520f2
2710c9f60210f8071208b90f2c2e39fb
b6fee4d9ffec01b6e6c9ffddec090cf9
06e9f912e1f9f3ec081a082ff7e9e6f7
d20ee6c817e2321706b81400334f2a07
d2e4fbe51cf20f1f34f309e51b15f307
dcd70fe70de21bcb1cddee1bb90c0617
0c02f2f8faf81eeafcf82d0406e307ec
fc02f8f211fa090100e9ee2602131ff4
1004e51cdfd6decfc8d10303d6e63ad5
d4e017d115171cfc0be4cdfffd0aed1b
e7f2f5fedfd1f4fdb7ecfe0ffa1f0efc
3105f93fd6f6d540def245d8f3e3dedd
0108e4fb1121ea060209fbf2fb011509
df181de2fbe439f8f7d9e21bee360817
2e0adb33e4f8e60fe1fb15f905ffeafd
150ae21afcf51400f4e81c13fe190af1
311fed22f617021be4d334021115fdef
f602e20dd6c9da03d4c9f21df60e13e6
f6f00ff01812e7f40a17de261e233d04
2c48f552fccde82defdd4a06fb1df3fa
07fbbf1512d4e7fdebe91b0306ec0cfe
0cf105eec2def0dfd8fccc35d2dd1be4
f4f11af3ea01d7d9e7d90c1cf406d8d9
04f8eaf5fff70df3eeecf8030de8f342
ead61fb93f06b2efd7fdfa1108afc5ee
0e1f01d9fbc120fbfa0eb90df9e60ffd
f9d4edf620f1d5f40429f31d23d2de2f
c2eff8e8164a1f0a13e931020b05f20f
f6f5f9fffa00fd0d00f30cf8051eff07
13ede2fd17f7fdbcb713f615febfd9fd
f4f323e9d84107ef05fa200405e50224
f60707f60b121302ff0611050df1f604
fa37fc0dd849121bf7db0cf9251ae202
0add03ce70d9fc00fc0a062212d6db04
ff06e0c9f002fdf8000fe8f901e218dc
0a2026fbd05efb0004d44215f6f7bd2a
01faf5130fe815ed1c1ffb12f40acaf5
dbf0e01026dfe62fdcb1dfcc0feaf605
eff6f9f603f0fd31dff1fcf7fa02fb05
f61d05ea1609f4fffcfdfaee04fbf3e7
ed0edffcf3e0fcbc063fef02fdedf232
e4ee000dcce1c901f6f4eaea0af7d1f0
0be210e811e9def7283bf5f3f3fa0536
11fc07e70e132df60f27ff3eeaff4de9
050c1610010809f1f2f2090bef0b0516
d81ddcfa51c3f9b2074513e3462ee90e
0cfe0a16010131c8ddfa1631fe1c2109
170ce8f80ee413e3191bfd16080f11f4
47130c1e0d021beedf25184b01391f1f
cee6e4f816da00dd376712ec20f20421
0023fb06f30fee02e82bf9e902f7f7fe
fdf3d8f7312d47fa150a1825ff344a0a
f0340a3dc4441e17f7fc0b11efe618fb
07e2e7acd7faf60312f6f81b07f7f623
0ffaf7f5fd0c111512f1ed09f204cdd1
fbf306fbf8f0f61efe0c03010f16e5f4
0db5e90702cdfbe71dbcdece32c5f6d9
fccdf3f2d9d1d803de27012dd903c0d8
16fbfbe9edf5e5f20cc4e6e83311f6cb
08c3ed3b2bd2301e16e911fd0608d40d
f40a0f0d10041723f0f7fcfd07f1f118
3f02faf0e50a00df33d0f4b95bf134d4
0f0ad43a2ce437160803d4cce8f40222
07f2e1351cf7101d10fafde12100fa03
200dfc443ddb1e241c06faf224f42e4f
15ca030dfebb05e432e7d8ba45d7f60f
07d4da08fbffe6fc1df301130603e3fb
281f0a192e104b3400fcee020f0f1016
e305f41506041a35eef8f106f4c70805
05f3d816e2f7011fe20ddaf1fbde0bc3
fbf60c2ffc08e5de05fae60aee0327fc
05e80325f6fdfd19f61a02fdfff8faf3
cf04fbe221c1dbd6106400c915ecd8f9
e8b5ca41d71ad3f3ce11cde0d8e110e6
1211eb00f4cd0438e9f5e7e7faf2e708
e0f8451b373b0dc936fe301f4b16ff0e
fcf8faff040309f604f706f70bf4020f
0d49e4ec0a95e726ce5ec0c3ceebeb04
de3132f02ef9decf31d22c101e36e925
0dff140f1effeef51c090d1f1dfaec18
eb121010300feb0224e8111b1f11dd1f
d72313eb0e0400f0f957eae606fcd518
000df208f011fcf3e526fb07f5e1271b
2d0826093bd701ff50fa41e03849c80d
20fa0c1a191702f30404fc0e07f8072f
d5e31bb92be4e906e217fc1ff3d89fe9
12fdf6f116ecdc10f5f801f5f91cf01f
0f05f7f505fdf2fef31c03fbe60afefa
e3e5d7eff7faae100007b107f0f9d4dc
14ccddd019fb1ef6e5ea16ff01e3f74d
16ff0e150feee7dfe0e3d60af4faa3f2
e3ffea3ef401cd0e361ee3ecf604dd03
eb1513ff05f6f10f050af7e7fdfbe0f1
bbcce1df101ce3dbdbe9ed0bf5e6fcd2
1e01da2ae1060bd131f5f6040ddae6cb
e302f10eec0803fa240af50311e0f907
1608173ef00d19f6030cbcf706eb13dd
f7e0f000e7f6e3dcf6efd7f50c0906ec
e8e617fbfffcda0500150907f3f9ef00
06e2e02bf9e9dec53c1be8122a04e8d2
e816fa0607e8fa3404e5f4d0faec2b0f
0df9f4f5fbfb11e7fd0dfaf9fe27fe1c
d7d5e6f815e74bf4f0e307e1f2000bff
e1e2e1fc2403040fe70fbef7ac132204
f0fff50b15fc0ff00aeef3fa07e9f724
0815f2fc09c521f6e43feeebd404200c
0af2f50cf9e8dffe29fcf825131e14f8
260b31fffed2f00be4df36ed3af1f935
17f9edf31a0100f200fee408fd3d1be5
26f7fe06f8f7e7041fef123022330fd9
fbe83536ff17dae74ef91a22090105c1
191d0e0f0afad5f840d41737f713dfea
1d24f32104cedcef32edfc4b0b2a04c9
36e7eff4090cfce504160902ec3509fd
1c1a000ffbced6ef15ea124f1a20e60d
1610c6131bc90a1308d9fc1ceb18f4fd
0af3211d01f61a041315fa12f715130d
f40f0fd8f3ff0a1304fc2507fbf6f7ed
e2eb03f5ed04f10ce8da250c050addf0
ecfee0e5dad5c5ed44df185efb0cfeec
ed20f2070015ea0cf712fef8fb01f310
f3f6e500c6daf8ec030e3066e3fae8ec
c725fbdb00f1fdf213fa00d82f1c37fc
bd05f301c91908fbfd0529efe3fb0039
d4e5fdf70a1e0a2219fa0d09faf3eff1
d9f209f816e60ef728e5f4101f251cd5
eb0bd5c7f91ee8cb0fe4fbe3305e510e
0f40fde60a010af20fdd0ddd282c52fa
e43003cb1dfc11e830c40ce92b2422e2
fffefbfbeefbf7fb28091e0ff0edfff0
f3fff6f8f7f8030af4f9f7f52c332bfb
0518efe0e611f1fffde0ee0e181a1ad1
ec17cf0eeff1f5fa170e705802ea08ee
f60df3081a000502edf7031b0408f6f7
eef5c4021ec52decedc8f91ceb220d14
f01218110e00c6fa04efeefc092506ed
0516f808f9f6effcddd60018f70be801
e5e937d91bf40dee3df30d41fe1e35f7
24eb0c2df9ecf22af5ec06f3e3f900df
dae6deeb261015f7f6d1ebee11c7f66d
fdfaf7ef14e7d9f5fc02f511000b1001
1909ef22f7fbdf08dae63e0dfb04f5f2
4415e840f9ece736f2d943d2f1081bee
3c35c922fde81222dbec4d15f80e07e7
2e0ac039c3fbd51adcfc3ef0fa05ded7
1109fcee0bea11f4e8f6fc05f0212df1
3c14d521faedff0ef8ce2d02fd1d01f5
1808f60d05e1f32207e90e0f110f02fc
0f34041306e004d5f7e81a27e733db1b
09fb08ed11ff13ecf1f30507ed02e013
f4070decf20108dcd2d4e345e6f9f006
e324f9bbe0f9ffff0907fd13c8c712e2
06ebfbe50c051bfb16ff09cdffebffed
dc16e9e43be4ceffebc5f5f307f211c4
0802fcfeec27f11405e825f5fdf5f8fb
ee10ec4bffdb03e302c1fe162602f129
0418f1ecf4030ddf1405ef0df9f2df0b
e4f510ff1030f30410e71308f4fbf719
f5f0040de144ee132b0938fd03f1e6e5
eae90bf93336f3fa03e745df1928d815
dfec18ed1522f0041aeb1d19f40ccf39
080af9f7d6f71cfef801110cfee9fb23
eafb0beded3f0bf901eb30ec0f09ee0c
1727fff21804feeaccfd171f0a1ef009
191cffe4f9fbfedafed117f5f115eaff
0513010c07f9ecfae8fcf0fb00f3fdf7
0213d0f0d4caed4204f7e7e722dde807
f405fb04d81c08eaf80ccd0c0b25fee8
f0f30207f7ef05da0dee010b010b08f9
d9fa05151613ff122314d3c9151fe3d5
0f05f7f2efed32e202060827f3172bf5
fcf7c05604fc061e26d6f1ea141bdaee
f110011d0606f812fae8dc08080205ef
fa350022f7261dd604fa0622ff051cf8
2d320ae0122727fed2f0f927d945351e
230efaed0413530d021e1f35fa4022e4
f1440726ff4317e008f61533d2e52c14
0b0a0c0a080c01f90a09f2ff0018fd05
2113f20807ff3bf1edfe1842103620d7
f823f1ff24da02082a09fa0811421cf6
02f80d000b1801f10a0402f62e0ffc1e
f10ff61ff2010c3af711eb1ee7ff02e8
fe27f4df192bfc3fe6f1dbfcf3f6fb80
ff081417010efc0714080e1418531906
faf20aff0be20000e70cfc010110f3d8
1806f51ff313defe00111d3b1224fd13
03dc1d253bf53711de0ef1fe0c02de14
e812ebe7e6f2f200d427eaf1f91f2f01
0a0cedfef70c00341516fa110212f2f2
02d2202a14e51a0df6dbfaf00609ef10
3bfa163850d13023ebdc07fc1009111e
21101325410029180ac9d6d10d060928
f5dd273930e23f1000e9dffb1700d402
11f8f22100ed111d0ff6fe00170209e0
2323ee153b081b13f1fee5ed11dafb10
401b1af5150c10140f0cf808282ce9ef
fbf9e4fa00071fe70e0401054022ecff
05dbff160dff08121305ffeefcfee8f5
060ff81f04edc90304220009e111d1ff
f4f8e218f9fe00130b10e1ee0bfd03f6
ef09ea0107f4ffec05e0ffee00f8f5ea
2d0fea26f008dafaf439dde4e7fc22de
f9fe1cfb421af7f928f532ee3a14efff
1a03fd25e81fea50de10ec1211e9fbfb
0bf1f71ef805f5210b07eff309ecfae3
06061c17112a05dc3e111b00fe09e8fb
03284c2953f9ded84b0b321842670316
0219330056f8efe641eb43e5343df50a
05f228d62e08e8e72d0c231b2d13df0a
f5f50410fafbfd200618ff16f9f6f4fb
030646fb5012f3fc3ccd38061912cefd
0e1901ea28f0f30717fd1ff4110ecefd
dc08025be51ee4eb0a16010a0ff82811
f91ade050bf6f10404e9eeece9f30a11
ede9befa1fe70608f6f306e9f7eff70c
d2e70d09190cfafa17000b0fe605e51d
1ff8e502f6fa16fe0101fcf306c00200
f0dbe5f714faedfcf40d0e14ed04eb10
fbfcfb200301ebe431dff3fd05e7e007
f8d3e3e520cb4813e80c4dd216faf912
da18dcf63114e91ff3edfd00efdb0c20
f718ed170804dfe5250207edff01f006
d210082904f4f0db42f60bf116ead312
f1010c3bfb1fe0fa3cf8d6050307edee
1c09e73406fceee54af3f400ec270504
ec13f4fe0df3faffe907fadbfce8fd0c
1509ea21deeaeafe2cf5f9ef23dfffe9
0ce9dc09f80de4e41807fc1719f902fa
e603f2ed3fdaf3e610111a14f2070c1c
ebe4ebffe5000e081b0ef60de9fd4500
0205f3eb07121c001338edf7f6c3252d
e8efeb01ef164104f60adbefffee0eed
0af4fd040be1f40428f20113fa30f310
e0eb06cdf7d52ffff507f3e014f60b08
1cfc0f2607e2c7ed42fe2153f228faff
0a02f30b20dfe3df1cdff618eb20e30d
1202e0030a23fbfffa05f2ff0752200e
f0fbf0ebee0611dd0a080df2051ae4fb
02f0ff273bebdbdd49e70b39e002e6e2
0f21df2f0ac6f6e918d60929fe2e0b24
16e8172a12dbf3e844d62344132df716
e825faeae335f9fffc0dcc0be1ef3005
03f1ecf223f70aeb04ee2d03fe1700de
fe10fdd90212340feceffcdaccfd1835
00faee2019d9e3d322e3fa12f72ef3d5
0be9f718d2e7fbf3201bfbf80f0011f8
dc0c10e4e2e9f72f2310f317f8fc00f2
f9f3fdeffaedaf00e7d507fefbece2df
fbfcefd3080701f92202fbe21f0e15fa
fed6fde6f8f9f2ea08f20e0aefdff605
230de1df00f9fed61ec90af2573f57f6
e711f2c70108f50c28d6e8ea291714e2
ecf9fdf0121bfe2222fd191a0beeffee
c7ec02eeffc0f5da0ff5f10af800f70b
0f37ede60d11f00041ebd80f34283af3
ef3414be1d1d011c0b80f0f347302cb0
051be6efe7f7eae607f516f32a29340e
c10134ce3f05defc1806de101ffb1bf4
f300efe4e6ee0ff005d30c3af512faf7
02d00e010315e94a06f5ef10fafddbe7
fc1e06c513e300f50ee6f6e3151705f4
f80fea18490ff6f325f2f549f8de1802
030424063e1b0601440ee4d4e502f025
0603c9fc1bde20def804fc0ae8f20716
12fcec19fdf2ff03dced1b0afe170906
d7d108fc010c27fa10fac601f9f4f5fe
470ad349f2f3081fd0ed470f190e2cde
1512e71fe5e2e80acfd32404150216d3
07fc110e2cf4fc03f9eeeefe023de6dd
f4ee1f11edf505f5fee5ece85afdef13
5622d926f0e1f11af2ef38dd15fdffd4
1133e432ecfbf41a09c9413ffa3323ca
3e25fb37c4cbee31d20e26ed0b0628da
14e6eff0da08d112e60df2ed03e1b0f6
09fef00aeec7f3f3e9f1f51211ef2fdf
ece20fcc09f601053804f62de4d50afe
080bdf1bf9e4e50ab5d817ebe8f5e8e6
ecfdf3eaf7f6f103daf62ae6e2010d09
190f00f8110118ec00d8f312eeef1608
efd6eee70f04f2f4dcece622c6ea12d6
f108f8faf90815f9eeff050efbf5ef0e
0ce01514d4ddecf7e8edf31ae2ed07e9
db1d2af00254edf1f5e4371d07f1e422
0f160fe400260dfd01f11ff4f3e4eb11
1005e9f1f20b0bfc01ff0ef2e5000b11
150607fdfdf5fffefbd70f10eae91a12
df1a15d9d13feabdffdb3fede3e1b907
fcfd32d6541f12d0b5ed28171ce2e819
0a13f0091442fc12fef537012700e909
23f5fde41316de1104220f17dad321f8
fe0311fcedefffeef80df7f52bfce509
16ea10fe4bfde5e6e5d4cd24fe1f1700
eefe050dfc1cfef7e6043508f1fbcae8
f7e4e61917f71d08e4eedef3ff0114fb
15e3f34af00e0c1a04cebde72002e4de
d2b8d5f4d2e0fefaecd1d50517d7ebf4
1407ff12fc040af0f402f910fe0a1ae8
f006f40cdb08e8fefffdf2ca0ff8eb1b
100eece2100b54ea0f1c284804304000
0a05ed0f04f838def0fff427eb2b0c01
fa11f613e8fede1de7eced0bebfa03e1
ee28da13f80bf4dd01eef205f60bf806
3a49fa36e4f22ce40ae6fc1ef1324b14
f5f4e20820ad1d1a0f111e32014e1308
2500b4fe24fd38ddfa132e48233e4414
15f3fcf5f6e9200debfcbf0de5f3090e
0300eeea14f3f9f11f12330003f502f2
fdd005f511ceeb0d0709e7c113e2e3f4
0f22f42cc9fc02d9e8fbeb1fdbed0ef7
1c29bfe0fe0f0d30f7101c33dee7fade
1527f7fb170301fbe82f1a2fee28f0ea
05180edb0c03fc14f51724fdd6eef1a1
ee03eb2209f40b1e0806ddfbfb01f2fb
eedb2514dc0ff717e6ed08190702fceb
30f9023236fd461b29f2ddfa160dfbf9
0aecd62824ef23f302f7d9cf0a16f30e
1109041bf91b014dec040e05f6ebf8f8
ebf7fb0eeeeeef0bf6d0ecefeb0e0edf
1ced11334bcf2e2f07eff9d8f807acf3
1c100bfe4010411211e3e1df2125fe03
362f19196618232a34fbfce40d040d27
f3ee0bf6f8cf0709d5fff6f1d701ec07
f3da14f003ebf8fe1ee906eb0846ebee
f405c1e6e618f0f22616fd1117ffe1eb
0106111407040d3002f6caccee05fcf0
f0db11410d0906ee0921f9060b0321fc
0edfff30f7d6db1efe0404cfe60228e3
ffeff83bf6fbc1ede616eddcf2fef5f3
07ed13041fed0f0a25fe070e11ffee08
eae6f13109ecfb14da23cf08efcbfaea
141644f64a080ef5510e4d224a43d311
f8fe15113400f10c22062ee7270ec9e6
26eaf41e0520f5131ce803151bf80701
f4f0ef0aebf9f535f6f8fb0210001bf3
08023afe3df40bf7750a38313714f0e4
27f735f525e8f122191726eb233bbd06
243f4df93ef6dedd41105414142ec030
b80e14e01af4f1e0f9cc0e000afe06e7
e6f0e900fce701eef336fefef601cc07
22f8f9fae8fb0b08d70dde05e5f321f6
eb0b1bef2ed6e0ea25ff1ef42815e216
f6c2faed3cf2e5fc15e515c7e9e61822
f30102f732e14214f30924ed02ffee20
e3e5ecec31d802ed0da5f91bf8fee50b
f017f1fe01fff80a140403f6e9f0f9f8
d6dbdfe828f300ecdad715ed1007f6fc
fa110536e7dbeaf5261af8fe200af5ec
f50cd92bf902120721fee6f200e5d4ff
d40de20e15f4cb05ebdefe0bf1f2043e
f1f1f6fc22fb13f4f6e945da04ebdf0b
f104014ae7eaf2f81f09f6fcfbf1e20d
02e1f32eff03b6e82925e51b130cd9de
2006eb41d6f20adb1b05e4f7280f09ea
d702bc0a1ee41cfee0e214050317d103
ffe7f5f302eee1eeff15e3e5fd1adefa
f9d8c1e70b1eef13e4f41635e3213802
ee1cbe2affeceeea27ebdf04dae6e7f5
fa1d1827e8d5de193cea2a58093aeccd
faec0afe22e7e7f3ebfc23f5060c02f8
2e0e001822faadd116e9fe172415b92d
f5f0051120e60d26f8f93903e7f821cd
fdfadc191ae6cfe000df2211ea06a9f8
1c01fc2626d1e9cf09fa2c16dd29ea00
f1ece7d4e4181f07be0010bb052f0000
03f70e0018f2f3da160ff618ee13d603
f5fe11e904ff28e8df26f31405ee362b
0bf0d9ffd6f4540df511f80106160bf1
f7caf114fddaf91ce9ec47ee3320f621
14f2f70303defaeb17fc0a17030bf9ed
08f9f40e12f0e0f7f8fd0df8fc21f7f1
19fe141419e3e1de2cfe023b0c4006f7
04eb061016daccd707f7102a1828d40d
1b2f07330cd7bef360f11c441652f99d
df2ed5e703ee170912f0e1bb29304e06
2505ebddefeffd0e1becf257eefe0106
fb1ce0df1326f40af804da0f4e351109
0b1dde08eddcf6d519064524f1fcf7db
fe0a0aacf6e31b010bdfddfa270b1a11
0105edf6caf50dd413e511220a0c24f7
2bc0dae8c10312202624210eadcab8da
ee0bffc801f3f4e21e0df8f2181523fc
0619d3100304cbfbff074fc0fafcf7fb
0007efd2fef6fedff2112607d2e009c4
1e01cac5f60ce7b10ce42d18ebe1fed5
e90afee5060c08f412f4040421231b06
fff314d904ff06fd1bf10c00000a0e00
f718e0cd030606f73ddcf414173f2af1
f503f0d0f7110e1217fd01152f1d26ef
b017eee1f9d1ebf844db08e240414f0a
4035f551e003df24d8b63fe7ee03fdea
fbfbf30120fbec0bd9effb1bfefa23f1
2bfcbe1bf509cb2afec42ddff917f408
fbff1909fafbdeec000cf4f4f7141fd8
1cffb72bd2f3f3119efa0ef8e9f3f6f5
17fade26dcfd150ecc0b140727f97ff3
aed3f4e725cb02d100ec971221ccfa15
170ef517f8100925ee1330f7e10319ea
03f51b0208de48ef0bf20ceff5080501
e001ca00fbeb03f0eae9dd07eb0f1641
edeaf0fc08e70de2e5ddea06ed03141f
1b04de15f7f5f717fff50f04f70e0ff9
01fbd60c09f7fa040005090dea0521e8
271dd63dfbe9ea19eaf04afb10f5e1e6
1815cb56f310f02f05fc3a0934203305
3b22ee3ae9e3c51de5df51d7e9dee9e9
fbd71f15e2310505e80a4fecf70a081b
0b01eef8de092af0f6e2f5f4ede7eaf1
ec1c0f0be0fe23edf403221b2900d733
1503ef0e04f205070b09f7f3e7fc09e4
daeb1f14d12018b209041712f00ba32e
0cd6f719e43522e9f421170a09fcb50c
1107de2909acf41aed10c7fee7150ef3
f3fcf9eee525fbf2fddd2c05f6e7f612
04140ddb0dfa16f7f3ec1a30b6b0fac5
cd070901fddedee3caedda46071af407
dd1f001feef0d7e8c8010b21fb0f2109
f4090efcf11d0bfb050927070bf5e10b
e9f7f6fcfd06fafff40606fdf205e112
e50402ef0d4c11e401f726ff1906e3ff
d90a1fe9f03410e8e7fe3eeb0401cffb
df0df9e31172dc10efea4bdef709fdf4
141c1b20232a54edeb203622ea3164ea
120bfc16fd0f002bfa0507e70400fbd5
2513e3201f0a42e4f3103143ec3835f1
eb07fcf9e3c0041108fae7f004ff11f8
120bfc0cc4ef15c9d1e00438dc212ece
2625172f1b190c0017f41f10081306f6
e01de81f0cd0d20904f011cc00ebc5c0
21ffe8ec0d1510eef2f3fe1ef71e2907
00f1dcd5f7ffff07190eecf31513e920
fdfcd10202bc0b1708010e05fd03f809
02fade2717e3f301fbe802fd25071105
2b10fd06080c0ef007f90a21f90328fe
1624f128051604ff030c0404f707f6f8
1917f91901fd41eaec0f0c2ff30926e8
432712fd11ff1be2f9ff0b1ee40c2de8
122bd3e2054039c1e8210e5fe00843f7
2af4fc2b66fa540fd9eefdc91808112a
e9e803eb0a06f528f4000132f526cce1
0523e52b2b0633340327daea16143123
0ebc0c0523ae0fcfe7d61507144cd003
10d2030e1dff352bf6e394c7e61925fc
0cf7181916f3201a54e300d81331e709
cb122d2ed1fea228d01d0b16c9fce0b0
fafedd2c12fef61005e1e6ea0e0f0913
ef221de7f60bf1e90afd120fffed0b1c
23f1fddfea43df200bfd08f8571300a9
fcfef4ff0b33fd0b03f8f3f32e03ffe9
15f501282902221815f6edfafd16f808
09f9e6110adefe1d14e3f0f2f60103f7
1be9ea3344f233291400eef50bfcd007
160cd01f0ed10a2926e8d5e8ff0bcd31
2ae917354fd34e28ebc307da130fe922
f1035ff2494a06db3ee74b4b3860d22c
f8e6ff070df8f4f7f92b06f503ffeaed
f11e23ea470b070b26cd34080a06ef14
b3f9f21bedf7f0baf275fadbf4d6fe01
081d25f611dcfcdaffe20ae40113be16
e520220117e90a161333171c0f37ea01
11e0b044cc0cf837c0f6accb9fbe07d3
fd19071a180fed09210719021b141e03
06f314601617e6ff04180111e10c07ce
ed03ee401808de13e333ea08f309ff10
0a03e90fdf25e71f12040bfedb16fef8
f5060b101303f6f511ff2a091c0dea09
000f11f516f4fcf7070c080909f8f5fd
f12836113afee7e02b0d38f43e1febf9
03143edc362819103ff945201b31dd00
f5e945f8551601fb58f05f05522ce115
00f80838e7f420f73d07ede315e5def0
e70cec0a1deddb03f61415f61102f6f4
161bf62cf6e821f72f00ded819b508d9
1fe0f5f32af3f2ddef1ee80bf71ed12a
f03bbe38cce906f03bf2b5c41714e4d7
02f5ea12dcfdffef181ef2f31c08d0f1
ee9dd19c04f3e306bfe0f8f6d2c8e727
e812f620f0ff06e32003f2f0fdede6ee
bbd9f1fc1ccf18efe4d8101414f2ca42
02fbe8e7f6e0c607f4fdc916e82bee2c
fcd8f2df21d213f100ee060dfdb6c60d
f804f428fffceaf21b07f6fc01f6ef06
e00b01f7f1ee08f501fbf9f8f7fffaf2
030fee23f700ffde2e0cf701fc09e707
f3f8ec29d3f008162d0cf9e409f7fff8
e0f509331dfbecdd2bfa04d8150df00b
2230d4270ecef4ab51f7e426e723f7e9
f507e3130616fce316ece713daf70f16
ef020002110cf00a0dfff9f905fff714
1aeced1f0dd2edcc1beafdfce91fbe45
10eef424f5b802e441e52256073ff70e
04f000f51800f6f808100d0312131105
ecd4dc153c021fefe4f41d10f02315e8
2eeafe0218d1f0080f0643f9ff07f8f5
17f3f13216e3bffe50d8413a5237ffbe
1905ef2605edd4e243ea2e2ff01edb13
dee0f806efe65b020e24df12f1dafe17
d1b6e0e902f022dcbe13fde39ffdf915
30f8ca232dc8301218d10216e515e529
25fd10f01204d7f00e141ce31bebf7c6
fe0eea2cfad8ce0020f10d2f0c03f2f7
0034be27eb9af50554e5ef30e73ef5f2
d511f7c5dee5e9051be6fb2c3b4c34f3
e40926f505e913280409f9f21612130b
fb22e9160703f614ebff110b02f3fd29
1c18dfd2f501262200f9090e0c222af0
d529e4a318e71106eee3f6fa385240fb
f401fdd303080ffc190501f515fa09f7
dc0cfbebf9efe4000cdb5529f3ebf8d5
e9f80cd222fff6be04fb131419f4f2f8
b54bd1c218e105e22ebe101a43542bf4
ef1fedb20ff7f91114e1f402313f48fd
f1f9eae80bd4090616103a0afeecf7d0
e3ff0de9f805b0f80af5fefcebedd4d5
d625dbdffaf0fefd2a9b4e6d15fafad0
0408b100010f15fde8fa0e150605ff1f
f02df1e606e200fe01e9fef042493df8
d93af0fde4f2ffd030d9faf21a0a10fb
3a39bd3cf1ecfa2cdfef3005f6c818fa
0d14ea13330a12eff5da0d00e119f611
f909ecfd07f3f600e6e2f50fea0df605
1832b604d8e13210eecd070f17320eea
5f41d35815f3ee29eac057fd0d1b21f8
05f7e30c0a101804e2e80eec06091105
f812d80903e0150804dc0304d8ef2bf8
05feebf5eb06d715d9f70604db1537eb
400cb155f6d8db25dfdd63d8e527f8c6
4129041f1609fe1ff7e43ffce61b38f5
1107fc030ae503eff4ee0d2ae6d5f918
e6ed22e61befefdaea03e01b18d7f7d1
1018202ceec1c806e7db041fe42907e6
d7ffd4f50509d80bfcfdfafa03ec14e0
4227fa39f7f8f623c7e13efcfd0305e4
4706ee3b00d7da38f0e54be600cedbcc
d80e13fae036d9d4fef73d17e9eec115
0df5eb13d20012f3ed0113edca0df5ed
0b0cf8e90cfb1ceffd12fbe90af80f0d
f0160f05fe1a10c7d1f801fe2800ea32
fefd1e12215d07d0e2e25218dfe5d2fb
f5fc070ff7041edb13090d10eefded09
f406f8f8dbef0cfaedf1e217f1eeeffa
09e6080fdafadd07efe8fa13f902dd31
e4041703fe2c030c19fd2b0c2200ba1d
ed2203defe440adfcfeb5c0d08d7f10e
06f806e31106efd8dbf3fe20e2f4d1e4
2d03f5db02d0fffcdeedd6f5aac7e9fb
e11306052f1836e4e3ac0b18fe06c60e
fed0fe0530fe0403fcf3f60a1212fb28
021e1701d334ec12f50320de27020102
060afecc014ae4f9fef74e07ea03edea
2b27de10ff4050f10b02f85105fc2503
fa1a1628c5d700ddb8c7ed0df81ffd05
ecec020c110509f7ff040904000b0801
0c10ec2524d20cf324fa0afc15141012
0625d2fe2afe3ef9f42725540c3d370c
0802021bfe11fb030e00fffe06f81405
0ffef4090df402efece8f7f719f4080d
2512f7f7eb10f7ee2ad820040cfa0d1c
213bee0c2b392102f80ef955ebdd4cf1
3c02fd0c232037e9fa052a4c053626e9
fbe2e61500ef0a161af5f8f501e91231
fa0f04e6ecdac6f9edece5de052de41c
0dfef8112f441add09f8f3131d2c0b02
03e2030d11eef1ffee231304f1e0f003
0826ed08191040f3f90a1936213034e3
21e8d608011131edfd061a2bd6fe33ed
09e9d8293cea2817f0d5e5b92d28d80e
0713e4f808fe0517e41fe221c1f917fa
fc1306ee02e9faccf12c060a0d0d06e2
0342dd282a1c1b14f819d5c523f91018
212f10f93af34b2b2400f8e8240c1314
fe0b0009ff050c2717fbfef106ef0ef4
0d10e8e2061400050bfe1be91403f5a8
fcdc12030f16fb2827b4fec80e1ce132
300c323f39f153f833d9f4fa140bde13
09f6de074c06572a1b0ffddd220afaf0
0e1ceceaf629f31712e5eefef6e4f8d2
e003ebebcb10df25f3ea0af8121412e5
3c2f23e63130fbe501fde4020c6bebdd
ed081bda15d707f004fffc0c23ddf627
26270302490d41ffeff1e9e0140d2b1b
30e7f93e5ced3456d5f1f5eef0fbc509
f00e28f850f5f7f84af03009152ad5f7
100c12fb0d06011400e814ef1906f714
f106f7f3f31ae4fffce4ed18fef0fc04
ff030af115cebe341bec17191ef6c603
22fe2e045be0d10434123ef3225bb003
150013201403f4eb110b12f7130908fe
f705ef34fdf2c0fbfb1611d5f30cfe02
f3ed1007f4b5fef60552052f1c16d2f2
0ed435f5571707c835db4efe482aec10
05fb3cfd4c0d200434ed1d293e3ff022
08ebf937f8edfc050c270e0a08fbfb01
1716ccfde1e010f7e607c630f0ebf6d3
012020161520f1e108de2bf8121080f6
e2ede5eef827fcf8dfe7e207e415df14
0a4134f94bf605f841e72afd492d1607
13d855046f2be7f156ed421d444ebd05
0314ca5dfaf5fcc63610ecee110cfadf
f312ed16f503180415c313080bf110ff
1afeeb04fafa240213fc1605f9bf12ff
06dfe31ef9fdfbd615fcecebf8cb00fe
f0e5d33cf0dd05b63006e5f71e000ddf
e619eb1900f4041c07f50af5eaeef91b
f8d1f8fa14d6e8ddf0fd05fcf6e2d619
0c0910f7ebf1eaee0016e6021924baee
1513e053e2e3f1ce37e4f4d21409052e
fcfedd3addf812e4201bebf406ede1e3
f6ebcbe8faceec07eeedff0cf9e6fd20
be04f7e812fec2fceb23d102e913bd0e
fcedd42000e9da8f3810ec2f08c90e0e
e100eef9fbeeeee6e6f0f1d7fa26fae2
f907ef3adcdb06f136ff05ea13d7f5e0
01eac32410f8cec63dccedf02814e438
32020d1a1b14f50434e934360c3cf7f0
f30df90100edfa062e020e2b0024fd0c
0e12010126f3caf3f0e90d00023b0507
17e40ce9fbf20bf9022500fd26e712fe
14a2d50728d7f3e4d20af5d3ae381427
0e1cf409f1e9ef023dd11e471f2e0aba
160aebf405f5ffe1ffcd290ff7cafede
dfd3e9f5d4d925f2e803f104fdf333fc
bfdd07ff12e905fbee0a96dddb060c20
07fbed170cd2f9e51aeeee29112c08fa
faf8e1ed01d51e0a0f2d29fefa186705
130dcc2706ea16f7e1e2b4f6dbe7cfe2
f8ecd5f31ffd2204fede37ecefec4bca
0fe2a8fa000c1ef80fd2f3fc0c2621e9
2eff07170c06e9eb21f00b131923f119
11f30c3f0b04e6f042f90663fc2300eb
0b31dfdb0b0a06fe31f0fc28362540f8
fa23dfcb140a0afc18f208e70b3640f5
fef80b0109fc0af52de70d1b151606f3
f5f9fbfef300f5070a1ff911190af11a
ee0716f1f0fbd81505c7044ef8daf3d8
e81f0bc91c0106f82bd2fce12d363edb
dd0df0e1f0f6f304edc8d6eff81d01de
ecf6c9e4c8d3c2e60d022d2c02d90ae8
f4fff9f3ede8bfee1d04e837f4f30304
eb28eccc12f405fd17f700d8251323f2
a40003fec1e5160ff8002326f810f01b
c7fbc3f80a0201ff139c06032e0529de
bb16fcb9cad3020d0ad6020dfbebe2ea
e8ea05c7ebeee4de02e014c7f007f5e3
fe1ff3d0f81cf8e60df5050429262eee
0022feeb15ebf9f41ff70af1313a3bef
2e23f832dbe2dc21050032f80d01f2e0
37e9de2c02fb0304eefb25fc060107e8
11140feaf9e9fef7e4f6faf107f80af6
09f506fc1d0feafb1a2005e2f2e8c805
dbeb241601f1fef602fce30c1806f5da
1a08072708ebee07f5ed3e22fdfe0cd4
0612efffd9b3cbfb080a000be7be1cea
de0420f94ed0f9dbfe11f6edfe11ced1
f0db00faf302fb0cfaf312ff1e02fee4
2417e138e3e8f239faed41e5dae1f1ee
0e0afd017ae93cf200eae711f2e3374f
f4e90818e9d902f0fae8cf31ddd8fbdf
da02d7fa2cbdf00805e9f400f3eb1634
f813f103eddb08d6fefe0c10f90006fc
1239e330f0d6f325f2e21bfd110f05f7
3f12e840f6ff052d0405470ee41d02e4
f51715080c2610d00bdc41f9fdf2da00
f50af3f2081d0b07fffa3105ffeafa0f
07f624eeeffd1710140f0be01102d41d
28e008ee01eeff2afeeff21ce0e21116
ff160db5aad2feead748d207f5f3f0fc
1f091801263710f404f33d071202eaf9
fbec180a2a04d9d1f1bff5fd251bdeec
1ae1ed11f5ecfa25fcc4f5148eaa02e9
d924fe9deedcf2f8edfcfde6bcb6f5e9
0c0108e3001ddb06f1f52f02faff0c0e
f70f031fc50633f1cec2ef40d724d307
0eef12ad4ce4ecf6b6eed13901dae7e7
0afae83ed00210efd3c80235d3eccff2
cb0aeb0d0bf4fcd4d9faff1ae0fee0d5
040d0cedfa2808ef03ef17e112f9f228
f20e08f2194afcfb02db3d0509e6e4f9
4439070a021b32fe0107d723ea253607
0c08ffe5081516fe02fd071afd0317fc
1614fa1203220fe8f306210cdc0d08e4
f600eeeaeaf4fb0ae4d5e2e8130901e6
eaffeaeb2b15e2182527ffe22222deeb
041110f4060147feff23f136f4123bec
0eeaebd815c1020eff0b030b08f500f2
e702e4e2d3f2e5e9a8df9ede291dee2c
ec10e70f1027dbf50c07d100180feef2
1733f6f9fe0a26080de8072dee0d290e
1120d30cd3f9e00be502f72f2304f0ef
dce4dbe221d3f8e6211fd3f51afbe4f8
0007f6e7e8f2f631dae8fddd2406ebd9
f8e3ef2fd4c5ee10f0c1ed0907050415
050fe4f90c0720f814f00d2601ff1c0e
0c07e0db0e0635fdf211014ce82530f6
0cfc092422f4272a1cfef6ef0c1cdd14
04eee72432091b0cf602f0f6fc03dc07
0fe70314fb0506f10af3e3f30102ff13
02f7f1040de00dfbe30b25eaf9fd1af6
20030ffbeb28f8ff2ff018f2241beafe
1fd014302dea3e17fbe600081829da00
22f912ddf73304e10bffe7ee14ff04ff
0be5641cf108e60ceed523c2dde10fdb
15e8d9e90bf1efdce7f71000f92beb09
00f5073941fb2212e703ffdcf507f507
ef3602e402f4eb1b181d0220f400cfc4
1bb1e1e1f1b9fdce41e3e7c9310602e7
f02513def8f8052d0117f102f11e0299
fb12e3fffff2e80d0c24fd02fde3f1c0
17fdf92a37050f0aeef6e1020c0f090e
2be9e8253bed3a1b1ad5e5e20803fafe
031f450c4bebead62e0f241c300f0b1f
f1f61df03b22feee29ff282328fdde05
f61905fc0fea09f1fdfd00fbfc03ce0d
fff8130a08f01608f90500f818eafef7
18f0f533edeb02f0ec19f0fed60ae0f2
f3e82d004709edd7491f50012c2cd725
1804fed50ade03d1f41d02d312f9e509
02d3f04ef1ecdefa050d0d05121002b9
effeef08f223f3fe02f9dcfef1fdfcef
e9e738f2240cf1de32eb3413450de70c
2be10558dd19c4dff00601ede20108df
1aeff1ed02cbe60804410fe5f1f8e70f
15f004d5eafce61bf22405dae4f2d1dc
05fbf12c00f006f2e514e2e10802eed8
ed0910e21e0ae8120ff7180b2718f106
1413501e461103fd41243b19452be0ef
0a1aeb50db09010a1820f20be811ec0f
de06ff3f00ec0a032b15f80afa02c907
fe01f30cf50cf20df003f014071617ff
f10d160228f3160afce00fef19e4002a
eaf5d9e317ee8ff1f514d50401180c31
1af5e032ea08cbf8391a06fce917d6fb
14ea9a030cfaf5041306e60dff1e0304
abadd6e532df01d202b6ffe207cdd9fe
bfea16f11205c9edfc0de6fbe600fdf2
f306ef34f8f3d9ed3b08f60311cf0015
e6d6c9f139c13700e1071be50df90a26
08a8a8f21510e5ce0d05dc3d0a39faf8
de11dbd03ef1ff0f151d31fcef0fff10
e6eee4eff50f130bfee2df0f1ad9d314
ff11ec1ffcfcfa0415fdeaf2f6e90ff8
ebf1d92d050207ed471cd2e90209d5e0
f9f7f92729d1e2d223ec0f4ef530ee35
dce8b9e0f8093bf9e905e4bcfd16fdf8
fedcff1ff6d835d50c0e13f8f403e70f
fbd8d41708e737fc00ea19fefe110ff8
6cf10bd70ed5fe25f1092302f1041980
0cea0306eae0f1f5f8ed00f2c0ddd7e4
fdf1e10028e5f2f702ef2af903f808f5
16ec0bd917fe03f2ffe85ae6ded703df
2716ff2015c5d3e647f40254e8ffc52c
3af3ee4e18c5cdd42ada193d0608c933
dbdef7efeeca20f00623e207caf0f3fc
fcf7efd5f0180afafcd83bf922e7f3ff
e9ef16c9d1f4141bf3162cde06111111
dcee02f307c1071206ee1cd001f00c0f
2ffef7071bfaeef714ef01090312f107
21e3f81c19e5d0cf2bd70613f929cedd
0435f4a803000a080ff8fee04a372141
dcea04fbeaf5e9f629e3cff5eed7e7da
11edccd7dee1f3e709f04e280c140000
f703ecd1d7e301de07fb2b2ee60f05c8
1ef3e2f003fc16dbd4fa0d31eee20e0a
fd1ad8e0d1e1eadcebf03907fe00fdf8
ef0ee101cad7f6d005dc1f40ee020ed0
f124efeec7fa23fbf1c12978fe0a01dd
f229d3ab131b04fb20eceae7544c4e0e
1405d1a9fdf9ec0600d8def7494d2fee
25d80c0b07e4c7b9f0010220faefe5fe
1207052becf50f23ef02fe09cefbfd07
f1c0fdfa06e6efd6d10b130ee7e8ece8
0a1de3d9f011fbd513e067ffe200e5f9
000902e11d0a0af219fc04ed1e0d0f02
fe2915cdf508f0ee24dcf02305251c0a
1d0ad652d4fa1003dfd923fd011d1d0e
d4e1f91213bd19f41b22d5eff1dbf403
feee0a06f53558e31806f30014face0f
f9de070012d6fdf4eee9101600e809f8
fb19f9edfd152008211df4271202649a
07f6f2f8e6f6dcf8f7dd0503d8e218ea
fbe8f402ebde3408e20be60e0ced2ef8
fb040523f1fe160ef2f5162bf5dc39dd
4731c231fcfee244e9d85df3d51d1f1c
4f3de36413f9dc14f0d743df0df13019
e3e917e41a1b1be20e00fc1cd0fac500
13ea03f20504fad8f915ec2612eb1508
dbee0bef2df6fae7e007dc11e10f0a03
e60d02dc06e9e5ccf1fae01a1dcb25ed
121de121faeffc11f0c31107f6071708
211fd52ddb01fc09dee202fd03f1ffd1
f5fa07e8f1330bdfe3fc412d01efea04
ff12ecfb27f8c5f7fac3d92dfcf4d314
f50ce8fb140bf0e0bbbf1308f0de2607
ef00fae9cdff09f4df0e061bc80c08e6
e7fc120d45f30520f5fae82532f4e968
1000f3cce9010fdbf4e30ee402e50ede
230c0712e8fe02e6fbe804050421e019
290b1d08d20f1be9f8ce13ea1ecce702
f8060ecc0a290901f7f04a0714d20033
00faef0d09440efae0df4fff1ae0dc0a
08f31bce1debf7e9e9ee090dcbbfe7dd
f90ce52401e00b0ef60710062629fbf2
04e1e228ded1bd120f11ea3dda05f8ef
ebf7f63116011c28feececbefdd3f104
010705030a0d19f90b0607fd1ef8f11e
e405f5ee1c0128b30af90b140fe5be1b
200bf8162eec51fafc14245df925461e
0902e2d8f887d913f6f0e4d9ccb9e402
f20de7fa35c90d11fcd2d206041df30e
1312fc05deddf203e2ebf7fd2f0f10f2
ee0dfc082df8ee0127203df01eededda
fe01e1f2fcca08cc00fffbfffffbfde7
02101ddef8f10d0000f120f60500f9fb
eafaf3e510ef0f0a1d163e14fe1a01e4
2302150b0af73ef1081d054300132bd7
2f090e11190752e70b1b1029ea3851c4
0df9e7eff305f4f416d8e1ef14edd611
e2e20507d999d80a22e7efebffe9d2ea
fdf2f0e7ce0ef911ddcf19d1e8dfee1d
dbeed2eb1bfced1cfb0009effff6dafa
18220f0f0a0008fb11fe1b09f3041400
0835f224e8040df4f2070109021226f6
2122d6354b09415c26d2dbf8210ed3fe
f109e5f3cd00ef000bf3020ff2e5ed8c
f0cfe7a9010d18f6f0f10e0d0f1bfdf2
e71df4e4091bedf0041b13faeb040fba
2a9419f0f7c3e912420347cf5f43d6fa
10e7c3c60ad207df0cdcf1d6140edbf2
ecf20fe20af1fb190afef2fd1317edfd
f7a317ef0ac10b0d16cacddf0a54dfd5
0413ab0534ea321119f0d2ea12fdeb25
1008eaef4b0c392ef9eedbe64d190002
f9a0e4ee17e2dddaf9f1d8ffc611ee01
eafb05c1f604e3e3cd1a1415e8f80616
e2b8422ec9ead83220ec27fdb9fde8f0
0de12f0d28f8f7e7fdf207ff1a3eeafe
14fbfc201ceb1c110500e6e30013fd08
f0e3def117d4091304d3c0cce611c7ff
ea202de15ff6f8fd48063d173730d518
0cd5c61fe109ecdbd80febf9dbdecd10
040c001900fbfc29043aec18faee11dc
0c0e0737110ade01e728fdc8f712f6fc
e224ed1be5defa2b0050e6faf825f416
e1ec0b080ae8c8aaff3cf2f9e906e8f4
08ecf508fadffcedec32fcdc0704f1fb
f2e8062b04e1f9eded58ec19fd08f218
e8fb29cf3602f513550e3f143045ec19
230f57ff4ff8310635f241064020d805
d2deef1af0e21cd2f425f111f20afbfc
fad3f210f0f0f305e10fefd3e3eefdef
fdd9d5f9e201dcd6dd1be321cdf90bdd
0f120027f703f0cffd7bfad5ffebf2de
fafa13f51d11f4071d0415031cf7e90f
f41330061b0a03f0f3f92d010a1b070e
e607ed39dafd05e7360aeb0eee05eaf4
2dccbed21df4f30dfbe5e21cfe320d18
e3bfe00c19d8f6ebe1011bde00dbc900
f2ebf0fa20ee0ae9edf406070fdcce11
28fcfef70a0bda01ef2bc7f6f525eccf
fbf2f4fdfbf0e8e9fff5dee6eed7daf6
0bdbe2fa17dcf003f805eee30dfef601
f21abf1414febdfd0e25e8aff93bca00
f618ff15efeff4ec170dfef50ad9eee2
fb0cf14ef1eefce93d0c08ec16e904ce
e412fbe50e00f9f8eae5f0f9ee09eeed
15d215d100e82819ca15f1061ff6edf3
eef907d318ecf5fee3fedf00e6ffbf21
fdf806eeffefc60efc0ed2d4e810ca34
f208f523fef70c0d0627fae00aeb0400
dc2cee19fffdfe01f90900bdf501fdfe
f7c604fce40c1df0ee2e27ee05f914e1
770411f0f5f1312e082836f8040d2cd4
ffefea010dd70706f8e8c9eaf215140e
00abe4f70dafe425ecfa2e07210f23cd
fef0fafd1ae2eb08f2d9f0ea07072cdb
fafdf3152fcfe029f9f1bb09fe111dfe
c6dcd6cbdaf01fbfdafdefc7cefce8ef
15efd3f1aadebfce16dfd808bbe600fc
fcdbbaf71c0737cae0ec34d8d2f3021c
0df305f6eff9f1f0f81503fae4f6f0f5
0ff7fafe05f1f5fb120b07050e370b07
9bd9f40cf3f72decda33ff03e8041814
0cfe0605fd0ee3e5ff01fa0408f9fbfa
311bf35c0fdaede53adc023dd60edd3b
e0fa09110012210af615f9edf4051d22
000a050d06f8fff903f2c8f307feff1d
d1f4dee703bcdccbfe1f4d23ccecf8fc
0bf1d21c0be011033706fca107f61b02
0d06ede801efc62c13e7f3f9f0f8dc08
da12d8f7b2f50ec63de9360fda00e0ee
d00a0af6ffebf5e20bfd2b7df60bedc8
b119ebe4e2e1b6e51ded144ce4060afa
f0c0dcf0ac94fff3e7fc22e2e4dcd008
d904c6c0dedbdbfd0af3f6e001f114c8
08e40bd6f8eff2fceeee1effd9e5e406
04e90bf2f5f508f91710ed020d0af7e9
f4ff03e5090c030c1d0709eb0afe06f3
11f209eea2c1beb516e3f23ff103f3f2
f7f9fb180913fc19ec0713f5001301ff
e54aeca5def1fdf9f4d7f9fe453b46eb
05e6ec01040a0904050b41f9f80301fa
0e08edf6f7eac221f3f9fa14fff707ed
daed41df1c0141ea01f1e90117f3cc1c
fc05e1ec102318e3d0eff230f0275fc2
f2ffe6f9f4e508eeebf90bf8230afcde
efd30f0556d0d5f1dd00d3fc24f01bc6
110e3cea1c00d5f20cfd1604fa5f02f9
1bf134f70bf3dc00fbe70b050953e8ff
f6d603e9fee146de0ed7e5f4f3c0f229
f5ff0620f5ebe7ff0bc2f1d7cbc804c4
dada11f1f0d320e8edd0cc0fd4ef15fb
f8fef8000213ef08032eeee7e6eef2f5
0413eaff07030cf9f8000307fe1004e6
da03ecf311cf0addeafafbdad6040c30
0500faff0afc170af80d0206e10b0813
3639ed52e6c3e93319c956efe61d42dc
e9f6ecf8f6ec15fb0ceff315e5eae9ea
0408f211f9eaf1f6e6e80ce82bfae9cc
f0d71bf4bcca020d12f5e41bc9df28e0
20f81404e1fb0911020304292bc4e33b
ef191eb309f60edffbffe814dfd8e701
d91ef229e7fe1bfce1c4e7d3f521eafb
0108f0e103f10317f0eded10e3040dfa
df17f1d6e7ec13f3f5dde415cef124f8
ffed07f6dbdc0fdace14e02bbaa904c7
18b801adeb03c9e2f9df07bfdbf4dfdf
e80bf0f7b6f206ddeaf00423d4fbc724
ecf80403eff7cbfcf1f2f6f20a01e90b
fffefbfdfd071ce7000019f9f903e2f0
1812e41cd3d4daf8fa08eefc98c3efa4
04f90e1004fe0104faef040ef5110117
ed0607f83d23f5bca9c946060fe608f6
01dfd5e1fcf813eeeedc0914feeb0801
041418a70a0a0100ff190aebf7c4110b
0bfbb2a5f4f4f1b7dbf324e82df0d416
f3fade16260918d43023111835ecf903
ed03e20013010308f61bdbf40303fafa
e20aca040202ede72aec38fc010be821
e2fcfd031ffffae0f60101f0090cf108
ff0e0df61028f9e6e811f2010416f412
d70bd0d1fdc4efeccbfaf3d91ce8d912
f2fa0dd920f019dddff0e5e2bc00f50c
d015db13f8ccee1101e907f727eae4e5
faf206f301fffc011b09f6e7f01905f7
0511fc1e07f41201e8fbecfcf7f805f4
e4eefacdddfce1d2e1a7c8feffeea5f8
0005f608040505efe6fbe405f904ef12
0c02eb0b1ec82dfe0c3f005c0f6e26f9
15d4fd0207dbff13eadaf0f70307000b
e638ed10030e0efc1404fcfc111007f2
fceb401a1610fe212ce026c9fb1df6f7
42cee5f4ffd2fefd2ff63efb4d0a01de
fa331103f7ffe605000fe706070f0110
11f6720cf40ffff1100fe91ffa34f1e3
1ae403e1070af8ea2900071b053608ec
1af9f2ed120405d305002c041c270302
e533dbb3e318d1fcfef0edf301b20dbd
01ccf9d50bfcf2e3f3dee1da00e0dcf3
3219fbe6e411f3fd01e8cf0b0b30ece5
f105f206f30400e0e7f90afdff001508
f9fc191f05f508270103f00204e3f4f6
f5ef06edd8e2d6ffe3ea2dc9c6d6f7c1
10020af3fd120507130302ff09ec0a11
15fae8025b1d3f1c4bedcdcc4025f72e
f21004eef915101cfa05fb30d8e3f503
0e171f04fee707eaf803f9f70827f9fe
eeffec490fc1fff2ea40e419f1011ac8
d80f0e4a02f9e9faf97ff1f5fa192a10
f90f0710fe07d809f604dc03f302f5f6
f426fe2a0b02e8c5f53edfb1e213fdf2
f502daf205091a150807f2f6f2ff08ee
f91b0507fa0fdd0206f90ac70810fefa
12f3d908d9d1cdf5defed4e2dbc2e6e0
0cdc0e06fbddf6b80b02f6ec2d1cd7fd
d80f0506e5def4e2ff17fbc8e6fce2c7
0902f9e4fbe6131b01fcfbf005fffffd
fbef06170009ff0dfb0f0bee14fcf301
d7fcee1b02fd05f2f4eaf01ae9dc0bdc
fa21030e0515faf2fae80fea0715f4f5
372d2ed35fcbe51e2e0c4afd542cd0f8
e5e90e270001ededf3100511f41b0bed
ed0702e91317e70708df0bf2fd00f8fa
a6edece447bbf0d30bd3e619f4b8c805
deec08051e140419ffec11fbda07e306
e8d9c7e8f0e5ce04fc03dcfaeff10a1d
04cbfada16bffcf3dd0f170b021ccf08
eb0405e7f4f9eef8e4f8090e02f0e8f2
eff7f0050d070fdf0115fd25efe9c814
bdcfe0d12ee70cbfca9516f6e7e1d916
dae7d01afee8c5c007fdaeff04cfd7fd
f2bdf1de17ed00f0e3ebdc150fe9d51b
050b0f07f10e010208f2fde70cefefe0
ef18f805090cf9170cefffee01f3fa13
a0d8e8ef46d72ac8e3b513d0f2ceb329
1909f90303fafe02faeafa0efe15fdf5
0bf9c433da08eec45610f9fe08d224c8
e9f9070419e0d41afaf0cfd9d8d40134
e5f0f812f7e7d6eefae9d20904f61100
02f00ee8f70ff6e0f40d360febf9edf7
1ef3fd121bd8f0f016e71217f022f1cb
e1f905f4eaf1dbf61314ff032c360f0f
30fe032222c8d51e5fef2f412607e2ef
260b0c5c17bedaaa51eef051ea38e92a
01fa0dfe2ce4fbf32cfc0e1e111ffa09
0de9f305f7fef8d3070af8090b29d926
1a0bf2f903fdb8e20de2020602f8a629
15c1d1ccfcee15f7b80629c80d1342f0
fdf6e1f8db133408f615f6faf2e6120e
cec9c1f9eef23a27fef5fafdf1052df5
c5c31acff00a12c9c75b0ec01af90cff
050eecec08fe0edbe30dd2e6def8e226
14d01fff0d001912081d0de0eb1039fb
06170614fef2e6e817f94024fb22d20f
fff0090df31a15120905f5030106fb24
f8090704ede7e1caf405f4f8f8ebf3f3
f30ef5e205df02fc13e10e020c141ed3
fdef03091cff0922332b13fd06f41ffb
092ceac8260535e034e60fe14e4c32db
c51b0084e1c2f0fd0ccdfa1965595807
140dfdfd06041f0c13fa0009281f1009
0306fbfbecfdf80fff1b0ef70df11605
06f7c9e2ef0af6f80edd19f900f710fd
e302ee03ea0606d13edf200fc7c8c3f9
08f4edf9e406ea09f9f8fc0cdaff01d4
c1f124f6a3d5ffefead117dddbdeea22
f7b7070ccfe4e3fdfe18f2f3dfc7c61a
f116f9f80e0fab24fcd0ee19df07eae2
dc1db804d3e5e7ea0c203f5601080fef
043d0de113e7ffbc14fae4ef2a5e6ffa
0af1f3f90f1006251b1b070515fb0ffa
fbf709fe0207d9ec0bfb02f2ddf907f4
2710df22e7efdf16d7eb130d04ecf3d9
0efde400230e0d0fdc2b12efec32f405
3f0fd632f6f7ff3feef03305fe111af6
5236d56815c8ea25dde451fdf3033411
17f7f811de06020103ed180d0805ffea
f613f30b0b0909fee40a02fae61013f8
1428aefe1fd5e222cfd019d900e721e9
afe4e0cd09ce18e0fc01ba0df6060d13
f4e2ef0303e921f4041df2f1f6f40829
ec03dbe832eaefb2e9f4fd100de51424
bed30cea0e33f9d2004abbf8ddc6daf9
04fdfef40bd222efeadbebfe092be0ef
1e0ef4ff11e5171010fbfc2c0702fc23
2d16f62106ffe32cb60927dbe9ec21bd
e9fbc30303030c06f50115fddfefc4f5
f4e2e419d1fcb4020aff0914deefe208
ec0a0be1050c07fb03fd18e3fb03d010
f4f4f918e80912020a092bfcf9f5edd7
e90afb03062703ddfdf6520b1016ca13
dd0804ead34304bfdbd0551c0ed3e31f
e30203f8fe2a1ce705fe1ef702f8e0ec
fdedf4fff506f3f6f8f811fa0f03fe01
f8f70a01d7190de3ec0810cef503d11c
ede3f80ddeb2de0b1dece91d3422e615
1cfcf801fae61f0aecf7e60fc6fa1afc
ef28d608fafaeebabdc9f205c900b1e1
16d501ffd9d2e928161bb412efee1af8
f4fb13c402f703d9d1f9fe39a1d7d6da
152909cbdff815f7ebe9fa11f1ea1703
ffd3012f0941ec08f0df3903261aed21
ddfa06fceb0c0de808f10e1aee0ce5fb
e3edfa01f711fae3f0fc0701010ef1eb
0e43f229fbf80cf30ef2f907fc0710f0
15de121605130d05eade0f18041b0625
2b1907eb08103ef0f1122943f01e54f7
23f9f3072f0f27e810fe223503474911
14fef20b02fe2314f4030b12f61413e2
0b07eafa100bf80ffaff0015fffff8f5
1215eb1a04f5fae7f5d00cfaeb0a16e8
e5070be7ebe1e951f8ed32de18dceaf6
f1f70a0adcdbd928f1ced2e50afedfef
e4d7c910dfd8f000d9fbcf1135f6d4dc
020bf2ebb81ebae2e4dfe6dde6b9c40e
e8c8f5daefd7df050416c5f8001ee8f2
ef08eeda0f1de81c0305f50219fe1c07
14d7d1eb0e2a2315e8fb3323e60e2fe5
e1e4e701fcec23deb8eceffff71304fb
f303edfbebdefcfd17bdfaeb03effe03
01e9091d0ede252a070cddda1205ebfb
f539dbf8ff180d02eb240607edd2f1f2
31e9091b2ff3490c0bfce3e61f2ad4fd
37fcc4084814602947dfdaf019140df5
02ede81b16f21e160002e5f40d16ef02
f31de511090dfb29f805e3e5f9fb1014
052cf3f50b01fc05f30ab1cb050b1e13
0bbe0218ca07d8061aec3c121afcdffb
e5e801e7daf7f6fee9322626d7ececc4
e60fd9aecb0d01180111d232db00f493
cfd42140cacfbf1ccfd734f6d7cfe61a
11fcee07f4f0fa1d11d5fced093202b2
1afd0ae6fcf6ebf7f91217220a59f3e2
090a372b262a4c13e5ce07da2e15f82d
0e31d1e9fb0c0a1e0ae0e52003c707e9
d9070bf9f5dbfbe5ea01ec00fc0613ee
f8f523ee25e7efff1bda30101c0cf223
0dea05511c02151914d012e9000c2801
0eed5523612508cc2d13321b4c39e6fa
36333e213bf9e80d53464f022e4fde31
ee14180e1a10060414f61c061df8f9fd
06fe13060e0cfc0a0bfb031e0dff0006
ff0a19d208cede240ee10207050bd223
cce0b326db0d24e2ae1dbf05b1fe0eff
07d10517e203e0f7c401e20de1e109e1
07d5d427eef3d2fcee2108cce1f3d9df
eed4b020d40d0ff2c7ecd217d1ee37fd
f9f1f6fddb0ae206fb31f6ff10f70cf2
ec0bf0582b1906ee061b020feffd2ef3
11fc25fd4105c9dd44e328214941081d
e8160243fd04e0e90bdefe09e51722fb
efec0a080404d6fcfbe9f5db0406b8e8
f608e307eaefdfd10af2def6fb01edd5
b72b050dff0b1c26efde31f3dfd3e40d
080cd317cf05f3e8242de216061ecdf4
fff9c949edec01c5261bf8e61c0eeccf
ea09ed12f6f9ff0a13f8faf2fbe9e5ff
f1f9000df7ed02f80307ffe7f9f508eb
f006d41bd3ebfff2f603e1d102c8f2d0
390502eced01fb12b520f70cf123e639
16ccf0dd29f1fef5ecdf01fdfd05e032
e0d3cc0932f611ee06eb0e13c214fb0b
e9fe05cf18e31dd5b0be33e4d3f9f132
b402c9e311e0f2e5e3120f51dbeffe1b
f9fced1550e1e7fee91f24f7f9edf021
0002ff16fdfcd7d94214bf04fafbed05
eafcf020fbe5fe0811fc04e9f6ec1719
29f7d3051ac8e9ea17daf317d70ae534
08cbdae73eef120cf3f730db20fd19e0
edf4f5fa0511051109fb03fd0000f8fa
d909e702f6e80e05f01902da0df60408
27ff182a29eaecf829e01d1ffc17fb08
e701e300e1220a0e1a15c9f2d2e30805
ece3d90cf3e2fb0512e8c813e0ed051c
31daedea0bd3dcf901d354f0d712dac4
05fddeff32f8cd01e4eb970f090001ee
201f01fef5fdc4cc10f5fe21e712dd24
b1db21f1fee53bcee660e0ce31f012fb
15f6fcfc11f0ea0b2a110d2df622f403
08f81fd1f2350106cb380ab63f1f15dd
f8fef7ec050305f8dff605dc01011403
f4f906f40fed1b0fff0634e4f60ff9e5
2a11ec4616e9d3d947e51c3ddaffd222
bdfcfafe002c441c02d003f9330a06fb
0011f700e4fa1dee24c2374de5ebf7c3
1316ed17fc0e020becfe0ff7fbfaf10a
04e4f8fae3fcf0061021fcfee6dcec0c
e728f4be0afff7e82bdb0bec3a273ff4
cd1019f2171803181308ccebf4fe0b12
cfeed8badfe6bacd06111d2b0520f0ff
1a1ebfd0d4ea16b6ebb00f5ed80615eb
dbf9120a14cca3c71eee105115edfced
f5fcff06031be5f80f13050c2304e6f0
efc6cd1882a7c1d92c2a1205a1c7e736
e62bf3d50d010bef1df90aec1f1f33fc
f5e0ff300615fafe0136f9dfd5b6b33b
fae5071a0b132ff910fa0112f3e60417
13f505c501edf6ce0aca2ffbf5040a08
e6e4f7d8fceb07ed0df0f0ee2f5b4e0c
fb1f04fadfcd100506a01cf9f7a91814
ed05fff83dade5ebcdf9e9144dfa06f8
02f1fafb04f2f108e7eff913ec10f7f7
ed0bede31702f9e00703e6f307eaeb11
363be527f4d2e42500cd38feed1e0cf0
070b2cedf002e80b12ff01e301d3c7fa
12fdd41c17bccff1dec118fa090b0a0f
fb0bba0bb9d2f5e8d0ca0c3604d4689c
01ec1df9df0ad1f3c3cd14e6063ac5e6
143eb815f0132d0e0fcc15f0fce20fdc
d9d80cd928151bda00efc4cfe7c9c726
1716e32deb01fb19f7ff11f7f4190fe2
bbb40aaa0030ff03eb2eb8e9d0afd702
dcd01ff407fe0bd3060bed090505eb13
00fafbf80cf914fdf6d1f82bfeec37d8
3846d0391df0fe29dbba55dd0c052917
f00433eb100902ccc30714e22cfdc212
111e0717d8f138f2080bf2fd0f01eafc
01f9fc01030c12f90506fef40e06fffe
d70df01be5ddeae0f5ecf0f5d012e9e8
d4e521e50e31e9f302ff2ffe1a0ce014
21ea1ad4e5f7ce05dc0b0608eae92def
0df2e8db0af400d4d8d7081cafe2e7de
f50e02d31d060fe5e1fd11ce2fbaca1b
00f3f8840aeae8112207edf5e6a21816
f0f15a0bfc08ed02f2050ce307f8f21a
021dd30cb6ca122bec01bce3b7ac1580
05fefae8eb2703eb04dc2213ed07011c
e1ef02eaccaf113a2df6cbf8ecf229e0
09191aea05e20034f117e5291e1807f3
07001d1a0f081121e60d09f10bfa05d7
d60418ef144febf0e90254ef2fe6d526
ff10f82822dcfb1cf1300a110f1213d4
0cf6f3ebebe50212fdf50afcea24ed1c
f6e205fc0a14f0eae6090a0707fcf917
ff010027e107ee02e9dff2e3f9f7e701
1721fcf511153a0afafe0e2ce0393ffd
08e61f0202cbf8eedf02dff7e00505ef
040debfcfee7f3fddafbbf1811011606
1e260bf820e60af33c264a1115f4fee1
f822fe010c3707bbd3be11feef26ef10
2d260849ed191ddafa16e812cd1f18e8
13fccb07b1dbcff4c891a6e408d6be10
16f714d1040a25e80d06083f041330f1
00e233e9a20ca7f0df0304e7d8cbce04
000dfddcf0d4e6282210e5f2fadee6fc
f31bfdfc10f3eb21243739f70ef7f20c
122f02402d291ce01221115d0a3c3104
ec21e9dd04250eea0becdff132dd25fb
eced6f11f823e110ff1df7fa0447ecd2
fcfb190001f905f4041a00fd0cf31107
cd19001df50add16bc140d0dbcfc02de
18fd22f84c1b3e2013d0f6f02ff50b16
f501f7f2091501d6e1e5271ee8f90207
4602e6ef0ffa001123e5f0e8172d06c6
1e900ff1f9a612fd36c303b24a41fcfc
02f9010cf4ec04d109d809fd0bf61ae7
00f8d7201b240c0b06fbe8b913061325
d1e71b29cbebbc08d70c0eefafb8c11a
08fa093711ee2215fffae8ee161ee013
c6bf122cb7e5c3eff3f03f19c5eec5f4
efee1dfff813cd0508071b25eed9d21d
f7d811f6fffd0bf80fd70cd82820e3fc
392dd5fe41f96d2d23afe9b31bf02704
190c0be60ed62316e8f007181c0abbff
f3c9e214f3d706efec34f1f2e613d1eb
ed1e00f9fe0df905fff1ed07f105f20f
0fe0eb2ef3090515fe08eff9f4f5fae8
0f2a3d063b00fbe343ec2a12300ad506
daedfd0afbef0f0015f5fbfa010a0af0
0e14fb32eef8b4211b07ebfbfb0ee30e
ea17140705c51c240c7cfa1bf601b208
f719f9e400f3ffdadfcdf6d9eefadce6
f82716012805111720040337100302f9
fcbecb39d507eed4da0fdb05bcc00fbc
ff0c320c270be8f4172a1721341cf7f9
d1e6cfffca16eee8ca10a1facee930f1
e7f4c400f701fcebc302f9ffdadf2821
2d02ec0906e81802f742f524ebfffc05
0e4646f440e9012347f8470d3328d826
3317d628d218daee0d01d1311d1603fd
0cd5f2041cdffee3e318f1ff0608be17
0af6f9fdf304150e020c07fc01c202f6
eaed01e70be9fefff8cff4ddeee20b00
0efce245eefaf2e8380fe1f6270ffff6
e90fda152e070a1202de032205fef409
d1ebd50641d4c9d2f319f01315f9ec11
1bcbc4fbded7b404fa41acb7ed1bdbfa
eb18f7090801d6f6fc00fefb09069500
0220f508f0fbf6f404fb1dd3f1fb16fa
9fc2e7ad1ce11895ce982dc8f0a9d711
f817043105eeebfc2101f3f1f204e7fb
ddf513c70cdcfd26f0d7030ac803de45
2adefde7effdf021d601ff3202221333
ece812ec25eae41ffa22d7e402fdd41d
ec06f15ae40725e240211de414f609d4
deeef7ec101e2deeee15f60510d91511
0630e116c8ede5e458060141150e10d9
d4bc07d5f5f30109e205bdf8e60b0cee
1421cc4501b7d7e547f00945db170004
090d070502f2eff001fe0411f529e307
0808fa0a15f1c9c42df8001f253ffc3b
d6cad9e122bb25ccc91a0ee5cae805fa
59f8b50b08d0fddcff80f617aaddddc2
e421c3f212f53219d4eacaf7cffb1536
1a2dea04041afad404e811fbd9def714
0afcefde200af9019efef29eeedefafa
020415ebe108fddaedeef0ece0f5e417
0508200af6f2c8e618d502000505d5e4
db922ac7f61a1105cff321e5ee0703f3
05fce6d704fb1207cb13f8ccff07fc16
d7c601d2c21ff2f5e10506c4f31708db
e408fef0e5e5e1e8191e30e7ec0910f2
f92db9e5eaf8f2cf38cfe5b62f2753e9
d3c50d0fff00badb151300dcdfece6fb
db2fd8a51607040e05d301e542522be8
f5f7f9d9fdf909112404fd071211032a
daf713e7f932f849521ddae6171d2454
e610fae3a89eecd1c00bff01c6fd080b
ec1efdd3f8e408dbde920de50ffd16f3
eefcfec0093e00390bf80112d5bce8dd
e7f916f80b1b0d02e502dac0f7f5faed
0ce21e1a051b0e2a0902070b99b19c07
e203f20ff6d6ddfffcedf1fbfaf9f708
f60307d2230005141edefcfa212009fb
28cd0b13fb05f0cb1c1238eedaecd4eb
ffe9e6dd07fe121206fffbf6d6c0cbfb
fef3150c0d10f1e207fc20f9e1e8d7eb
f7d50bfa11f81df6ef12e007fbd9ee15
2f30e967e9f2e01320ed4abe13e0f9ce
ddcd17ee100dedc82e08e512f412f6ee
3b24e927fcb9261ff2db51200217f6ec
0e08e908fe04030ff7eb0debe8ff0704
1c1db023fffcb402cae6f9072c04f518
f9e0effc1cf017dbfcdce3fbfcc2fa0e
fe0bd8e9cea8dcf7efd90314cab241ce
daf12aec1bb42ac7fbc3d92f1338f027
f7e9cb05e8e8cb09060f0cf4cfae2008
b4cff2b5ff010fb1020aa60813f1d703
dffd020b1ef7efe2f0f7e109101ef2ff
051ed91704fef01501e029f41cf5fcf5
d9f3fdf2fcff31c8e90fcffef212f132
c9d8ead009ed11f00ff8c80506e8f405
edefffda1d0505dc1ffcdcf8b709f903
0c09d8ebeee803fef3ffe714bdd80dbe
d0da01dfe922bacff0d911fe02e7f11d
ebfbdbd4c2e4f0060fd2e40ac3ee1de1
080b25022e430fcbdada4f092320db36
12ff10f3f9fbeaf3e1fb18faefecf506
df23fafaf21a27db0f232104e20ed2e4
10ec01f4dbf129ccf326ecf7ef87ae94
fcf231f3380a00d2c7eefbe639c0bdfe
115a16f560b20fcdb306e426e10708e3
f0e7ff084306e5fee7fa0b112912db33
0407e4ed19a2110afa14b8e1f3060306
1d08fcfc35d00becf50cdeebd8fc04e7
ebf60def121d01f2190610d407f3d909
fa0de909d6dd04201a0fd415fad8fbf2
0a1200f900d21505edffcaf8f8f9f7f3
05e9e4ebb2e2e9f90f0fe710c9e919dc
150f04e6e4e1e008faeaf0f00de7d307
2224ceb9dd382dfde1000321c618200a
fcd0e30bf101e405b6cbf5fa0000dbee
fbf6dcf63b054b0505190241fa3760f1
0e0dfd1ff8fc02f9f8171223e5f50704
3e1c2742c51d0de6d61dde0eec022ae1
da1ed6ece4e8fad6e0dbddef35f80f18
1ffef9d62edc0ae92d572c17200115ea
e8020c2b01cdb13d2219b0d31ce6a2c4
01efffde02d6ee0f110ffd0cecf01901
08e11e18e901aefd0bfae4aaefccb3df
da06e320d5fbe6030607dcf80df7f302
253a113eec1f20f7f300ef2dcff81de9
f4fff2f2e2d2cf13f1d3f0df05e4e0f0
e703ff25f3d6b118e3e3e7de0dd2d4da
e1d0f3d1f6f5dde3cdcfe0d20ff5d3f4
fed8fb16eaf1dd18f91120f7e710ffd1
1e8314203ae84b18bcdcfff6d5d20706
f2e4e0ebe503dff624e90d16fcf8e1e6
2707f9242af9641428fcd91c3812f90d
03f9f615110d110d05f8dc000105f6fe
1106d2421e221b3b0bf0ebe42af20dfc
f208e80cebf2f6ed0aedcaf8e8e7f8f8
26d5e1e905e402b762ccb2b85fd91b09
022407daaf1bd6e7ca43150f0014dc9a
f60bfee2f6f4f5ef14f7eee029effc04
d5f0f7fc9df89802ed0bed06d7fbd8e4
05050febf002f4fc07fc11faf2f71506
0401e6151def2600d8e3ebecf912dd0e
f0eef0e5c602d2f21cee1a06f2ecf711
f0f908ffd407d0f1e11bf119e605e9df
ffecd0e9d708e6f82acb0d0a04e609f0
e4e7112df901eaf3ec13f3e3fdf520be
f9d73d3252fab1cc28f33a163825ff37
0cfedc22f3fe01fdf7eddf21d8f125b4
302a2dfb5404e8ed2a0c43fc49219a1d
04090a091008e6ef11f6180d0c0e03f3
fe2334eb31f71c1824fd24032e11212d
da05d826ed9f06e9dd18e4e8cdfae5dd
0728ffbf159e3beef93bf4001e1e9e21
3f02d3f3e3fb0d58c51ad8e4d1c6eed1
ef03fbb90bdaddfefd0ff7f803f2e611
02e5a3028b060afea9f2b408adbc16ed
0406dd11c50af11efb0ced20d6e51fc9
0b1a2ff60c140316280e100b1408ea0f
02cbbb17dae9f8f1ec0fe60dece243bd
e1cbd710ca08f009b1f7c3f5cad101fa
f8e7f113eafc01f0ff01e410ddda27d6
d00ad4f43ade0de9e7bef8e9ef05d73d
2911f2590d93ebd54ae6dee522d6bf19
c9f7f5dc08ecec0af3050b0ae2e0bd03
07f8d84d09ece1db57eefa0c2b10fad3
e503ea10f215faf502f7f90af6f9f8fa
0928003bbb07ff221defe1fbf2c201e0
a8c7e3eafa0403b7019fedd7eac2d8f3
0aeeaffbd900d8ef1e04d202f81cf9cb
efecc6fb14f9091ddced3745e1f83940
3fe8c1ffe7151401fbfeed1101201bce
091ff7c10bf60f0fae101607cb061105
d3ede6d60cecfdf2dd07fcd9f10aef11
110eff1cdff9fdfa22e8f9e0040c02c8
ea1d06c70ff3fb04cbe8fc1bef059714
13e1cbd206090ef2b2e8121ce8fb25fc
eef405e314f80609e0f7fa1cddeaa2f4
0304ecf235ffe1c318191a0bfc0fd3e4
e7ef06e303f81e0d061ef6fde2fe2024
00fbfdbf15daf2e5e51146d80eec0602
1a0ace0b01d819c14ff5e236ec2ff513
12ecd22723dbebe52b02d40cdb1bd7f8
d51015effa072c4fdf45c4e40004655c
1f05b8363cf004b528d1fa27ce2f12fb
dcf8fcf1e6ecf9f4f9f15005ec1c0310
e8c3f2fbf4152905ee0d2be50bee110a
1914e7112d00f4cb1be9e216fd18ede1
ecf5fe09cc160b19ef18f4d9204033ff
fe0501f10600080cd818f7e300f1fd09
28f8cb290cd302c424e9362b1c09dcd1
cdd0e6d6eb07001ce53efe05f11b2418
dae710fded012b26fe0ed004282c0f0f
1cf1e32c05dcf8f045eefd27e42701fc
f4fffee4010700ec2d0df8e60c0bfc0d
ecd0073be0edf601053c253302f104fe
cd0b04f4c0e929ef08ea14d0ea03e6ea
ea03edeae51611fd1001edfc5b441e06
e623fee30b03f5f613f2f4df31282f06
fefd32f40af6c823270eff20d6fbd1f7
af2ad002e2fa2916edb4f602150d170d
ebff15f90e080705f6fcf0c9fc08ea1c
22ddfaf808f5ecdbd31bfed900f2f1db
e606ffcf28150a24370319d00a2b091a
0ae31c1b1704cd00f5f2eef3e1d0eedd
150af808eb10080a0110f4f4e2e1f41a
0fd401f9162015c8fad5fef10c291509
d1fe0e08cf08d906193334e11201000e
2c0cf13cefd5231ff40df2d1ff05f0ef
ee29efc90dff17bf32f81cf71e393ad8
0c0ce54ce609ff06e1d8060bf61addf3
e8ff10012916fafd34121127fee12f2c
01e1e1e71ecfeedb0ffed83701db2224
3e0ce133faf2f417f8ec270c0fe4e9ea
251afd42e0c4d817fa0627fdf411d5f2
fae731fc450617e5d416de10e0030c79
fd2a082de1d12d1b16f21507f7c027c2
feeef6ffee0200f30ef2f2031cd41905
05fc02ef35fc0be009e2def1ec1a1c41
200ecc10ec0ae2f3fd150713fa1ca4f1
d3c9eee2e403f8bf3f21d8ff04ede302
e4f113f8011109fc1f13ee0d0412f213
1116c9ffedcad1170039f4100f0712d6
f20af70a5d1500d90b2bf003c6f43d2b
dc0d1d06fceb01d9f91d0833f3273404
3e0ffd29fae2ee13e90134ffe6fdfbd4
070bea03ef0aebf1dcd41cec0f14f3da
f12fe905f2fe0cf4bfd0000dd309fab0
df07d433f7e018c7d5bae1131e2ad809
21f7f6f9174109f3d0fa200cf707eee5
0324f2e30b31ffeefae52af405e6f2dc
fef90ef8f1dff207f9f8e93dc01711bc
c8f94ae8171e01d1c5ed1d0cfffae413
06f1121cfdf8fbd5cbd207e6e709f0e8
e2ef2914d0f508eef1bff6e0f6e91202
09fd04ed130df11ffbe70ded0012e5d0
1adaf3ec05e8021efc01d3e6d1f711d9
1404f209eee4fe1223f7e91c0d171fff
d8e9f1241c13f301d0e31be52741d3f9
f104ec00d9f3fa0abfe30c07de25ff95
11100be5ea0028edfe2eefd702e706e0
ee0b03dd142900e6e1df3ef9fddfcb03
27211127fb00110a0df72311f5f904f9
e0dfe4dff5f7281a18f711e6150f0f26
f4f1dc0a1eefe50d1d0a0dcf0bd1ffeb
2f1cea0cf2f8310f020ae43cf3231dee
2822e443ebe81204e61bf93bf5102914
f0f9270de649e932e51bc9f614f0ef42
2006e927eaea06fff82029180ed91413
f301da061505dd05fa1621fb1408f809
eee8fdf006fae608cac8fff6f3effd08
1bfef51debfc15ec1229f729e4081700
e3fe0af8cd27b6f2d31dd3ddc0f0f0fb
f8fdfde7eefdf01cff10f9ebf6eaf2e3
0c16353deb071be9fb274b07fbd313f4
06d9e3f2daf31e19e806e1ffefc80ff9
f423e101fd1c09efe73407f70499fc10
1204db11f134240226fbf82ce70727e8
c0f8124104030125ebf7e5dbeef3151a
eb00ed1fe6cfe71e2a0e2d55ef1bc9fb
ff15e8cfedf5ec15fd21fef70d0af1e2
10d9132337f34f09edf9faf5f5f50306
11e50d2037f413eef4f911e2070a12f1
f405f7fcf72ddc1715f90d5a0d1cecf1
1ed0070b1464f9e013e8dcd114f33810
f422fc1f0919f5f61c0507f8f41004ef
f7fdfa00dd36fcfbf607fb0eeae4ddcf
27f2d70d15f80a2ee9e6edf2ede7180b
e80a320fbc00c400d8e00a04eae1e5ee
e6e3fee6eff3ecfaec150c16fb08eeed
2fe4fff504fb17140cddf7a7ddff14e9
ed33e6d8f4130407ecfc2456c4f0d7d4
d7514326f71ef30d9edb050cb0df0604
0adef0351421430ff2e1e015f4240709
020f100917e1fcf80adf021f1efdf40a
f2f10d2bd72603f10137fc30e10d1ddb
0bf2db14eceef327e10bede1eceff9eb
091033055d10fdf037f03b054011fde1
fb132ce630f20cf02eed2c12460cd70e
34042f38203e31e4eb34f0daca0210c3
4d2717d716e5fc050fe00c0c120daf1d
3aedf4f9eef4f8fced1ef211f809fdfd
d202fe2bfa0d0409feffe3e9ec3606fd
04291deefbf9f21424ea121717f7eff8
0dcbdd24e8e8f9f1d103e723e2de30d9
f1e3e809ef0f0506e3fcd6f3eeef0e0c
ccea2b261dc9121021fc27f6091cc24f
ffdf10691036fdf71c5afc42fbed0ad2
3be2ea33f716e2f9022efd11e0fb17ee
0f0c42ea42f2ffd6311a1a002000d9f9
020fe0150309fb0213eeebfa0ff7faff
edd9fa2228f9f30a080755ee0fefeb1b
05c4d1faf4f8fdffeaf3fdb20114f513
09f1cf35e9fcf5da21edfbe13ef9e31c
f110cd32f9f7f101260ae7e426fc03f5
cae6edf948f6503c02030540ec1be02f
31e79920d10507fcf4fdc4160a0224d9
eddfecec14f717fffa03f502f312fc13
ede90df110ef0ff1f9fe360efcead6f3
0800f815cc06ee0b1202f6fefaff0bef
dcf820ef1ef3d50bd1f22beb01f2b73b
1fd9e7eb150f0f11d4eaf507e3f9f516
21fefe17fa33c4001b13e8e90f1b10fb
edc611032debeb1108d929bb0dead142
d9e03efc4fe8d5d8e2ba0fdef1f2f93a
050cd826f4f7e5001ffcf8eefd11e0ef
eeee01f12dee19180e11fff3f9f32f31
fbeb17fb1bc50325042afb0903f704e9
e6e3f50012030a08fd2ee4f8dbdef621
bed2d8bfef060afaffed1506e7011e3b
0920a12b2de618fb4cfde750c003d705
3220f038191bf5fef8f81fe7e81cdceb
22eee3fefa07f8ff2afd0f10f128e1fc
2dffd01b11c3ecfed9f21ac700f601fe
1d0bc41c16e813d53ae4de33d8fde61e
fa0ee31820de07c716f6ea25fa09e427
eef528ebfaede5eb081edc0403d81b3a
dee2eaf1fdeb29f9f00e17f70c2c1c30
c61009cf31f7021f070d37eeeede2df9
ecebc6d41519ff07e414a8ed991f1507
e51cdaeaf90f03e60b14f016fbf7fb0f
02fde02922daf6f467e60135e4defbea
f91fc9fbd1f4f0fb1b084349180df703
e322e4fdd9ec13f4010d025b04ff0b07
e207f21803e8f5de131102ef07111a1a
130420f5d9e224410c1200e61a060cf9
cc340eae17fc01d916f8ef064e5f3ffc
f11202fbf1d4fff3fcf80a56ef02fc0d
0d0a0cde0cfdf2fe0cd4eb10231630e6
fc1ae103f005fb0e13fcec33d2d6d1eb
d13402dd0803ffdbf4e1d3f6403f48f9
e603fad6f60a07eb09f9fb1522281df8
f4f1151dfce9ee24d6070e380107fe06
e2dbe1efcf01f815002c140cd9ebfcc8
01eef61dce0408ff0cf0183ddaefd50a
dde201190503f32a33f7f70fe9e5e8e8
b916f7defdedf609371cf0f82a0508f1
b911eec602f7fad53bf50503444b40fb
f4f910eb2fdf0e0d0afbe707f4e5f54e
fbf836f237fffffbf4f315e6dbfafc3a
fdffdc0bf610d4fccffa0bf0d1e508f1
1eed200b1ed7eb09fcc8082e0a03ed18
2a0ecc26e6c9dc2ffb133000f22421db
f71b161b00dcf80218fef6f5f7f35be3
063bed37f7e60007ec0c20fbfce402ea
bfe2eed302df0ddb1124affe16160011
3735e07ffae00514eeff4919ea2500fd
1b1ce031f2ddf7fcf1db2aff060708f5
faf8fafaf3300b1ae928ee0413e60621
f8f7180a1af32edf2007fced05243359
e7f119e022041be0fcfcf1080b04f122
d9ec30d8decd18e3f40bddfc2eebd3f7
030cd104e6e3c50fe5e40ae920eadd33
3626f15adddede22e8ee5bdfc8e4f2fe
f3f4f2fbe613fef2fbec010ce1030cf3
deffedfde200ebfcf6001bfc08f408c4
16f81af5f207fafa1d1f04e6f4ee1ce2
f70cd9ffedfe2ae7e2fa090f14f3fadb
f20e2cd80b4623ddd2d32f04f8ecdfe8
f2021ef1f6fcf7f616e607fb170cf3f5
e52f14ed1d1f03f0f0e627140ee2dd0c
d811eefff6b827bae5e7db030c25e62b
fe1e1ede0526f5f4cce43c07fff7e8e6
e60ae9fa091e07e0efed2612f0fcf2f2
f7f3f0edec0707defff1fd1dd91f00e8
f8ec041810f30ae7f40011e7f5f421eb
def0ff0fe4d023e7e6f8c3d800f106ff
2207199003f5ec1efa29d501ddc20ad0
0905ff05f903eb00f00b1601fe12f403
d3e520da0437ffdbdaef45f2fc00bff5
06e2fecafe2314f50bebe80405dc143b
0807ce19f61df3c8eb0e2514fd110222
0515f101e0e8fbeeffd3fb12ff21fef6
e8e5fce7f7dd131b0916e1f617e9fe21
2c31f74f07e331f7fa23f755010e331a
152af21e081defd1120d40190c240bdf
fe28fb0b06161b091200fa1df10d1dff
06090217020cf4effc03f0cdf548cbf2
fe2ae2251be634f306160b4911152105
161aef3b0ffe240103fbfe2e05fc1117
00fffd03dc5e06fddae2cc0fec1f0a08
dddae115f9fde4f00605e6ec0af0fa08
c4f5fe0a3401e501150becc62005f209
27352734ff04ce00f415bbe80ffecefc
ec06f119e4f5fd18fdf10205f0f906fa
321de427d602340c09fbf44a0c3f1afd
1f061eebf0260d19e0151730e81fe2fe
eff51305e914fee027eafa130128dce4
0eca1ad010cc07e9e2ddf7f6e208f7f7
b2432afd041722f9f0ef0b0401de01e6
3afb17003ef64beff301ec05ff09f807
24d4fd32fd17f50605e1dfed0f414100
ff06ef1a18083cfdf4fad60bf5130611
51ebf4fecc0ccd0bdbf7ecf20d39eed8
12022114352354f2ffe6f1e804f70715
0dee020438ff2d0cfaedebf2f006fa06
0032c306f9310af8af04ef27ac0a122f
db2e1423f51df609efd8171708c3dcf8
dc14e717c633e0eb2e0c201c082900f8
df231018f93ae1131ce3e5040eed27fe
f1ea0e010af4080f0afbeb10ec040512
460ffa24583c58e61ed6dff4ee154111
e90e074e0811dfed1e0d0ee1f7f3f8fb
082905180af722e7052f100a0915ec11
050704da071ee3e40cf00e2d01e62909
f4042021f411fff0162804ea00f808fe
12093ddb59fad0de43df46f94800bff9
24fef2f912f121ff0837f30afa2c0120
faf31d1137fc1a101c141f041cf6dcf3
1cece408e3fe052fc9e9c0dff6e7e60e
13233ef466d8df04481744173c1fe206
fc1f2af933e1e20425ee31fd32fee711
1bc60c1702160e080deaf60314fd0cd8
4b0ee312fd10fcfbf128f40b0cde2802
17ecdf18ecef0f1df01adbd8f6dbf403
19f9e0efdb171417f006ce1303ddeb0f
e31601cb0403ef1008ec080815f9ec00
1837380659eedefc352f5fdf4515e411
05e31c0a1ac7fbebfded3ed61ff1ec46
f61705010efe1206f3f826d90ed3f8fd
ea0bdfff06e80c0d08fa18da11d1e60f
ede9fb061307d1f9fcfa16bd000dd525
1905d258e4fde0f35009e7f4170c0812
1514070d0af005edfb281df71006f2e6
0801ed18ea12dc011c0d0d051602e0fa
2711d5e417ee09cddb1dff28c8181107
0006e32004fbdae94b051bf61205f60c
f8f8e52ade04eef424eafbfb1503f9f7
e5f9f80502f41b0403ea21fa0ae8fada
05e1de0551db04e904c1070af904ef23
afd2fae230df0a24d4f71edae726f91f
101d08e70a20da17e8f3ea0fc512fd17
e50adb040e0006f90be702e40ef3f005
fb10f749e40bf2e14e1706d707f6e8ed
fcfdfede10e10a07040ffffc02090c14
effdf50af512fdec33fee4330005ee21
efe2fccaf6e6223aed0c03fc023b2501
3b17f72f10bfb1034afe3a440f03e3f6
c7ed15f2eb08e0f30800f1f9fe16f3e4
c30a06dc08ef243fe20519f7143d3f0b
e7f7efeffbed2d3aef0df9d1e317391e
eb00fae7060e0f11ab12f4a30df711f5
f2cbf80bfee509dae5f6ebdfe20705f4
dcde11b8fc1632def162e2d0e81ce71f
cae4fce6f0d324fded1ef3ece4f52e40
f9e112fdf7f4020eff133af21705180d
3bfcef27f5f8eede00d30dfcd0f5f502
09d4f2200cf1effd0af00308f63be8f3
d1ddeaa6e3e0f92ed2022bd309151721
c4fd02d6f908f908f004ecfb29120656
f50ff7fedcf7daf1f80807e0f0f0fb0b
fb0bf9db11f309f3fef7ece63f342816
1fdeeff5e6fae005f814fb00f5f8f6ce
c513efcffe0814f62deff413693a3209
040f0707e70bfa3fe8dd33b310feedeb
d823070c110af9f61ad83610f0e8fbf4
0aee0af5f1e50e0302ed02f7e9ebe315
05c80d0811070f1008171028ad9fba0a
fd08fbec0b16a1f90d01040defeef2d2
cebc182fef03fa1d483a1af5c8d4c4fc
fff1fa19ccc7e2def2070854d7dcdee3
c9fb02fce7e1f2e30b0417f2e5f9f5f8
050b2bd70cf52bdac6edb73505e2f0c9
c2f202e4e9f408152ae50d02f51f16d5
def71b1b04f8fce409f208e6d9d4e8fa
f9f527f1f202e6131700fbfd19d0f3db
ecf3e5f4fe1106f20f0df3f301f412f4
411eef4d01ee0d20dfda4eebecf9fefe
fae716021eedeae52a00dee5fae8eff6
5e20de4811baf606f5f53ff7d60c0ce1
00f109fe0905e60f2de60de71f16e2ce
e5ee1ded07cc02f2e1f0f8f6d5e613ea
11fb0ade0bd402e50204e413f3eafb0f
9fcdfcc112f5fce90811c0080efbe915
f201e8da0af4fffd050dee1b0c12e508
dadf44e615ec50c7d60ed00104fbf94a
f9fe05db370bf5e5f4adff0cf0faf43a
01e603edf6f5f1f704f7eb0f02fff00c
f901e5dfd7c3b019fa42fd0a180d18d3
161bf61cfdd3fcf1ff09021a01fdf3f8
d7f110e517edf5d507dddffadfcd1412
e1ec14ea01102de302d2deffdc11e341
f1150406fcff1b01fee3ed00caf4ffef
0d1300f0f53bf1efe3ca39120cf0f0eb
e8faeb08e2f9edfae3e3fafcb0270af0
cb2b1e0c1e3a03d8f50b770438feb7ea
13bfeadcfd093615e10901f1e6c20a03
1fe4e62eedf21a0231e7e5f3def5fddc
0de8efeefcfd120cd9f2fbec19ed0dd5
fe10ca0603b006091c0cbcf8fb06f2e4
da1aebebfce70acdecd5ecf796d9e3fa
f9fae0f3d7c908f70c07de02ee2c04cb
faf0e6fcddec09c5dbe9e00ede20f9e3
d201de150ae3fbdc04cee7f8fb0302c8
fbe71db90105c204fc13233ef8ecea47
f51ae9f50208fdf804ed19f8f515dff2
f100f219ddd5fcecefe3db1ff900e5f4
10fa01f702eb1c09f0f2fa34d916f6ca
f9fbecfae712f20c04fad1f502e6fcfa
0c1af73403ef2212fef2154dfcf22809
f0fe0ffcdb20fdf1dc04e1ece6e2edfc
252edf2108fd35da0bfb2e3a112a49ea
0bf9fe0dd6c90ff7e4d9eb17e0e6e24c
00f0f6f1dc25f7f0efeddbf617faeff2
eef6fcd8d0ebe01b0830ea09fce8ef17
fae8040ff710d20ff9f7ee8ffce6ce10
f6e7eeff09fcef0010e5b4e0171cfcf5
e4bce817ed2ceee8ec0396f2fafa0a1d
e7ebee09ee0ee905e3e4e9f5fce1feee
e90901efeb0f0609061315edfdee0319
fcf6ffd319df0db9281f0cf624360907
052a0911f82fe60510000411e904020a
cc13e4f91309d3d70f1007d415ec06e0
e3efefe5e439eeedeccce6edf1f8f31d
f9030113fff60c0ff00807f7f60d0deb
060e18312d204025090deefdfeda0a27
cf1b2f12160ff51dc9e40c31f7efe0fa
3808b4fd600841091bc2cf11e119ec0f
b3ec59160d1406e5d8051100f4eee3f2
08f4190b191efb0dd6e1191be1fde5e9
e3fe0c09ea02f8faf2fb1d2dd6fbdeef
f3fb1cf89de5a904dffc02fdffedfbd2
0602d8fceff9ecf8ff0bfcfe110a13e1
a8f209e1dc4803d0e9e3f104d5c710f8
edebc5dcf71e00fbf7d0f73efd1ef409
10fae6cde7e0f0f00bf211e8ff07d800
66f500f704dfeec738c7fde20f2d1704
fe04021517ff1f11e9dceaf8f90914ec
d832f522df13e51211e8fb1608cbf7e4
d63608d9e354de05e20be824dfcb0704
0ef4eb17f30edd03ea19f42af3f90bec
fe0239ec37fae3d53bf53a124fe1e6ff
f5fcef2bef1225de0406f1fcf51008dd
f50a4d0858e1fe1c3c1139e0421dbd48
21e5f41819eb0116090606fa0101fbfa
1ccbfc38f51620d2074df3d1dff30ed9
14d1eb3bff172c16f35bede4dbe30be7
fbefaf07b60d02e8a701a5fcb6e102f2
f1f7da01f203e3fff1f8d9fee9fce5d8
19edd112e4d93fbad0200503c6054417
d2f4ec16ee2e17f918fce7dce2f3fddf
efe7ef21f409fa05012df3efd4ea0cf6
d42414e6f9d91b02040bfeb5ec0ee510
08fa12f319edf21cf02e0c001a02e608
2d00f3f8e6071403e627d2e8d9f2090e
38fee7300d181fd8daeafc10f2ed16e7
fcf6f8e812d3dafcfce208f7faf40309
fce4ec38f1faf0f62fdff3ee38100ef8
00dc0de13feddbf3e1f9090afef8c533
4813e138d1e1c4f545dbd2d70822e7dd
ede01c0401e0fbdae5de0de75c14dac0
e2eff00432ff0bf5f4e9110decfeed63
d2e7e1f52403ee12d5e10003e5fafc3b
ee06f7b60afe02ecb006f909defe14f5
c803ebe60dfad7f7e8160bffe1e9db19
c6d6f3ce35d010f8b8d42fd8d4e10453
c5eb09090fcafcded3e845fd09e7df0c
f8f2ece9ec03f3eee0d708d9ec07cf18
191e0708d618edfffe12f5240b0feead
0ffaf912fbf7ebfbfff601d914f9f9f3
c7bbfde848ec01f1d0f41308ce18042b
afeaedee24002105e6e90905fdff1a1d
f0d2b20ffee726f1de08fbd9fd0d00e6
0312ddfb0d09e3db2cca1534e62f0a05
becbc9e409e93943f70d1b03be3c3f33
021fdc200fecee0e0be5ed07fa14fbf5
06e8e528080304d5330aeb2cf619fe0f
cdcbe50ff6fff0dde51bfaecdffddb36
e1d924d5bb1c110ff30f10f105062527
fb08f90407ecfcda051d3316f306e90a
bbd02cf4f2f71731f17cabe21e022f50
ce06d1def01201d6c641f8c7faf209ed
07f6f89e34d0e5dee7e85fee2602f71c
1212ce2e14e4eff8a8f523a3090cf1e1
f0bdf8dff5f8fc0ccf1cfbcaf4f20bf2
16f5e813e7e7f9e12debfc3ed80b0013
1200e509fc0affe02efde025f725e8f9
0a03e214feee07f91a031707f2fd01dc
0123f8d8fb159b1c13fc3c1ae1ebd7cb
e806f8da02d9dcf615e4f5fe3f3a4bf4
efebef25e7f6fe0305f4f01afbf6fdd1
f508fedb11fbed0420fc07ed171c0a0a
ff2fd6d5f50cf4f2fdd4f4eb35331be8
f7e3fddec9f1efe3fb3e23ebe6ee0933
0ae6251b08fe180b1021e9d40af7fef7
d129faf9e8e401e310e30f27fb17f7fa
fedd36091edfde291450fc35f8e9d940
05ba0c1e06dfdbda192d1ce2bdd9ef00
c4fd12e7a9ed02d9021d2bd5f9fde80c
0911fafefb1626191bf40431c7a5aaed
fcf70e08090ea8f20f26291ce4d9c9e9
0109f8db0fec12d204e9feee3f3236db
f50e04dc04f4feda22e70ee73c3427ed
05fb0fea06f2fde316ec16f90e1d18f1
ebe9db0305fef6d71a20c7080f320ef6
3e22db4706ef0f06d1dd21e2f9111cf1
e5e409ff38ec04cae7f4f908f6f1144d
1c18d719f4ddf9eef1e71a041621f4ef
2f11fd45e803de1b01f82713e4faf9f3
ddfbd6eefde90ae4e712d3f6f7dbfd2a
eff81b0c210ff7ee15f4faf6d6eef51c
0303d02bdbdf0ffbfedf0ff0f5dc65d1
0dd127ea442e3906181dfeffe9e6c13e
dac60de4271504edff29ccd0facae821
e603d20e19e0eee509c7d8fee4c43234
9ce5fecae9d1e5f926fa9f1f182bf5fb
ddb606c90e1403d915f3d2fe0deafbfd
3a09e75cfee6f812e9fb4efae11002f0
291aee43f8dfe81ef3f03307ea0af5f8
191aef14eef3e9fffd091af60701f3dd
cc12f4d3e3eb26f7e302f02491df1b0a
f2f610f70136ffc9d30836fd11f0db04
e2f2c0ffd5d6f3f7cff5f00ae8190eb2
f90efce00a001bfdfded15fdf3e6eee2
23fff7f21832ef06dcef3d0ddffbedfd
f6fcfb12f4f904e3def90b0cbbede3c8
1ef5f5ecfa07f3010a180a2cfcfdfeda
e5f5fdf1d90311fdeefc051313f1dffe
0cd6bafebf0203f62c1c2a07e3fde2a5
2ae0dff0e6e6c82b100fd7fac21223cd
c6f3c567f0e7f4bcc6a5f0f12a46dfff
e920130922941200dd01b0073df5f211
eeeffaddd0e3f2061a00d5e8aedc04ec
180e0fd9053ef0f7dbdd3f061be9d5f7
030d15db132ffc03eedc24faf2e5f1fd
ecf51f05fd0209f2effa09f10c06e7f6
fde5000617fde8f3efb1bfe51024e810
0742e823010d17f9fff210370a0718ff
eaddf31400f5f63ce2eae2e611f7f814
172c0043051e12fc0b2efa20f60806f8
0416de11ea181712f109e91ef7fa15f2
f4fac9f0fb0fd6ec04d6e6f1f61ae510
ebfb1cf6e0edf92de5eb0df9edf80200
161bf3fe0a1102fcf1fc10fa0d0b0bdb
e71102fdc951eef5f0deb3f5ee05f717
fff3d8dfa631e910e8cfbbb8c9cce901
fe029a201f1cfb3b15e351ef30d5f3ed
d6f00d1c230acff723180fb62d18e404
0ff706f8e428db03d6cec5d0daf7ed16
172bd71efe022bfa15ffe53f0a1519e8
0316e726f50c270eef0beb2ae5fd1e0c
0c29fb1cf90808fa050b040aef1f12f8
270df902f42fe8ef340bef0911430cd9
f60b01352e172c1708cce30e16f5172f
e30aef03062c06e909ee1f3cf0ebeaf4
04f124302d0825f6e3e6dbe7f1f32607
18e01c163efd4416f5ebfa0ff10efb12
fb1b02b4ed27f50adfedcccfd9f6fcea
df11fddc04e4f2f01608213819c7e2fc
1bf2f5fc08041c1d2fdcecf9121421f4
b468f3f2f92fe62e80fdda1f90af0318
ae0c09f5e802c323b8e528ffb8f709da
002af9c4cd05d728f822f5edfc0205c6
0b1df409b409bd04f8f2f6cb06f20aa2
f7cddf0bdf01c90afef2020b01fcfffc
020d19264a1347fdf0f0e3fdfafc1e16
0818162c3c0e171ce1fa08fffce30909
f9e2e3150b1e1300e6000afef813fe04
1022ed09ddd7f5e9f619e8dadcf4c7d1
17ff340c47eaf802460d4517351bd611
1ff90e26fa3c1ae3ed4fef0be9fffdce
ece71ceb33fdef1308e4150217f0e3f4
fa1623f938f6e0d53619281529faf606
37e2f72beeddd121d9450347f2fcfee6
e5f7ef2bf01618c5f519fcfaf80621f3
0f020fef0ffff60a0c5f001efd0cfeee
0ad1ec0bec212001fffb0e2fecf80ad0
0ca4cf1ad2fffefce210e903d4d63dd1
0bfbe727e1f7f02de4fddef7e5e1e020
03feb8f4cae2d61dc40b9efcb8f4f8fe
f6f1ec0ae6000fdddbefd404db0217c8
fa0633074aecf6ce3f033c094501dc08
f30527df3ff6f5ee2af71b202c0df601
030b12051d0704011d28fbf61c21e70c
eaead6daf4e7d8d5e936fa14fe1df3f9
0703f830e0e5f3d623f8f5132de502e7
e0f2e4d72fee0300fef51affecf0ef33
f700ef14fc0cf2f212ecf9f90605e714
13ecd12af901f3e929e5e70c1de3f20a
b4cde905fcc4f2d6f9ce0b12fafbb914
e9fa1a071a11ec1000ea0df4fe0df02a
fb03061403f2e9ed0b2109fdf1f6e81b
9d2714dc0bd840fff0a614cedfd4fb21
e0f5f6c52efdf5efd3e71ed81103e647
0fceeed5ebd524c5deff0387eeda0610
2b19eaa412f5cfe3b421cf09d60609f2
d81018e3f8fef8fbdff70203e3fda61b
220cd331ec0dc6ee2c0606142614ea09
f70bf216f707e2f73bfff7f121ecf60e
0d09fa0af8fde10dfefa00ef050ee201
e304eee319ef21f2df0701bb19fb152d
d80505cf15fc1800f43c13e90f051318
ffffee2c12dee7e325e30517f500ebd3
15f4ef0926eade0accb833d8ef02f41d
fe17effc11fcf0c42300ee1be71bee19
f817f410001321001a01c917fc0def25
1afb08eb15dbe5ee60d70d320005de02
d1e5e3f42c0d04ec0a325c09e9010737
04d927e1fb11f608e03107e82e0f150b
fe0706ece60deacbd20ff4affc1c05f4
fa28dc08170d0b0b040b67f30de3e7f9
17f5e02911fb00070cd9fb2afa21d2d9
f4bbe909fff334bdf3f457feb50108ff
ec12d2292ae00ed93cec042bea01f306
1dfbef1d170d21f620ff0c2a0e0bfe14
fd1c0e00f4f1e6def30bc0fc0ac10104
fa1003e5c009de2f20f220efdfebc9f3
28c713ed0f07d908001bfaf9eaeadf0a
dc2407e5080df3dd0303081514262a04
fce42d0afb1d371bf6cb070ee3d9f91b
f1edeae611030e151100e8f717ff1506
fe2717e040e5fd0b37f6ed0b07ed022c
fc1906fd27f506db08efe1fc576c4afb
df16f70814d5191b1417240606f309fc
f6e70520ef05d6dd18fd13040ff6fbd4
2beb11f005fafceb1f19ffd2b3a9c707
e60cf600e8f70b0d07170a3d0af6df13
ed0f09d908f4e7e113d2f6f7422536fe
f4f9040abcbaf7cdefe60551e5f2fef1
ee100cd9f6dfedfc0ffbe5082c361fd9
f92502e909f6f6de18020a1913302f00
eb12fa3fd8f7dd27dc511b35060f01e7
dad50aee03e912f620fee117fef30a11
ebe407fd021d29f3dfe803dd0e1cf219
2a07ea33f4e4e30ff9f124f3fe0acadd
eef9d3e49abfedfceb26d14c0d1110e4
0c12ff1ef2ec120d0ee911e70c1cdeee
0329291d1802e317d6eaf305f111cd13
54080666def7f61bdce659c50a00ddf8
fc0106333dd5e9fbdfc90ad7da07112c
e0fa21031b13feddfaf1e802e0f6fa02
b2de11dafd1af102320fd1e01609dcf1
fdfd0c0e14d3dcf902fcf702f3dd2423
1e0ffd48fdebe22ee1f3261ce50a03f0
effbee051df3f7dce6ebfc34cb147fe5
1d1ff93b00df0a1df1db19ebff0a0d01
200fe23fefdeee1be10d32fe010f0a14
04030223db37d4082309e5fcf202b204
01fdeeebefdb1bf0e5f4dbfdda00e8e0
f901e60603e4230d13fbe008e0ee17f2
e902c3edfa0e0ae2f0ea2de7e0fce8f7
220af91e02d202db1c31f219ff2cdf39
11e51ced050eeafbf4f516f5f90d04f6
0c2533fefb071401facb0a3311edf51b
e5d0defde83b06eb0dd34ff2fb08c6fb
1a03dbecf424f3f6f40ffc061cd4efa9
f7f129fcd8eacb06053bd4f6f4f8f00b
19feb8fd15cef743012db1f5e4ed21c6
ffeee508fb031204fd06fcf90ffcf2cd
0c13fee40a1703f0dde131f1fe01db05
effffd01def6f5e7ef10dd1813e5d3fb
e90208e8f816f9dcd3004210eff6f003
01f104f4062725ddefc42d0c05ece40b
f9fcd40e15ef23140b1af50cd708f8c9
ed20dcf5e810e218fafdeae0f5dde807
05fe14d9d113eaf5f5eae3f8e9fa0ef7
1837f924d3281afc0aed0120e8f81900
2e04160a2dfdf0f91a2f1bec482503fe
100ce342f7f007eddff92705cef3020a
241c09f8f20e15ddeff40410072d11fa
2b2ede14fe0747e40616e93fbeef2ce5
03df0f0e07e4dd0dee0622f424ef1cca
f6161310ea33ced3f1edf5e9fbdaf50e
ebe5120dc30bc6f1ecf5c1b6b2bfadeb
1ef510ff18e3fb03e61112fe1d0e01de
1328e33eee0523fb22150126fd0023f6
f4f8edae2e000ad1262335f44d24e0ef
0d2cfc4517f424f80605f832ee1f1b17
072ef3f9d91b2df30205fd31df141afa
1311f81b0017f9f2fbe2cf0fff23f8f9
fdea01beebe6c111dafe05f7faf8efe2
d1f7e4fce3e3fce5d1e50fede9fefefe
1bc0f81940d417fde2dff9e00624f903
2e36df09e615c7f64ceec9f4015b0407
f3f9232bfb1c07130e0907e707d50109
f20e020211260f1918d3e43213f13a13
0bbce2136d116ed7efcb02f0ed1a3c5b
d933d904011f1609d9e8f2dbeceee3fb
03060924e70ffffef3c2e9eaffe811ef
dde41113d0d7c013a01123fed9e9f1f8
17f8f1effeffed0305cf01c9030708ff
1a08003b31fe3102e8fee502edfd0304
29fcdadcf30ff7f839e200ca1f26def7
f91aee211f19201f17e1e4db0c053215
26d71a2941ee1aefe5f9ebf80a1af903
2715e5f0090f12eedbfbff17ece60e65
0f00e321d1ff05f7ea0ccadfdbf90de4
eee6ee1de319e2f0d810fa04ebdf09da
e0fc30e83bf6eff515f721093803e9e9
06fff0f6f0e9fe0c01f6d5f40ff9d225
050813fb04fbe10402f209141809e72d
d5e2ffda16062bef0de40f0e130fd005
03dc55fb671f15e44bfa56f950ecf80b
cdd4294909f2dcbe03740f01fe150a08
fcd9f000f3182d04f9f4ff10ed0f1215
ffcab81ec20cf3dec704b226dbdb3ed5
f5cff0120beedd110b4b09e4f40dfcfd
0ee225043702f9d4302031f439f7ebf9
101cef1d09b40cf7e853edf3e503ec15
030933f13deaf51110fa380c2105cefa
ea122df156e5f7e63e022b0c2ffddb14
e213030c091c000201e6060c0ee8f3f1
e7c4e4fc1ce1e5f6d4d3f2c7d5ebf62e
d01ff3f413f01608dae4ffdfed07e728
fd0fe71cf9fa04031aeaf8c315f6e3f5
1e13cdc8d114110ae6450540ed1d3ee3
060ae905f2fa06fb05090e0e2a131af6
f90e08051312fc1207100c21f71c19fb
0429f04edef11ff244e300d02af1eb0e
f513f012fbcfcbf80bdf48e8f61ddc1e
03f62af91411e6f804f5f1fc0801e2f9
edf5249512f1fe1ed3ef0ecf08efc22d
f2ebdafe07d9f30cf412250d252ad413
15fff936ecfddc0b26f7edde100bc7f4
ca06daeaffefcbf503130bf8fff8fe00
fdfecd1cfcffeaeb05fe24eef0f4f4ef
17fac92e06eaf3eb36fd0cf623f804fd
f6f11001ecfd01e918fb32f5df0ff5c1
d8b600bdd5190036dc36e0d3171124fa
d404dde70edf1007fafa0bfae9211d0f
f8ebf6060ce50efef80ffcf8001c0118
c5f8ccd4d0f22d25fa020908df1a2931
0114e319dd0a1af2bf1ae9c6ef1017e6
aee213f61bde32e7e7f011e70c020b27
14f8b00affe9fc0a45e1f757ea0ce1cd
fb030ffefe0ee6eb1316f0fffd17e619
c7e4eae8f2fb3007d117e8c2d9112133
0e17f50d1b0bf6c541e8e33d1113ef2e
01f8e0fa000603ed19f91b0ff60c000a
000bd4181c25dfb027f5fc250751dcfb
c8fd020af4e4f30cffe61401290a1a28
e9f423060e040c0ef206fdf40d051114
02e9e71809e602d338040f45ebecd527
c113c1fc1d0b03070608f00a170ff307
1bc8e82ffdeebddbd33c0deaf0c6e9e4
defaedf7ebfafcfdf03b023606f900cb
ff08ef08faef00050c150424f805f3e9
e3efcc2aeff30615d8f5c805e70cfbf0
f901f91cc106f5fc0501f0f6e8d6c5f3
14f8e526f8ed0b0e0f1a1fe5e2e1e5d2
d617fbe314fa080111e3fcfd3f443fe1
ecf6100d04e2f6f90b1ef90a03060b08
0bc80c36db031be9fd00f3fcf1d8e418
dc1ff9ce091ff0111509fce2322c323d
eafcf6ea100202e212fbfffc120c1cf5
072bdfdb2b20df09dcd2e5f5170a2d1b
190dea41cc0a3814eef20ae9f008efff
22e3e332f3e909160708fbefebf0f205
b7f0fcd914e1cdf601e20110383e40e8
dd190d0327fd07e31c03ffd50a1b0a1c
e5d90cf62b190ccb08e7d3d7c1fdfb19
06eaeafa022a00e305cbe6e800fdf411
fcfdfe0a11ffdffd0402fff4f604fa1c
fb00f3ef27e3e8c90f2b0123caf55603
e8f0dfbc0d22fddc321ac00115fa0e14
f0e3fdf4170703061209cc2be4f130d2
5a22f73e05bebe32e1fd3ae200f6eed5
1405ff1fe419f5f8f0fef6eefe05fafe
ceebeded070d08cf1600d60ae0ff411e
200ffa39f8ea0228eedc1ffadf09cd0d
1417fc2c17f5f60de5f61ef1fe1c03f9
1728ce3be4ecd520c7c43ffd0d09dab5
0817ea1016d10dd3211ae73af2066d00
d6fef4f81d1316e8feebf503ee1c1d19
2f2be8460ccddb13ccf740d5e3e91015
01f7fa16fceee31fe1051a0ff925b71c
e7f312f594d6d7112a2cdb0ab1ddfcff
f00ecf03f71218efecf80919d70513f1
f502dcf10cfc1cf2f5fdef04f4ecefe1
061e06d6fcece5fcc9f7d6ecf5e7efc5
37f0cffe2ed6ef1bd5e3d5f0ec1232d9
18f11802e2eeed16f40ce7e6e7ddf7ea
e107f8d9232d0dfbf6d55afef6decd04
fbdbe302fbfcf907e70f0bfdfcf10ef0
1406ef20f4edcbf0f606c7d9fce704ba
070ff5e1fb1f0afdf7ee2713f5fb0fe9
ed0213f0181e03f8f4f51ffcf9e9eef6
011d0cf8ff10edf5ebeb28152fb1ea08
000d00f0de1514e3f11df4cf242bddb4
e806f6e5dcebddf3fc1de8ecebee08e9
b601f2d0f14bffd3ecec2bf401fde21b
17f4d50300f11d0c1008ff1e1310fbe3
fcd5ed1cdb36e4bae4bed7e5e1e3edff
08fbd819fb24061408fbdae31107f4e9
0c0ff134062cfc19f7fef6f5140df9e9
f4f2fb170cfce21cf6f2e9ee11e901df
e1f0ece0ccf9f2f409fcc6cddbc7b509
ff00f51d0f13081cfffeeff002f0fc0b
345ec438eeee34150112f044fd2610ee
fd1dea2be73d04e4f3edecfef11100f2
c0e9f138020be7130af006cc0fd2e72b
0c000122fe062aeeecf31529e5f7370c
120df61afbf817f00c070b23fbf004f9
1025f01715e015f61d185234fe1d36d8
0204f212f9fdf9fe06190c1209bb0926
fb24ef2df107f917ecf207edf71605fe
fd0fc91b230f25ec28f11d5b021f3415
22361116f64810f9100b1af5edf8fefe
f3eae82cd705d4fc0fc02e0609ce0c0d
dd2bcf07132605d4fdebf400f4f511fd
0d15e417021afc09eef8f8fefa090905
f24201ff012602def2d10e38d7cdec00
f7d53be8c9f3c203d7046212dc03dcd8
e8572448dd2dca1bc5d2f2edeef1effc
09e4f62a4df63e0eec02f30c0307fd16
fa11f736091f061be8fbecf8e3e81f36
9d36f844bd09c803c9f7150ae2c2ced5
fafc272726e34409f6e9f5d4050bfa25
fe03f52511051f12f1f9e2f6f80408fa
150af92324d80d2cdbe7eacb11e71850
c81d3f40f4fd0d21a8ecdf1bc5e80c21
dc27c7fcc704eee309f5e804fef0eafe
21fac3193c1030ed1df1d401f153093e
aef607f704fe0f39ec0cf6ffffde30fe
02eee111e6ff05cdd625ef15e92137bd
27effc10cf03f4e9e91ff11002eb180e
04eff920fd14f2fffd09030ff6f2eff2
f6cb11230629eeeef23dfce4f40f00de
13d5c431d019c910bd0ad602bdf930e0
18f4ef4dde0ecffbf002e714f41213ef
f1ff55e862f004da35062cf1450ae314
fef808fc280412f518e3042511fbfc0a
0ee0ee2aeffbf511c219e210e7fc00e9
f71922eb1bf8d6e833f513503c07f717
0afd13f706f8fcf603080b0f2300f80a
df1131bf19e619ec44f74f0e11051638
1d9af4251203ef2402340ad7f715f814
1004fa0af318ff17011be809ec0a06fc
f8082d004ad80bea3d0848fc5b36d509
fdd70cf9041219f90cdffdff1af7ea2f
d4f060f208e1f31fd50a13f1c402bafc
faee020cfcd6e3f6ea0043e0ebe3f40f
e2fafdf300eceff900f421fce40cfa0c
e8d6ff02faefccfef4d7fcda10f51d1f
0799f4c72eec07fddfb70ce3e6f3f511
b8f20bf8feebd4f7f0d416dff5ee0b10
fd02cd3307fbe8193df40cf91802d8e9
f5f5f918ebf628d902f502f507f3f7f2
dae3fedc11d6c8f1eeafef05f5e51b09
0114ea34e9fb13f225e5ebf633fd0df3
f6ece104fa0adff90bf310f409f9f211
461aed27fe22d7ec33d6e71ffa1be2c7
eede02f810fee8e9fee30ecbf8e1fb1d
defc25db06dee31802fe09f5f9f4fd0c
ea0ce8290b03f1e42c0ff7c9f3e4dfc0
ec2ffe0817f5eefe0e0506ea090220f5
eaedeaff0b0af9d20d13f4e2f0370421
dfc400d1dcf002e8f22c1add0aeef01c
c9d8ca1d16fa30f5d70d22fdd5031fff
fe08ee1b1a0427fef5ecf3010110fdfd
d9f1fd0105dc09350523dee60d095318
04fdddf8edf2fc0724f1fd27f20bdad9
fc06f3d50beddbe7000c04e3f7fd05de
ec1cd50120ff05d8fd1ce4f110ecfbec
fe14d0220cf1bf0329da251def06e0ea
1bfce9fee502e7b33b1605441d26d2fe
1508f40c08e4f4cc4fe70c37ecfacf02
fb2fd0221dcfc00837e1ff390e07e6ec
0aeef5101ff3fdf405f302de0331f012
fa28f81c1500fcf02dec1d3bed0aecfe
f908dc091fdeeaf414020c16df15ecf4
efe9edb819f9201ef5271809e5f20c22
fe05fee50d05f30c21101af203ff01e0
d00beafc0ed4fb00fe2207eef2e5e909
ec3d20daca12a9094fe94b41f9f4f5e6
1f21e11df518011cf5070c060006f80f
ef040fe3f3edd71ee5040c63d3e8d3e1
d61dfee611ee02e5f5feebf8312632f7
abd8d713f3e505d0e00008dee305e8eb
e0f7fbfd0608eaedfa011ccff8fb04e4
dbf02cde0f0906ef44d80321302934e7
e60e0de02902efc1fce70ae0515a2edf
f4f9e1e507eb07e011d426e440461bd5
cd0e1acd2e05f8f747e6fced21422ce2
f7fcfff7020308f621ff080e0b100a02
de09f3c4f4faf905f3ef0bff3a522a06
def50df4ede4e2f30bf5eaf31d1b0ec8
dffcfb02d7bc16f4121a2c46ecf1fee9
05fdfc0e0005f2f104e8f4fef40a0f08
e8cd09f10c2901d816dbeaeaeefbd327
e0ded70d0dd5d6001307f21319e5261b
00f7fdfcebfeedfb050bf41ce93807d4
e5e248f93a02fbe61b0de0e3df1ef75b
27fef836eff1e019e20b1dd900f7dbe2
ece40ae0260af3e51a00d9fd09e4223c
fdf9f119e3fcd503d3eaf60bf603d40c
2e14f43e06e1d51ff02128f0f20bdee3
5618f268f3defd24e0ed48ee12f727fa
3a28004e02d2dd09d4cf4feeccefefc8
2512dd4ecee2d13be50044fdfa12e50c
fd0112020fdbe3f604f5fd0602fbf416
3e33eb5302e7dc13fdd553f9fc07f9eb
0f06fe11fad9f509efed17f80cf810f5
0aee06f510bbf7ebe5e3edf006e3cbf8
06feeb03fef6fb00f5f1ff11f7f4f2f3
ed02ee11c7e8cbd51300e50edef9f6d3
cc1af1e0eacd1bb60600e802c0fde9ec
040906ddf1f304fc2720f4da031209fa
02dff3dee9cdf3eae8e5f801daeaf3b3
ff17f1f20549f30104da26f8f8e1d001
e6f3dc4ef50c16f4efe7e8f22523fcf4
dfffc5f1f9001c08edf8051afe11e9dc
e606eff3090c19e8f9f01ff4fbffebf9
eef10feec53c0af411c631e102fbdc18
e9f225f4eb6fcbe7ec1544cd0cebdefd
effd030f201e1eebf7eb32e3f7f8e40d
06f7d30e02ef120d00e1fcfa0304f4c9
dd08dbec0133f5f5f6d9401203fffde9
081705f50c0be5ecd9e80904eff4ebeb
eefceae6e4080af82c09fa30fce224eb
fb03f50f030aeef4fcfaf5f30907f5e6
f7f500e3f123fcec0df9dce702e30506
fd040ff6f20ddb12fcc7c6fe03faff0a
01f603dbf2f6fd02e4041501f0f0fb01
e3d4de29152cddf3ec02dbe90226e62b
001ee21c030836fd0a13fc2aea0319f5
df2ddef60406f5e6e0ff12fe14e2e512
0affe715f51cf9e909eef0e8f3190af3
1e361e48fe120ae90a0ae826c8fe2704
0ffce1081305321de3071f30d6f93df5
011af627e4f13df210002c45f10a24c8
3f430e51f30b2f11f2ddfe22e91f2ff2
f7fafe06ef2707f2060a13f80b130fe1
17290f3211102ce5fd003333f0062207
081cce2c130405f81407f10dfa140e30
05eb0618fc14fd2ff2e905f90c040add
d902150c001cfa17faebfffafe0b1302
c124ebeffc23f122f5c0e6eaefe2f70f
1adfe1b0012801ed240c0a24131ed1e8
2ce90f0e06fbeafbc60e08f4f512f6ee
0820f6feef61f9ea1ef714120b2bf4fd
0ae01c353afb39fbf211fcf6f902f30f
f827e8f7fdcfdee3f51808ef03110904
da000adcf1150f0af902f5f9e7ed0702
10e1ef1733ea421bf7d1ebf9e80de60d
3affec1323f562fce4ec06e519fb0734
f508d33542fb5314fed3d600f3d3313b
34cef72e320a44f0f7e3d3f3ea230b0d
f20a092a0106fd11d902fc06f6e904e8
12090e1f37e24107f0d2eff0fb0cdb0a
0817051a13271a17f8de05fa0b1a0d0f
0e28b0d8fa04f0f2f2d301f5d011e8f2
1400050e1400fcf90406f91008f2faea
23deee14e2e5f0cdf505f826f6deefe6
0ce8e32f07f6e509090103abefefcefd
eff2f81f00ffe01601eefeeefafcf3f3
191acf2de9183cf9e10ee3d4fce6f5fa
f6f627022ce503042bfd2c0739fdf8fa
f3f8032e11fbe947f0f103e3c8f9f9ea
0c0cfa0001f7f4fcfcf9f60804f5f009
0ffe18ec3d0a0d05471527fb2df1e8f6
ea0f51eb25d9f51d451f4d043c35e505
fd0c3a0242f1ec124d083e093f1ada13
060f2ff3440fe7f742e637ec5811eb07
00e7f91e13f6fe1ff3230c0e03defd04
dfec4e024dd8ee1644fe29033d0ae03c
101d02fb16fb1c031bf51f06120202f4
d7fb0a2bf020f4d00714fab60efc2305
dffbf0000107ece9effd0c04f7e6effd
f9c7ddecf5e900fbf3f1feeaf5ec002e
ebfaf0f2f3ebf423f60e23f5e713c92d
16fce604f802f80402fee9ff03af1006
ddf6ffc704dfe906eaf14c00ebd70d2e
11fef42af00bdb0339ea02f71ffdfefb
04f50ce8fadb3fe8e6f30b97f5ab2305
050201f90f12f8f603f41c00ee05f3fd
08eee83ff103ddf812e9ffe1fd14ebd8
2405e043fbe00aec30e21a006bfbe6dc
df15ec38defeec021d04ede31011efeb
0504d91be11cf3fa4005f8e30704f402
fbfe03fa16f6ecfff6f91dfef106fe00
f313fa2def0aeaec2fe4edef2b09e4f3
f204defef6f8f3c720effcf80c05e3f4
f70cfcf91fead006f2004ad8f615ea1d
d3b8fac6f9f4332d271e0bdbe21c464f
db0928ef03e3ec2af34dd0e800072369
a2e601d3ffeb1a0eef22e6e1f916ee23
13f7eb030bf6f30017f40305f743e917
fef51ddce8fffcfec7412ff01bf51ee8
1f01ec1523da00bf6cf60d3fd9240015
18f6ee2412eee3c01ae4fb0bd42cd3ef
d20be3de1d1d1fc91835f5f2f42ae700
f7041910e501edd0081320ff150efc11
0f2f06112a0cd8aa1de7414aec18c8c2
24ecd6e608b9edf21efe1737d316021e
35ecf9041bcfe40e610d37170cdfdd17
e1fcdb0cf3280606f003cc09cdf00d09
ffdb011d27eee4eee9093ff1dc06edf4
f715f0b60b2b4713e41ec9ddd907270f
f9e4de0c04d7dbd220e5e2070448c1cd
04f31015cfe309f0124cf6e80d0331e0
d3e03f1a17d5eb250240f254f8f7d0fe
eef00c34b7dcebfef42131e3ea050704
e8f70de50bf4fdfb11f8fd0a110604fb
26dcf030f50818fd122e040fedd1da03
efe920dc0beaffe311d7f50c4a3447e0
dd2407cefd00d7db10ddfcfe042918f9
f5000ff421fe12c518ff1efa0f11fa04
c1f4fde2e9f0effc0e16f5eaf6ee071b
ce31f6e3fcf7fe0ffefef217424c39f7
eaf60dd1f9dc07d10804c8f33d4338d5
0210fcbb15e209f4eed60112236445ef
d204190226efe7d003f4c7ef03fe07fc
f11105fccae908f609f51d5ce6ece80a
c3cc3811f1f9fd02280ac4ece9e7ebfc
d811e7c9fdf503ff07e7f2091a031aeb
0df510ee5b0ac702cd19083bdfd7dd06
13f92cd131183df0f7ffe8c8ff0bfc46
eeea12fd33fdf5c9fa06ef0efcf8fe2f
0004ed2308e8fb09f1ea20f2f8090bf8
f6dcfef01c56f9e819fccadb03f8e31e
4a18ee6c0dd4eb03e8da6ee101fdfee3
2403cc31f3d3eef1d0f412f7f31cebdc
f5f51112f0fdedf1f90ff4230607c302
f304ecf60e1c1aebe9dfebff1ee92211
4207c651fdf2d10fdbe13b01f3edebe5
2b35f539e30af3f5e2ee16d9b6fa2bf5
2706e84f0befeb30d0fc3deff1ff25fb
fef01703d8dcd70ed5100dfc05d4e6d8
05fe08eefaec07ed11ff0efbeddd41f5
f1f944d90acf05ef1602ee0ff7d0fb25
071edf21fde7e715e1f61b10f801e2ed
f216e6f4deee0e05defb071ad7dbfd97
e0e5f802edf6f2e526dbf732db2501dd
19e8f8eedcf5eebef80ad931cfebff9c
050ce2fff51dfb06edf21213fcedfffc
1ef10322e9ef08fcf50fe117000423ea
e1ff12eae3370bf2dbea600007ffd701
f21bf2dbea23fc02d3db19faecd7efdd
2811fcff0df61c0bffd90717feffeef9
14f4ff1bf6fbf700f5f4ee080710fc04
e808d212004a16fcf4ec40e3ee0fdd00
1ae5fcf2f125e4c7b9e648f0fef4cdf8
b7e4de03024eeea6d0ef44fa4318c32e
16e203fcf009ea240e3109f4c4df1be1
f606f8e5deea03e8fc04f704051ced05
38ed03ca08d5ee31c40cdf2e0af23dfe
f401e3f2f4151efbe8f519f50b1dd6fe
04f100dbf20c0937f6edd61018d11dfc
cbe1e520ed62f9d0c6f5dbe10efeed2e
e601e5cecc2d02e3d3f5ebfa00e1ea2a
151bf91c1f0b09000b0c120bf203fcf2
fee3e9ead9feecfee7f518d2ced5fbe3
3b3c0a240ce538f122eae94deb2159db
f938f320f60717f9fefaf711e10b2e24
0724f728061a00031605f4f50efae607
f227f70aeb20eff9ecf00ee6ed05fef2
3812fd30e3db560eee0a1759d12332e4
151dde2b0a2138ea0e180135041031f0
303d020cff0452f80e1b2d58111f4d02
1dfb01d8d2f7e2e5f0efe60ed4070b01
08fcf8d60af7f6d0110f21011b2bf6e4
e5eefd06fd0eddf5f612ea00f8dbec06
163be537f01f160d0103f412e50a21f3
f43b06ade2050a0d0e132245ffd6bee3
f72acbdde779f01af506d44dec19060a
ba0711d8ed20fe1dd6ccfb17e9ebf5e1
06ff013a0708081cfaeaecf8ec060201
e4e5e808d815da2ad8fa042aebe2fbf9
1bf4f436421d5d1df6d6c6de073d0a1d
