f20f1fe3e01110f8034b0beb03e40307
eef6e43538eee91fd62907f71c2f12f7
f50fdbd5fc13fbedd8094218e70bee08
2b1bbcbb45bca4fe42c0acc3f20e1311
26eee924d0fafbeeed0efe0c15180ef5
170ff01301df04eb33e71c12d92dd60e
0805a948f7b8030112d019e7d0dae8d2
e6f7ea00d6fb34d84fdcdf01030ef319
07dae1faf3daf1ca87e7ddf601fc1bcc
fb090e1716ee25ed27e316f7fd190810
f0e2e2ee2ee0f0b9f316ff0a02f101b3
10573702fb66eb48c4efedec222bcc05
e3a6cb39f0d70806efc31300e6e3dd01
e6015ff6a27f363217efc9feeb1ce319
d3b801dbdee0f7e7c9f0f106e5ddf6af
230110f5c3d2e20cd2bc1e22080428d8
10fffa184bdffd01d4fa0d1ffb0ade15
055c204beafddf381b05fdee06d90426
f50f37f0d30313e32ff9e5021eeb12df
5d1eff61f8f70eff03ecf105fa0be3ed
170dedf4e5f1061af204f138dee808e0
edcd1417fb0b0519f6030a03fc02e711
edd7ecd53f12211128d6100ae7e60f04
05fc1a01e9e5c910051105e50be70725
bd2beffe350e0b24e9dce3e60c19030e
f3e10013fd030a061803071f1cf3e906
eaf7ed1cfffbf5e8f3e72ef1f1e4eae5
e76dd607d3cb1ae2f4f20002eaec06db
c835c4150510e91000e5ebd80c00f31e
fbff0c6a0233111de417f12530ec0d0d
c906f6e5f11e00de0cd3deee261fcf0c
f504f7d2f00b0cedf00d012832140115
1a14f5e2d6f90c4e3006ddf2fcfe1412
0a0cc10723e4f343062d13151e08d2d9
fbf310f9f6e743fbb1faee9e370e1b16
0be002e211950bf4edb31e95d580cdde
14daff0f14aafb09c2efc5f814dd0a18
f904f0071e29ee1209ce061525f70003
05de0525da02ffc925d500cddddadaef
55e9ba351d5af3eed1ee1dfdf41b180a
f8ede6101ef620fd560c18fee5d5e6e2
300dd60a102fd504e01e1e13041603fb
d2f119de0301fbfdf1f0f8dadfec0300
0f170bf4fbd84901e26001d2e303e358
e3e4cd07fb05f2f409b8e7d8000fe10f
04f2b0edeedc240fe3ed1e30ef44154a
d2a8ca33d81ee5f0e7e0f8ee2d10ef07
0105f2eae8fc1c0fbddcf2e4f3f80422
0b21f73c23f9db0c03fabcf200ed5af3
d71533141918fcd61ee5300a11f1f4bd
ede0b9f41edeedf0d105f7c0f1e8f1d3
84f332f3eb110e38c6d3b3533ac00916
20e5e0203cab1ac8f4f9fbe4d22714ed
e306eb0129efdbee0612d81017460814
f53918fd041911e807d3edf7e8eb4b28
f72d0b1ef8e423f93221db06e344db2e
44f9200ae5ff1c11490515d3b5e036cd
292bf51d11fd06e5cd18c519184ab604
fff4fdf921ff022b310afcd8eceeeac8
40cb12fa171d1bf3ae140bf5ecc94910
3616ffb61dbf0d09f4fc0204c5e6f416
35dd2aec4e25dc03e45fec21b7f85ef3
00fb1fc82a26ea2d2903fdece90b14e9
19f4fd041cde1ec9000301e3efd501df
2d3f57f603250019fa3b50fafcfddcfc
ed12110fd4fbc51bf2f1e0bcf91e03fb
f1093f24d74825dae8fad8fd17f9e4e3
e9000af20a07fdfc14242de326fd10ff
00f5e9e7050d17e60ae70ddf0cd10918
2111e02732cfeffa2efe00fdecffe9f5
0201fe0adee410efde16ed25e7ddf201
e642c72f32f5fe3e21daee301e17f523
32d6faecccdaead0c817e9dc0f2229af
fce9e806edf3ee1cd4e70efa0dee0908
f7163822e6d3fb393ca29d02283ee326
e8f9e3f73afb00cbff540ef1180833e2
fd0f3af7bd4d4523c301e80716fa2933
09050423fd0221e901e9e9030ef806e1
fe282004d4c5bd3cf2f5fa100a1a29da
d8010d272958231ae3d31b032b0ae0bf
e4ea29dbd9031bf40af805361f1fe139
fde408ddfa05e3e4ff19f7ee420b0bdb
e15a18ffcef4efc80dedf607ddce0ee1
120a00221f11db16fbfff9e4f60ecfe9
ece70d22edf4e2322cf21116d7c9511c
eafcf4f9c82012ca121908210633dc2f
b14911b52d13c8e00ce7f0f7f303e8ee
cb37f40a90f302094de50a07f9cdffde
1c14fedb7428edc7dacbe7050518fb23
dbeefefff20b2af8d629e2f70b33e625
663523ba531a13bbc614e91c03e0e41e
1ccef240eed4971d17e00ff5c3b5450c
f5180a2c09ed0701ce0bd2fd141c04fa
0d1015ddb1e3ded3111eec14dae5f1f2
01ec12f1a24b21d4f1150c005700fcfe
d92711ed9ef249e535da221e1911f7c3
005213e30c2101fbc103e346f52014ee
d6ee2e12ecd41f23e901f0ee21d004f8
f2c5ee04ef0e0de3fe58cc26a03ef651
1af0e6fc083aff07e5ecf323f2fff5f1
f3f4de32ec3006fdf1f41af02f31dcea
02201823120000dde61c0de51ee34cf0
bda3d9cdd9d60df81804e550f519e5ed
3e11151fd4f8fe2ae14bf5c4f0e5d8bd
0ea814d9eff3ff16411e0e14e0f0edf1
faebfcf6f2d20a1bf7d4e603fcfde809
6c10251bee0a180c11fefbfeecd11bf1
2cf8f0dcdaeaccf89913e7d319edde41
3920d213f018f80520e8d95ff533defa
38220d39dc30fbdc1be0d422ca2d020a
ca060cfc0def33e2c98040d9de010a15
2f2e1811e9f7fbbef161d2f99704f41f
201ed1171c5005e3e82c24081d110e0b
05dadc2ff7cdede6e5c9fff40606fae3
620433fa0cf422cfce1f15ecfb101bfd
ee2bd3050221080be705f517fe20e3fe
e16cf6200c08e42e2addf20a0ff7f5eb
f905ba22b92800e5cfc20be70bde1a10
e3e7210eb5c6040b533f25d0f6e0f1d2
e711e0f6260920b8e6c7dcfdfcd80acf
32f92622f6c723121e2804e3db090401
2ef3f30219bffd17d6281eddd811f3fe
eded4418803af4202ce2ddc635355741
f820b7fd42f2feeeefeafb3919f9e201
f911fbc13905d4d2090a20f992072b22
3620df0ec7f6182ebaf14303fd08082e
2414eae7e8fce2fa0fea09a5d0d6140d
3fb6bff216f6eeccd7f83bbbf0c4ee48
fdc8da00e020d8f909f5c4e4fa1806eb
f4f43fe9b8f421ee030be004041b2a17
14d3ddeb3decedfb3fe403fbf5c9d900
fddb200c1e17e91214fc0b2a21eb17ee
c2e705edfa160cfdece9e1e210f4cf40
f6fc022629efdade00ed0b40df0aeae5
04f7f743eb2ae5cbf3d7c54be4f607ee
fe25ebeac2160535f40d00f2221cf23b
f7e01738cf183ce1eb0d4510f211100f
f529dad2a6ece10edcda0ce3ebfee8f4
e9f212f500ec1f7103cbf7fca6dfe365
e3e718fedd0307fc0e1120f614ee0ed0
f40a3ccc1ff4ef1617e6cc00d8d4e5ed
e5cd1b13d21305fce2e0e90bf91add04
f4ea0efdd51f21028013261b160b0d0d
1508ecff48e900d82ed8f8ed1702edc5
2424f6a811070e8ecc181cfc0ffadff3
00d22ab5c2f503181f2a0935471312fc
ee10f4ceebfd08e711ff12c6deecc8f2
00200209e40ef7fdf21cfafc161c031a
393abdf7069281fcb2cef6abd2dacdcc
bc00040dcde8f617e413d7f42809f907
02fcff14f6d60ceafccaede90113dcf9
44e5e23c3da6f744d9c8e2d8d0d233ee
4c980e1f2ddcbd1d1ce338f4d6e4cff4
de21dae1f308f003d704fdea530bf420
2929f6371905d5f8f90112eb1bd8a8e4
fab0dd1d1f0ddbe1ed18180c011efbfe
c52afaa3eccaf8de0fbdd3ec08d2d6b8
adfef802d5f21213e6f9eae22018d0f9
fdf1f80720f1e71df5e10af623e81cf2
d70f211029140cfa0f0c250409fe0701
1bdf2fb12ac5230919fc0ac580b5f0cb
d41d39ee2c130233a2fb38f5075105ee
d5f7f7ed08061884d13915e0cc11fce8
dee9d8eddcef0d4acdfcf9f9fa350217
49cbbe19d520dcdde8f4a5fff6ffb7f1
bfddea1e0729e61dfee913ea141322e0
eec9d618ec08e1f2ed18e6f4ef310001
5413f914d50feb1d1e2cff2e0901dc27
4105bd0fc7440a10d695f41b1e14d502
f620ddfcdbdc21c1d9dd13a3c0e6e9d9
26d7e612eaec00d9c6cfd53a2bf70a18
2ef008f4090bd54915052373ff2410f9
00e805ebc836f3fe1517f409c8fcc2d9
f00501f5171ce5ffe1cc04cce22af5f2
0ce6d42003400b140e4309470d112e0b
f7f945fd1308fdd933f904e3f0f2fe09
baf90c0ec9e6000717fbe70bdcd7d3df
2a13cd6f26dc00f22a33c6ef144692de
2ff157eed2d034feedb50ed1cde5ba11
e5f3e3302622f7ce1738f4191c2ee6d9
ed310edafbfa2b41d7ef332bbf21f5fc
0d06f72df229e2d5133cc5d6dff6df16
17f8faca1ff20dd821280bfdd1fffbbf
f225161442e1e90a06471137ea1604e7
e33308e3dde6711615dc0f25f2248d18
22ba08a81cd8f2fdd5e6e3deb6cd0605
d74625fcf531eb29f510f02efd2404e0
faf931344ee905c40436f913eb3d0df5
17ddf8c5d23308171e2f03001ffa12f8
eae908f10ff203dbee09f9d9dbd30209
4231350411ee1cf912fc2f21990235e5
f8fa2adae40105b9291107e214ea0e07
1a060fe2fe1b0da4b803d4e7122710e6
eacce3eb01f2f2b1e9ff1813fd08efc5
f2f2ee30ca0e04c8fde0d403f4f403ce
fbeb20ff41a00be7122020169b11f4df
17eedae7cdfbc7ea44d6e5c4d4004c18
f014e9f74ce6f609d805dc143de6b2ee
28f3cfe1e9d1ec9ddbcf00bdba11ca81
e823da1b3003c51933cbc60b7fef0404
ffd8e31afad014d0f20a20080dbf24f6
eef0e120ed0ae0e1d0d2ed0ff3d0e013
040101f1ebe3f2e3e91b05f0021a40fc
fa36e4f6fdddb6f2fed4ddded32107f0
3e08222acc4c301813fe0216ed07d9c5
00e91a191aeaf9e60720d4cef322e517
00ffa9f941d9ea1328eaf92bdb160821
f1dedafdc2d10befd3e1d010f8cadfec
12faef1ed3f2153fb520e6041ad63335
ebaef129ee09f612e2040129fcde0ad2
d10105c580d1e8bce0e1e4e2ba14dacc
eef511f113fc040df111cfeef8fdc9fb
014618d4c5e8dae7b3faf7e5deeed70d
b527f3e70afce792d4d9d2e4f51d100c
cd0ff5e2ea02e2fbdceeffedf5baf503
0a39eaddf2df19f103d9d9fb030dfdf4
f9f82f0d7807f8e7e60de6e70b2f0f07
eff318f3d63110eef1f8fb0114ff1402
f62412f20ef923f426fee20ef90809ea
300f029ebad4e3e1101f3524e1d90ce0
034423eabe3ff7e82423073146171932
f40425d319e6d8efe202d4000d02fbee
102c140bb53a07f8d33213011d1ef311
e71304d7d4e90ef0e7d702e201f7e434
f9fafee326ee0fdcfdd333ede5e9fcf6
d7ffdee81a03fd198deb23db08f8d1d9
fad5f2efd508c1d13005db0ae6f7f7f8
11f82f3f1cfc22f5fc89f0be5c25f9cd
c0beffd2d2d1d609f600d7dbf3e3e2eb
f0efdddb0414eeed1ac81f33f612c7c9
d3bde6d1dbab04c2c1d1f9fb8a3bcf15
d6cc1fbff8d710b93b201ed0c7e3ced6
6af6f52aef62021f2ff13618f51b16f7
0afeea14fafc21dc18f822d3fe2902d0
ed050a07f131fb410908df34f924e0f5
21062b41a9fbf0f2dfdb1201c7f0dc07
350d050b4c141dfa04121f15cc3d1133
1cd4ff2aef12f6c818edec3327f404c5
1f0bfeff29973be5c5c9fa031fdcfa4c
06eaaa20f3eb0e07ec08dbe4ea24fe10
f6b0d30758b5e622cad6bbc5c9cfd3f1
21f0f31942dcc4f0f7d4ffd7dc0b80fb
63e5d602e9e113f499dcfedfc71fff3d
b93dbb18cffdfd6b1403db174029ffe0
07c5021f0cba3ff1e0e50d140ecca9e0
1a03fce5b9dad6fe27fb37e1bef7b5e8
03e99f11039f01e8dbc7c5d9d2089113
09e102f4c81e3dd4ffcf45fc0fb423df
e2f223f012e9fe381018f417f91a161f
d8e9f0e1fe0aead4cae80401c3e5f700
09de0f2bfddbffeb21120bf7f60ed7c0
c708ebdacdb62425ee890332ecfae3f7
fdbabaed43c9073326244800e5f91226
f63f1dfd0afc292e1af6023acbf8d62b
a217dccf2d0cf2dcdacfce3400f9e3e2
320dc0e120e00adddcf1ffbdd8ec01ec
05283ceba61fffecd138fbf80b050408
fce803ff1937f9c7d31906f04b3121e4
3eece1ecce06ede9be99dcc9ccdbfbc1
1e11d8344b09ce212f10fa11d011e052
0019e314c1bd053102280df6d9fe01ff
031ef3d7dadad7ecf509f207cb0bf1ff
e8ffd9eadbebdf24e0baf4d906ccf70f
02f2f90ed7e6fcdd1ecff5f4b9cbeabf
c5b72afae55ffbc2f5f7e34006fac4e1
db0b01fde60015f31013eef8101020e7
e2e4f3f622e213f5eb170bf6f1f40be4
1708fa07d3413a11d7eee1121911d3ec
f1d0cfdaf1e0fb0defd6e1cecef3b0f8
20da38d3ef3e2ed6002a264021400ddf
e2d303f3eb171c01e5e2dfc409cee6ed
09fafefcf3e7ce02cfb2eed2ef2fdcdb
1af8ec1ef6fcfdd8cf101000f4fecc10
e9430e6321fe0b40c9e7ffd4fff036de
c0d332c9f21c0d1fef23d9f9fed9fbe5
0836ef5ef11734fc4227f93b240d2520
ebece209e62414060e10e6311e0b1303
13ec15e314ff1709e0ffdc16f00ae507
e0d0f7df27eef3c7e2eef9ecdd08f00a
16f0efd1f1e2f9a0dfd70fd7d6f8d22b
e535f92c1cfedae6a1d6fbc1f7e4e300
e61801e706f8f42508dee5ea29ea1bf8
07e408f52bff0521060a19fcf7f0e0f2
23da07139fe6fbf71c14df26d62023fa
f5deee1f0603bed41bf8d8ee08f5ece1
9bf1e82ec52cf729ccfa140316ea14f1
ea26e50219e9eaf3cfe0dbd1d9f1d306
e7d501e31119f8ebc40ae4f9fbf607dc
19f2ccf40de0153cbc260124e4150e13
04ee0137eece11e31b06f91ff832da0a
caddfc0ae1be0f21b9ca0513fdc909fc
13d63bed20252df659c8029b540b3c21
d90229f30dea0b0ffed2fdfed0c303cd
1215f4e2f3f102e9fa17f80b140bf023
f0e3eefef6f103dcfff4fdffb8fe2408
e0e1e7d20ad404bb20b9d607e2d4151e
1ae5bb200dece602190ad9f9f4ff05d2
28f1fdf00b0a05221e130f11012605e8
f7f8021be527fa07e8ecfaf00ffbff02
291c1a3bf6f3f6fef2461a041511fa1b
d3f6cb080430eacae8af05fccdf9d5fb
05e5e1b7eec70347c0410c36ccef1342
d9d50701f82500020db2dc0cfd360100
c2ce03f102f01d05d90de2cecb981fd0
2d11075308f7e23c1537f115122741fe
f0dee13e1518010b1cfb59e3bec9d4c3
14e6c9d7e6c3f400f0dfe6e1e6d2cf13
cc410608d04120fab2d33f3e520734b7
ec07d4e008e7c704e9f3dbebd5e9d91c
f3e1142cc3d4f20bca0abf00083b0a2c
1fe92ef617c5fcd20f0602c4c5c9050d
cfe912faf4ca13ccf3f00afbc8ddfbf1
37f6fe251f0002e22add02e2d4cc1cce
1511e92a24cbf402de0e1016d305f723
edf6fe1a08fb05190ff008d41a07e6e2
3bf0cbfbf841f8fce01e2fe01017cbe3
f4eed1a3020bf4dff3f7e3d7f8ce25e2
3b3e0b013f0017f3e5281e35eb0403f2
1ce507e530decbf1dc0beec6f8edeeef
29f0d2f7e3e512c22fcad8fee7b1e1e1
f627fc0c010c0d0cfa22ff3ab2dd1bda
201eb50abcdfe60ebbaeebdfebef09e2
15fa9e36dc17ecdf01c7cd08030af8ea
eb04d1c721fe1e0bfdde1ce3dcf4fc42
0eccee3318e8291424c9e204f3ec0834
051eb7310d140ff2ff132314f50ad6e1
f2ecee10f3edaed623fcc634eff7070e
e8e2cf5817d627ffee09f51fff1fd7e7
0dfe10cdcffdb4dcfbf9a8f513b5e902
19dde210c1c7cecebce3dbf1fde216c9
f3352523df0c102b1906b8552718ec23
05d1f62517a51a1a0f16ff1ba81d1f30
02cc370fe8390f3827055124120d001c
0006cf1f12d8131b1ef73423dd1500fa
d50ed3e9c7dafcecd9d9dd1ae8fc1bcb
26fecc334fee36050ecc101fd72ac3df
f3d10f0cc23c2254321038262805073b
f5d4000ee1fd1cdfeb0bf50a23e11b12
e9f9f832e5f3ddf009f1e40c190322e7
eff1f62e12faf50a29fcf2f9fb01230f
c4e4ededfaec1013350f2ffa0d0cef26
3dd40d05d6f4122f66ff0225fd133d0f
c84915e84d3000b3bed6d1f8dc12dafe
f3e4f9ce01df26f024e6e4ef0ade06ee
fc2904f1fc28dccd8008b91d10fae52f
fad1fb0924f91ae8c3d2fed30dbbf1f2
5e3930b228361ec5a9cae6f4fd11fefd
f2d6d01ffcdaf649f5f3f5dfd4f13407
d5f60f4e070d09f5abf4fa1602f7d0f5
0da2f913e1eef9db05f11d06e01ad7f6
d31812c6b716fad9cdfa04ebf3162de0
f1d617fdc80ae9faf9e01c061d00f7ed
051f2b20f12e3c4fbb2615112b12fc2b
be14e5fff3da27eff1ec02f0dde21ac2
27caede902e2e80a1d06f9ff1032e225
22eae908f54a130ec7df0a10221ef927
d1e6f524213dfddc220df9241604fce1
183525190b1aed02f3cc24c2593b182d
c6d4dab006a20bcd5cde0e0eeec0fbd7
09c91c3c0705d6082bd201c93430eeac
19eccad900b2271e203c15fbf5c707e0
cdddf2dcd8ce1b0490c5de24e609e702
4fd9d8d7f5cc0d18fa25e0d6cac30bb4
f4fa2328f933d60480c7d2d87205dcfb
f9e9d2e213ed20120f11f859f4fdf614
fd0e1307e22609e8f5dbed1a3aeaf8f3
d0f40213decb0925c9bf0626ada6fa08
1008f938dbdbe9be1fc1e2e0f6e010f4
2458292c04471909b6380615173ceb11
0ce7ecf009b4eac7daedcbe9f4f811f3
23ff25e93c2ad1e4e6fa36eaedfdebfa
f53fe20009f1cff8e231080a0efb122e
f4354afdbf0733ec2af50235ecf61138
b2efc81efc30d3f2e4ce25160f0ee609
1bfef926cc00f5e2381ef60ad6eb19c0
f34bddec082aedf0bacd3631cb13dc13
fee10e27c9d0d7ec162ae6eb130324c5
26d0c0faf09cfa0902f5b5c9b902d4e6
11be0a47aa2416f9e8e6f1f0272b0a01
993304f2ed3d1ff4dcefce5ad01a040d
33f122ea64f401ec0834fefbd9e70cf4
26fe03e4fc2416e7fc010e211e06250e
e6de14e8f6dcf4c50ac9bcdaafeeb3f6
1bf4e9a652121ee0c3f418f1240503e4
24f7f7e619eb9d0c22ecc63403c00133
100522fdd21709e1d74fc0dd0d1f2ace
e202d60d4af7f7031d06062a0acfcae1
e81501bb49ebe5f3ef20f3091c3641ed
e5e9da14fa25fd2f00dc00ffddf7f426
f1e2101222f9d7eb0913eb0a0d30f8e2
16e70f0ec0f63de4f0f00616f2bdd80a
e7ef09cfd728f2f0d700d2fef44bf6f3
f0120ce92ae21ce7049d0deef4c317fb
e111f3bae7eade2a9fdeeafad1e5d9fe
e00c22d1d168272bfff8fffb40140829
fee44399b8f2fe44e517f40f3a0511ed
d3effff41ebfe1d0ffe9f80af0c8eae9
f718b8e0c50ecb00d7cec30aebe107ef
0f14ef01fc3f1cfdfb140c070b06eb29
0ffac6c52cebe50afdf6f908090c05ee
f34a0d13efe21d0ecc1cfcf2f911ed00
b2e025ac9c10050c2829e32d0bf60c04
c51c0708f5f4d00032d71fe7d4dbe60b
1330250818fe03f718052cfdeeff1c04
3549ea0d33dfb9bbede321aed3e3dcd4
e91beef7f2fe04fd0b0df2ecdc0b12dc
e7e2f01bd0d3d9e8dfdaefcddc0fd0eb
3c09c51b12f8f004b0e4fad8ebf408e1
200ad2c42ffdf4d46dde28ccf7f6c2e3
b3cc45f5cce2f2fccb1f19062404ff2e
24f3cf46f1e3d8fb0de316c71420f3e3
0032f6e91bde1ac6d0fce8e9e617fbf5
05f4dec10cd003deaed30083cbfab8c3
f5edf6070607d00de61eefedd4feed07
d630eb2d10ffe72af7e70c02f60cec15
00fe0ac50ef3f20909e514deff091bf2
03fe250111d3260f570218c7f5aceef5
f4421ef008e10436f70310053c2519e0
e6ea040113eaee9ee9fc11e51c05fef4
dad315e2f2f4285125150dfafd44f500
12d3e02bcc09ddd0e907d6ec03efc913
09f9ee0c0c1c0a1b0e1df1211716ff04
edc8fdf7e117f4f012b70df9ec09de20
75efdeffffd9060d1d5fe103f10ce937
dc00f5d7b521ffb5e70002d7ef27ff14
fcd1bfc0d7b14ef4c30400e990eaffd0
25c7e708e9ffd409ecf0dc3a2113eb32
0d0cc8c7c1a20b4849100e54e513f600
20b3ed08f7dfd1c826f0dedfe4d3e2f1
dbfebfd4d91bf9fdfce604fac8fdb707
21eaf2fe0f00f0f3d444d621123c0b18
05ed160a01f6ffe816250a1402ddf909
1fe4e7f906e5191ff1faf40317d305ec
1ffeb872ff24211403221905f320e20a
fe28f6c1e60a3df805d621f5d7e4db00
15f0fd251bd80e1a0a150e0d2a0bd2cd
064327f6eaf4360fef063110f8fc0ff9
f21ef73707f6d3d5e2f1fd19f2fff124
1e081ef50bd3eff1fbf3d3dad918fce9
3903372812bef7f0df0920ffcb141ddb
444674fcd1f84fcc121b1b0dd5ff0dea
161ae0cf1897d8edd004e1f6a5ddd32a
2d14ef0906551ffb1a1c5a3a1325f8f0
44df260812e42114ce11d5f51a321d15
4df80cd2d7381507f913f520e5062e5b
f302bdb90ca9f0f9dee8e9cdd9fdc7fe
1ff245e50f2419eb002a0c0bf6fb1e08
dceeeb13bf320bf3eded09e348fa05ce
2ef2d7efedbce9c59fc0c804c9f920dd
ece3f60b0dc8ca04f804160b01f42104
f1b3c1560ed9f7110d0d2616e2f806e7
deed1e18dbe923eae8031510ebe8290f
e8e3d1fd25b9d3bd31f3152de2b33400
e0e4ce29ffe4ec061829f42afc499c24
27d4eb2d4febffe6f214fbd8cddecddb
19f78e652fdcb5faecefc925f8150a37
0cf9e7e8af0b0137f60bd6e5ff0cc518
0b22e4e1aee0c60ddfd5ed0708dcc6d7
04f007be14ece5cde710bdf1020431c6
222bd9e1e5860dfddf34bc57f207e012
19dde914dc0a01e726d5273a141426c1
13d4d10ff8dcffec06e83bc6fec9dfc3
25efaa11f8c52814f701f732901e3af3
f1060af0c9cd03f7d2dce012dedff1e6
441833233c0c2e09e14ee004432b323d
ce06e61603f5081b0aed23d2d7e4f033
12c2fb28c9fbf0e109effcf5fd04b1da
222405e5a2ecf3e63af815e223ffdbe9
ff3512fe08f5feb5f40f0bf3ece3d803
a60ae60cece6dc04eef40cccbde0f814
d933dff5f42512f42bf5ffe008e8b802
20dd091fe6d8dd15fbfecde8f8d1f1e8
f40ceb1c09d6d1e2b62ddd1623f0d51c
e0110ce9f6e1e704b400e9da10fef2ff
f61409f2e800f4f3d9fbe106f1e40ff1
1b0f10e20defe2e3e31c1ade16ee1f2e
f71010f5aa1826ecf026ef292f38f217
b1f613f631ea01b6f3f33217f0d0b3e5
f7ec4407f51f10fce80af11cfbfeed31
e8fce82705250ee9cbf9f6111afadd00
223b0eebf5fafdda24f513f1b9ebf205
d4f5e5040620f117c5f4d8d0581d01e7
e2db08feead7f70df9dff20d39ede2ee
ddf9ed02fe1ce6f7c6100ac9560e13ef
e0f311e5fb80d2e956dcf2cadba2e709
03b5fc37f44c13d7fde1c6ea2210ed04
c9c2150f12c1fbc0c6d7fe15f6dce1f0
26f14729d0e72bd8eccf0db625b8fd03
1719b6f3141ae337a93025fdd121fd26
fe0507ecccf609f2fac0fd1fcce2cae1
e8de02c40e021f015c14e828041b0b07
47eaf1da20230df90edf3ef4aff00e07
1417011620d921d0e9ee1b05f3fc231c
d6fd0ac505c6102828edf91ee7e0f5da
0af12e3500eaf5eaef850de617d53d15
cefbec14f8d90dfce5f2ecfce8f10fec
cc081df9e18fe8fd24f9b9cdf1f1eb22
ff01041b01ea230a01e1fcfde5ede9da
0f0711060b0df1b1fa1dc9141d0703fd
de52d7fda4222a07faf71afbe73bde26
26e50fc90d002bb1e6e5f300eae813c5
ebe0fbb8f0f21212fed007fcd5feca12
09f30711fefc2115f529290b17d9f6e6
ddeed2f6d142d3e5f9cad12efc36fafb
0ad11e45fee30c180946daf3dd164c14
13d8bceb05aa05f1effbfddcc1c6fae5
0bd8f61dfdedf30224f0d8caf50e00f9
fa0ebef8e6df01f4c90302f9f2f1caf5
25f2f4013fe6e7cc0e27edf11f1fff02
dadd17d212e712dff30303e604f0f9b9
d70d0417c507e7cffc0cdb2f1ced2412
20d6f6cef7e8f2bde3ead0c8db000ee4
fcd335150e4007fec11af52f27f416f5
fdf2f1faee9cc1d5c709ecde14d8290f
f92afa04e9cafb13ead4aa12f90e19ee
ec09f1a3e42020cc031ac0bde90a49ec
0223cf06d10fec09e522e407ebdb0def
f51518f4fb2becfff5c0d1ebf201c909
f53ce5f9033108f025b6cbf423e2b8fa
fff2f30d1dff18f63bf43118c8f4b5e6
e01716bf21f6cfd51a0d200d23150ae8
1311edfc2acfbf031aef33ec0fe306c7
f808f01c05ee16f6f205010513e9e620
13fcb73f0be22cf527201019bc3d1338
f6d4f2fb02e3ffdf11d3d111dd01c907
281fe91ffe0a10f0cd0606301d1adee4
ded2fceaef11ff02faa8c912e8ddfd18
1d06dee7dbc6d2060bb8af52d5c6dad8
00fa1afc1c1509e4f71806151d22f931
1b01011f4906e423f903e405dceffbf6
dfe8e5efd52242dcff24b9223053ed4a
fff7fdf6fdf5edf8e6d0f1faf9dffafd
e2114de1da505cf1f833aa1ef9332544
070c0d01eb090606f2e7d009f6032911
ad56cff3c705f6abb0dddfee02fa0af8
d720ec12d405cbced5f324edf1f7cd08
4e26e17f4304ce21fd9315aeb3fbd9fa
5002f7ff05db000516fd160af9f226e5
140fede7e7da0016110ae221e609f6fa
3215401ae033ff1e2512ed0016f70003
d448e9f0f1fa0813f4d6c2e215eec8fc
cf02fbe3d61afff21c360b2b3a092601
e5f70002d9122b11efe5cdf5f401cbdb
c2fd23e6cb583d32e033e2fd20401e4b
dce0f8ed04c7122713491832cf090d35
1c1403fab70bef1cfcfde6dedfd50ffa
b008fd0b5de73ed0ebcb0ef9d4ee54dd
3c9c3014ddc5fee652c3ceaa4a01d323
daf701024ff50ef6f10b22f2da0f2208
f5ebdb11063e39e7d028f8f3baf90709
fbfdf4daefcf20cfee5cf81480d50e04
e6ee0409eeace80f02bceedefb07d027
4e8fe5dcb8029f12df18c4fdd8ebc1f3
fa352dece51319f5151213e5c5edf1d7
1ff5f726f036d5eab1f5e7e2310bf711
3efdfe1efe06fc0cfbfa2ada4a2a311c
d3c8d0140603f0dcf7e5e204bfd7f9e6
03f7e01befee1b19011af10a2ddb153b
00e5f81d0b19f4fbf0e0deccf127e42c
fb050cee4fe3121fbbee17f7d8d55bfe
36d9f4334dc100df084301ff0c0d1be5
12292ff707b42de4fef0e1e9dce213e0
18daedeac3c9ceca051bdb85f5e0c602
c7d2090cf9050303c2de0c35e13e11c1
03db0124fcd6f60108edf2b7f2c52fdd
faff26fd18fae2fbf014dffadae40916
4cdb09e2f0f0fff5240602d3f9df3607
05f00fee1a0225e1f20d0afa0010f5bc
e503371123d6191e1d27041005292b21
32e13aef10014f0afa1d2fd60ee80dfc
ce42edf7c414d80f0bfdfd101702f733
f026ef0a06172313ede447101bfdc517
49f91dd01dd9e2ee17efedce99d3fc03
2004fbef4de64bedccde37eebbdafafc
49f6fbd1ec00cb201d20faf8221cebde
1da518f2acd1fdc206f3e3cffd99ded2
4e0fe428871356f7e416ed25f816cdf6
fc11e0e005e5e9fdce00ad31d6f8d1f6
09d7d30de6cdf5cc5dfa1503c53ec326
0ef5a601be5b7ffbe5edd1080b29080c
00ceeb01172121c2f0cbf4e5fa13e6e8
2bbda9461412ecd6efd436e5d5fe092f
f2f3cb015aefbd00e1e6f0142c10c8f1
b8ecfa2f40acc243270d1bffe4080afc
cddf43d62a23e6f1ef4fe0d71efef10d
09ebd2f9effcdf09e7d0b357d3dfdc9f
e90d14030fd1841bcf165cce15d0260a
dbf60156da161f13e1c10f23e8d33317
f2e40af4014428fee2f5fd3413fde3bd
28fb004ef23146ee19d81dfddf14def9
f518d60ce293d6ed02cbc647850796f8
16dfcd2a1cfb26202ed43c46dce6e901
e8d71ee09d311b193a544d4b1f17f942
ca122a0ce24522050834f1d2240a0f28
f8f108e0d4f00cf1ef10f1e10a27fb0c
d21834e8ce1505fc2302210c2a0312f4
c33e11da16d30acbfb1d10f6df0f16e1
e9b407fa0df51f295d3eda091f162be7
180de40d19e6d1dfccd2da01e9d595fd
e7e7cf09f8e1d0e7f5eb14dcbecfe6ea
4c01ec1d23e0ddefbb02ec10fdfa07fb
d021e212ad0e2cc6b51dd7dc2813ec0d
61fddcfd4ad2dcb4dfdb3beac9e9e5db
b830eec2b1e9fcf5fc01f5f228fb080a
e6f91420cb2e12ea22ed1e3117eff60a
ee0b11e0cdf202f319241c0b05fcfbec
e306fb13ed0321ede338d81b2127cd56
d8eb16f6f9fa2ceaee042f1e2907c303
e009ea5e04662411e6f0261e36220739
d00ef5da2ff42bdcd5091e04b8f934f6
e3e2bf13ebfbefe6eadefd130bfbe0f9
13ff001807371adaca41f919f22f0b53
17fcf7e9070021e3071ce9eec2080106
c73d5126ea45f4c2d3072fd33efb25f7
24b52db60c9508e87306e92035d9f3df
d8c0fffeceb1cdab25cfebf24ae0d8cf
74cdc4b0f6e50129e7effa1cf3e6da38
bbeccbf117ffdbe501ed0716be1c14f8
215019e9b7aae3360106b600d9a5dbe1
ea04f76fdd3df208c6f31de90d12f1fe
f8e10a31f50a0312fc09e527b933ec02
c3ce082d03fc1ed70e15060127250504
eff4cee32df02ce4d8941fda8eaa4598
02d0fb29f1063acf0bd1e4fe143f1b09
1a370935c34f43180243fc170f26c756
27acf30af5edebe4e206e4c2e4b8ec00
eae2efc6d917f60c09010415e001fd16
341fbefafa07060fc51f340ef0f70011
34dafdfaf4f10715e3f84be89bd3f51b
c40f01e7da0c4fbebdb1f2ede49fa601
3ee8fa1fdfd2260c40d433b504ec47ea
ee0f1df5d21d13acaebddf34f4ecebbd
37e2d84338e8d70822542417014718ed
4fc1d420fda2e7e83119e682e5e8070e
0af11ff413f84c28e4fbfa1d0b164ebb
de2b00e196d702e1fceb0236a3e80305
58cbf1315df7eec7e33526cf07c0e91f
2304cebfff3b20f9bedf180bca130a16
14e1e7edafdddfe70cbf07c716a308f2
240692bee13c1713ca121a384733fada
ede638e640f6df09f734fe15342f2712
273625ebddb4fe34db1df80d060f200e
c8feefdb2cf5f30c32ef01f901d1d40a
e90c13bc16afaee1eaf3f5db41182bd9
f7c5fad7fc44000ce2f0ee210433d3f7
0fe7aef503e4cbd5f20428f5101e04ad
eae5dc30e6fd37ef19dfe7fbeae8efcd
1b1b21e0fdf68a04b7fab0e90209d5f0
f0341fbc2b11393609f3ebc1cfe899fc
ab06eae4d61ea7dbf3dcf426d219c9e5
f60209aadeeff520c8dce6fef3fd02e7
d5151195e910eed2ceff80fc19f7131a
c92ee0fa49cbe13b08e105d4b62dc8f9
f4f40b13dac4c3f50dc5de06e9ecdee4
211414bee93542e4ff14d1fafc19e6de
fb090bec091519040d14f6090504fd0d
22ca102c4ddf11d9180802e3e9ed3fe8
ce11f8e20bff32fe021d1909384f1948
f0d5d3f81cddda09ecbe26d3dec401d3
edc200fb0ef2d4e221fff324e01103dc
fe09da0c21d0c8feeeaf35f53cf9e5fb
e6ebe6eb04e702fd0a11dcced4e00efe
c30c0a12d9f2f2eae3e9edef0538d20e
2b70fce61101eee6e20bdbd9e7ecd7e7
e952d8f9eaf1d7dac7de36d6f2baddbc
e3e6fc3103fb20ecebdae90d08420c30
2006f2132aded8f3fd0411000701e7c7
211809d43ff8f0d1bc0ccf0af809e3ef
08d6c40400dac7e1caf015f7c4f780a1
dd040307e90018e218fbd2f71205f61f
f7e104fbb0f0fd17dd151bfb03f31e0b
30070e00e2070c0604070d1bf4f8d6f9
1f0137cbeeedca01062ae4f51318040b
d427dbe22f141f290c0a4a2008f30bdb
13b6230da816d3c2f9c5a01d1d28c602
d62207a31ae51f4e15181cf611e103db
2ef8ff0bd2121e261704d906eff8de2a
df38fbd808ef0c07250dfde3f4dde0dc
bfb6f4f60501d3e3f9e0fb0af225fbfe
1cffd4cce8d31cf06f2a0436acf0e00b
2eb70fefe02fe1d8daddef05ff3ae327
effbc1e817db610fcc16f1ec89df1ec7
220cd102c916e726fceed5f8e20be2e5
f2cdb0de00c61f311b18230de7ccf217
01c6d2e8c3fee40cec1bd80ed51196e5
fbf8c917310e22fffad4f401bee1f1e8
27e00b07f0150c2ed220f818e343085f
34fcfcf7daf707f3cde101ee320a01e5
11fb0c40feed0206b8fa2508210e182b
08e5342245fa320b1114ebe0fee70c05
d113e7d5fb1de221bfc7f816f713db28
1d9ff11e10ce10eb060710e1fa0d0e01
0c14050529d61118d71a270edb110c11
04da0807f6d7faf61abc250ddbeae6f0
4cd6f2f122edffcaf4fcedf8c00c33c7
27f24bb3f7cc03e9f81522fbdbcf57c4
24f50612ec23f132f429e7000831eff8
0fe058dd0bad18e5302bdbc1d3e51202
ef1906daf7da1f08f733092031321df9
09f6170d08e3e6fd2436f3db211a03ca
e6ba01c6ddf1d017d0d0c4e71d08281a
22edf4e0fbe2d9f1fe13e4ace5f701dd
09ca00165912f115051f081e0c1cd507
f811e622ec31100cd51016ee010bf6f7
ebf8d50af820c400e5d8d7cddbd5ebfe
dfccebdefacef5c3e1f617f215c204f9
13d5f62913fd26efdfe7ed38f20b0610
2eafdf46d72c5898cad317e91bea36ed
d5d7e1bd28efe132250748ed21f3ef1c
9df9ee423fda030b4dbe1a1d000fba09
d2e7dcf205a3f4ea2a05d009eafcfad6
e500940d0ed003105bdc1308b9fdfa38
f4d706ffd95927da02ff01f154ecb0f1
29f3f2f2e8fcad05f1bfdc2bc2fecf09
1aef04f50cfccd0e0cebb2101dee1507
0b15e10bedefb2edfdd0d6031612e00d
2deae578e70548d25adf3560c22126c5
e61ed8eedc1adf0909cffefcb40ba0e6
2ef91911c63d0008080af72a912304e8
170bf204d3e4fbaee0eee421b5edcbd2
2f52212be11627272118e328f1303517
f622cbdcdacbcbde0ccefbbdeae9cdea
d4191cdddbdffae00be0190820ff07c4
b90efa04c30c0de23b02220614f60917
30e6e34738d3c5fd1aba0ebfcde606d6
f3feb4faccdafffd15c1178fb5ecbfd0
c4dfe5bb0cf5d1ba14d0fcd5f5ed98dd
30ef0666ff03e0fffec4f0e1ddef1ffe
bb09ff1fd2160501ee28fff83129f81d
b61305cbd23d15f18501baf41511fc32
20020cfd1a0906f50a13b9f5051df929
f550300cfb21f607e3460cf0d6f7e207
083f22c9e63416fe454c0c3318fa0336
c515051e28dd01f7ecb907ceeb1d9d13
f80c2fe61512fed5f93111763823e516
c114ee02e64b2fd8e4e8b7f9152bde2e
21e0f6e3f5fe44ed0fe237f9fa112d16
dbdef501f05dd8e0ebf4cff6ee31bce8
e2e91a39e9f202100fc8020a2d4dff1a
eef411fdf30c17f0d506fbf3fcef290d
fadc0ff7ecb7cbfe47f6dbcd401cb0fd
0eced42cdf40d9d2cb259be0dc26c007
de932cf1bbd5c9e35da9dd17f0ed02f4
3ef3eb12f33301e599d4e2bb09f0e3d0
0cd9bc220ffd1315ba3507eac72ff74e
eaf7b2e62ceb180ce00018068ce301dd
1af9fbbd25fa10eef81724f816e70e12
5e00a9252d1e37e3ee0f40edd5a922f0
a7312a152ce327f7e6df1d02152e320c
fdfffc2be2e3f9c524fedb2506c2edf2
4b1dff2c0af50a112cd733e62aec3ef3
eecbbdf226ff24fce00e061dc10c07f5
f8065f0ace2e06ea231f28ae00c04e18
dbfdf1f6f0ca2de9f4eee6eac0e6e102
1ae8ce26f612fdd3c014f714e11519e1
1022e00904e924f8160c0d14c2d3d214
05e336e62505150cc1ebea10d91d13cd
e1effd92f7341be6c59d52f9b0d395f8
ee0dabd1c91015efe81cf9f2443608e7
b046de18121ac851ecdbb8f1f3eccf15
500fba3272d00af219383b0be6d71ee6
02f01de1dedff8d9eefef2a7cbfcf2f6
ff03110fece6f72300fcfbdb0dfe29ef
17e42acfe4f2e9f7ccc71bdecca1dbe9
f807e028f25009ecf843fd1d4214e2f7
080809e3f7fb00be22200a004cf43f07
fa160c0debfbfbccea1dd821190d780d
12e4060003dfe3fc0ad5219cd601d307
41fdf5f417ddeb0afc061b021a261c17
ea0ee82ef9d9b4fae310ece30e1bce35
19ecfdf941d7f8ca1ccbcc1ac0f4c80c
1ad0d22c47d7fcf11c06d529ae15d321
25f9b54518d5ddcae605e931fa03f4e6
0001f9002839e8e7111210181538f2d7
ea20cc6c1ac6dedcf1fdfa18fd1bc7ef
03d8fe0bd42c02c01fdedce402faef0f
18f7e91cedfaf9e9a60acd0f1a00bcff
14f4d03a37cf1bfd0c100c20f7050c0e
01e5fd05250504ebee0a07fb04ffecc4
ef0258e4dd5525522df0bedf2d14befc
e6b4e71debc902d200e5e033a906c6c6
02fa3927ec4a286b03040b5be5f22d40
c3d3da39f9e8f0dfede9ed25cddadb05
1d0dd1330718fbffede9cb20e0f4fe10
42d827dc42eadb14f710d130f808f11e
ec4a0531e9da21f1eb13c4f7d9f1ffe4
f83723d8f8201cf9e60aaf01223eecea
1cfa0ac9edeb15c5f8d1ebfbfef614fe
fc0e0ef3006746e5da19cfe10925ea20
ec0c030228ef030ad108f7ecf62217f8
e92f13e205e80a0623bd19eef20ddb0d
21eff211c2e3de213b12ddf31605f10a
d107f5ef07e3d42ce209f21009ee05dc
e2ec1fd3eae901e0e4020e1900f627f5
f419090a1313fff4d00d11e607effa02
f84c0503ccef280123022e0c142ed0e7
d2efdbffc10619e1dec60ecaf502fb14
161218fa0d3b28f1b734f04749140735
b602def40d030ed2df10babac822d91a
c02703dbd10ff6dd0853fb1125e528fe
28fe25e4f8c81efac70d18d4e8ef1d04
e8f9fe1ab7f80f0ee60105eb2000f11f
0bdb0cf6e6ca1dd5db0242cd030b1af4
36df1831c9d9e0e97be3d0060da9fce8
ecf8010b34d90008eaf3eabffcd6f12d
c2e1fd0e060a1816230f081c1213f205
08c4ee15cc1cfad819eedccff809e919
05faed18f453fedf8ef81dd51625f51d
f028aafdfa2509f4f74adfe7de2bdce2
fd0ae1121a281036e306132b1a0610ec
eedd1ff3ffebf6122700fcfd13db14d7
32e22d02e2df0ce3435bd714ee2c052c
fde0d444fa00ebb1e4c6c0c311fecde5
2d27ade8dbc11309baeaf019e1210cf9
f580e23ada44def8f9d3cfb2111ded0e
d61f1507f8c3390302c2e9edecce10f0
fc1e110ef4f9faec19001307f6f51621
dc4135130229200e1adbcd06ecf4fdd9
26e9e1f9e6c8f5d50a0ff0c0eff6f021
3329dfe2c91f3d22fd11e7174bdfead5
1a05cc04f316f9d4dee9eddee500fefe
1b0f26ef2fdb03e22519181efc04f1ef
1a2d08cd09fd2eda00e0173106f81013
132512fc13fefe2310f6fd05fa229fe8
042f4ce6d0fd23e836def3d5e2fe17e0
12281709efea02f61c00e02ff8fdd5ec
fceaeceb0d09100e5924d1f1efdf04f1
44ec261bd2315a01cb142ef102d15a08
0bf4e2a01501201bc5d700fab1f3f9e4
0d39c108121de7040519142f9a202b1c
0bcde8c604e406f6e5d41cf1f907f1d9
28fcf7d4b10d02c907dcf2bccbfff5f8
1f0067ff21fd0e22f430c0ec32fa0de5
022bbb2dcde1e3191bf6e015fa03e0fd
ef3927d0de4534230dd832fe1fe7f600
f7011efa22f0080a061825da26e72801
e7fce4cbf901f5c4c517e9e6e10b030f
04251deaee24e43d2315f40f0006e8ee
cd20d6f7aa0016e0fbedd8ed1ef744e8
eb1003fc3e280e1a082511f23f3c0f38
feabe4e4f5d4c39edd05f2c035f0f7aa
ddd7c120ddbad011e9cff667e4e4fc1b
0822f34efef6e7f82027ffefe2360ade
08f8edf2400424f8160b01b3e70ce02a
d5eefdf1f53e0712e1e8f8e2071a23e9
df011722f21d1f0af8eff8e61104f9ce
41e0fb3ec5e6dfeffdf9cf39e33909e0
0a130df3fa4231f7e4d1d7d82acf1baf
14ea0fd8ff16faedb6e2d9ef24fe0907
db1efbccf9032ffa10050506151915fd
e004dc35f1cf19f01ff21bfb03f7dfd5
36060610f4fafd0c1f08ded801f023f5
01d8120403e8c83bf719f1ecdaea03f7
b13f25e4e2132df02bf9141df30ce225
da070af5f3e7cd34f027d80420d214eb
acf809f689cdf9f030ee09011bcc34bf
081a071d2ecbbf3407f8ebfeffe60c07
ba16d6e8c116261dcf16f1f9223cf7da
dc1f16f70e0a0824e209e9ebf2f1ffe2
f825e9c4e9f4c601dc0ed8e9ebc91bc4
d626201fdd06d8272edfcedffe095005
f805f7f8c2e30d0a2eea171c23e301e9
b1f91f058a5d38fa0f1dcbf6fc340f2c
f5f8bdf6fcda14372ee9050d0decfbd1
d301e5dd0cc13117170be530fb02effb
09b9290300e519be10e409d0ecf204d3
e0d3f1fad8faeb140032d141b630f611
20fcec02fdf9120af108f81c21ef08f3
efede211fe4cfe0cd8e821ef1717f7de
030d1c1f20e6effb13022f1804032def
e2f0f1ecf421d4c51aed121ff934e3d4
0d080512e6e0e3f408eaf210f2e3dae4
02de12bd13ff2d0113300311d9200201
de01f1110fe51edf03c0eb01e52132e0
37fc1ffffbbf4b27472b2406e3d40936
d603d20ae611d4e6e0f5ec01f106ce15
5210be2fe003f310230614e9e50e2928
0cfb2332e223ed0b120deff5f527eb0c
dc0d013d5dff2fe215cf34cbe1106cb8
09034525e148fd07d00be0edbaf5cd4c
1af7cb11dd2902fcfd1106163a412b04
06f3f61dd3fb0dd321c90fe313e5ecec
3df1230b0f2e33d4d6ff1902eedb25ec
fd01d50b090123fafa2b0b25fd1ad0fc
f929ee05dee0e422fff1da031537cdfb
e7c31b0da6110590f42f1bfff0eb56f6
e003c60bbaf9fb133f020e054906aa32
f50fc12b1a46fed3f7c62d12120e10eb
200a090a0ec32f06e6bff803b836d001
1b0cdccce1e71dcbec1615b9a0efe9c4
d70939f12537282146e512e3ece930fa
1b14e90af91fe7ded5f32e21f2fff607
ed001af150d6d41d00272bc6bcec340c
290be50cef2c0deed2ed35d91a152f08
f9f5eef7d6c3fbe600f6fbf9e9bbcdd7
1307cc0b2707f4adbd2439ec37ce2201
fef2cc1101d0efc2e5f5e4fac903b4fb
16f24d0becf2f70ff92de93307ff6107
e4fc06d12ad4f012d6da2dfde4c6df2e
ecc5d00323c1e5d0fd08c609fd02f1e7
d30afdfedd381d17b813d7eb0704f029
17c4ef17230318c02ae41f0215ebf8b7
f0adfd5902e5d0daefc7fd1cb8d6dbdc
fffada12cc021b0e103d08f90a2af216
cfe501ecd00213f5eff32ffa0c121607
0218a41f1cf4efe70dc80e29dfcce1e0
040aef1bf6ed2422c6c2d312e1c1c751
f22611d7fe01dff2191507fc232116ea
d81927ea02130218ddd116ec1f04d122
00ecd73e0fe2edec16c3de2cdbdaeb01
1dda13e6d7382112b41bfc04020ffcfd
02e4df212de51ffe09f31d0536ebf2e1
befbe7d5060cf6f13ddbfbeaf8d8ffee
190006c7d02f2c0c0611ff192b160513
e606fdd9f8d8fede1e1007f0f8ece3f5
dd0d0d0bd0122ee90929d9fa16000125
49f7bf1510ceaa1bf2bcd1b8ace600e2
c4140f20e5110b0130fde106dc07f801
d6080609e3e6e5c6fef01cd7ff12e1e2
5be3eb12f0d4ccfdeb0dced6f0e52be6
3f01111ce8d7bf0404d318d5d9cce2d1
ed132fc4994722e6d03418232e1f1825
5413e3e0060d01df961ef0dff5f3d320
fad4ead22c0de2edc6f6fde4f718f912
f312f70ae2dbf90a0bf91ecbf013dfe1
e711060af82c17e4fc1413f21120f3fc
11f70d3616edf626dde1d4e9ff04020d
ea34f80925fc18f3e4075c2613e42205
1ad9250cd620dffa24f6f7e5e8e3e1dc
ed052f3bf30d2142d11413cc222835ec
df06fdf202f808e8efd6e9f4f0f6f8f4
d7ec492a26f7212e3afc131911191e02
7bd7cd19cbecdcf0dbf8b10cc719ddf0
d9d7e1040203040e1d1af02d0213e90b
ddd4012ceb08d8ea2ddef8c2ed0f09e8
2ddaa5ffc9e7f725e2390a1f590df8f9
1eefbbfcd00cf117c1e3d841190ef1fb
c50e261ce9f03eb204f615e9d3c321c1
24dfd5e5fcee160f07c00c06f51020fc
e4bddddcdbd9d9132ae7f275e20518da
05fac3f6f01913c703c8f211ff0b2a26
c8d4f11a13eb0caf04cb25e7e20efccb
3308cb19dd0806151eee020eee0c1627
e21123fbf0d419f6300a0421fa2adc01
0e1a20f9e9c525f436fd020023ebe4e3
1d33b66302180de72123fcf9113ec74c
10e6f50713e8ecfff7e1f2e607dcfc01
da1eff27f51931cf202f1f041c1505e2
05fdb9bdeaf615fce8c43435d12cf62e
0cf20b23e4f915b1232901daefdde9cb
090df4cc0ddaf0e9d01208e9bb1bdec1
3b14e2ff04ebf64f06f84825f017eb18
171a1f05159a0a26fcfe1231b13ef705
19f418f9abebddaddcad272c09b401dd
cc391df8e12ab912e60ee81d11242b0b
2f0706ee1fe30abfff1ffdfd36dae112
20acdc13fd0c0a1b1b144e92e4e70b00
360204f2ebd1c9ca0203ecd5c4ebeeee
e91af4f60306f224edf9120ce014f0ec
ef112102011c23de6135f4080ff3feff
09ff12ddfab8dcf1da29c3fedd2e04fa
0ed70dd615d5dde70bf3e3e814f404e2
c414fdf1ff14ffd3fce1f1c40bd20097
0eddefb452ddfff922374fe4fee8f201
cbf1cc00b41bf0cd07dfd6cbad29e5fd
d880f1cf36ff08f1ed1afd004a2601ef
10e7d3b90ef7cf94d5ecf3b5b5f9dfbb
ec14e8fe4e4bc9ea17e8baff27e4f400
05dcd8e90bced89e1421060d151033e5
04c2be47f9d50fc0eddad234d9fdde1a
efe50be60fc4d9cfe926cff423ff2fbb
0117b70f32e8f3eac21609e3e413eb1d
132f222d0634553105e504073dbcd3f2
ed0bdd0407fb09c5fd4c00daf8d2ea34
050cc55f25260b12e21a1c1222f1f8b2
f9f7b92afbedf3dce9e8cb29be08ce00
38e527cded06f803cd1e1b39220f1b07
d417f3bbd3ccb7efdffedc0e0bc806dc
bc09ee03d9cdd1fc1bd2c2d1ccd1d8d0
0bd7dfda2decf51133fd0cf20e010c0f
f621d2d8f2c2c0f20ccf07edf9acb2d4
0b32e312ade9d5e1e3ea02cfc4da05ee
d7f628f027d8df3630f50fe4e6e70304
d81bcc28f0ecedcddcdaebfef619170f
0bec2d2b09fee06bf7f4e0f608152331
dc0009f20c2545dde322edf7ff4a101e
f1de170acb02070e02efedf3f6f70820
1c2a30ebabfc12f0ef11fc26362e4926
f9453af2ea3a2c641255f2402505470c
171211dfabb0001f04eb03f2d8e608e6
e614faf0c001070842d1072df8f41816
f2faf6b5f80d1df6fb1dc6fdf356011f
3ae0fded11d854e8d5ec10d6e9d92509
fb03eebefb1dfd08dcd604dbe11feeef
07dce423daf9f0df0601e6f0e2fdb2f8
1a0f01f7211dfae4db0a1ada1909f5e8
1cd10815ad2ee62d11eefbbecee9bf05
d8efa8f0fbd7d9fbe3d8e530fae5cce9
d92c17f3da1509fdd7dd09caf317e1d9
f3d1220a090dffdff7f4f6bdddebf0f8
1fcb3315fb481e01fdee04030d2b1b02
c2ea0a3417fcfaefffc4deccdde712e0
fff81ece00f81a2ef925fe1afb1810c2
ccf808f005df2dceee10240805ad32c4
2e330930fa602a05da2926130844262f
f2e1e437e83df4dbb4d604fd2f28edcc
5ae55a46031a32d319d1f23bc900f113
e3ca0b0210e509dc0afc04de1df41ee0
b9eb92dcd0da8c1400b3eb04e2dbc813
dec4e318fbe6fafc05f0f1abede2d013
1903d3d11dcae6d4ce1705d304f40d04
fe12e50ea7ece930ccebe1183723f5ef
dc100e2224d408cd0d21ed0c2ac0f8d7
220cbacbdcf1f8062bf8e1df05cd88db
e5171620f397c0f8d318ffdd41c6f716
120d2befe61617d7df0c44f904fd0bd6
ff143ffd16131f1c11ee2d2fd6eced16
16d010d7f52a24e6f1d60ffa9a02b8e7
16ed0030f3ee2ddb301e0ff8eff3beec
cb10fccda80320fc01ef00efb0e4d8e0
df3bffed08410320ff295136fb1fec1d
ca2fe5d3f6ee0e3d18b830f9f016ca0f
0332da09efe92aeef71b2e172ef44011
1c09d7eef206fff6f6d4eab8d60ec2c9
fc120ae1de191937fe0d0a09060bff1b
e6fb08210d512ed52b1927e4f626f49d
130703300adbe2d4edf2def2d312f7e6
0cd4215c1a0434344217073b8a37ca47
10dfbe0ecec1d0c7b1c2bf0cc606f3eb
0ae90edce7dcd3cfd6fef7df0c3600df
e40fb900e4d6b3f5e8fbf1d2f8f9e8df
f901e126fefcfad704c3ce0acbcea9ee
d7cfe522d8311abe1bf5f3fe0b02ebd9
fefcee350df904ec00f3dadf20ff0504
f9f0dbd923d1fde0fc160e1600161c07
09032ef7f34a16f929d80d0508210aee
d102fedde8b2bac116e6d7eab522bfc9
10fa3d1de2f11cfb00f6064a0ef83021
ec82f31bd6ccfcd6eaf1ad0ce5bef9e1
2210ef1bffbfcce4f8a4ed0fc6f20fc3
35fb14f1cf30ef03183017060f29070e
f1fbec56ebf2bc1b15fd10fa25da29db
ea072304df3ffad1c114b709cb27262c
0a200a23e50b01f6e81ff636b403db29
edc9f7e7a41d0c9fef23ef0526020c24
d9e0ddc82eebf2fcc9f8ff19ecece9e2
e62308092bfdd8f0eb01f0d103f8cddc
d7170dc30dfcf4eafac805e2e9d7f51c
dbef0eedf4f0eee2c5d7fbc9febef8dd
f63f02aaf4dc1604efe52fee1f081bdc
ea0af9162e1312070afc010307fc04e5
1cd6fbfbe32be00bce1cf62703e73f2d
ebd9db14e608f3d3b4dfd5e70ddde902
e4e72c64974a11eab01e19002420c70c
feefeff30f00efd1fed7b3d6e2f0c7c1
12b510dcedff1dcbe7250c0a13d6f320
0f2203fd05ef2b00ae100ff6eb063aa9
07e0f2fcf4d1f9fc0715eefbea03d02b
edcf2018010331ded2ed13cbdbb72ded
f9d81ffb1cdee70a26f313044b053f2f
e8fb0ce6f8f6f9daf3f011f3dce2510d
da0ce4e10af6d403204cdc35050802f4
1bc6ed0eeff7becff9fae203c50ce2e9
16e9e909e819e5db1603e9e6f217e305
33e3d40008ddd7c602f8c3edfef0be11
fb00f52d0418f2f406fae9181107e40c
130ef5ea0afa0c1e14070b06f7eaf7f8
1ad703ebe5c90cf6fb3f1705f1e5eaeb
d8d0ef03da14f811f3c4c8efd0ef03d6
abdfbc2526d50ffdb3d7e933cd3823f8
d5c3d60f0e20daf2e0c3def9bce8baf7
e6ff1b0223e6fce7f1fbf6edd9c71ac5
e815d622fdff0d1df8fb16271bfdfafc
f0d8ab23561e2b0630dc0e049cf630fd
1b0ee3d3fad029e0bf08c00bc8eccaf5
0f1cfb1ce86bd4f5fcfee039395f48bd
12dbceeeedb7eee5dee3daecc4fbc22a
490331f0dbf90a1cf5f9e601f403c020
dedcf7f6d905290ed802fff4e7dbecd4
fa25f5ffe8b109fc000600fc1825e705
efe8ceece911041638e623dabcfa0bb9
1f3bcbede0ec04ec13eeea30e405dc19
1bf011fae9fb02f9f71ee7f2e9fde315
fbfdd5041938ebd298150e07fe2602e4
15f6ccaeccf6e1d6efdaf703cceddefe
f6040de8561407bffd19bb15f82505ea
1fe3da05f8cfcfdcf411ecefc902cef9
09c2bce9e3cffaaf01cdf1f9af1204fa
1aeb5af70be9e7330a46f0061d2d58fd
10e1e21ed9ca08fce4e1f713fed8d8d2
0d0ddcfcd00b0f03e2ebf61b180dffe5
060b130202ec242a00f5e50601d6fa4c
ffdcd50214191afd1fe903eb03f7f437
15dbf316e14c24ede4fe3efc03f3e4b8
e0efc706eef9f4990adbd6def7f9e5f2
d4a8073518fa410a070a29fcfcfe33a1
161eec07f405ede402b89de2eafacfea
eb06c313cf9dc1e6fbd6a4fee2f6c9bf
ec10f212f8eee6313215d7e7f1d8fdfc
cbf8cb32460c10c40af022e6eaddda14
f1da22fbd31127ee1df939ffe22a03e9
1d0cff1adbe71bfce4f21dedd813fdcb
1bf9eb11c895eefddf9db727de2b13b5
0cf1133112fc2d3201f019f61ae321f9
0f9e190bc6f3060cd309321f5f3bd428
da000eeaf0f93bbef504e81c17f7fd22
c9e518f111f1fa0cf8f2d7fee60e0f2a
1703fe0c041d3a2b13fef4e7fe041011
fc2dfd0203f91329110f2a06f300ef18
11061dec110e0b19090002381cdc22d5
fef1ff20fdc7b6ecb508d0e2d8c2b9fc
c5f7beb6d9e625f14eeaea0af2cf07dc
c43811f6d1150021df1bb205c1d0ff22
f3e0e919bc24d3d3d702cd160440c83a
0b24e6c5e7f825d4e3b9cacc0a01c8ea
f3fbd805efedf0f828d4f105dfb502df
2df02b6e2925f101a411f71afef0e917
0bd306eff5f7ee08fb03fd111218f6f9
e9fa13d0c42414e1f11d2333ea0e172a
e7d51dd2ddf6d5c51b0d42161cece5d0
1a062b000408f942b915fe67f9ff0bed
f6f7f8fb1aaa38eef2e505f7dbdc2ee3
0cd6d4ef0207f3fc0900ff16c821fec1
0ce608131a3cf419c50bf7f84619f30b
e2d5f70bfc0f08ed18fa0bea560bfded
1a2a0a04f2fe101203ee0bf2ed4520d0
0dddd3d704d8c3ce08ede8f3efdce819
f0c83759bcc6d80022fbd9d1363dedf7
f4f7dddf1e1225bb131505e0d0d41a2b
deadef0319e0eebffac2d4bff20bbccb
47fece1713bb4cf7ebfb15fdd4da00d9
fb1e26091201deced5f8f3262e12e815
f6c7d6be1a0bfc1beeacf628fc06f837
1aeefc15d93ef81cf1eafe270b14f6de
d30cfdf504ad2100d8db1611a1cf3ba6
f71c273cd42729d8bfd0e610fb00f1c3
430a1558fa141e37d00cdd0f133c05df
05edddfbceb70bdde500fc14f3e0d5e9
2905f0f021d300dc020f32ddff09b918
f81f1126030ee6ebecfef829fa14f734
212dfef7e8250321fa06f50907ff27f7
1907e90d1018fbe9b40735d40030da17
dde6cef3f430e0e72d1504e60f08e9d3
ed13b703174e0fe10dce3313e40ee1ca
c6021103eac9def73ffe43ceecee1ed8
f3f9efbe1be2f5cc0bc4cfe7e510f1e6
ed1a02f6c4eae2001de10719f7d51b18
e73f05d9120f1dede0f2081ae91ef211
f8cf08fb74f493ea1833b8daf616fb07
0addf5fdf7eb23e2f013eae40c0ce619
1bebe4c1f1dfd9c6e2bde4e5c4a8a0ff
f3dce0110a2d29e5c8dcc4fa1917122c
fce1ec1f0deef2d316d4c117e3e2020e
2a172511edcee8e8eb2dcef82e0f42ea
e1f200de3a04181917d8fb17e7fcd02b
340bf716fffcdeec361ce42711ff20e2
d7fde40b1ce4253b0700110dd8ceec3a
02e308fd1f04f7d91afb04e9061bf0db
eadafce4f5df13e7e9dbc3f4f3d5f0bf
37d8fe3f17deeb010c1212e7f93113dd
063054f11eb1fb47f2f52b12e6d2173a
00f6b015d4c5c818f1dae729e5fbece1
e9ebea26bb1e3a211be5e3f92b10e0e8
03fb10a7ffd0d805d9290fff30d739fe
cad3f2280f2bfaccedd02e21dbf2e9de
e6e8d714d1d7d1dcd2ccdf19c2fdcfd9
13f32407fd091b2c0b230406e81ef22b
10e70ee624f6180c05fff9151320230e
ea55fdded40cfcd5ce06e1fbf2efd8ef
e1d03dbe0f41f5c70b24130f1f120633
0127e2feea10d1d91dfa23f8f0f7e6ee
2d52fbf51d2c4e0de912d9eff41e2722
2afbc537ed041305d0d211db0513b3bd
0601dffd00eeeaf7c2dc0df4d6ca07ef
e2bde516d7eee2e8cdccf1eeea09effb
26eafcfa02f12213f50e0716fb1ef806
0e4bdb12fedac2f410181bcce9e8831b
0bec3aebc528d9e7cfe60bed1f23ef00
251a1507cef0c9d2f2e81ce2f010c601
e1f310f735fbd2dcb60cf1dbf730ee03
0df51b24f3eb17dd06ca14ebe6f9fbe8
d3e81a17f7101fd002e1e5110804e7fb
d0ecff33d104e100f1fc22fbfb160215
ddee02d020150cebd110100bf10ecf03
13e2e006ef070abe75df17ec15d929e7
d929051024ff1c31070813042e1a2b0c
e3edfc11021df8cef3fa0204d2fc00d2
e1eff806eee223211e0315090d3519d8
18ee0010de09fcf3fa9aca0ff4e91bfa
f4efff15bcecc7fd10f4d31cfb280fc3
03da0022faef0df4c8bfc1f616f6e2df
01e9f6d313d4fc0ff70e1c19fbe30054
e31faa00d7081926f9ebbd37e8f60c1c
18fae70707cb2cd7c9e414dfdbc00f0d
25f5010be83cfe12feeb0b180020d713
e3b2bfe403c5f0f4cf170237f8f9f9c6
16adf21b0a03f0d219edce11e10fe63a
cc01020dc5cdffbdccc8eee7eac7dfcc
241fe6022412fbfee103fa413c061630
ee0600f00918f5ed06fb0d0f0520080a
e704cdefe51c02f30bf9ff29fe123adc
0f0ce57ff8db2d352ce91f0916071351
f60ef3ea0c2ffff31afa050512bb1217
0722b3ecfa0301e72720080504f3e8df
de0b27c5f4e836070bf12a04f2bc09f0
ed142ed50fc0e7f43f0c070ef9c9ed31
def3c6efefe1f01c1ed0efbbd2ebcaf0
1a44e2da16040009c3d22f08dff80eee
1d287ffa250014f1d90b11fd36110c0e
17e1deaaeaa5fcceeabc03f2f1fab6f7
0408c8100c0df607102d2306d6d1f5ef
ff030d14f6f9dd14fb22fc3b00f3e7ea
5fd336e2441346e003fb00a0d2cce728
ebecbe03d9ca00e0f8f5f4ee0de9b8ec
e0f71dfa3832e92d202ceb0f1d101000
eed61921dc0c16efef16f5210ffb09f2
1705060ccae8d6ecb1d9cc2ecdc501d2
e0e8fa0416f6f90bf3f30dd307e61d1b
faf4f925ddf003cff8e90406d9e72dd3
eb0fe4dcdc0a4c0d0cfbe6dd17fcd933
d8fbe43119fef8a6fcf3fc249c06bdeb
b6c10af105e3edcbd91ab6fff01bef19
d716b5050717123ee7ccf5fad4f42211
f20ad4f7fa190fcdde3accefd1d9edd0
d001cdfd1bff32d2221217d7fb0ecdeb
33fbaf09f5a8f9bd17c3da10b804bfe3
e3e714fde9c7e1d3da1fdce3240522e1
d9ddc418fd9af0af0a32e635d414f3d0
1fcde03fe61f270b2900fd24092c29e2
efafd5070bec13b105e427f925f603cc
33eef26108e741150b1b2d30d7231dda
edf4f00de2e9d7f6f2c3e21edce0eceb
31c412fc306b4fdaec24d438172f283a
ddeef0e6dce0e2dc15ebdefdf9fceafa
03b8e70b09c8dde40de418eb0dd5e6f3
171824f5ed1b062a2fe7e8ff241801f8
e946bce911f6eac2f5f2eddb0a0eb5e1
fa1ed805dbd2ec0830da0ac2f1e8c7d5
140b16e5db1c150d260be7d52edfab09
ffae190ab60d16f2dee8defee50dc105
f3ff3af5fe1fe51b090b080929e601ee
f0eff9eecb130008beecfc0ff537f4fb
f0fe1410f31010ecd4ecd8f9edf9fd05
282811fdda234cd88f2ff334f42a4e22
f1d701eecc1616d50c0a122c252a172a
e71adfebf0effc00c1e4301ae3f2f0f4
d5f2091dc3f5190612162f41f90abf07
ed0216f8ea3b28c8fdf8aaef01050031
17e801cb2dd3073d26c40ddcc3923a9c
dee131f6ffefcf03e4de02f0eb07e1e7
06c10e1eec10d22511deef18ef10d7cb
261b010ff43006f1c61d16ce241affd1
f3d44ef9e8becacc55fcecbae5091341
f5d8fa02ee07ebda18c2e3f73effefea
d8bee337150101fef7d727d91e02edf5
2ee8ff00df04db140809eab30105f402
08e0f619145d0502d00408dedf3704e9
dcebf9161305f4c6d3b10bded0ecdcd7
de0a04d91b13f72c1afc00f3e7ee02e1
fd1f10b0fff90eacd7de2b26d3c200cf
1f0b18df142bf0d420cd1518f5e338c5
d9e0420dfdddc0ea0ff3d8f90033d41a
f016321b28dcf60305e7140b4f16282b
cfeff30304f2d708e9e5fad209f444ce
f2bce703e3bfd3ccd8cc03ea061df5e3
3118ed1e08e9010e1befcfe2f20beb04
0c12111818f002b70b18d7db2917e91c
1523f109e16ced26f9321d20150b0a1e
e81eefaf0305efd91ffffef4d6b629c6
e70c2b140efbf1ed28110ddfbf0efcdb
fee0c907af0306fc072621d805110806
d8f524d319401aeed9d942f6fedacc00
d62210fce6e5eff8130cf3ec07f60510
040e01efbbf4f6d5f5ebdbadc0b9dffb
d3ffda08d40ee8ff2efaef1fdd04eb05
ce0adaa8cdfde1f0fabb0446c3d7bdc0
0bc4f82508fdd6f82537152a1811ecfa
ef1fec1dfffd27c9faed3aebf60bcbe1
de03e829cb482ce6e50f033511eb3e04
ddeadfdeddcbfac3ddebf5d6deeef6e5
1efe1b1ce3611709f9f139150a1e19da
fec2ccdf21d3d4f907e83ca0dcff1316
19dffa28cfdccceb1ee29f15b2f5ea0d
f7a105cb0827e0f10b0bd7fcb26d0f03
0e1ac919eee6edd2f310bc20c82ee611
e8ecf9c7d200db0ffdf2fdf90fd8d7f8
011fe9370616d7f317fdc5f50c16bf15
0efd1e1204f90b073bf81411d3abad05
cde71cf8f2d0c5ff2fec21f4ffd11614
06ffee035abfbde9e4c326f83ddd23e7
f10d15ddf5f707fa22d1f2f108dd0818
19f5eb33f3f41afd292208f1f3380ded
10d2ce21fbdbcb000bcfb706ce05b201
511feb20c7070806c9050a0243ed14f8
d5c418f7ffddc4f003cdd332f8f9bfed
03f3e211c4cad1d610130e4acf3214ca
f00cf4f52a0b01d6031d09062f190617
2412cd251cddf33cef011e05eed6e8d7
fd190eebd1581922ec24aa101a370029
12fefabb21d6eadabcf3e321cede02bf
d3eb1ee2e94b5be2ee1cd500087ff055
0f160ed010d70b081c05dd00f7f035c4
002a1ef5b5fde4f693eed5f9fbfbe9ca
de19d5c4eae4e8eef5dd14cd0506e4da
1c10bd1456d9b614d9c2d6c4dada93c7
1de1f6e92cfb111f21df3903f105d5f8
110915e5e5fd0e1e1402e011f0fc05ef
23e60ec80a110ad6f00ef3154c230c1e
d9190b22bdf5fbfef1f1d3e8d908cbf3
c0e604adf70c3e232d2220fa1cfa1e2e
f008e13002f501c8eec0d2dd130bec20
d9b62bfed94f58eff234cc24493ef647
03cbf9000acc26eff719051bd3ec10fe
353910e8da17e209120ff3e907ab0426
d0f6d5df250625d3b3e625ced3e646bb
f6d0fbf6d795cfcc0af0e2250804db0e
e7f7f2f13fe045edfbd62017e2c930f3
e3f0c9e408e8f5361b13fa00d109c5f3
ebdcdb1a0eeb16d6f20ccb0dd3dcf206
05f704f2cdc408ed2cb1ecec0515dc02
4d08d8feef13f20c03fac0df00c9a7b2
210031ffd61908eb3a12d30fd8e7dce7
dc05d802ff3307e4bf2e00ec2806f2fa
15fdc6f22edffaf1cbd5040d1b092cfc
f0e8caf410ef04e8e5e7b10a9af6e6bf
02d1d80c09e90c4be121071d10342af9
e2c8e00ce42ff2e4fadd15ecd9270c0d
d020c2e27ff723eb07f60b19def63c20
3e32bc0931f2f4ed0d0d1a210510f301
181e4ffc1fec14eaf3db91fddb00f6dc
27dffc02dbb310fd0916eef3deb9f3df
f3d71420f72418f9d1f6f00930272bec
370d4bf9e6daf4fde7d6ff07c3bee3e4
10023dd70dc51a07ee14210dea05cedb
100611dbbf18dd2aefc5041ceab103f9
dbf6d828052e0e1018fbf8e52815370a
efd6201212f1e311dceadb0601ec0a1a
4bd033e9f3df2613bedc02fed612e7f4
eb231af7b13310f9edfd0500071ad6fe
1319f5d1dc1c0c05b9fae3180030beed
39e5ffe5f6f31bfdf6eacef8bbd3c9d2
661a092c2ef35ec9d3ef15fdedf312ce
180b0fc6fa02f0e0e90304daeae7f5e0
f9ca2fcedbbec5a2f6edffd8edf1e1f5
0eee192502020b0fc0301afd1dfa6352
3218fd22d4c6bee1fc07ce33fe17f40b
2f05c4d50bd8c6dc46fefee8ee08e91f
1fd1fdf5df2c4108f5e7f1020d320012
fdf1eef4f51527a6c8f5f4d60d03fbf6
1ec8ccf51fececd7bff747db460807dd
0fd6f5094305c8cc02f5c6d6f5e0db12
bfccab1419c5e1f3031017c402e21bf9
ddb3e8cdfa3514be30dff8f9e1faacd5
1bf1d803fba1cae818dbcd0eb92323fa
d22ff8f41fdab310a10521c21915faf0
cadcf4fae7203ae615e559fffbe802fc
1bf617dde3040f1f10e434fdedd4ecf0
16150c0a021a14ef33e415071a0404f3
330dbee7f0b2d1f31cddb119ab14c9dd
1829210bfdf44a4d4eba1627dabfe02c
b8b4f9f1a3340219191aeb39202a2537
d0cf141dc3412cf7e938001202223009
f7d109bf1603d9dbcb19d011f503f60e
d533faf6c1071a03022029280f2622f0
ee180adf0afddd08eb0eed0600d504e7
32cf230709f70d155030fe0a0a194afb
e135d80f36ecee1fc9c5e0cdf3f19fef
eef8ebd813bbe2b73b0127c3b9bae0d0
f312100d12efedf0e7e0eff0df11f7de
e0da1313ad2a15ebb7f0eb14f730fb2e
62d7f3df4cc0e0cd018f06bfe095dbb0
c818d9f2b4d0ea201ef9191518e80bed
fbd9f8160d3331f21b191c1e1b10c9e4
e50305c5e806feed021b15140a01f8f4
ee081c0cd80e46f7ca23ec11f0502832
1bf612e4f40427df1bd84e1c1f01cdf2
d427e5041446fa2c0521db0956311ce2
bdfecde837db2deb0b131419bde03900
d7ecbcfae4fe01dcdaf402fb08f902cd
21fdf74a1835ec10d52607e1f2271725
e1f61c0fe733fdec1014ffbff428fe0b
b937392212df34111d220dfb33fa26dd
2fd0ea0420a3dcd926d107d418c3002b
dcecfafbd5c8d40749f5c42a52e2b1d7
4dc7f909fdb6ee030b2ffe280211f448
e424d32b30f5ef02d4d703f6d5e82205
42e232dcd5b6bf3c7c1cd83fdabef2d7
e712140e0420e9fe88dfc5f91e2bfc27
bbf6031a04ffea27c0f6e311e403fa08
08ecf82cf3021a04e207fd2b110f0cf4
c9f0ea3320045ae8ea1d0ef199fe2500
e4f21f0ce61e4c0bc4ea0f492a241905
4d4206230e192dec190b0944fd16c204
f4e8eaf5cce1f2c907f5eef5d2d4f7f6
1a2df2f9f003efec07fcdd1dc2f2adf5
0c26ca10180001fa0107282af4ee1244
03d2c90ce6d7fe09e40de6e805d9c723
fa091ffde8c80edd1ecaf0f1ddd0cff2
f5f41ceb2705f0e207ecf5ecee07f0e9
f7ea06eee1d215d6eef2ee07ed18fabe
efd1ea161bfbf6261746f71a0e312be0
09c8f4dc1acef1abe8dde7aacfc6c1f0
f3fe20defcc73a290bd6e60cb30110f8
d5381801f70d07e7ede7fc04cfe1c919
331dfcf764ec1fc6fb25c71e450510e3
36f4fbd9e708db00f0fdc800f0ecf2f5
07e812ebefabecdbfe02d6d1d78ffcdf
35f1dcf9c74004fce609cf023e4d061d
fbe10afc29e616010be7ad27f434d8f9
19d30fea12e10aedf018ec3925fe0f28
cae7e4ed21e910272a100ff7e4feea1e
e6dcdcd00de0d7d52afcf8f01fe92bdc
0d1def0bf9e910f6d2f5fdfef524ef17
f104e4e005cac3efdff11cda1df721c2
e1dfd41de1d8fdc3fee9a433d2e3a922
d4e101341508d0f8f7c9fadc0df2f525
f636f1cced2446faeaf8f10fc800d21c
edd0d134e6ebceaeffdbc13acc0fa201
06e61ac3f0c9f33ae7c511dc33fbf5ef
0204edcbd3f9edcab208a1cf0efb1618
132bd6f21e3909ea27deeae0b406b717
02d1f112ebe0bbf616d5f915d6e0e2e5
37ed23e7091eecf5371f1906d71000f5
f1121cff0c1d31021e1bf6101ef20eec
160cf3fc51da18d5e2fe09f7f2df00fd
cee51ec0d75c3702db461c3e4934171f
12d1d51412e1ad0de8ca16dbf3c7ecde
140a1cbd2607eabac4f708f0fa0a080b
e705ec1509e0d0dd0f091be630e9d1fb
14d2e8d028d0c7ee19e80202e0e2f307
a9070637fbf3f6ccffc910200e36d029
da2518f9ecccc7e209dd0d0e150cf6cb
d327dffed4e2b1d114f031f0eb15cde2
e2d20007d3151debf022f3290b13ff1c
26f0e2f723d3d0e9d9f3dd1804fdf2ed
0c0c09e6feea0915bffbe2ff0628e2f4
52e4dd1e00edd4c1dd0dcdf202fe89cf
bb05f617e70e15f1d2fde006e307eb2d
ebd3f82dbe0405e40004311901da000f
22f5fe03faf4f5f8f91426011f0903dd
39e213e2cef8f6d87fe4d1242d1bdf13
c71c0dd22615045802f836fe2cd53704
05cffa02d753b9f3f6e3ba02ff30d9dd
02f20cdf0ed62d113d00f1031ad109eb
3db1012cc525112f35cbe506d30efff6
cbeb0ee3c4dee0134301d7f2e4fcfde1
0ec9f4fb03d2fe07e9a9fadfec091504
f4f0dc0bc2f1ebee412a0be7d4e109eb
28cbfb2de36c0810f30ffbecdb45e26d
faf5f9121fb4ede1bf0a121ebfd8f6d1
f908e90bf40c01e920f50547e1e8d8a4
27e3baf005e50e1eef16f3cbc1ea1225
7bb9cd35d51be10a18ebbffbcc3ebf29
ec05daf9190502dcd1d016f7c2171ce7
e8fb1d0bcefbf438cfd01a36140af31c
fb10e0060303011d02150b1036101302
e2ec05d6e413f238ff1bca13021b3e34
07162538f4f2301c1518fbf4ee3ddff7
d8f7d1bd021df31ee1d52225273bf320
13f81f07d7c2021609e4eccffcf21c12
eb0a20fa0bf00513001145fc0af31529
26d30ae959cf1b16fbc00207bee3f61a
0decede905fbcbdee2faeac9e214f1e9
15ff30f604d81debdada4a18dee124c4
04271115e2bcf61dc3484c32d5e81b23
1bf318f9c4f02df2ebe02713ee8eebf7
16ec1c16eff718dce6fdf2f301ec0437
f4ef10c3e7cdee0e222237fe041608da
e8ef03b914b5e90ae601ffdf06ec3a5d
29feedecd6cfebd00a05d7a7a1e7e5ef
ecc412f74b380a29d4540e26631bf212
0df1fa13e13f0bf9f218f51af41601fd
1f17cfe907b1cf2deec0ed41c825c607
d1e307db22dacc1f14bcf9e40cb33517
e6fdd5f3faf91df5d10be0fd16f4e90b
15ced6f2eb4a2fa6d0e4e60b11181714
e6def5e9b5130f0622f0e0e89ef1c4dc
a1e2f52646f7d814fc0e2e191de3df4d
dcf30024fc171afd29c0fe14c9e5c810
0309c81eeabef8dd3f1703f8a423b517
f8c727d0c14048f21e203d142b16d8f7
d6feb9fdf4fae5f212eeda089418e8ea
0ed01a23fce90ae026e6d0090ee51006
0237d036e0d5c3c8fc11f108d5f2a2fa
12ff01121c39170c78e0012dee0c0802
1304f1f13203291119ed2cf3d6ecdf22
1b0d3f0ce803261b0be4eb52c422f724
cb0ce61700d6d9f0fef4c62ec3ffebeb
d11b0e30002612efe044b1f6e0062d26
04f0cd061fc7ca051abeffbde1c5d1d0
cd00fdddf7e50ef31ef02e0a32fcdcf1
e9250df8d501f60125fc18f721243914
2122d40743dfb8d1d6c3cae7dccea5d6
d4ec9611e1c2adc130c60dcbc3dfba90
d8bde8fec4cb8fcbd5d02b15e1e0cfe5
16c0e443f40ef4d7a4c60211e9d7fbee
f0e9e8e3b7280036e2282c2620282e0e
d02b03f196572803b7fed5fb164b1626
3113010c0e18f9eeecefd8070d25f80d
f31d022c80335402b831fe05f2351d36
f8fc2edec72127fe03230b38221ff53a
ec01bfd8edb7de190af43cf5f5ef97e4
dd3013dad507fc24c25a072f0c2ace3f
e3d4eb0e923847f8d21dc5f70650eb17
02f9b3ed01f11f151c1939c6fefdfa1c
d422ed00d13cbad4fbd69df7ffebc0b3
d9cafa0b04f3f31df9e605f41e350afc
e7f31e131d4204e8e52510fbe83022e4
f29b3904e0c7dfd435c2e624fde4dc05
0940e218cb22b5d6ef10aef03e089f02
e0adeee2cf08f60227da10d4015ab8d1
18caf04e14040af99b89ffc02100010c
03bddd310feaf2258e480129d72fff0a
d2d3e80e32c61ee2fbed17f0dbedf8b2
36f7eaf31202e601fbfafef7f30529f7
ce0beff4190339ca03033601b61c29df
f907fb22f40031140efe0013d3fa3d23
e2012c0ee9e604d2d6d809f12b2ede44
f10c203923f4081a0ad20a2721433de6
eb07cafb19faff1ce1f005ebf3c801e3
1dfe54eff9edcdcb09cf2fc1e3d73dc0
0aebfd05da142fe90bc21705d3f8e304
3018b9e5e1f4ed0bfb07dffa2914e00e
24f7cf1322a714df0ce72c1bdfd10309
f9ee0992cf3adc01da51b71f191865ce
2713f1bb2e1d37fef9d505d6dac4b312
e1eec6ebbc2f0001dc2e11d55100260c
c9e106f1d646b208ddf1c32712fccf18
fc28b72022fc16d5073a0712dde7d3ea
29e1eaddf0d1d5e5f30df7ecbef502f5
f90d06ed2df3f1260df817def816e302
0dfe14c2b6e43306c8c3451092ccfc11
3003eb19d3371309e834060d4afd2408
192ef22cb939f0f0f533a60358164600
1727e3ecca511fe9e6eae422202734fd
03f8f1e708e5fdd3e5d6d1cfb6f6e9f0
0813d4dd64e0d0121afd1dff2406e13a
0712f512e1fa04de1623f6c4d504f54b
07eca45bd3daf4bd2ce5c645dcffc117
01d60d30e70e67ea1b20ddee0e16cfc9
01fea23a10ecdeda2ce3b41cdfdfebe7
fbed173e46023b05231741f75a0ce9fd
e307d82215dcf91e19dc03082109e131
0fe037caf9e8efece7023f08131b150a
f33adafcd3df12fade08c21efd27cb25
11aaf84741bb3400e2160e1728f905b0
f3e0001127d521a615f6ee14efffe8cb
f50cee2f127e691e3c02ea032e1ec7e3
c7b9b52209d5f6e111edd632e6ffa605
f403c92ffaef29240e22ed02ebf4173f
0c9c015124e2bfd4f701db4fc103c6f2
0aa6d94fcca1aeb120a3f3f7f8e7edf6
080511fe7ff7eefeeb161d1cebfcd3ee
f7ec1cf4080dec22d0231cfaf8d4c9c4
d5e32a98a912fdd0c602ec3233fbb62b
9f060bc1d6f4e2ae12dbf3f919e1abe5
e914f7d8bd0f1ef1e5e7f4080f39182b
db13fcc318fcdffbe9fb43230ce5ee01
d7f4fc1ed514e41610e810dedfe1f7fd
13c6fe2501f7fe2521fb35fd21cb100a
9d09eb07d5fbf42f020fdce609170df8
dfef00fb10e809fee309010810f4f7fe
d746f9de0dfe0ffbe8ff0ffb05e7e0f9
e45d0e20e0e50c2b52163ceeeaebe209
d22ab502fff9edc7dae400d1c922d725
52d756d1f91237e2e7fcf316fe05fe02
cb33cbe8d90beae5ebcdd5d2e110c0fa
cef8fcc3fe1a1fd7fc08f207e607b813
fc021af1f4ef1dc3cf4926f6f6e8180e
bedfbcee081e01e9d7ac1a0b440d03f6
a1d90607e7da03b804b6fd0607b3e4f4
f4eefd24d313d1287606ca02f01dd914
aee8093eeac2ede0d7fa08d1fbd018e2
b5c32df0148212cc0c0ef64913e5eabb
bbea0811e515f4e6c11eda023401fbd3
0de801f1e10d121ec4f010f43423f3e1
d024e0d7013e29f6c6eff9e7f820ebdc
eb01010aef10ed1307d5034e1206f3d3
f9ee1f070efe1c122dec0d28fb0a0bd5
fc0f0d11d0c824e30873eafec92f117f
ded40721cb08deb6f1bedaf4fd00cedf
1f15a8d02aee11e4d5f70f1a10e7f8bd
c4a8fd3b1e30e1ed03bfdad100f000ae
a90433ee16f92b840c0dd6f715d9daf3
081a410cb60e03fbfdb9071e26d1ec04
ea0a1ff5c732f0081bf8f30f1a111501
d2e3bcd79501f8d506c3b0fafbd5d7fc
0b3508feab26112640dcdc09214f1be5
f6f4ede8e0f434c905d423dbbc01e9d2
2703ebeb003e4fcb23dc1f2812c8e4ed
0944e4c4d03b34e8f1cdff0bfa06e1e8
170e2d0949c9f5f2dcfa02ebea1cb4b8
e3001cfeccf0c6000814e1f0e20205ff
f723f6edd5eff9ea35dacb45c917b1dd
070de308f755162b7f1c080b07eaffee
5fdf041dd4594901ea0263fffbce4a02
f32eeec2d829070ef2b30817e122e6fe
f032b8e0eef10e39effae223e968ea20
f3fce4c0f02301f2f8caefe0bbe9c0ca
052ddffac0b919bce9c0eac1c301acdc
2aaa0d15001c3036eff6c02123fa00e7
02daa27ff7a9eddf13eec2260305c003
ed1020ef0969307ff9d1f4d5460a0326
e1e517f51bddde07d3fd02d44af10807
fdf933bddefeeecf0d0e0a080507e5ec
35092cdd1916191124e40c0b0e09a2d6
fc4815afee45020cbc05c8ee6e181a26
b09b22ea284a2e1523fc3a101114fbf4
05f4d7f503c5f4d3d91d3bc924ef40e2
c7aeab63f8cecfcd23eeec43d1e5cef3
0d23e7092cba11fdfd1b57082bbcffcc
f01315c8d42605e61ef216f9e507ffed
fd45c40dd51c0ec326f8edfae526cc34
ff1d3302df471810fef904e22c0802fb
26aab339dfa7d3c8e9f2cdfe09eeda0f
f33409121e270dff100edde713dde4f8
1b2df29f2313148eb71eee072b54d502
dd0a2fda9d1210e5ed06f509ec01e10e
151104d9ee09eb1210fdf801fcf60008
121409fe12fdfe010b00e2e8f6e6f3d0
11aeec0af4dbd836fde3f3d80bf0fef1
b4570b1001dbfbe306e044fa27ddf2ea
2fcc0250d9d5dd2825efb0f809f130f3
aecae60496d9f3d5ead404c10be3d8f6
10e1e20039e7e32c263b1efcfcf0fad7
b70d12f18f1148f9f7e5b205db7ee417
f1c929db10fb33072d250c21ff0117dc
f1bd051401df082035e1e81be50be4e5
f653131ed1df015a3e29c9fadc082600
c11efe1bcbd7f50e7ff41910f8e81bcc
13bb34d805f70eaafff1d70dfe15e12a
c424f9fbfdf1d4357adc1e1a11cf45c4
fbfef1fdecbf46e23929f33dcb142de8
c9151722ffea06dccdf2ec0a03dfcbf3
39dd24f6eadaf5d5f018dd50eb39fdfc
3108f4e9f3eeffed1f170c29f5efffe6
fd03c50eea7f2119fde70bca5efcf202
db0411d7e89618ff1d4fec25d31bfd0c
25f1f31beb7fb537f3010f263e67dcd1
9de7e830ecc8d4deda41e3f7ffeddc08
0d322dd5eb552c16f4030f260103012a
80e5084b0e1edfad28b91e02fdf7090e
f249eab5edbf20ebe30a1524f0daf407
d700d72adb00daf7d7f202da14ffe1eb
2dedec25036525e8d262f2a6d8192103
d1f5273cd3dfdee7ff2dd608f62de03e
92fb25b218eb2facebe903dae8feffe9
c80a1e54d30ffb03080401e1f02a004d
5f2df42ab8ec39002cf51325fb1437ec
10e2f61eb10cf3d30bc0f9e5ccfbe8d7
41ede7f9c83629e5ebfb48f2f1fefa17
20160f1be330170fe009db1cf323f0e4
d948f2e74ce6e04efce2d2110939ccfb
1ba75b2dcb5539c4fa520be1f3b850ce
f3f0e8224e2ddb48fdf02a23394ebc3f
2c050fed2f1f07aaf7f9d12d04e314d9
11106714f2f24f0afcc8faed2706a8da
061011c4b80c0ff5efbbfc08bfcd8bc7
f4e522d6250afbdb3eea29e4deb1f909
05e818110ecae9efda0708262ffbf8d7
0c04ece3dcfb15f0bdd713fa10e71ecf
2a06fce9da1e6ed9d5163ee400db02e8
f8f6d80beb160b992fe9bef6c4ebd4ee
1919f9e907f335a1ec2117fa0be24ed7
2511fd0fdbc3eee1c9cb11291c1ef8a1
f9e218000ae904fc1915d4ff21f32e0b
1dfe10dc43cfc81eed02da05c111d904
13a42045fde91fd108fdc2002e0222bf
e6eae8e9cb16efcea7d7e6b6f700f9ec
e7f7f5183cf5250226f330c53b09fbc1
dda8df42f2cefaadf1cbdf53d50fce1a
070fdae7ef1625db16322d9f2dfc361c
003111f8c1e7e112b9f90ccd03d23908
0d1ad62515c5111b07ccb642f7c5850a
120be041b0a8dd29cbe99916aeeed022
011cb5cc4f02040a0efd11e35103cf3f
c03eef0bef4918fafc01df0335fae719
fdc4cf3cffb1d6800fe6cd26f417e0bd
2ae21205cc0e15e1f3f5dbceea01f5ef
2bc1ea384af535db28f2122c2200fbf3
9cc8fee5eedf0e3341e6f5e61dbdc007
f50a42d0edf3e8f1d225fd0dea0c2511
39e8ef1feaeb0afefdeffcccdbf3e91a
80002bc7b6390fae15210716180a2d18
4cd8dd411df6b8170ee0f4e3f3e402dd
80dc28b1c7f8dac316d2200a06e6ede4
b91af6dcfe3020d0d3c4cfd6ca34d630
54dde1ee0febd1f40bd32410aef523b7
77e5fed42c0ebdbbfbf110d009e4e4e8
0c5229f2cb2addcfdbc3230df321ff0e
1ad102fc131c07dadc09b1fb2311db16
0a5135ec1615ce9bef392b13ca0a21e7
17cdedf0b8d3be23facbe8c816b92400
bc09f3fada290cdc1decd3f7f223d034
0f1b02fdcfebefeeed0daa0fde01bf00
cd0f1109e90d2fdcc718463324e9241a
f8221e3cd54a16222a09ee05ebf9e8f9
f5b9dce0fdbc0457bae70f1000fccfec
12fe2b0115fd1cd50cd7f1f6c1ea0bf1
f9202a1407b2e7f6011c123c3618e6a1
47e3cf21c82220f80fec00e2f002da04
a6f7d609efbcdcf218fe021e1315edd1
f1b9e13b0d20cff816d8efd8100beedb
3a0ee5eff0dc0502951cfa102d0a0fd9
4bc703e7e4dee63ce6cec511f3260fe8
cfb4fd3bfcc9fca6ffc00fdd18a10314
42e1e824070e25092ba01818e5130dc7
e90feda628c103ffbe0de935e3fd2de7
e7fe03d1cdd12ed5ce42c1faf619e707
bbcaf0091ff50dbbe9bfe3cbfae4f3ce
17feb22502fffd201dfeddc4fef9df1d
d4f1112209c2150c43f21e1c0707011f
f418e3f9e3dd0fd9edd80ef236f4e0cd
e506f34de8ece1c92d49c5001e35b80c
1730e0d7fce7fd140a08e400ef220c0e
20eeb443006c4ce8601cfaeafe09bec8
f505f3fa3cdce02186e5280eb035f910
1eebb003cb632ac54ee7f3f3d10ddcac
18e8f1b4fef4fabe10cb1003d7e3c9df
0b0ac9dd1f1af33b0edf321de70da028
eddba6d822ccf8229bc87f41e229d52b
d617f7a1aa3226cef0a1d8f2dab6d6da
dd24d5e4f4f1bbe6e1f0fce6d925200e
fdbfefe42c0a24b138ea22001aecf00e
11a7c9e6cc3129f5fc1659d5ced0422a
f10c06cff01bfecf14c9d0eec401d4e3
031ff21c010d0b20bd1d0e0cf71fe8bd
d908eaf806354ad87ffd0e3306c30a14
2301e001dda2c8b205068025de24f8c7
e2d40ad202da1fe905c3eff612c802f6
d200f8081325ea04e8e910e918c00e02
f9c8e5801ddae9083c00c90a09180821
fb131500e1eedc3986fbf1f8d0f5d8b3
fb8a252a19f110dd0d031fe21c0eddff
ec07d1de12eabe7fa3d1112acdeefc23
e0dc370e31162612340fd7002921eb2d
06bae6064abff8e2562370ca41080d24
0fdea357f8a6cdcf01e9f43ec4ccddf5
06d91205fee2e2b2d139e7e531ef2081
fdd3dd4ee4a726ab34eabb25e5e9d6de
13243c3ce362392c200618f836e71c4b
e711f7e5d7f945e2315f4fcc2126fd42
ef0b1220393b66333a1f170a412101e5
11d4c762050bdcdd26f0aa40f9fdc30d
f9c72eeadaff0ed1c4289f07ff181226
f0fd04dff1e7da14d1f306e4d9e914f2
f1f2d4ece9dde0fc24b9fcdcf1eeefe1
13c2edc7422205f9c501f3c3f01f1317
f3e709ecbee3de3541c4f3d3dbcc0bd3
ecb9f335ccddc0de24e812e4dedf0acf
e1f7fefc13ebe80ef41002e2ead53804
1921fc5fe9ccfa29f4b026eb26fa12ca
f8e9011637f4f23d000b6d1efbfa32fe
b0f8fc01ee352ec3d915e6210e350d00
fc06f83dfa0f04cc061acc29fd0214f3
142f1d16b13104fcdc24e72ae71c0928
04241f2ed2f20329414006233c230920
feafe247c5f9cb5e3ed224e8fbe511ed
b847d2cadab0f8115b08431510faf805
d9e92accb33e46b3ebfde70dee3ef5eb
f2c9081010ccf1d0e3e80401a5af49e3
f401e6fae624ff0408ccec0dd20804e1
cfedfa27e006d8e3da24da070c0dddf5
14eef6c113f1f60335fef4c100dd0512
d0202c19db5afce5c7cbdcde0e24e4e2
fbc7de19ee04f6eecfcb021fed29c90b
d5163dfc01f7edf139edf9cfb746f8fa
ff13120f061d0221bb26d5071120c014
13f63b1a0916fc2bd7200d122ef3f8fd
a6faf93a33ef1180e0bef5df11d726d7
dffad6d608db072fdc2913df30030a05
0af206fa40ac1ecce3dd3cdadd9d3cd8
0b2c4325e71b1525d524f221460ee117
fcc60a1efe66fbfd82fccfd54f00ebcf
eaf44072ecf7ebf3130eda31f34cdb66
c1eb0a30ebfc08c5efcafcf7f8cdf0d7
c1cf080abbfe0cf6f6fed0e423139fdb
e504ad3ad003cd0f4de1fe00de01cd13
39ed09fd0dec20d9bc0416fa12fd1300
f608132ddbd6d32b300ec6145101f81f
0236071818f40bd3e31706d92b150758
eecdc6f1152ff10266d9bef69fe911d9
f215d40c05ae07f3f804f0c64cb94a00
0e0a331a0a4b151a050a2bfffbfe04e3
032a72fd493d7ff54cfa0228dfedcf09
c702e4ecf50828f5fad6e2d8d0d9c1b7
e5e9fe173ae5defd1a15f6d9201ae402
f1232cd8d01005c6d9bceae5d8e293bc
0125c613d0391ef0fe0c295d1d011802
d12737dc29f5275f18bd074ee9d0c335
5b4c1bfbe3274cd6cfea42233af63c1c
11edded0d5fb01e5f580f413c7e3b5e1
0212d80c11453349f213ecf31601c91b
ffd60a21022d1eab51fe28ecde2bfeb7
dbdeec21c980ced7b7ccb0f8d20916fd
46b71e64081b4ae02b162af7b0fbdbf9
fcf5a73bf7c8aaadd9e89115c001d9eb
f3efe3f722f919fe18141bd365e836e5
fb2beee003c6e0dffee6da0b0712e4f4
f10af204dcf3dd0cd6e9f713d8011dd3
e2eafa02e11324dbfd1cd6e6d7e0cdde
e8e20c06fbeb38b3e715dce0f7dd24d0
0bd101ee1fe2fed8fd19eaee150813fc
f70c0018054f322c55f63af41df7bff8
eedfe92dee80ffb316cb0d1cafd5b8d3
f6f30648d9a1064700e32df2b8ecd30a
f2abee6809abdcd5fbd5cc1ec6fbcfc2
eae7c41bf1bdbfeb20dbdd1394d912f9
0028f7f7b4eff1ff2703e522ebf7fe1f
c811e31ac4c6b7c9e7ec33f7dfc3fae9
2406fdafbce0eb83d30be110fe1102ee
ff11effbc0e755f5171e03fdffdbd905
e5dc160dc1f7ebcacaffcd01e33bed26
e8f10eaf37c6fad8be0032d4e9d5eae9
c7fd01f2dfedd2f4d7cf0120e6cfe4e7
ed04ecf9ec0bf72156f5e5e305020a0f
07ecdaebdd0ddf19e0d500c0de22fab3
035315c5e3f317f7cfd90d1213f6f005
161f08d82e1108ebc9f3140815fde91c
d2fb01fd07df1000f1fe18eafd44f1f9
e1e5dff706da05d5d7e9e4fadc2cec12
03000349e80d33f1dc171134003ef206
d7ffbd1ad1f1fccac5f3dbf8e80fc511
cce8f8eddc0b07c2e5f0f9fbe503fc1b
120721fa01f52b1ba75e32e50007fe09
061cc206bb0ff1f3e82f08ffda38e93b
b70019fef9b706e3d6ba1106e7c700c0
ba05222df8cae32337e9f01c2b3a1b22
e8d2ff232ac900d9cedd20f3fcc11600
cddae5ce06ec04e02a52022908c5f2c0
f3e8ecfaeb14d1cb08ded80a02e5eec5
e4e4202ad95ed814e2e7eefc072adce3
0d00d433062610fcdfe8d5d2dd35f305
f9f82b3307f5fdf62cfaf40814fbfaff
e6fb09c001f2f9f230051b0bf3ea12e8
f20bbffe47c4fa23e630fb2adff1040c
c9eb040ce3f0eddde3a9e4f1f3effcd6
fc07c4091efe221daaae2639ef0919e3
c3c9b4421106e6e1dfb2d7e9f90adae9
c0d70c12fea6eec2d8e9ddfddab31cf0
131aeaf6cb3c131d07f4222112d3ef02
0ae1d7f46519ff27efe504feef15c5ee
0a0708dcb1c7ecf8c2cbb601cada85e8
3d1c0f28f14640fb0904d213cc4b24ca
ef06fde8e5e7fed6cde2fcd6bb00f8ea
0ce62911d1fd330b0decf12df0e505e2
0b0919e9c41b1b10f4e4220ef6129d0a
060d0106f7d11217191810ea10f7eefc
f104aae020f5ee06f7dbf6bda40308f4
0a19edecc0f831c43ae51608eae60fe8
38040f07d4f91b1009f7e40febf3fb0a
f5030429012e1803d84e2b06c5f82ffd
d829d4d9e5f202f8e7d10d14e7fbf2e5
c916e1e2f509f51debebf91a002a0afa
e025d6adc5eaececd8d300d4ead6a1dd
f3e7e0d893c6f3acf9cfc0f0aed6f715
e8f44104edf1240df3eb1d0220b82bee
06dbd119dd93eff1f60ee1180dd4ebf5
ea0014d3fef80a2ee6fdeef647cd0aed
f4f8e10a0302faeafc07bf06f704fd32
16c6f80d0f0bdae41b18441ddd0fe8f6
fc102cfee53dfcd51005f9043a01dbd6
0fc9d3ff0819f3eff818e902da1ff2c4
e39f0b55231f42002c0752cbeffe10e2
1a49e5c5020eff221303e1db0310e72e
efb7dc51dba2f4c71ae6ce10bff0e5bc
0611e512410a210e29f437dbebd7f9fa
d8f2c6db07d0fea80cdd0c0fecd9c6f9
04d4fbf83dea18dc1b0f741cd5e905f4
170afbedd30310b7e4e7fbdd07eef2da
0bf3e514d5bfd4dfe5cbb11ebfe7d4dd
2e2f2f08ed0a0d1a4a1633f5bfd5f5fa
091e16cc15fd08baca163add2518d819
27c00ac6b5f404dbffe0fdfcbaeae9e9
d7a40ef4fbffeeedbaee0e13ef21fc22
01f71102f3fa09512005e3ef1f1825f1
c80c1c14df401d364ff2450ef5eef613
d82403df0703051717cf190a04eb39ed
bbccd319ead1d1190c06f7fee6f4feef
d7f3eb39d2c8e3f41ce568e5e6d3edcb
d0f9f4dbe3f8d864f7f0fdf7f01a0935
d1d9d0fcce3410fab9040cf2d13af307
e2e90bbfe005f41412d3f5f921eae3ca
bf1bdcf4f3dc221f3bf420f8ebd9ece7
0be8d6d71526d9e9ec12fb16e4fe020d
f50415d334effc342212f4ea11d603e2
b9e6fc8cd93a43d3fbdfcf15d9edf652
e30dcade06e0ede639ef33f1d9dcca12
ebff0afc29e0de0fde20f838edf9fbe8
94f21304d5e9e7b9eb05d5dbe5c5dbed
d6e5f004f2e80d0bd207123fdecb1fc7
0df9e4000408360225fe0ff7ff0d2009
befd100b00380101210523d427180b2b
fceafff0fcce00e62063e4f3ea3a0df5
4c0321ec0523d04704cfd5be1e2e2409
da150ef3ddabeb183823ce120202ea05
cf09d819c33d12bbe4ed01d3212722fb
dbede5380ffcebaff1a9fa23f6aed6f7
1f38f32206ef06edb70a0dbeae1c00d6
cef6d424f01811012d08e0d80212e15b
16e406fdf2fef2d7f5bd07e7ef23dcad
fc0fe0ffcc1a070c32300018d622e6ee
9afc0bb52cb41cd1d5cf05d4dbae0c92
d62c1522db3beaff02f6e605f128f0fe
27212132bfec2ff7e506e4e7d132f605
0ae418cfecede5d8fbc0c1dceff3f014
07c4e112f60b01cdfbef2505edc1bb11
d434fdebebf8c9f1e1f5dfed08f8fdf2
13fb42f53ff32712fa0ddcf600ee10f6
52c4d30bfdc4fec3101e1ee9eddb07ea
d1fee9df38e2bb16b52a20e92a33fe0f
0ccfd407446efad2eae506e81b0feea9
fe2c170bec29caf9f9cf170d57d9f921
d802f8c4fcbc05e907d9d814b7d5cfc2
02192b1eb30840e9f5a13e15e1cc02ef
180b21d045cd27031424fbf510fcfaf3
c425c2df18d217172850fad8d12dd817
2ff12ee0d7ab3adaf4eb0ed3f1e3f806
dcc0d501f0acc6c6e8c2b114e1c9bcae
eefd4522e2f40c07144bd7dfcf015657
01010218dff5fa17d2e4d8ffb8f5f6c4
ec0c27fd0c040fc1f3f8f0eb12233308
e9f311eb26f2183209dbef1bcbe1dafa
15f8071112f339b0051dc4e9102610e8
36f8cc4609eb02ee09e30afab913d901
fdf2140453e022bc072d1de03df5ff0b
d9b18c22f1ccc6cd400abe2fcefbc3e7
fec1d22121d833ed33de7fdaf50c5249
054f201a3bb5c845ea221b1fb8a9287f
d7cfd020ecbdecc21e17efebcbeac5e8
f3d5eb35e0bf07d0ebacc21d02f514dd
16ccbcde47301b22f6e51beb43fafffc
cbe407ff4ae7ffd834ea48ff1dfc1934
f6c8c8300a8fd9ace8cee9fef1dab0cb
2edaf329df0f08fd18252bedd429fee7
24d0e0da18f607f61905f60b0c141cf5
c52bf08fd00f2a1115eec3d805dcdf01
df150b13bfff03f3ba3d023b0ff51d14
f030e931f8fd111de50effc4060ac60a
1c4310e3e4191bce0524dd15f6dbde03
320307210edc18dde90ee7f7d905da09
ede313cb2eecd710fbd9301508ea01f3
ccdac9fdbfe6f2dadd10bef3c722d104
110bd822ea00dd03400760fddddf0711
3de8080be4bd2f011802e1d6ee0cdc09
00db17facfeafcd3d2f11318ab0aed0e
1e55120a141127d4df0af313f3fd0f1a
01feff162ae9eaf1ce2f2e1cbfd3efd8
f0ab003344eacb11f5f336a002fceac8
ce08e9e0e9ffdbd699c9c2e1c816e51d
2309f51ce3edf3d3de313203ebefc206
ee1b0ef9180c09dec600170f0b091116
ee1b27061c330bad39e81afb2628fd0a
131d1cdef0f73229c60953172625090c
0ff10b16ec17f0fb09ba02eaea140c13
0d07cbe22bbd060b1e1aff291ee20ee0
3d03041c152e02e5f4c403ca04030e03
f9fc06ff09e5ddf023c2dc2e161ed7d4
ecc6da04f91cecf2eea8ebfed6e0f4ea
03fe242aea9df50ed50832e4dedde617
f8eafb1ced2328fd00ece84626f104a5
cfd213080aa80fd7e6dffbeed182e0ee
10d60cf6f3ff1fe94ce6f903a10fda02
2dd7eae908da2106a011fe18dcc7f3f7
3cd1d2dff0dde22abed8e327cbdb2912
afe3ea0523f8ff9100b1e6d902d5ecc6
1b181734f20015f40bccff183a0dd312
f51402001bb81df9fb1a1135e422f71a
c900edf8d72e010818e70c0016391cf3
e3f7ff4bd7e5ebfa10e1b6f1e707ea06
fef9f1d6ff2af926ec2916f6dcfd2935
f426e9fab51ed20c341d0b06e0f7daec
dbf6fbcafbe805f3cbe111f8f00f101d
090ebeedf4352c0a1f06160d0ee8d826
0605fab0fcccecd8dcecd8cdc2f0cef4
fb1507c22911300104d2f13df4fbcad5
fdf7f31700c74115def6600210f802d6
de0905e7c4f9dd0d1ba909ffaefa03f1
fd1bdbe4f8d508eddee241e180eb15ee
1dc804d9e4c12cc41fe11c17e8dbd8bd
3ecf1bc90b4e0a15ec1a3f22d7d5ebdf
f0eed9d7e7fafbdcf5cad6c7ceebc9f9
c20a050a2823f515e0fbc929f8230afc
e1f51e029f1de1cd192911ff04dc1425
2c1a030ef184bce310e9e717befdfcea
ee96db0334c828f900c0f20603ea0c14
e5ff0618000df1f60efa1fe7f9d23716
d704fffcf336270f5207b716164f0b25
07f4f717dbf8fa1dc5e00800afcdf6d0
dcbfcded69eb00ee1bf41dfb1af3160c
042c0c1c0f11315108c2ee2a01d9d757
1ed8240321fcf3eb522a15d2c83ae8e1
f107fcf02efc3301f60f10ec0008e7e9
dadfb53ed6a7f3a000d7e435dce4afef
face04ff10cbb2f3da3704f8dff420d1
250ab740ffbeedd4e0ebdf239e2903eb
1d2d212cea18412d3c2d154f031d4f22
2eace1f90718e0c9ecf450e6e6ee2de4
f6dfca0b000d50f243f72afd05f7f028
0ce0c035faa9abceecaeda00c0e2cbd6
31b5f2d4db39f1d21c1dbb27e732520c
f60803e803f10beec5ecf5e310fa0810
09e4f4f30ef6f20828edf9f20eebed01
ef1403e8dd11f9360afc2f0949fb5e04
bc17d7ce0b013700571a12d52cecadcd
12d3e75617dcefebece617ded9d8e0f4
1633fefcf10807181cece6d518fec3ff
16fc0404cfdf10e9eeed1cf8d7e6cfea
d620f9f11f12ec4d240e1605f6fb230f
cf05e6d5ce1c1603e6f7daf0cb1807f8
02ece113dd18e710d40bc6e7f8f41600
15ee132cdfee1cbde712131cdc2e1843
e7d40ef5d923fa1636152616fff52029
06e3eb1c16edcd2607cb590bdbeae1f7
ccf225f7bdb6f6e119eb2e1af206f804
e0fb1b0be70518bbdefccbebdb39f415
3437e8c508cffcdd13b137d4df8c08f7
0deaf9e2fa2ff2e8f5cce8f40feed300
d7d8e6220806c71bf7f4f323184be1be
3ddbc3f7f71bf7fbae1404e538fc1337
cc162231c437f8ec0faaebed0234c8fc
cac7ccfae8e6dbf720d40c1af7f5da27
fc03171ce317f8f005fc15312369e90c
f9f6050a13e13b01de0be5f5ed0cb7f3
0814f209df212afc943521d1ddfdfbff
b4e7003906f202a605aff4fd07ac0006
0bfcd5d908fce703d0f900e72e0908eb
e71917fd02d6f8f4f1ad25f4f6b72b03
f4290817271b091bdaf10c41fb21d110
eafa292aaf3ad70f04d2f6f92945de39
b7f14219031ec2ea1401fd7f3e23d740
03def1031dd8dcddfaccf9e820bcf4cc
dbd8e904cfdafdacb4f9c0c50ef9d3ba
260af0f6f20004ca0edce300cd0af9fa
19120cf6c1eb17dce81f14f723e5f1ef
1916152ee000ff201837fd09daece60e
000fee07c9f2fd20f4fc25b7150c2617
22f520e13dd31bbf11fc0a10d0f396b7
1b14d611b23f0f21ed113a15f0274fec
bbf11c2217360efd1a230a17dc0ddaec
1c381a26ede338f207e505edfae20b0b
e8d0f6e2dceee40cdacadb06b6cdc4ef
e10cf703eb09ea45fb0df30ef100c8fb
f906e4cec0dde011f402fe02abded8da
1d11a51904fcff0c052318023f2a0919
dc0144eb29d408081e39ff0524fe1803
fb1a1df7ef5b4a1a010404f404f6fafb
fe1901d5fab5e0fbcad3e9e8d4ecc0f3
02edf33d096036f2070d26e9381b0002
11c7e71c5890dbd81fea7fcd00ba2808
06fdf33ee7d0dc0904f2c4fbce4a0ed6
039823f5bcd8fa05f0b3e112c83e2ee8
22c1e504faddd4d3e2f5e110d300f7c5
eb16fdd11d031af9e325f2e47f0cf31e
d400d21fe80a0cd74708caedc7f8df02
db1338f8deec292febf3cd0befe9f7ec
03cf1fe728cc030522f72ad8e8f2170c
f8b0e7d527cce026efeffbfc23d33f18
fecce5dd0ff8fb100d12df160cecf323
11ff11c3f13023e35e0027f1f919f1f1
00c2d22718bec1e71cc51d29b606acf8
000d3a08f5ff30f2db321ae509fe6bf2
08a3f7550ad8eee215d71531e9f7bae7
03bfe711e6ddf1deffedf33cf602c809
d6fc060de905e1f8f40348e701162b12
3cd9ed1423a0e5f53cfb2a0703bacfe7
aafc060a97f5ecf6dc1aca1d0341f80e
0bd0ddf8dc00f0c6e2ebde18fcdf2aed
dbf3f223b31a27e0cf04e20ef815e86c
10ccdbdc09ececf0f3071fd0f6d652ed
d905f2fa8af4e6dec3e2f30bddd505e8
e31de080d3c5eeedffdcf2f3eed2d4eb
50fb060c3ee0d8cee6e107c2c4e089cc
172cfcfa59ec1bc608fa3c0c03f3dcd7
fcfa041b08080a14ff19f20bf3000bf4
fee8fde7eced0bdbe40a280314001409
96f2050abe0319e9eb01f9e0f403ddfc
f9e80dabef1aef06081c44f51e21e4ff
ccf7e7e1e52245bee5dbd5c8fb36dc39
ade8da1f9422e80eee00e919f147ff51
1bf724ef27f61ff0ef2f3732ddde1906
0941fa1cd403e001f7ec08e2edb2c5f9
b3fdeaa73bc4feacaed5eff9eab227dd
d6e45914c3c5c41450ece42e26d4f5e4
e8f5ed1516d9fee8ead10b0003c2fbf8
c3f5c4ef11dfeff4cf390a26f4ecf104
f2f7fbfeda0a1ccaf4ffe2f2f1d5ef01
f7cf1d2ccd40fa0f45d1c8070732d1e7
04f7eeebdb13e2eb20b5ebe6f2eac5a2
11141bf403db01f77f19dd16d7d9f4f1
14fafaf70102fdf4f427fae92304f518
d708d1fc27d72a10ee143304170316fa
dff8d11108fddbdef4f2daf9d1e003e3
0f13e40e0109fc52bd174b11034303df
c9b1ef2824efc600fec6eafbe914faef
d30ef5d744c428ed041a0522ebeeeb12
121dc9d939022c020c194004e91c11d2
3d300deb14db6ff00be9b6350045a4b0
dcfbcee1f6defae3e5e1eacfe6d7caff
d015c14b032effed04fcbf1cf82df8e8
dbe016f1fcc1e5f7e503e0d9b9ebc704
21dc15f1ff040bd3f4f8351cf2e5e5d8
ddf3c6ead221d300fee12540eb19da02
e80fc119dafa150239fc222b26152f31
e82aeab8d019ff1a3ac8900e1b1c091a
1ff44de9ebdd210605cd02ecb4e2fef5
2c01360bd9230711ec0fe0ff09000c01
df1a2d040730fff6edccf7241cffc2ff
eb22fbcfdc06e6defac01cf6c8d1dee2
3f0907e813d7300b232ddd02f406dcbe
0b1efec3ecfe21c9f7d000ed93f5fbe2
1ff8d113f8df0dc9b90cc500b2b4f9c8
f2eb100528fe36fda519012a7f045eb1
f0f81b19f9dbd7032608ca3dfc07d409
12f5eed62eb20be2fa0eecd625ff2344
11fff7f2031f56fdcdffec1eff4403ea
fedce5fcf10708dedabc15edbcf2fcc8
ffcea700ebd5fdd2af21efd9443a02b0
20e92a13030fe5e528f30e0cf008c40d
f2c6edea2dccf5a1d5e52fb9030106b2
2edaec010d093dfb0b254a15fd1d1a00
ecdcd668dc9e9ccf0db5c53b9607dce8
bbdfdcfe26d2d9c7d6ef28de2c9d5022
03c7c3ea1b04e8f609b64feafdbec9da
eefe28eaf8d91839dddf7fd6ceb71ff1
1a16fbdeeeff12101220fae11bda0205
1b21fd2cece2ab05f8fda325dd24e9cc
172c2ada086d4c271ade36d3fdccd1e5
16cc3414dd0c12befb165cee11131f21
fecafa14b21c1bfee017d5f6df350719
b7b905daea00ff0eed040619fef117ee
e1201a15bf10083aea18f8223e314e01
c737f6f0fbf30b3530def314dfd219f7
e9dd4b12321fde2630142c0f0ce858f6
da29b1f9f510d82b14f21213fe30a9d9
26e4cd08fbbac9a5239d0aecb0c00eac
aef3f3bfeade1111050426ee050c0fbf
f3f51cf6bd562e95df0f98d6d653f43e
1af9150f728700d040d130cabcb79cc4
ff0dda2ef9e3fb2937f71becf2db0ff0
36fa04f6440afef732fa2bff29ecd218
defa20dbfac3e306f20dedfbf3db26e4
b0e507d2c01e2600b6f7082df415fe35
18f2e40efc1027ff05050b5a04d1f9ed
e4d1c2f302f31c49e87f0e271327fe01
cf17d4bc25c21f20f82ee3fd17b10300
f6fad6ff06f51412f5d4f41a1ee7f5ad
10e5d148024b0104f11d1ee6e4370e3a
ee301010d44a0ff30c1ee3f0d82fd721
e325f6e014b92ce73a5326e380d1fcd6
db1bb80adb36f3d610ed02ee00023dfb
e2fccfc5c8c0e12d0aeddd18eab7c7ec
1afcfe23094305010ce8f0133d42fb1c
9804f0e928f1f5f0e3aaea2c03bedcfb
5ade2de4c915c9fe2d1af5e5aef5bbe9
fa05ffe4ed12d317ec1304efd91ae800
0c181906e81429dde1f9f72f082ce1c6
f9e3d014ee20f3ef00f7151fef3507c1
ae1c06191ccdf4e1d2cee61fe9f61fc1
34f62401083a05f7d9e723571a61f941
38d12f4322ff4dc6c0dd0ef9e709e0c5
fdf22129f7cff2e3c9f7edf7b6f6e600
29e3f0e1ded32224f1d2e4242602a31f
d222c400f802d70116061112d1020f2e
ebfdcd2730b8fd1716171eaf1dd0f21a
1d0b3a1919ad2bd42fd115ff8d9fbbd9
f2d91703e04508ebf825eb0422fc00e9
3817f9e22ad92cd03408ed271d01a780
ee07aa1e1958031d190b4f4b28060774
16f5f0eb02dad330de0911f8e90503ba
2e265dd12fa66ae11fb91ad693f2cd1e
2a021af841fb2bea23f3fadda915150c
3410dc03d3dcec14132fece149371042
f502e8ccbadfc91e042eccf30008fe19
d514e11abc25fd04cbd9d3e1dfcfd9de
1c06de2ac72cd037ea3ed8232742297f
e0cf04f2d2e812e00bf6b5e3d90c2cf0
4904190cecfeeec1f21c0df9271d2ad8
c80f10fefced0225f203f005c1120000
0cd906ff2bb4d4e00716f1e8e2051000
1f1afef6fed420e9efd11009bef4f9d9
03beeee11cadd6e2cad619d543d315d8
c380cb41f0cba5eb1de4e420cee7d5bf
2bfd191c1819e4c1c1f94aee35dc21db
f05515d50fc8e1e9a526f1f6f1fa516e
f7efc800dccec3cf1b10ec21be01cff5
f807ebf301d8dcefc0eddae60cd4f3d0
e413bfd8384117b5cfff02e01819ba1b
f3321ecb1ef70f02fed80d160df0f423
09e0d549ebaaf2defed3f230df0de5e2
26eb42cefaea0c0c5e063bf2e32916ed
16ebfaf9ff15310505f4f4060f070307
072a12c313f9fd02efe3c3f616feb2e9
fd0b11fa174a16edea1bfb20182ff022
1619ae051fdfc8d7cfebf1cbd2cbafcd
190d0224f9ebeedba4251a061508cbf2
d5dde9fa16f5deebe2fbfcf30e0be501
f6deefe72cfee8dff7e742e1dae7ece5
bafed316be352ccaef07dfe1b635dd24
ee192735e1c1f1146b015111dce1f7a7
edd8d4fc1edfd5222ecf0aa60107d2fe
e5c9fef2cbfe28d0cbfaedeee6e9e633
231bee2b1be4fdf1e1f70cfb17edf8d9
cfe2233befd6ec0ef80300fde504dd09
d4e4cd12e8dbc60b09c203cdf3f5dee5
c2e6010ee21020ddf5fad2dcf712e94d
45d4ff32ccf504dce30b2b1e0ce9b8f0
0f29ff1a020eeff4bb332dff0f1ee5fb
0afee7f8f32900d821cdfaf04028f7f7
1117f2c04dd2192dc724100a2adf1716
33dcc717d742a3271080b322f931d3e2
ed030d1408f801e0210ff808f9c20bfe
17ff0bd6e80718fbd4dc04edbc1a21ea
d20705f3ead5fcebe82df312e4bdd3ed
bec5fb091a10e0e2d0e8c8010511cfdc
b20c2835c3f415f8d14526f30eb6d9e8
2c111b21037a072ae707da30df1ed1fd
e5fff60a0cd0fdab08e52b20ce8006f4
ecf7e135d31e1113230cfefac4f102db
09e4c80113c607e3bb3a14f5c1f8243c
08f5feeca441e1f4ebe5dbd1d350c41b
b3e1effd18d4f6bee3ab04fc0ad60fdf
fa1e0925e7ff0716e1d40606281de62c
050316fa0cff0ee80e39f4f5fc080234
fad7d0f4d719df172c0cde07f31def14
23ff2d392bee4b030605c624fceef5ed
cb16efc00ee7d009e7051f10f91f1532
132a13d3cbef02f113d8f917de02f8d6
00d2d6e701cf00fcee0416f4e8f53d0b
6cdb3bf9e7ff3feb0fe1c0f1d4e8dce9
fdfff8bddcfd03eecfecfcf1b20ce0fc
48ec39d8020b79db09e9180103cf0bcb
d1f9fefbfbda22ff1ce9382c03e7414b
291d1ffdb00b29cad4cfe6d9bbd0bed9
011518f5e29aeec01dd70be4d8d74710
0f2924ca1bd902d7f1f1160912bae09f
06eb39cbe8d204f3eff911e832dc276c
dbe6d5e2dbfdd8ceebdacad1d3e0fd0a
fec3ea3f314af243ea29afe325130d19
26ec0510ef3fecd4ed2bc4110adf3427
0620f65114b9f20c23dddd2fd539d31c
e4e8c8f1049abe20efd3f4f014020764
e0fd0de2ed191712ce05af0502e2f603
06dee520dc1c2df9f7f6d5362b23f9e2
06ee3405d13c281239e0cb23dbf8fbe8
b0d60d0127e5e60408dc2cf518bbf4eb
ba111b08212821160ed61de6ceb2d409
fff52af7fdb9d8076e0f11c2aaee9615
f7fccf282e7f6ced08163335fafad1f5
f1f6db1ee0a8def12105fe2be5f7e7bf
f1e00cf3fdfdfff21218eb24f00b0c11
0c1aa73cceb2c3b10b00c550b438d5dc
261b3611f83a4b222a201f23e3db0ce6
fe35ebf63329502305c726ccb406d933
f60713ebf6265634061045ffece10139
ffedc429cfa5e3d716e6cc0e9af1d4df
35cc1030030e35d7fa0ac0f0e307e90e
170ddc223eebdd0af6ec19dbf4f2e3b8
b10e01cdebe90212ea0bdc0418e82dda
dae7f71e180d1427401a10f7231d19eb
ed27e2aae3c0eac3eec8fc091501eab7
fed69e460eb98ecb47bd2dd1b2acdcc0
dfffde09d8dc1119aae6fdc6e4d1d7ec
2bcef8fb05fde0c5b3fdeff6f5bbda06
db0d17eea628e77424f35a22f4154902
db041d06cb2bf0ed11f9cbeee6030510
fbeb1119f1010d13e608fa05eafbf214
07fc3412b7330f0ed821043611062904
ffdd43a1eff9070505543e232af1da49
b915eaf00afede1c5a01380715c7e311
daec1cf4c9d2f8e01ad628010bf83526
d815f5ffbd2c16efdf01f819e82ce239
f0f9a4f649db120639e03002fbe11c27
0bcfe81bd603c6f7fbdfd7ab12f7dfdb
fdbdcbef11180d0fe426f713f138fbdc
d2d1f8082b0cf9fb0b170ad3fa182b25
f1e60d01b320f6eb589ddd16313fda01
dee1f3dce737c7e112febfea0e0aa619
06bce016ed49da23ebd100153a54f2f6
dae3da06e71edaf1a2c5f4d3fcbbe1d9
16fbe963fe6e0ce2ed28f7ff9626d123
c2e5f6ed11ec0cbae6aaf933edfb15bd
0cf0ef04fd0bf31e05eef8ca1b01f301
0be5e6b857e42bbab2c5130909f14112
1039fe1e4e4c0907cddef047152e11f2
ed2a2619a62e16c7f8dbfd13294fd221
ec051c13d50b10f102fd2c655040f6e3
d2faf1fd1ec9f30bc3fee10ccff2f1e9
081733ccdef7fbeddadd5105c0cd4bee
22f11fb9cffb17e8f2add706b4f4c1d5
28d9c3ebd7e1af15fb181115fe12f312
2663e70f32d120d8fafc2df4ede5fff7
d9efcbfab537d709fa2813e841565c2a
3c143cb625f53fe2e3f535eeaccbdbd8
dc04b8ca0931f7250617ef0a3e18163e
b7f8e0e9e856b72712d59f36e3eed408
0a70eb0ae61e012041f82c2ee3233148
dbf3aff3d6dddee71b0fd617c5dd1bdd
07ee19f7f605f125fff40df4002ef91f
d8da05f4ee04fac3bd01091fe4bcf5e9
fa07cb31f037e91d053fb6077f281a3c
fb25c425ec0af72c1a56e8387f0f3829
1f02f233b42d25f30a39172e211fd2ae
35e60a07e9dbeeece2e7fed2a9e3c3ca
08cd582204900c0407c4a37e861b5b81
06e6590605cf29e507cb442f05b857db
860cde1c08db8c658b4da1d705bde2cb
05fad701049f333d8628b72e04b73faa
864f95cc06a995d405d21995853dd101
05b712a2058df00f886aec75089710e6
06d47b9e07e5d5b4049ff450079072ba
8735b7c10493d83109a53428875c3b2b
8962755e05a19d8f856e678f06c3bb6c
0992c386049e3e540585d50905861dc0
06a785ad069a18c00497708308ea76cb
866cd0e38654456b04a9f85905b76770
87763b0505aaee2404829e14058e9aed
0589cb1205c537ec0485978705e46fb4
05a41d8307d92f930497e616860341c3
0491e6d1856a4cfc07efdde8846f7aa6
9324ffbce4dfa89fa8288e88f1913aae
bbcd90739be0f9e38b91bcc287ee5151
8e89c6f3a440dc9291b55abe97e287b4
e038a8d484bb1217b30c8fa6cb79db88
ccf2eee0c05603f59f69005589ee8926
cb1e9534d63d0a1bec8b45becaf114c2
a0719c2d95160eb48fed4667d932846d
a65491b9b8f08606e19bcdeec0f58442
babc88c2879999ffc249c947c71e14d1
8aa6b311fd0a1fbfebf05b28d31a82c9
ab7b6ac5a416a68ef5e43b33ad191f43
88c2169c89f6d1dc915e4264e4856678
cdfd2a7ec708b31ed1b4f87af0f309d9
87003540b8550ab5b207f9a18df0f2ef
faa506e7b48f009ded6a81bba8468795
918b37f794c69a43f7c21faa8b7339ac
000000090000000b0000000900000009
0000000900000009000000080000000a
00000009000000080000000800000009
0000000b00000009000000090000000a
00000009000000090000000a00000009
0000000a000000090000000a00000009
00000009000000090000000a00000009
000000090000000b0000000900000009
00000009000000090000000a00000009
000000090000000a000000090000000a
00000009000000090000000b0000000a
00000008000000090000000a0000000a
0000000900000009000000090000000b
00000009000000090000000a00000009
0000000b000000090000000b00000009
0000000a000000090000000a00000009
