110df4e0f037eab008a84bd3f5ef273c
c02eed031fd8e5d3c3e8dfca00e5f1da
00e31d2d17001e0d22f1e839aeb1facb
f20d8013ddeac0daf121c1c5bef3dab7
e6d5d2c12320fbece85ebdf97fe4f827
ea18c3f2140cb9dbc280dcddfd2dfa2b
fd1494ea45cf0bf6b7d5c9250ee60498
e115bcd019fca0dc16ec08e430d9e9f1
5816bf1d3a1e436534fb1e08431b2a08
ff260e3f05622c00b20738dd1059450e
a2fcca62c2fa0580f64cf3e2e6cb1ad5
f0f2f70bdcc4f1bac3aab4d2eed2bafb
a9b517f51bbde1382f13d3dddcdaf280
7f21fbd8002b4f0c4992f20b3acdf912
e2edd0b3ecb0f4e4092705d2d71701e5
80f8ebe7d92eead60013dbaf5ff0ea1a
d123b9e9c8cb2caecb2e1296ded47ff8
e10dcf20fd0480e791113cb29afe1741
2019dece49da1de3c3e1d637ec1913d5
0dde0c0c3c46f5061f1bcd15ccf5c207
fdef561eea43e41807b30fc701e00934
3939f2db8d9afc96dd7de516bcf23f38
ff08090720eed9e6b0ecf335aeec0dbe
f112ff1934f7e2cec7dfd10dcef705f0
4a0b180f229e170399e20e5de5fe2f02
11f00d22ebec1a34f26a7ff5010a1fcc
a1fd40215e7dcf382546ddd7a4f8f30c
f7031c5bf840e30e4139d10a114f1a19
1331064911d71505eae9e350455805a7
fffbe3efafae58d7d5d2b7cb1ec65219
01e2f3f7fcec3a363f0df2f8ff3cfdb6
c403f73f9f27c910230ddbc4db20143f
10e707781bdf0022260a55c113c8b017
e3c09fd410f3ea1033d1d619f9eff0d0
30e503e00fe40ec2e1e481eece1a4232
e13200b711180e0ad2f2ecf24625d0fc
240df7350f12e2c806df2cf9faf0089a
a8b9dff2eff8f8e7bdbfb5313ee703df
13d58ec4254413973112ee1aa02253de
a5d580ccfce8e9f6320fc50fea00e2d1
21c7b7ede9063b80210c12fb83275224
1fe01b0409f60820ea2ae44c11460cfe
2331a4d83cbf33e211f8d31a0a42c113
1ce124f3efc5e82cdff11fe30abbf6bc
050c0efd1ade4fb5ce0e28c501ee5a16
03bbde45e61903bb1aec0812f82781de
e73f1fcc8fa706f5adfd10d527c4067f
1213ed14ead307efda9a0ef01cd1c9bb
e7c7b301e0a7b5ba27b8130200aceb0f
f534cc11b805f3f9d3e050ee0415a94c
dedaffd6f1b832e5b7d4f397f124fd03
0d28fb2bf1edfbe6e72e960be933d60c
861a110ae1f2bf121470280907fb16f2
e0a592c1ebb53223c10821164842e015
12cd2ce60923c443ae811eded7441c01
c6cfcfcdb3f3d239dedd06fc1e028726
15e8162626d2ec2d0bfb05fb1cfc0011
023c24f2bd0cf1d2e2d7654de627e130
db45482faee5ad21d73afd222de5d715
0b48e1cdf27ff4c13eeb3ae900090ec9
0490e71a1ce529e59bfdeab9d5680597
f0e90097e89de7101bd9f4a002b10104
0315be0f51cd7ed9fb0a0e05e93e11f1
be54eae2e81df8cfd22e15b3e3080e25
10ed20f31c21efc7e0d301edf0d02918
fbd7f0dc17f7cc01e3e85218caabbf29
baaed4ead8f11d08ec174bf80f3acb41
09fe27eee7241901f38aeaf525c813ff
cd218d3b0b9ef72408b3a1d6cf9f00fe
e90c141e0dd7ceb0d50ee7f6131be7ed
72256504187cf9c5f61a40fd17edf217
352cf72980cb35d1cb2e0ccd28a12ccb
fee5f3f85310fe2500d0ff1915e7170f
e0804baee429cbe69d0106e3a510c321
c0040adee200d6eab6df1cbbc512ee17
a61edf2cbc21f0f7da2f06b63f05c241
dcf64b1913eacd14fb2b0aebcf3bc255
34bf55b2d8112206f3f10402d7bb44bc
adebc6fbddb2d2e51c1cfecfc8ffc81e
1afb2410a5d21132edc7c0390cc504c9
0117f8f6b6990280c5f6281ffee60ca3
040add1fd6f611ced4a6342e161e3ca6
18ddd9ce121aa836fdaa63fb1ed3caa9
1014fc1c80b12ce9c628c0fafb002e15
ebff05f71842023a2a5dec1a9e15ac05
ed17bff45410c5610f0a1a43dc02d7e1
361cd7c4e7995ca9d8fd48037bc54124
ca3e9c9c2aeb21d6163c248a06ea5e23
2c03e7fbeda60dd8d680cb03c904ffec
23dae9b9d4023a260acdebde5aebf9d9
b7de0c2eabf6ac00f80b04041833e5f4
06c6f21909faddf3bc69420ecafa2280
f7e638dee8eebcf6edd0c9fb62e7b52e
462fc204bc9f18f7c41dd3fa01193980
e7c5fad8217986f060be1505f729823d
a90bccc334819afb800800ebc9472456
eeadff0baefcee02fa04c5dfecba0af8
16e751bfc8c8e20e10dcfdc0d990c822
02e61ae3a5ec0c12aa020ac2b0f5ef42
cee7dfb8d4dbe9ba00d2ee01b4fffe03
5523da8000962449d9e994e32b13431d
660ffdcf29d408090708c320e91c1dd8
d68126292e61f01128f1f90caadaff06
beeb07093cf1f5e7dbea12133a2c11e1
40fba5daeedb329d193cfd03d7152609
c7b56def9ae1cd28bdb209b7cec9ca0a
e7d9eed4cea6fb7f9ed604d84cccba35
53c5e6e411c0ffee1c0cf5159211c61e
f1e32be9e0eefcdbf6cc5cec43dad7fb
123402e0cbd93bd019d1f8c0bfe52d31
ef7f31b5e8bb0131050734a222f5db2a
d5cab311e52a05b919e9fc71ae0bc607
efeac799efb9d3f0dbfa0fb028fef6f2
efe1e4ac32e755bac5801784e8e1e6d9
e2ec062938d302ef01c97f1df2ad1f1d
ecd9d9c601acf800abeaf2d00d11ed00
47495ef1ee2523a9a2cb020ecd14a3d3
fde74f260ce3fb100a1fe27f07cc0c18
9b99cabbe1d5d9477fc1ccea10ee5c43
1dcd181a9ef52b3fb4fcd8703822c327
ddbbf61e4101ee44becdf8c8533cba07
e0f4a9f601db4ad9e3d83010c9d454b8
3d34bbe2382f40d2ec051be00de6db1b
b3c571f701a61405f9da3b240414ec6f
ea1519e63627beb93612fcc6cac17fa5
1f99d100fea3feba04d7ec9b3817e5da
31f0271a301cffce1628fc63add941f9
b2a0dd03f9bbee23d4b610f83fd3cd28
76085cecec12dffa0dbf0221e5112cf4
cda606a9ffe587aae4e8e9b9effa03d7
4739f509fe2e14f96caf1931f8c15020
a3c824cc08a9f1b6e0db0ee8cff5d051
0aff0220f402fe1e370d1109bb3af10a
15d02017f3890bd4fe24f62bba04fa9e
170105dee823f8eae5f207270aec0d0a
e3460208cb35f4e0d60a0bbd101712bf
ccfad4dd26b5ecec12e502f5fb17e7fe
f01ecc1bff20c2f8f601070e0ec2f519
2819ff4215112b452bd10313cbf8f5cf
5de947f1fbfd0df4f7e13127cdd9390c
08e9e2bfd51bc5cef86142ef3fdfdf6b
2b280b28d2e4dcc39fc1d504d2a107e4
4efc29211a7550606840047fef033211
a981e900fef3b0fdf105eeeee005f51d
18f9eda849c621188eed0cf60ebb0b92
ed002e089ce6bcf112a6dd88e70ada1e
e373a046d6f75994ed50c6d3d5881fdc
e21d220aa736b18015eb3f8d251b0bfe
09d8ebced90bded623ad09ec5229d4c7
e57f17e40fd74831146aa9f299f1dfbc
e615f20cf3e916e0ebf1ffd5fbeb7ff1
de49dcd715ea0a37e633fcf53ccf4aef
20db0208122397171fd6fefbf522810d
bd08b7e6dec923f5d75723fdd718520c
f0f4f9b47895e5dd940cf95f14d3e8de
381b1cfce0fbeffda10406b4fc2a7fc2
d5c416150e71ea30ccf24e1338d41bfb
e23cf6f1f2b715c3ed7606e5d2a478ff
0a12acff57eb7f47fcc6fa440fb81628
33e02c27e1bec4e2d6c708eb08f71be7
41e0f729d22d1ab2f480d1fcca0c2243
86203acaa6e5db29d0d22ac83281a5f6
d4f1e220e72ef3d27f2feb41b3f2ea2c
8b000ef587a71d25ae8e05e543bd15e0
ed0e2638bb0b1cedd541f6c5330e0ad8
1e0106021f81ccf9df1cb78bfce6f64b
efda041a0bfaee0012f4150decf2e419
d0d802f5eff029f703100b238d61e3cb
f410d5b0180f0ff9d009e9c00b2205d8
dbb8ed26ff0003e6ef0fe249e6c2d1fc
37a5a9e901fe21acb719bc4fbb7f4689
0ac5944f1720e0ef21c012e40e07393b
023b4074de02d6cf7af2542e1ccbc237
12e2a7f2dbfad2cafc93f336d5e3e845
3ab90329171013c21403f10ce33c0236
14c60f11dd07cee31b0b27d0cde70601
e7c9f5cd02f0e6ec08c824f437da4802
2632bfe8f01300faf81af43adf20df24
ca2e24bdecd0dcf7b6dfe7f013eea8f6
e551debc5148fae513c5f2b93bf2f3d2
1bc617305ff327927fb4c6e31fdf36ab
02c3912845ca1fb5cfdaeb28f205eec8
d6dde9e3d201d21309f503f310e6e30e
dee04a36e980b93999f0033e1d04c0f5
0b11e103133ddded202b03d1b9fc2fdd
dde71323d0b5dc070fd91b1b12d78025
30c64545fceed1ffc0e41de54ae4d0f4
f290d1b107dac72c1ed6b8ff541c20a9
c7ea4ee803ebdae27f1b3751ebd94217
e5f8efe4c2da17e7d1fccafd031b8006
fcfe5e1cd59fdd18ebbf1a0bded3d913
c007baf117d91afc1eec03cbee073bd5
66e45402ff3f27d3f8070c21c8af0312
a707bf283cf1f9d4e93eaaece11c00d1
c6cbe7f92bcc94f0fd4036d9fc50dfdf
adfb0f4b21eeecf4053fe4b71234ebbc
ddc8d3d71abcfeeeeb0818e680fd12c3
2c0b3cf5ed64f6aeeffb09e1d3af250b
2e61e7f981f20f03e00ad918e6d628c5
22ec1a1df5453f520b2c15ef240d071c
bd23a4b1ca0132c4bd1317c864e7ded7
802ae4f4c2e0baebf1d4c2aaecc924c9
02ab451434ca3e1500e4f023f801e7be
d5efcbd9c7d3f8cfb2a2e6d408a0dd59
57d234d49c52dfcdd4fc32cbf5063e2c
d51681fa1cb5d8ece41f0eeeccb6e4f2
a52af6e402c3c1d4f0e502e1160bebc0
f7cd0a2629f8bf2517125007bb5fd91a
1c250413f28011e29e5208e112da5dd4
10f802ca7f080b3ed52f2729f8fde324
07d5f5221d0c926262d112001702929e
5feee6dd3d0e0c640c0d185aeaeac6e7
24f6ebd10fc9def0defcc45ef8fdf9fa
5e229811d1da6edcd5fd3fca588077d8
e35008d800d209efe67f023112f94e0e
10f310ea08d3421ef1f233f52adb18bd
fbfa4a5ac91cc7c126d7b3f5e61d4124
c61e085128efd4fc1ff7e4b4bcd70f1b
31fc14cf1fd4f82c09eee526bf3fdba9
1a1a7d3fef1194c9a708cd0d07fe3236
38f791c401c162f9af8c5d9465b82fc4
12412849e56bb6ee3bbbf0e7050f044b
0ccb510fc21697d520adfbfafadbf932
ff0013032e03e0d8e7c5ea0e473de045
dcf8410af311d4c7ca29fcbd03081f3c
1f0fffdd28ff48dfc30eed22de47f5f4
d95d512afa05ff52ffb9f7b7299df313
7f25cfcaeddb2ce4d0faa3f9dc5957f0
f006bfdbeaec3fedd60717e1dd2229ab
d5ba4a1327fd15ce31e1ead5b80fef16
10f3d8d9e1c5c0380dbf0e5d011dce34
fbdd1639da25eeead439efd4c2f10d0a
d718b7e305b8f5333ba51f13f108eb19
d1d3bad402d5ed24e6f8dd36c1d7b2c8
05ceed80b0bc05f1ae64eacd40133d44
a9f2cae3eeb1cd0efdd7f9d90bedea98
dac14bfeafe3d3bdbad041c8e8c6a559
280de690fec406edb0f8f7d02bebd2b9
d91f19f9eacbccb614befebc1deacdd8
e7fffecef6d047abe0227cdce4e4d61a
09b8fba6efbb29ed55afeffd51ea29ed
fed1534c340708cfe6dbce73381fcbfb
d1f7283c14df42d73d0fdc2be6b57fe1
cfba2edc070febd118f2b979f8fd0502
e6c1fedd090c05ece3050ff0212230c5
17c0afefeba8184813dae1f90fe8f7fd
1623e9f0a8014ced98e805df3cd78a07
10e90b0029af30efd08114fa0fbcffc2
007fcbf81274ff0be421df00bd231968
2827dd1ad3fde1300d0511e41a13c91c
f5a40cf258bb4ca0d2c0b6f514f1d0b3
b06412b74747d7e9c9e43a81083a321c
f6a8e8c2310b7f4de08fe0cebead1cc3
e004d84d3040d7cbe922f61de035d1f2
fd0a9df20f1fdf2af87ff1a93d1f2cf2
b6fcc1b545371b8038dfa8d2cb0e65a6
08a5e8af08c630ad07974e7c08d27753
07b8c05708e129be07929b8e8e60eb4d
09c953aa0a95393987738d06884e4fc4
08d15b2109ace3ff08cbed5209ec7198
079e2f01089754d007a9f81807b474d3
0a93317f8a0b05848a48ec04089e0809
09af5f4c08d219d507b99aa309f60cc4
079c91c4099299c608f7ef4d09cebdab
07a0cdd609823c1207cfa23d09da5ff9
09ade84009b332b108e3e6890bce12c5
0ab3699209bebad008a2f7f0089bea5a
08fa4d1487793c5a07a54b6988409835
8c50c28e0be2669a897aa77c0a98490e
8c017c68099142f709bad95908f061fa
078d0e3608c5d023079d17220ac520ba
098c306708f060dc089f29e80792ab47
adca40169c7af0ff8d1c1fbbc9afea6e
8bb1e4d7fee6379cc3fddb779bad7071
92810ce9e42e4526fe7eb63888df2c0e
f4643c80b1105bcac7c9bb1dfedb5f9c
d1e0e5ddc3274a69ce6f25f4bfc8b509
d60437e8bc64e36b9060f2efdc0ed396
bd446257f4367796cdbfc33987fe5809
810e8ba3e4f9964dd2ab6f9c9e092bc7
98ce208fe0c2c191a7c7b7f88dc71f79
bb7ded4ec287e1ae92db84cea54f3928
fcfa9039dd1b36d39d32792398d3cc0e
85875fa5ca58cfc4edaba82bef5e7087
e1218a9d835bd2578001f92c8207022d
b71ecee0a3db1df5d819b9e88c0e45d0
b429068be63ff71790c33e60858b7cd8
a6ac85d8f9b8240b86713147ba094791
00000007000000070000000700000008
00000007000000080000000800000007
00000007000000080000000800000007
00000008000000070000000800000008
00000008000000070000000800000008
00000007000000080000000700000008
00000007000000080000000800000007
00000007000000080000000800000007
00000008000000080000000800000007
00000007000000070000000700000007
00000008000000080000000700000007
00000007000000080000000800000008
00000008000000070000000700000007
00000007000000070000000800000007
00000008000000080000000700000007
00000007000000080000000700000008
