d8e81a1b3c04ebebe310a1c40ff5c8b8
2aeae6fef4dffdfaf80ffcf4030e11e3
b4c9e6fcf2e31b12fceaddd5f6bdb4b9
e4fc09d5e5e00e09d8fd0bf708f9dbe2
3632342eba0d14fcdfe60f2016f71c34
0c222b18cd08ffe9f1f91327d705062b
031c1debe6ec15d8da0ee71003030a14
c50f11eb1ee5fcfcd6b0d0c8d8cac8c0
f7def7ffe5152cf20c0703ecece40ed7
ed16f6080beef0f6f1f207f700e9ddec
04f4e20fe6c1d62fe4ef9ddbbb10e097
351f07ceb6f3e2dfe416f636e909f522
0ee111e7cde3daf4d941dbb9f5bc160d
e7ecddf2feebcfc5c8faeeb6ef06c9f2
09000800d1bfd41bdafbfe280405010c
f3d7cc171ff6d265dd2b0eee0c0237cf
f8edf4bffad6b51db2f5e412df1f19dd
ee13f5ff0716cd15f6fa2a1614fefeeb
d7c6ebb8dba4ad03e3b9e0d8c9170e50
f325aa0201f7f20df0f80601e4d4ecf1
fd15ff07f8361be1f72e141c321807ed
d4f1fbf9fa12470b33ea311837ddcdfd
ec07fa11d9200ffd03efdc010c07cab2
f7d5a8d718dec9f3eb26ecbfdde303f7
eadd10193adee8e7c110ecf201d40516
d506d4131ad0e809d1e3e6e9f02607f6
cd9db3c3eef6cf24d8f2daf1bfaee01b
bc00f522e01727d5141205101df40eff
19ceefb9d0ed0716e201dde5e8bfe01e
f8eb9e9fe7def90ae6c8edecb101020d
f43d0004bef11a34f90a1ee91411d728
dd3a331615ebf2110cf0edcf07ebf5e9
faf14ce911b315f81eff37faed57d8ca
dee7ede7d9c301faf714ebfedfc7f1f7
33d33ed4f427fc05f9cc2b20d72cbccc
f7ddfdeecdfbf61debee0412eddede01
060e252522422121181ae10bb5ee1918
d0eed622fc16e4fa0f03f6e7cde2fc00
f5ef2718faaef7dc130ff605c4130ee1
14df0fddf2ddf11d1a173c22eaf5edf5
14eae0db08ff26e9eef3fdd3e5d2ebdf
d1fcfdc70096fa1cf02717080202f2f4
f9e9e7c81b4209d62cdf0efa97e7f603
d2d50d22dad429fef7e706dcded66b00
e3170dcdf2e8f9d02b0bc9b912caf422
0f03ddea3be70115efd3fb26f0f5c800
fdff0432041f04c5ecfae6080ff92bfc
d630f0ea39281318f0471e0b230413d8
22c9e2e3f371c50b0c1e2320fa42beea
380cd2160a0aed0ae51725eb0d160400
55f0f9dbe80efdfcebdb0e1fcd0fd5f4
bdf5ef09f7dfdcf4e2d3e0fbe0dde704
243bf12a0dd3ee1d0212f9d91ef200f1
d1f7e0081bea00feef09f7f5ce0ff01f
e20d1606f7e1f309e5030cee0dccdaf6
d4f2e10005fb9f04fef8e423022ae720
11c40cf01506df2ee8e202fc28052000
de1600fafcf09df4eb021412281cfae5
ce17160ae79df309eeb1c8f19741cc2c
ff3debec17f5d6e1c8eef3cffef709df
c1d81fd3c5fe24ac150702cddd1f4532
08e5f4e38f01c004f9e40c0fd5099c0b
15fc03fb151a04cef3f3effc0a4ad50e
5bd501f61de62e1de41317b7152514f1
1beede2917043ed8ea4fda0b272019d2
daeee3f3031307d1f709e2e700ddeff6
4adce70fe5bd24d9c115f7190e051dca
e4f8dfcff4f3e00cd3f4c5e2d7e4e00c
d32acec4092fe4403912f0dc0e00fb45
1d1af4cbff1cf2223aff1ee2fcd6e521
1017edf3f21af40402e60429fa08e7fb
0efedf15f6d41ce2f703b7f6ff02da0a
24ebe7ebfa04e4c215d6f20cedbfaa02
040cf02738f1efd6fd39ebcc02e706f7
13f51fece2f2d0e4ca4dd0e8ecf0b9f3
f3fc09d5e71cd62f1fd9eceef3d0e80d
15fffaab13d6f7c6cb18ff24f3dabbc0
f2c1f8d5bcfdf9f307e1cee2ace5d8a9
0dfb28fc0e0b2721e6390fd009cbf527
1d0203e145db44f9d1090800ebfe14f0
b8f6d50a0929111bd0dce0f60d360214
fe0311f212e2cef4d1e3f7daf4f5f7e4
c5fc23d8ead6ed1de9ea08043c2909d1
11e7edf1dcfccad108f1fb0005f5f9cf
100a0745fb0f07add6e520efdb1005fc
401cfaebfcf2d602dbd20b05e44a0706
f0c806deedeed405e6f3fce1eedde213
d4dae7e6e1f6e3f8f111f1f123e3cce2
d7d4e9f108170b0ceaf4fd06e2e0f903
eaebe529041703d3c8e3f413ee24f2c9
abaddeef9702f0bdc7e02217ef28d4de
21ead809fe07d4d4ebd507d7a3ccf70d
cb1115e00fd21dea1b312efee83dbff3
d902f1f2f5ee06df04e1db09180ae5e3
191fffd7f003dc0611f0280e1d17e50b
1640f7efc5f3eb1a085b11dc0af234fb
0ee020caccddebe4ac82edc3bd0943ff
021a1c0d03c6ee1800e9e3e0271cd416
25e1f9efe3c4c3c9b81003eadaf40b01
070f05f8ede6d3e8fae1e8c8cffbd7ff
29c22222370ceff319f3170516ffd80a
06eef81d0ce1e3e612f7f6f2f5e600f7
bdfe27c5f8de08dd2506c3ebf1b72bfc
f421e9ddf2fbd7ffe3c5d1b8d6f9d40f
12b3ffe8ce1b0d13e4c1000ae14ee9ef
20ef17d6f100084fe6f6f707f213de02
dae0bfc1fbc8b0cae74d37f8ecdddaf7
e1d2f6eef8cf11f0160800001ae0dcf6
00ffe128e6f9f0e9d3c5f71aaefa02f3
c6f4b8f9cae794dc02e9c716cecccb06
2d0293001108faf9ff2b071624e8bc2c
22fb221ff83decf0ca300e14150533cf
13b62cb2f9054d0ee30606049a0ce6c4
bff3eddef8dbe0f4ecedfdf0d6130ef7
1abf0d95fa3027f4f8170417d9e8bbda
cfdaf7e9e8d5e0f4fafaffdde4e8e5f7
f104cc2222fcc0240f381110fed61a21
dc39cf2d01f30b01e1deed0015f5fc1a
0ddcc607d603cbf5e0ddf91af2f80716
06d113d8e8eb0f0f3004f2f8add4c0dc
0603cef3e4cc0bfedb13dbc6c02127d9
2f1304cfdcfad704c40f261192aebde4
d0b8c8a8e60a1bcfda02f0bcc200beee
d50fc2ede7dbe6e3d1f5efdf0ecadc25
c3ecd71446fa27fcf802ee0ae54411bd
e3dbcffc0bf3ecef0eeef11024eebfcb
f7fe182eedf31fd10fdaf2092148e605
130bddc215fc1d1edac7de3bfdffede6
e0e31d12f7f2010bf7e52acffdfcfcef
f5ddf422beead2f0ed14def6ed121709
fee5e6f3ebeaeb09c20ef7d70503e8e8
dc06dbe9eed208abfdfb1f0308301d12
0203dff106e2d4e7bbf7beeeffe0fa1e
e6de0ce43f1bc342fa03cfc918ab08f0
eae3d801f106e5e6ef0b14d0e9e7f0d5
46f411f30b05f80ed214f14d152b2613
030cf31bf804f619dee8f40cea0417e7
0d03f2f2eed70419f4e4e1ee13eae626
0ce1361eeff027100a2c08e6d30929ec
1912f0f21838eff6dddc280a1fdce205
2c38f7e8ec0fe216f9f2e91bdcf3f206
0a14f71dedf814f1dfced6f1010beb11
cac906e6f8e3212bea24b7100528feb7
181a210fefdef1ede326fe21eb0f2bef
e5f00905fd0efac7f707fdecf028ed1c
152addf4c5ef0311ebeb2413f402de37
e3dfebd2fbedfcf8bf0de316ccd1d419
f12cdff3f6f5fc0e29dce2fc0ceee0cf
0cf2f6c4cb01320018fa0e0bf5cbc8f9
e6e6d4c6d7f1d902fadecec3d4f7094b
f0ffd8f0ffeed70012e2d7d2eddfd910
0640091b20411038140911112ee4f549
1a18e2f1220008d7461beee92411ffee
f3fcdee1c513171127c540f8e41f1c1a
e3fef91cfbecded2e622c30ce2f90308
f6e8d7fad11008fe21e4fdf22efd11da
e1080d0bf5191ff42afd0f301e00f2f5
fdd1ecbf00f2e91d08e723f4cafffde4
daf52501e005e91be8051e221af0ea1f
22fcfae0f428f2092aebfe3d43251a1a
e51cbb16e60c050ffe12d5f3e8c0eb02
08fb15dffb201bf81edeb11b16d7ff07
07ed02f9112328c3f7d824fff81df1f6
e2e40903f124e605f2e8e439fbdaf5ff
deb60c14edee0ecb0dc60ee2ffeaedf7
fdfc08ec0119d7dbefea10fbf96bdbcf
0805e8c3f9ff0801f202f9f7ebddda0c
1c422412dd2619ece5fcf0aefef8ef4c
061f160f0bf0bde21b0cbdf105061510
0110ed04f5bcfe2ae5e4391fdafef305
ff0fb308ff031704fd0cd1e715b0fce5
ebf9f11ae1c1fc0bde020ff9d719290a
0b27080ff1faf1f4e70dfdccb9e956f3
0af5fc1b1af5f4f9f50fef09d705c301
11d637df0929f6e918e00ff1cf33d9dc
ed021b1ef40d0bd91df80b0e23f73a09
f2fdf61ee0d3fa26f8f901e1f8bc05c7
131041e0f6d4fbd8dfc3f9feed0bb005
30e0ddd3fb39dbf0c504ec13f2ffd610
ebfcf01708e9fa13f5e1e9f702d503d9
e6e7d2d4f5032bd403e2e01beaded220
0dd1f2039f3435d1080cfa0ed1cb07df
ebdbd1e2ebe4e80402b6f1fae7f7c2f0
c30e00ff30f9e8b00cfb030be23bd62f
c2d417360fdbe948f90001e2fbf92f37
321de1f7925c02f92e2ec837f521bde8
eae81bde0a01c514d8d9d0e224020907
1c0de3d4f624012b3127db05d519e206
f243d7e2170e1fd70638fce41bee4201
0b06f5f3dd060c2211f3f020e8f4f409
0e11ff083b18f913dfeaf402291be316
21e903ecf5240aeaeef2e2f7ed1a0a55
d9fdc9edf6fa9cf00dc21cfefbc9ebf0
11e4001e01f2291de6f812d1cfcaefea
27f1fbede9f61115f50516d204dee9f4
c906e8f21bf3fe0f17d4ef001b190215
fbf5fcf521d5e70b0f0c09eef5e60be1
2fd61d0303f8fab6d631e62fee3ed8be
d7dcef1b0ce2a6dfe9f4c6eaee04e4e4
f93732e823121f29e32527c73922e01b
c500f3cefed2f42b0646cce52705f233
27ee2c25e60f36eb091ffd1d0d101bca
fc2ceade16e3eaf9edfb13d70fd3b7fb
000d371efd1d0f24ee21df1d07fde7dc
0006f2f4d5191414f810fef2121b0d10
f10cf30ce14911f8130c0de30cfc23e2
f70fe30d280e2ac7ff1bdeec022305f7
130e3cec2cec1f2bff450e112de4f8fb
deecf309e8f708d0040cf6f0eeb511e4
fc23eea3c710cbf00ff311f704ebfb05
09cedccbf00bdb20cbcc4d13032a1211
270c1321f3d8dbef19c208fde6edf6ef
2c26e5f316e1c6f4e0e0e6e3053cda0b
dcf8fb85fae8ed300a08f8132af3e240
cf02dfd7e7d504c9ec070de9f0e0f901
2bf803d50ef236ebfbd230072c25d9e2
022f2101f224e1e8ebecca10e0b4ceee
d60115c805b4ed21d6f0bff653572238
e1e212f2d73301b7ed0d04fec7fd01d1
1b0d0ef026bbe420f0f0ef08011cf611
24e6e9fcf50ed4ed0df827f61807e319
eaf7f213020dcd01e4faf2ffef04ed0f
ea130a2ce32c0602e9bb5b07110002f0
0f1b08daeafedef2360e201c22132cf1
e7eb2103eef81b05020216efe6f800f0
341fc8f1fb1ab3f60b1acd4e088bec2f
c200edd9e40c04f300000e1fdcffd922
141216430ddfe2d010eedef402f9e8e8
c9e7c7fa0205d1b51cc904e4f0ddee0a
36fae7f71107f7cfc7d7dabacfa92c25
d1cbefeadb32f2bd0f0f05f0d5f9f5f3
2217e712fbcbeb001634f61102fcd012
14fc1f3cffff150df8db1ec704361036
0d09eda936e0d3dcebaef2e0fdbb94f2
d6c20bdaca3d1a37d7c7fd11f114e6dc
f82402c2e5cdebf704e1e0d80acbeae7
08f703de08cb34fe1cefebeb2006d80c
d9101de331efeac926f2f8d8d2f8effa
f02af9fb06dbf40ff449020fdd1a1c0c
471d05fd19e4cdf10e33fb3a24e1f106
fb10fd0bdcefb9f011fc03030c01f9e2
f1c9dc0714cb19cedbfed905122c0be2
21edff15ec1a3705ce010ccfe03de7e6
e0f4192d0fe1e3fdf3fdfc070fef0cff
f2f0dd170dfdebde0d13ddfcfffdf4ee
2ebe141808460208f9e8e1b40823e604
17fadffe0ff5d3ff0ee9f4ebf3ffb8ba
ec25b619241b17f50010eb04e6361616
c010d40e42afee110e192316f63bf70d
2cc604051dfe22fdfcf416e60ce6f702
d6fdc4cbf4cfd3dfeb0137f1beec2b14
13fc1a01f7ed110beddffbf011fbe009
050311eeede7f6f3f20901da1dd1083a
1bcef40313fae0fe01f5e702e9cebbdb
17e9f908130835ffe5032228c92ce5e3
db1f3012020b250ded2421073a10fd0f
f907dff4c3f2ebf7eaf3061dbc0f2612
09dddf1b03ef07f729291001f11705e5
16f9f7f5dbf1f60cdadd000bc60cdbfb
102d0a20c4e406b3e9fec7fbbff6fb06
dac90d12cfe12123162906b2dbc1fea1
cce6daf8ed03dde91b391cd7efe8e2b4
dddee9ffe6f20036de120ed7b70af5e1
35f8ed2845250c15f5f41b200ee8ef06
eadbfff4031407d81a1501f4fb04fef9
edfe0008b61203f4fee129ee29ecc705
e5f315eacef20745c116fcd3f006fead
fef2110d092a27e2f9e8f9f73af80cf8
f7e3e7f6edc705ff0223dcfddd0e09d2
d5c8f5f0a6cf2311eb38e6c3fdf206e0
e5e40ae1ecf4fe1fc7efbe2c4711fb13
e2f7f517eb26026919150c0feffe47d9
a6d7f8fbf2eaddc7ddedd319f7f3d817
f1f2140833e9f5e9d910fa0b0d080ff2
b8030638f51322e302ded7100806e803
f40812de0c151eca0f2a14120ff70524
e9cd231de00eea1aa8dcf7b8f5f20123
fb1601fd4803ef2beef600c7d4eeed18
edf5d0f2fe08f4d7d7daa6f3dcedf2fc
1b1003311b3d01442e211cb921e9fc41
02fffe061901f7e1f3e811071e26faea
d5f6cde81de1efc2cdf1dce5e2f9ea07
d926ecde15d901e306dff2edba371041
f9f1fe04e4f0f9fa0def0efcf90011db
d5f10f0721d5f006f4f9032a0307ade9
fec003ce03cdd4eca510d8e908e0e114
0e05d3cb0a2c2832043ae91c1ff43457
e5e61f00d815fc1e08f60ee00e28eb0f
b7edd801dae143ef25e21de0f5ebe911
0af4e7fa20e41e04e9101cfa3deeecf6
e814fbf4111637f006ea02dee9da2cf9
0d0b2b180c09f5f1fee9bf1330d9d915
13d600a6fa1916dff7fdf8f5ef04dcd7
0c082bc9271be71704fdfcdff31dc801
c1e402fd00dd1711060df12af4b5fa12
151812160a04a2e30f1ff1151202fd57
fe050bf5fcc103e7ff07f20d11f8ffeb
2cfae7f00d17db020df8f702ebe917d4
e1ef07e9293ff6f326db084c172ce604
f1031203e8ecf63311fe0a07def4fdf4
ede6e8061319f7cde6fe10d90ef9ece4
1af8c3ddf3211ef1c6e3f4a381e7cddb
fdf722f70210fabf160f01fcd20f02f7
d8ec0fd606380c09d4c91efbe500060d
edeeefe502dea9eca0f5e0b0d5f9ff07
f0eb05f71611bfeee1f00be901f3020a
f500d20101e20a01f6f3f603ffd6efd5
321c0d0adcc1fde8df0504f706eadb1b
f0f42601f3fb2c16e618fbf4ed23c626
efc9dc0f29e3ea16fef308f00dc042e1
96ff0e08f1aed6c4e3b6d1d2dad0aeff
0611fc15ffe70fe02b242f3a1509dd03
0208f7f80705f904e9130ffe1207f510
07f1f5122fe5d514e7dfd7f0fb10edfd
07e1000fd3f72ddfc5f6f9ebdbd2c4c8
1e01f8fc240ef00f11ed02f7edfaf500
eec4f0d70d02e00ce909fbda26f20118
1dcfdbfc0709e52efedeece30c15e005
0dfdfcfe032a01d327f1141fdc5de221
2014053e16f1370fd9ee21e2f933f738
f2f7f2cb0c17e4f80ed512a4e6aff5fd
12f7f5f30df02b0df2f22de7efccec23
e715cc07dde8d60e16e9daf005f2eb39
fc2905e0ed1bfdfe23ff0ae528cedbfe
18e7ee28d7faefc6e10f00e8220fedc8
cb09d2c7d1ba2bac08df14f8fde0fbe7
db3bf8d71508d32110dbfad8f4b4ee04
fc010240e2d047fbfc1214012b42e505
e9ddfaf8151c1eeefffc02f90de1f20a
d5cb29b2cad6e5fdf704cba107f5dbe8
0314ccddf1fa19e701f212dffff7fd00
07031ffae81b0507ec18f518030ae611
1bf2dffa1eed12f6cbd2ffd0e2d2caef
fae714d8b4d9f7b9d104e0c5e5eadbe5
32103d0803ea0923e56cf30127e0bb15
0403f827e415dc04c609f5f50510ef1b
ecd6deebb52444c2b8d30bceb804401c
041ecc00e61e01f6ef15fbfcf2f238d4
fe2aeb19e8f4e2cdd7f435eaddf2eb1d
29f4f0b70ee809cec9bd23ecfefced0a
cbb44cd2d1ee15def1f51b0e0f09eb01
fd3de4410cf3e3fa1c0907c0e7cb0dda
f405e4e5bf161dd1d2e30627a6af0dd3
56540f0029ed06045dfb02294825c323
ecf20404042df6e802ecf5e70af51eff
eb140e08e8f4e1d8fc06f516f3d8eb07
cd4122fdca08db03e3e22ee7f6c717f2
1818050cd6ebfdf9fdfff4fc0b0e0902
d3f90222f20c0d05efd414e1ea0e110c
acb12014fb06f2f2ecdd0623db0016f6
06f2ef9009013059f6e02c183759b417
090c240ae5fa10daefe92d0914101ce5
f2a091cfbff2d6fd05def449bce58a1c
0901f2faed2d2b0ed7cc1404f93915e0
0fe3ec02d9ed3306190b01d4080ae407
20cd080f251bfbed05f410f4fcf5bddd
ebebbfd9b610dc09d31fe0089ad605f4
cc29344ee425fde9c2d708d4e9441a11
cca4a3fedbf8c10b20df0514aa0eb8e5
ee502a2619c5e830060c22cc2f35140b
03f31807eee7140bf8fd030c17191cef
d9da151115040f07f2f009baef182207
40fdf02df032f0c01a29092ce1cc04ff
0be1f0fa05e2ebdb0d13050212f7f5f0
19e403f8be0e1c1af1f71215e50f00e9
c8d015d2c80816ffade6fad4cd0dc7e7
2b0eb4e013f6c0150d0ae3fe2ee2ce33
e507d50e1309faf2ee47e84632dafff5
cbe8c7e8e3c5edc4c8d8fee2e3d708e2
ed24f812f6d619f3e3fee91de9ff46ee
d400eee2f1f7040ae21cecfb06ed1407
e7bfcf32f18cd4b6ec23d70212c9f032
f7fedb8bfa0f01e1ff0c2bef0705079c
d01df713e5e8eb1905ef1f19b10705de
ffd9ceecb1aede9dde110a0001f2eaed
072b2dfc070728203824df22df0b03e9
fafff2eb0de80bfa0004000ef41107fe
c509eee900d6171705f8fcddbbdbf3e0
e4e4f504d1ecc6c1ebe1f52dece0e4d4
0a1cfceb0f010d140b2a162709f3f5f3
e8f5cf1606f21305cbfce107cd0f1adc
f4f9fee219e9e9f40e050feaa4f9e9ce
d5db070d10f844230b0c14051237ee11
f90fe3cb04342f0ff806e5efe81bebf0
1e070102f718d0cbece1e9cffc00e112
bd133024f0b8384bdbe9dba9dcfdcf9c
dfc2faf0ff0201d7e8f4da8b14c1e4ca
f0ffe3c8addff12fd7ead51cdb0e1ddb
ed06dfebb7f8fe33c430360e992fe5f5
18fbe0e4c1e2fae4f320c203101e3224
f6d5094c04fe0c31e4f8e8c9f1deddd6
f2bf1a05290441eb2305ffcf10d5d0c3
2c1f0b0ffdb1dd0535d81e13eee5bf44
1e0af4f0accaeb0d0ee400fcfd17fc10
f4040b0ae4df113300cd0ec2e4eecfbd
2c2315efd5fa31f9212d3100f1251101
ea16fd1de3e00d28fcab1124ef1ce9ce
ca0fe806f8f5f9fcf531f506160019d5
fe0b1109c3eb1977071d281de3f303f9
ecfcb9d2cc30f1dbd908f832eb16fb08
11decba3ef2403f40cd92202bcf106ee
16c5b29fffcbc328e1f895d4beb30b55
fefafea3d7e5ce1d8af7fdda80eafa2c
b03d033c1925fed2bdd4c5d253f30533
e000f2121e0c1d06fc05ccde04f53df6
e2110ef11c2c0af5f5ea0042efffb203
e8e908bc08cfc24dd9dfecd1e41e44e9
08d602ec420fae1e834af713c3ef2c07
19d3bdf1152e08ef110331e5c2e1291a
d1fc0115f721fdd00de91c070ae9f01b
f5aadec803c3b4f5dd16f4c1e5ee0d1c
f121f3222212fcfa30f3191515d9f6c8
e9bdd4f9e3daf3e1ed3cd6ff18e4cee9
1c1910e121c80a3beef2250bc805e05a
052a18ea2617ff3e100bf81702fbff3f
07b423e1caf4e6fbd0f114e50f0f0cfa
ddf6f52515053634defa0a20fdd9c414
45fe0df01a2b07bb53091404e601e8fb
ec0fdaaef4e410da07da03ecf0f5c9e8
daf834fe0a1808bb8dc82bc4860443b9
c2f039041e4fdb00161c1afee6de010c
ecd3fdf91d133af0ebe0feefe2fa03fd
10e154e21dde050c2bec3b641a290dec
2428f7cfefd7180dfb3332da49f6c3de
0f03badb11d02a492a0b12e186f9d119
07d8dc0f12201edbf70ef5fccbfe2aef
18decdd0f0140610eb01fde3ccf3dbf4
fbf9c22bf1ee2018072500cbded61423
1d07bee7ea15d1fc031fe81815d11a00
2c2015f70a4500e40431e6fafa11c628
2709010c0e7604eaf81e02d51a1ced16
fbf4bbdff0f40add94e421cee9dce092
070ef8f0a210f8e8e004e815daf9cef8
f619fb1ae2d9ffc406deed06cb0acf2e
009dbdfb96f8da01d90208e0fbf6e1f4
0bcfe7da0aed22faef33d9e32cf08d20
d9fc0c1816f6eafcb6a8f7c6ae0cf13d
f8eddaff02f4fbfdc210fd04fcfae8f9
0deef3eccf451325fb09192ac12ccc0a
09e936f2161efc1727e6f4110119fe03
ec290401f0d8b6dc26bac111ecfacc10
051acff830e3e6f9d1f5e8da2c0602d8
ddf11806cef803dee1cbde0af9f7d8f4
c10f591233b6cf18008afce60cdc40ca
0ad7fbff17e8f6dedebece05fcfdefe3
39fd0fff10ddf5fc0701e904fb25301e
12fe490e1cf523f7dadc22eceb330735
fbcce7eadd0007fdff260f0ff5baffd7
e3e7f2e9130ef7e7060ae7f2f90ffff8
26333024fcc2dfe7c620dbe11306dbe3
f2ebfb07a1f102a8eb09e803f8ebe5bf
0be11ae610ed030de50c05d5cd08fa34
fb4ff0d1fad1040ae717f0d404b80e19
1205c2e5fe250d0422ca0fe1e5fef7ff
52eb113713d245c5d451f70a091d27d0
41ebf932f81821dce7113a1bfbd5eedf
0904300ed201dd11220befd412fa22e4
d901eaeadb1cc7fd2df600e1e3f0fa10
f90502e1e0f5d2e3dff101daf5cdf2e3
aa20c1d00fe69adf0ab321f8e1d7d517
e0f1fd1e08f3b002fb05aaf3f0f9002e
2ce1ffe00cff1ccbf215140b1dcb05fe
3300f9f9e90b19daef3219e118f2e5f7
12d4ddc3f9f7e0f0d9a7e9bdc2d118e4
f4fcebebdbf601f7ff3102012ae8eec9
dcde15ede30b0d0bf4fe37202b5d94ec
9fc5ff09fc0ae3ede1f4e0ee0fffe0e6
e5e3d1fbe94302158f8425e8f50edf1d
d70cc9f1c10f06d3edd401fbfb370bfb
160be0ecf907eb24bda72600ec0ced16
e3f7ea04cb3bde27e1d735331c210717
b8da251e060712140426ef3e0b1519ea
08abdf2a0303eb01ba39d514f54d12d3
1cfefa0f0801d2d5c0a412d9c4e5ee1c
aac1ecd9cfdbfaebd10bd90af9ebfee6
e6002921111461d7f923e1ffe2e213bc
fca5f8e8e000fab4012535cef6dcf1c1
2b15fa01e6f31cf2dcfd3b1a35f2242b
0e1f18e3fcf748faf3005f214906f122
e8e5dfd212cbbb07d5e0faaad3fe10e7
eefdfdbbf9dfc7d80fb4e616e9f2f3e8
f62abdf503e2d71ce72fd4c79f14e815
00f501f1e4ecbde5bac8fdd688f30c28
23a8c5edb9d10327244f09451beef6f2
fee9ae2014f6d80c17fc220a0214dce6
17e707e6160b07cafdeae35708010ecf
2a1bdaa8f30cf30ad3f6130bd9f215eb
f810f0cd8c2dfc34aed249f7803823ee
b7ecf3e3f910edea11fafffeca4bad25
f8a11608f1092a0a0df2ff0a1c05b803
d5e5e7d6f9c7d607fa0c0ae1f5dde9f9
ae003a170dfa1216efc21c03fc03b301
cf10ded8f1fce908dd3909034ae1060d
f2170109f421f30f1e22e7ede92f1b45
112be830e31fe50f17710824ef02f821
f314f907d6dcf5a4eeffb92bd4edd1d8
09a103e40bc5d411fce0f8d62cc2e804
3f92e9eaea4e1b11162d24bae40bf0ff
10e211be1006f71f2611f7f0c7f9a5cc
e03495e415e147f7c0c30614faff13f1
d9fad80ee0f13bc1dfd83d20cfdf0d01
e8eafd1ef5080df7e9ceaeeeeafcf7cd
13a00a89f33d2fffcb11ebfadcf8ebc9
16df43c1fb04f210350f10fdd7fb3ab9
f43ac1c7db38f1f315ee1599e7009705
ce349928d7c4d5e9d40be70dfbd61d07
0bfee9bbf619f5d8f70d0ed7eaaedef7
0735fcbbe2d4affcf6320f15e7ea2601
1bfbfde5b006e00ac31938dee5c6f1fe
0a0c2b0e03f102d9f819ff0a1f4300e2
091d1c37063d1cf1e01df721222a03f6
e70bbbc8170813e0f3a2e902dc11f6e6
0b47e610f0291e0ed7ed33090ed70025
d7a72d061f3f00fe0815e8bc05f6f9c2
deea131302ed3efc0ee91dd814e0efc7
1dd7f9fc0005a7c21e22030bfb1134da
e1042516250f06f9d7c2eec704f626e9
02e4f5d307fa07c30501beb60bdef4cd
0110f5e7db210cf8faf9e1c804230512
0df2093917c70ad30dba21220901d8e9
22040e092d01016d270055fdd2ffedf8
ebebf418ea1a1a04200c23bf1deb09e8
f8bc10f91e1321e40b3c17e321d123e8
f6131cead6fed400ecf9fa0310ece901
fbe8d207d6d32e13d6dec9c0e5f6ba06
1708beea082dfa2f0feefb37fb1901df
15fbe3f00dd3e4ed0ec5fa180611c6f3
0aeffcdcfb02d1261ccd10eb01f3c2f5
fd36080ec512291332f43cdfe0481e23
310ae0ddf6d1ad37cde3e4f3d9dd2f27
ee08f71013fac9e1e7100412c8fb0ef1
d7fb09164d311900d0f9bcfe3d11b719
2efcfcec02d8db39ff43c106f9fa3115
0dc5fabae103da21eec9031ea6e4e4e1
1fbfd2b700f7e80ae5e10d28ad0508e4
e400dbfc0bed070a271ecc1017bcf7d6
c5f403f211f4ea3d030eef05efda1d46
28070c1c19e4e909ddf4e3babefe2512
f6c826ea0bf5c43cd9da22f7cbef3b2f
d8211ffcd315dc06e2ca1bebfb0a1804
f9e380f1e1efeff6ff0f17cce8edfaf0
e7fc0c22081c0023ebfae136ea0fe3e3
eecdc0d602daf7eb16e516f6f207f5e6
e5eaff1100e5bce7e7e9a0cacacfd510
fa0f0f2be3fe1e1a02140c30eff00419
1c0717d421f404f3cefc28f5292cc2e4
fc2204dd070b081ef83af2cf200dd202
dbfb1000fa1305cfd5deddcf0e1afff4
112118e710ffe9e2fa14f81ffff317ea
0cebdb0a0fdc08fadee0f1f6c134b305
fc0325ffe4e12c0b051039fac2fbc0fa
0804b42ddc4bbdf00e18f4f1e20ef508
f619fc1b1e2130f61d044c276735f1fd
01ffd5cb0d16f3e700e322eff812cdf2
23ffe0d1e1f82d1f06e30217220eee00
16ff090bde04feeddd061615fb2321eb
dbfcd4e2d7ecf5001e07d3dccae2e0f0
f602e203d6070de10314fdfff4ef2905
3bfedf1413be040df30c0312ccefd1fc
fc26cce20126fdea00ebfdf81d08ecd9
1d40e30dd8fc31fd0f13ff2bfef1c6fb
14dbf1efdf1ff00e46152d041804fef9
fef40c1714d3e533fedd02f913141215
a3f842c734e90bd1fb0211e4f8f932f9
02da0dfccd0bcc151be70eef070ce1f4
e8fcbcf3dc0b171f040bfe022cc9fec7
4bf72402eb3837270617d9f1e5fd07cf
a62efae217db0205facce925ea00fe0b
1df508c7141df803baef26e6d2fcfd14
02e4ff18f611f9140724fe24eeda0fd5
37010b12e72fdb351a09eee2e6fbf8e3
2e09d1dc13ffd10f051ef4e91c18d8e0
dde9e702d6addaf2f5aff0ccd210f4ff
d0f714e91fd7f10802f824df02e11808
16e6cae6ff0bd606ffd50a0dedccd8dd
c0eae8e1e4ea14f8b20cec03cbf5111f
051223e3fa6505f33e19f71d0cfbfd04
0fe5e806e8f915d7f1100b0ce32604d8
12180ddd2e182bc20a261000430e061d
dfe5c7f3380c220e05ace901e8f7d932
f427f41d31c82106dc34d302f602d12a
ace5c418ee16fab0f6e4ab20cc1506e6
e0e5eaf4f51ef1e12bf81202e822ead1
a70ced2122d1ee19fafad7fb200ff61b
28f3051f34fc340311f13e19effa2fe4
26d2f514e001ccb8f8d50c0ac1ec10f7
22f209101d0708d503ef1ae401d904d8
3bf4090cf5f22d1303f1f9e6d6140ef5
05eaff1cc1dbc1fcd6e8bcdafacdcbcd
03f403f90de6101212b6f907ece803f7
1220f4ef07f4f3d91af1e0e6eeda12e5
d60df91e0fd8b40f0503e314eaf803e6
182324d300dff7e81507e707faf5fc25
c711f0240adaf8120e1c1ef71702fe00
d22004f2f20bddeff1f6db0be5dd29e1
183ace14a1170d0424fc03a2f0cbf2bf
fc2925e6f00f14eb28eecc1110c2d4fd
af072a2406e913d915ffe3170cdf1d1a
f702f10eff08f539ce0c0b0f03031b14
0fe508001c25c1fa08ddd0190fe7c4ec
02d9de13bff24eebd725f0fd1b012e19
c9e6dbff2822f8e10f07d80cf300f7f8
d0e70eed2b2e5b240209d82df91c1ceb
e1f5e7e006e9d818d40d10c30001f8f9
ceb3edd5f719f59afff90a04d506cdf1
0af7da13fbfd041230fbf8fb02f7e0d4
fafbed17f6e9e70ecce1c2ecea030fe3
fdd23c12fbecf3d90332f6e13fec0bea
1a29192d25d90ee9fae42ee9f6d5250e
f12b2228c2f9e0ecc30204f1cc18262f
07fb2e0ccd11fa28e5e509ecb60d060e
1be6df04d63609f90625f71e0b58e2f3
1eece3f301fbea0bdbff25f9020dd603
01253922fbdaf8d6c9d5eff5dbf5fbe9
ce0118c1f5f2e301dee80201d41af608
eb13e6eee5e80920e0e801b713f1ff25
fa1cdedad6350bf9f1361a14dff9e8ff
ac24231adf16fc0eedbe06dbb812fd06
e35722f3eb38f31cdff71510f6fd170f
0aee1afe13d4f6f3eb02d40b28fee62b
e9edeacd02f4b7dbe1fedfc5e9edc9f3
ee0f17001612ec12f811ebfe180e2ef0
d9d50af6f8f512ee1ca1f8e2eb01e409
dd0ae0f4ef22e6e4feff0eebe304ccf2
fc16340818e6eaf21619f8110fddd923
1bc221c0080dfb4110030213ccff04cb
0bef18fa0aebfcf8f9201e1ab3de0de3
be31ef3900c3e8d0edd2dc1c153b35f0
07dd0e1207f6fe0217fb27f41d12c4f7
1caf0bfdf517cdfff4d01cf2e2bb89eb
fcd8ea120604ef1400fbf20eecf5e604
d3002608f2f3e8061d0ff6f6dddb0b16
170a17b5f6fd1edee11313e20f12f716
f800fed914e7eefdf5cb0506cdfd07fa
f2d42be405fa10f423e828eeec0502c1
fbf6f3cef1fa1af7e2f5d3231402bd00
fed5db02facfc9da02e22b11d8e7c4e3
f03ee203ea0beae923fbe9edf40b190f
10ccf919ff0c0ee6e4fcbfdcdcd3b7ea
2ce0f3e4e910ce15c9ff0eae13ce17e4
09d8eae5050114cd1c33f7f70afd1bdd
2f00e6adabc4ee0be818e130fe050a03
ff150626201b1bbe0e0e191509ec0b0e
152fe7fd1ff0d4edfbd81407d8f3dbfc
e7f9ebc8fcb3febf16c0eecfe6f8befe
fa06eaefe6dbe900e5cffae4e700c9f7
eeea0102b3d0c1c4e20cc7110c172a0f
051bc81316cfeaf6e6daf0faefeff9fc
e7ecebf124e707d7c2cbede204e9c600
ee17f7f810000ecdebc7f9eaf8f3d1f9
08f8f7ede5c9caf3ec180c14f101deff
2e22d2e8e5d325c8d01b00ff0f2b0605
dbe612e5fb2a17fdcee8d2e4f8eaefcb
260404e5f7deebe409131ff1ea0ae720
2834fbe6f2e212c4e809e3f1f641fe12
12f408ecd8f8dce20e1c4001c0220511
cdeaf6260ffbdfc7d406f333dcfbd4e8
dafbf3fdf60703e9ff033cda36ecc208
0c15ff41473627ec1703fdef0c283619
0a18ec24d9e72ef325c4e7de27f726d5
130ab7fc24ede1ba1310d1cddfee020c
f3e5c6e5dbdadcd4dec6dbe7f7f7df0d
fd2dc90cf308041327240c1223e0dd1c
fff6c6d9f1e5d6f9f7e1f7e3f904f0f8
2a0bcfc6f6cdf7e924dfeacbcb0defd7
fed7a2cfefcaf8ef15070fd5f514c7e2
dee5eefc220a11deec11f608f4fe0a2a
2d20fc35ec32111a02ea0edf1fd8ebca
16f3e1e5d1fbdd20d5d407e3ef080633
0013012f04e222e803f6f2fef5edfdfa
fc10ef0d12470f0a27124b15080707c0
d93e104a461c1ccafb17fffd3600defe
f9d3b8101af610e2020c01ac0dfcd7ee
fed1c509ff2e29fee0d72ad1cdce1c0f
f5e6330e07e2ff1b06012909f817f11c
1308ff06fda5f2fee30beb2c0ffe20f5
e5d6c9edf110c209ea08c8f7efd7dee2
04010bfa0310ea14ebfbf0f3e7f6f910
df082e19e4fc1dea17dd9d0f02c3e733
d7fff3e7fdf5eb17e820f301daccf00e
e3de06ede5f20121d701dbebd60ad0fc
c3f0e305c418051c12eefa28adc8cd0a
ecf5c7f41df316eef8e719e3d4f901fd
9425db0fe1b50950f5fde4edd4d60816
1a01e8e4e40fbaed10f0ddece708e609
ede1f420fed31316f501d9f824fa0308
20ebfe0904d94d0437fb0a2cd4fcf834
d6e2fe061bcc1a1eedff061100fa1420
01da11dd1afcee20d71041e805e733df
3306e8e80be0ff151621d7e209fbfef8
e821ed3f16029c00ecfbec00ece639da
0ef1fdf40f03e9e0f5e0df2a2014fbe3
e618ca1fdbafc7a8dee0bcf0df09f929
d5e5e9f1dbd3c5f2e9ceebedccedf901
fc04fb0c21b2fed503d8d9e3cd3cf301
aee9f8fed2d8d2f01bb9d3eed903f6f3
f101f6dbafc1090fe4d0f2fed6d3efec
ac1203edd8a8cde0ecbbc1e6080ee8fa
2aeff1f414ecc807dadc13e1f007f6f3
c5080eff271b11070d28ee02e6e50eda
e0f51bd9cfe1e0e1eaffe90fd40bcdf7
f1dd06252ffbd713dfd7f0d706f4edf8
1507c3153ce0c340daf6281501ea1f0e
e1e8ee1240029309c3f611e4def6e8ee
f8b0e82022e614e6e1e704f1e6e6f6f8
061aeaedb51fc01ffbd7f3b4c1b9ce2b
d722dddffef516e40505df1f35131424
fcf3f30201f0e22603e8f30f13d9e522
d91618d6e700dde8caf7beea0be3e1fa
d5f000f1e6f0f3e3d909cbd4e1ecbefe
0306199a08f027fef8f6b4af20b7e308
00efd5e2ebebb9fcf50ad1fbe2dfd315
caf6d7d8ece6c3dfd3eca2e50af3d5df
c1f9f802c5f8cefddd18dae3f7eba505
effbf70fea25ddf217ea03d9f4d3faf2
c4ff1fdc0033fde405f7201007201bcc
10f204e3ce0317cfcc32c93ff716e4c9
e5f404d70bec0ef3f80201d7f4c7e904
e80e0bffe434d7f40cfd1ef218092a04
13efe9d52d2002f81ed42dd8f4c92e05
dceef62d0112dfecfc12fb01dcbe19da
e307e9f11810f1f1ccc93efbee1112e1
f73c111be01a2cad332eeb040fd60dc2
e306bff6ed1fee021806de0a150606ff
e3e80acbd8f6ebd214fde0fae4d1e1b7
f102fff5e7f9e9df04ffe5f9e1c7e9b5
3c3902d5cf1f18d7f0fef8e8c109d31b
f0c11beeef06e0c604dbd7f9fae4bcd2
0304efe5cbf2b0cbf0ecdc07e6dedca4
fce0e9e2fd01dfe9fec0f206f8dab18c
f7d4f3f8edfae317addffbfa130f2607
f309251f03cf2b03e3e7bee9ea1f0c22
b8ca1ecaf1fff6d824f5070219ebcdf7
eb23ee05eb0e1ce4cfd1f2fcc1030ee6
f82ef143f529ed0d0ef7ebeb010731ec
df24ba1ee90e19eee4e7edf8afed26dc
f2e63f2bddf52430d1c90ce9c029120c
c6e5130de2f90de22c2df9342c1bc2e0
1d1309036115f2eeefa60efdf539f4d5
1edcd4ccfcfbf81222bd06f62ff4fc17
e7efd4d7080ff202dbfafd00ea17b5fa
eefdfdf3e1faeffcebe1f1ea0000c920
1512c2132e0cacf72e0a28eae803dd30
f6e4d6eef902e41ef6ddefcfb714cd03
f80b04fa02fad6fae2edf3cdcbecf5d5
e6d6e2bee0e9cbc508c804a3f6ffb9fc
e6d3c8ee0118132904f5fb2ad708eef6
d3012212f0d017e516c213070919b3e2
fb0703d4fcc8bf0edc24e0c3fdd3fe2c
08e507181531fe18ede7fb2d080ad2e3
e3dd331718baface17e40c11e93201d5
03c9e91d1427151819d52000e93fe7fa
05250a39e9f7e2f1f6f7de1eb92702df
dd38b2e106eef903bc00ddda0ce8f816
d51f4bf7f0daf2f921031504dde5e0f0
151711ffd5f9f5f10dfaf7ed05e91400
d6dce1d7fdcaeeeef7f6d3ddcbcbd607
e3ff0de2f0e4daf9f5ecf1cdd3eac6e8
ce27c6311bc6e0eef0130127080fd70c
c9e90f10eff2fd08f2f0dae3eee8d5f0
b5ec110cbcd4ea0505ff1407efe1e1f5
d6effb06e0c9f8eef709f0f3d3d2de0f
031cdf18e6f506fbecfaf2e2c90bec08
db38c80007d103de0afe3e0feeeb13ea
edfafabc2500dfd609d50bf3ea0ef3dd
d225c50c0bb5dae2eaf20bf907f809ef
f721f012e1f6d9ede305f939f52ad004
f63ee820e6c9f2f5d0def033fbf053f5
e6e6e302d5e9f87f120dd8170ee709e9
07f317f30e0b0ed82d150416ff13f8ff
091a25d0f2e7dac8ff1728d013d21115
bce0fee030f0afbcf2e4f5c3fcc106c5
f3ee02e5cb16fc6418f11c2cf725c9ed
3f0c0b20b70808c607fa0e2515300316
a6d402e8111ce4cff9e923fb02e6dcd8
f709f5dbcbc4fa0b11d9371bc3fa0517
0ce83f1d040cff301d3f2ce0e403f0d1
140ef6fd132b141fbbe3c2f02cc8e127
d90d0efbf7ee00e0bfc4fdd5e9b6e4df
fdd800e5e0fbfac927f51b10ed1010db
d9e9e905e65d0944fa0f14feee21f5d4
1813fbec1ad3def254d8e9f8cfef88e0
f80708d9fafcfdd7f5fc21e7f0f628f6
daf5f4d00ed0cc3c4a1417dbf1d3f4ef
e611de06e1d4e90ce6dde2f5f902ee31
010c0cfd2809effdcf13fd1b0314ecd6
fa05e2dff2f9f6bf0d020000e6012416
f52dd900d7e3d90de0e70ee597e5daf8
0505f02b21e50fefe518d01a0be9bc02
dee72215211235e6e2f1f61608eaf1c8
f63302f811dcfbbce3f60406d40d0a16
001df72b3102ffd2f6001bea1cffecf2
0b131ce2e2e912efe0ec09eefe171d29
27ebd0d1d21a26240bd23f07d32323e5
f5d4a4e9e1f7db21eaeae5d1e3f6fd05
e1fe1f0019f400fecbe8e100240fe7f6
0b1b14fc33fc03291811f818f5ed0046
e4b1c3d5250dcfe3f1dbeb0709e516ea
fcf612e9d110e7e704e90600fd1725ff
fe1700e9fbd1dee6dfe0d4e5b5fe012c
1ce506021670f0d6110c1aeee135df0e
00d6ec0208d9fde6000c0ffef7faf9f5
1007f90214d400eee402f60f2204ec08
f6f4e0b6cbc0d7dc0e20041bf838bddf
da2412fb1743e61911383014e3f90f10
dd348df6dcde05091d1bdbc59ecf17ff
5be741b802b9f3c0d92b0afeeaf7f1f6
c7dbbcfff8eaec11cf1df6dcfcc122fb
eb0b0205f1fdf7140418e5252efef3f1
f226f1f1cbc900161bdc0efcc91d2019
f7fefed6ea1301fbf706380de3ffd900
deefec0900f3d4f0e8ffead81ee6130e
e71c1df01d7cd7fdea0bfce2150a1ff3
20dae0cee9bf4029f61603fac7080312
eb09df03c180e704ddb9dbd7fef614ed
23fbcef6f41af4dbe51d0404f404cbfb
0ff8f0e8fd032102d0f0060fe30cd70f
0af2f3fc0619daf1fd051e031b081ef9
daf1de04c2fef8f5e6feddeb0ee5efb4
d5c9ecc1d1ffc6140f05eef211e4f7fc
0d04f12d3bab190504e5fee5f9f0153a
e0090e0e17e2dbeee4f515f900060e00
e8d0cd0319eee220fa2c132c36cbfaf5
e90503f312bdd806e7a6f5f3ebdfef05
090200dcecf1ea0bfcd3fbcfe50113e0
d4f2ff08c206f61b3618eb2ee00fe11b
f402e30fd719cffbf2f0d52cfd3afdf9
dbd145fbf8f602e2d9280aeafcddfeda
dde4030508c834e807da15f7e6fb1f32
b3f3ed081dc19fd9e6b5ce180e03f9db
2e0ed8c2ea100312fb0edef629fce104
f7f2fff1b5db0cc5ece403e401d916e0
09e3fcfd0af4b604eb0df5dedd120700
fc04e5041e012500f7f707e3c532f4ef
d314d7fffe1bf5110adffe07efcadee9
1ed11320d6e4e6b4b40714dd07f222cb
dcf4f4fedcc7effef103e7e31c160944
b716f0f1da1fef082a3901d20bc4d727
17cade5efec1d5e1cdc9fbf2fdf5f313
e1e9e61cf9f7d802fde00c8128a5ea0f
f9e3180b11112b1c0cfbd92fe5e70ff6
e014081ae41cea131521cb1a0708f5d3
0917e717c0c129d6ed35af062428cffc
06f41ffe2dfcfc0906c2fbfdefc5041d
d823f6dc15d134ece7bbe63f20f2e303
0cfd003bc9cbebdfda13e7f118da08e1
0ad018fcf41222eced1b1304c4e2f305
dffaba09f4def1f4d7ecebf3fce81ee0
e9e909defc1514e9edc443081a0e10ef
0008e4370c2aee0301f724b6ec031805
1409f6c900f72cfafa12c5c7d0abe3d9
b2f8ddfe20cdd229f401dee31334f953
12381b3202011af014c136e9f5eafcd1
210ce6081022fbde05ee0c06b7f92907
07dec7f500e9d4fb2028f0ff09c4eacb
0c050fe2c9ede6e0dd24eeeff7e315c4
fcf305ddfef82be72ef21215fcfa25d5
f5dc09d315fd0b02f00ddf242741db21
dbb6f9b0d6f0c1f916f0ccfd3728e6d9
fc2ec7dff2f00af00e15f6cdc3e0facb
d019430bcf1019113af44f0e44f6d320
c3d0bc13c718c8bedb01d2fc13f8e3bd
15e30b950aeb0813f5d32507bd1025fa
fbdbe0000beac8eaf61adff202e1f4ef
e9f8f31ff807d4e2c83af60de9f0e0fc
18f511fdd40e0b0ff2d614f3eb241de1
13cf10d1020fe40409a802fb05fee026
f2f604cdf0fb04e6eeacd9dea2ecff0d
defcf133f7f3dfeefe4014e02a010cda
bfd21df0fc0f211a100b29f2f6f6d9e7
24d7ff0a04f916eef31be8f7f9200b09
e2ca10f9212018ee02e518d5fb50f6e1
1225f7f6f006cfebe510d90d11f6f714
ea1813d414c5e20301800bea16abd0d7
11cefeb9c7b6caf0e2d805bbe7daca29
ffe8e317f800010bfcf6ee05fa26f7d9
15530d510201f612da550416f1383cd8
b9d4c2d6efe1fac7e4cce7cdf40be30e
ec06dcbb09c9efef1d24ce032ec8db02
120ff7fee0250100d900f9ded912f501
f9feef1adc31feeadf0be4031605c9e0
011407e810ee0105ffd900fffaef4903
1ee0f7fcdcc589e0ddfef7db31c7f00e
1cf325161213021c01d5f9e1ee05cbfa
ce36e71af31001eb0ef80618e83600fb
d311ae21e4d4bfdcc10ff99f04d91a19
37200f3afcdce2202e2de313fbd1b904
e411dbf6da9fd6f1e3e8f4f4efde0324
d2ed3bcfe71008d6fe01ff1b2cf31cf8
1500f8c42a0cf305fe05ead90afebb09
f4d62fbf04ee29d8e3ebfcd5dba2babd
e1fdfb1013afc801e4f82429eb2527fb
ec220518ff0f28f3242e092df93b1af0
00e718a9d41c000ae300f4d6a5eaa61f
f5f1d8bd3bdef1e5fdf1cfeb2809eb2c
f1ef39eec919c4ebe12408da0ab4eedf
16fe0aefd9ff06001408472cf816e2df
cf8a0d0f0c084601e6dfc3a217cbdfa7
f20bfbfd110901fdd6f9e1101015e00d
cc0de2250ee9470debd3c0c8f1e9fe00
ed18ed1712e01206e3293c08e92311c0
16f4dce5c722edc1b71cf6290a0f1e0b
e2eee6e4ffe10aeafbbb00dd09f9c708
f001f5f3f4e0e5e7e61dcbc2dcf202d5
f5ccf1cef6db07ddf43102070cda1602
d8b6080ce508df38e4eaf5a6c6a4f302
2b1106051efa0216b2f7ba16e71a1a0a
cc11e0e2d2fcf62baed0dad2fa87e902
f5e2231f17202bf41dec40bf08e3d4d6
061ef616e40afbb2ece7241fda122907
e4060cf70eead87f15f11aacd6ea07ce
27061a0ef937f0f20ffbfa12e715370d
cb0ffc39161e32e504f70709511a2ada
06ce08e0eee18bfb9b03e2effc06000f
fcf7dbdef211e40e03e346f4dde3cfef
0ddad8b9d614c21f1df237fd9f1a1511
f415fa0ff506fc27de1adb132b2af9ec
e42a1e18fd42f3e22302fe13242af2e1
f3e9ce05f408eafee1e9e0d1010403f3
e1fd0ad2f0d7fdbaf8d7dff3c6ecfc14
cf1602261716ceece3b73207282ad9f3
fbededb1b9dbb505c4e8f4d9d6f7084d
dc2dfd0af90726062d020c16dc183dcd
e312ede2d113fcfef1a410e5cd030200
1c28fb23230bd613c4e6fae009130def
d5f409453f05f5091b0cf105232306ad
fddce204e8e7d4e6f714dd07ebf70617
1d010418120e0ef90ffadef72a051603
b9e3b92bd004d8e8183255c5c50434db
1022e8bed7e926c213f810b604eecdab
20e8e1fffdec151917da0414effa1309
2b0547e9f5e80024141a2220b02b92ea
2ef420ed170ee3c3eff04125140c1c00
d9f11919f6030be2eb00bc29271923fa
fde3f4f8ff15c9ffdd05d9e4ffd7e7ec
10ec1a010f4d37efddc6fd21c914d808
11ee280efd2321dbc5e5090f140a1da7
32fb2ac0ef37e71a27d72b090610dcff
e7042e170ada16edddbffc13e9fd2012
06fd13d3a4e2c71abde0f400e116fec3
f12dced2ecef1016fcfcfa1902e90a06
e3f01c271c01df11e734cfe0f7dc1e23
f9f1f7091e41f200fbcbf5f90b08f90b
14091300eb290400020aebeef4da0bf1
1c0bd3db5a1ce8e6eefd2ff827f4123f
1db0ead4e307f4fffa19dd1621110519
01fee40df800eafff4f8f30608d2e3c9
361ada12ff0cdb581cf9d332ef0ec7fd
06f812fffd23d3fcee140f2f1ef9d133
e4f6182309d10ee6fb09ded4d412f80b
c9dcf5f808caa1d512eabdecfd10fa0e
130af7e2a4eee50100f411e1c1cbd8e0
3e0ecb0e1625d210f6260af955e526dd
26e2f0d8d6f93b23f8df17d2d115bd2d
0521cc27f717dffcfe0b0af1ea03f4cf
24dfd8d1d8fd1b090550d834f5fee1d8
ecf7231df1e7f0fd0f02ec00fe01f8ed
c5f3024b23d7ed15e8e117bef5010bff
00defa31e9e913e1d0bafcdfdae8c1db
260304114cfef202e3fcdaeb2921020b
18ec1e1acad3b01f10ee17c606f92455
2eeb04fe04f22ad6c8f80c0cfef7e1d0
f20f0ee9c823dce70edd1410f20203e7
0fff041ac72510fae32edb00182810cd
41eb231705e2fe0fed12e5e1fe00002e
f319d0d5070c0016f3d0d90738f5cfe8
ba13ccfee1f0e4c8ea06def2ebfaf707
c3f4ed0aacf9bfe101e8bef7f81ec3bc
16fff6dfcc1638071ee71fffccef06fe
47da050bebed1ddbd427d2d5deff38d0
d004c2e3f0340928e620e7f9eeebe0f3
1ad91bcbdd49f5d3fa3edf199d1a0cce
e5f412f902e1f5b8e2faf81611e50232
ca13cf9d2accfc13f928fefd2de2e15c
0bddf7fe1de3c4dbf8f5e9e8e5f1f8ef
0b001a0f0e1f1e1e2003dde4f3d30710
2df4052af127d5eedbf44ffbcc152efa
b3b8020e05fff712e4ea410007e8e2d0
e2f4eb0f04ffccf1cdc2f3efe6e7eb02
d514082e19d80ae9e006ed26332eed11
16dff5def0293d06ecd623f43e04320a
1726f7d9eef63ce425e8e8f2bcd1c4f2
0406f306e2d8c6cbfbfbdef9e2bfbd9a
ebbc12f6dbd8f7ebf70d0fc305d0f4c3
03f8fc021dee0c0dd2e818bbfaef00fd
c2e9eec3aecc08eb1ef70aee1524021b
f73217f1fdf6bf04c1d010e713dbe728
b4e0eee131bf020cc7a9e2e02005e236
daf331361318ecea4afcdd1501e614f5
2724f8f6d91f0cc62925f3d1d6c50801
ec08e102d7de0ebdedf80af80df91801
fb181ed7260201eb20073a13e8eecd00
ccbcd216eeec0ef6063b34eb3c1de6f2
fffa140a8be9ebff961706e28403fd22
f21e0cf203dde1e9fa0300f1bd0307fd
fd0131e3e3fcbdecd9e4f6e50be3e41a
0fffa7e801fbefef3669f2f319f50b31
26ffe8fff1fbd0f6020a0b1f22f6ffd5
1109f7e6e40ddfe4d4fee9ddd9ecee31
07f71a19fff1dfdcef2ecb23d7e20015
23162e0ac50023d8e324d2f01a1f07f3
241ed209bd19dae3d51e0922cd8008f1
3deaeed2f7d202e70c120a1529ef0e19
1c01e9dae6a0e0fdd4b6adcfece3bbf7
f705181201dd141ebbe21beae6002232
26cf2cf10b281ef00d030be4172bf717
f5e2f8ecd4e2ea2a051ee51705051302
1e11ec0b02efeb0e13630c1c19f6fb4a
fd66da0afe0a270aef14fae1f317f72a
11f4e8d0dbeb1dfaff13fc2c932ffcae
f6e4ea08eaeee6f1f61001fff3cecf03
1dc016d8131405233f1a0b1bc0e99be8
0539f4150be83ae3e805fde1062c082b
b91ac224fcabc5dbffe505122af227cc
dde00f1d0ecf031bfefddeeeaad906ce
08b3faf7ce07c8e8dceffcea0cc7d9f3
f602e9fa19ccdd05e1cdd905eeedd9e7
09ea05d2dbf620e802f0f321e20fc6d3
f4fc24cbdbdaedf4f4f4f9140f09e507
c9d3d5ca45ea05e80cf601ccec1befe2
142623d917ceb90303fc25f2efe227bf
ee2edb4e13d7ec0f03f0e416f7082b0c
1ec8f010bf1409e7bbf0f1f426e3efc2
d321cf0a17e3fbee0c090b19161beef2
07eb121a1f11dc0ff801feed161f28df
2a1affe0c7da03e5fc480e17d40c2135
edefe103fd2fdff9fac80fbd02f9cbd3
e400e8f2d8dc1ef3f4e4f7d706ece3e0
467f1902c50113d4e913e00ef6271d53
0108190edbea1c1bffdfd71b07002514
f1eddadb0e16ea0e11eeff17250ab8fb
caf5ef0a321633f8efba0ec2fcc210ce
1808f3e3d10bff1d18defae221f6d9ea
d5e520222d19edf6ffbedfd438c405d7
daeaf11c26e00e08e7dcdfea1b0ec8d8
1a162200aee7dcead21bec23d1151f46
1aded7050fd6d107f6f71cdff1e02117
160fd4d729c5e69312cf29f0f01ec129
e9dff308d1eaf745ca13ff2ffe1111f8
001e9fb5ed06081b04010c3ced19f0fe
fcf50df51efaeb0220148b02f61c24e2
bd2f0e0f142d27c31a0c1a1312210406
f824edf1e9f6f5f6f0e2d9deef2bf511
05cececce7e7eabbf6dedbd8becfc7eb
1c34f72d043571c93b21461a08162704
eee2ebdb15f8f8093a2ff7430fda032b
e5c60ceac5d6dafabb0db7f4f9fed8e0
dffe07e7fedfdbcef2198ec8cc011711
f111093cfe11f5fecae830c214fed721
4e0bfc16f5e1dd1a15fff2ef0b1bfc05
04fcf1dfc8e6e62108e9e6e4fc0e1fd6
c249f42d25160aff481e48f63e0de5fa
12f7bac2bedf190f020737e0d4dfd014
e72700fdf610ffe20ec1fbe323081df4
e3f8181ae50a033205f3031714faf447
8155fb30094b0306f3def4e9fd22c72d
dcf81fdefae101f11e0938d542f4ee1d
dbe90811f8f3192300ff0e1103d714ff
fcf604e8e6f3f70c05dafb1e311e04f4
cc12dae2e702f010091eb8f3f8cedc01
2711f04431131712e806c62adac43652
f0f3151db60cd306e30006cb05e42306
07f7cac0d8d7f4b2e2f110d7e410dfd8
2e253ade07f9b2e2dd55d6f7f9f4d716
05f512f10010ee2da9f91cbfa5050aef
54333e2315dad3f2c11ee7dbde2fea18
21e801e1ca14f00af62b0612ef2d12f7
daf1e919151f1525cc05310bcbed2533
0f0f171322f8f72d04e6edef2605b804
1edbecfe4bd21300eefb2435f41f33dc
0fee4dff397a02bce5ea230b172519e9
cdddda020f121c41ecc60611cf252ef4
cde116ec06ebfede02fc0d18fc13eb25
dd201a071021e6f4c7cbe1c719ee0517
1f02cde3ff1811e5f0061326f3eee2d8
bc0fd5f5c9b7e7d810c7b0eee3fadeff
007a0e6f1fe9e317f9efecc822f401db
04f4fc1a2ce7ef05edc310f1fa120812
e5dd1009ea14fbf2e40bd40e0c0ecfea
d3e3fa0ef4c91efa0ceafed43416cfef
03e2d01a261ac04c1923001af4f4f110
12eee21026011c3c5d1413fc3706df31
dce4edfde9eef61704f20628f407e2f2
2637f8250d021204eceff7d8ecf8e3ff
eadcf20be7fcfac0b8edc9ed90534b0c
fe03dffdbe21da280ffb1605fafac0f9
37f8041d1912022fdde509e00c23d82c
22fbe63c6918fce6bb36261d06a51cfa
bd18ee265d0a2909f718d6000022e917
f70ff4f1122b203655ea10c00d84dc3c
360bf51005f704f7de07ec28fa113501
c411ebeadbfefceaea00ace40fcebae9
f24502f4ff4cc64925dd14ec45d2f350
f7ff090905d8fa0defeed6f70fc3f216
26fdfa4718e1d7c0d2e7ea04cd13e3ce
ecedf713fcbc1adad615d6f203eff703
2ae70901ae20f6d7f40408e9d9da16ea
cd150a07e8ca1580eaf0ba31ee18d812
dcede535f1b906c8f80bbf040622fced
f60613d4f70d041e22040dc91aef093a
36fb27272ef622fbf31f09e30410fae6
f8cff7470b11f00b2cf2f9f9f4db2104
0ef706e8fcf2311e091fe9c5f8f7e413
091e17e8da28d6ff06d01ce6e8171125
07030e38dcf4ebea360df3d4ffbaeef1
3540def8e11811cb00ed1fe1d9191ee7
dafdedc3e6ccd4ee0ee9e90408e7060b
f1ea04fef6dce1c323f6ecfaddfcbedf
443c1921f21f02dbfd1bff15e2de07e1
32fd05eee700f1e709ea2f060c0ce8f4
e18c0cf90c10f513f2fafa000513f20d
e52a1e1dfef301db58cdf93fe1dbc2c9
e7f9e3f2f3da0f09ea120ded20170728
c22040fc090eef154adde81feff6cb0f
d8070c410119a3020fa4fd081219eaf6
3856030a160af4ffd00611f2f9ea0e34
f4e5d5f1e109ee040147e7f7112bdcfe
09f6dcff03c2e8d9ca08ac03150121e9
e5e40be7c9070205f3c2591020ec03dc
dcf6c515c3f5fd1dd821f7bdf1f04d1a
3322200afefa01f903c92006d6183fe7
2fd811fe3431f8132003220e2921eddf
45fdf82ef3e7e5fe18ebeffcf8e521f0
e90500da2dedf81eade2f1b0e5d69f2e
23d81124602502f23af6380c4df3061a
10f7d9f80ad6e50e0e4e070334e7f720
a5f0b593d5d8070dcb06f2fed8f0230c
5903efe40d03d735b3c944c0cd26df30
d2d8580ef9bef2d1e2ff01f6f0f5e71f
1a2e25180a0df61bd83127bffe10e72c
0e0c030200adefc5efc808cce1d4e0f7
fce511164e0beff40d37ff0940d9fef8
1931a5f00624c7eaddb529d7c204bff1
080f0800ddeb06ca1b09f8291df309df
1f3fc608e8e7d7ca2f7fe20c0e000031
f3d4050b09e32edf2c1e12271b0300cb
1ab82407d1b2f441f129ff762ee51cc0
bd38d908f799d4e2e307f8ff280cfa2c
00cf2fb10f10ef13e8fff42805e8eeda
c4e1ebfd01c6c0f30a001febccd5f3ec
d417c364faead40f13131e082cd5ea66
0af9ff160bf60dff0900f5013f1fd406
34e21ecff61628f6dc0d03e00db4dbf2
dea9091a1dd0dd142bf4222212f6ec28
082c98231c2825202904e8d7b4e7e707
32ea04102312f84d2d12121bd70ab7e1
04cd3200192628f30727faf6fc039dce
e34ba72921e101f6c2350ad40c0bd729
08ce15ffd1f91d0212ccf504d622ecdc
0d211ced07eedee4e3c102faecd3cfee
1140ec2404014edef2f902060d2fe516
dd4104d5fcdf1b0cb4ccc04be43e1ed8
1bec04f305f007f0020b15e21c01c5e3
f3e8e3e8d310f1321e041b1de4000301
26f1010719e5e1fc2cfb19f70a022304
1f1ee0e2ddf6f1060cdd394fed45bb34
0aeeceea09f1d2f9db1d0308fc1f2037
e4c3f7021edbc9520adb03d612e602ee
0bebc0ee14f7ded11fda0dfa12f9edfd
ebed2235c1c50f17fc35b804e21a770c
0a66f00e9ad50ce1bdbb0e15f80fb011
2c310af91ebcbbfb05d4dd0426014934
180e1cefcd383c1905eff7f4f3c6eb03
211ff7e6c2cfd8ede509cb1ffe264e14
343cebf3f201e31fe4e2ea37e2152800
def219f5e706fd01e610d2e902aafe0e
00ded2eb10152322f1f2bb0514eede13
0613f8090e0cff16e6230746e6383505
13c8e1defdf5d724dd020adf0106fc04
d72408e0db05faf6d2d00df5fcfbc645
e3fa0feb31ced317ca0ad0ffdce40e2c
11fdf2220c0752cf3a040a0bf9fd02c7
d01c14d333190b0f22d6f2fcf5f49801
1eebedbbecf2ff22dd04f8e1d1efef19
0300e0ec08d9de0e05ade4edfd19fa93
190201e8151ff52a1b2a2652e0deba4f
eb0df9242e2222ed52202b03320a1fba
f2deecfe95e24ad14520233ae9153af5
dc2402030c1205edd90deaeff5e90bfa
eef1defa110224fb4a15062735fc12f0
f618e9f0de2055213d5cda4140040014
00cfdaab07f4a510e4dd15ee80d803f8
efecf9f2f600f71b0603efc6dcebe5f4
08eb2115dfea24f61c5509303b19f527
220704cbe1e20d000be1e803effaffd1
2b1719ef0e1b1fd9cdeadcfd36eef7fa
0aec3f092b2aece4ed1043135215cf24
fbdfd6201307fe3822d2c70616de2b18
03e4270ce3fd2ee4cbf2a7e73d0d09f2
17f1f8b51123f3cff8e04e1de241cdcf
0f0c03ef0ce4e9e1a8d80e5bee00f9f2
2d011049ee4b37eee8ea1bff39f5f623
1711c42fd2d9b648041ceee991bb0721
e5280638b5a82a2a2327d11ecfd2f8f4
07f9fbbd0600f82d090ef5b0efdff918
b8edfa3ff2c924da0b19fdf410041d0b
f0feea2fec10d103fd2516f4c7ff4526
1421f3c7f90ef31f0c0ee806d914e722
16000707180c13d4ea112ebef533f715
fd0f2c2eef29060f04fe30f41b134011
e4b505edfa04e9180cebef2d1d09e4ef
33c6fff5d913ec44f0c616d200f7c612
21f8f0e20534fbfdebf404f6e719d509
da33d20b14bde315f7d3f1d8dcbefbee
d2bd00d627f7f0fbeff7ebd807f80d09
01cffaf7b514ffce091c0025df2c07de
e3e2b8ede704e10a230c132ae709f1ee
db172ef906c32c0ed6d912f3dd0efe38
e038054c398bf60114c725221f110202
1e6722fdb90820d608e9bf12d74e80eb
fdf3043212f9dbf2ea10ffcbbe22fef9
cef2e4210f061d1000fce114f62bda2a
0d38041e13ca0dd9c5e0f30c1a07ecf1
f51bed13e7061a2905eb0717f5e5d40a
fbf7cce9deef0e07071a27fc0906f7fc
3721250c350d26c0dccde9dbd3440c48
fc0efc07ebe5e4ee0908fffcf3fb0df5
40d9fa2415f9e9f1020b1cc5f0c81201
fed8e0e948de3b0c0623e0e4f1022dff
d91db4f428f5dd3d2ed4f0c4fad71ff5
0ae4bf232c03f0030bb80dd9ecdfea04
0cdfef3d0dd00e020121f30a032d09d0
e5fee24be80ae8f30010ce17e30e0de9
08faf7d2540a43f6d7082ff719dce20e
be1d06f0d515afdc3523f7d435e59a29
e7321f1c152be3441a33f5e91a011a32
f013f2dad0f5f8e00b35f6c51ef1cde5
e5ee18e53c261f421e182cea17bc030b
0634fbee2503bf4a08e7c3df58050d5b
eafa17e7c6173dce07fdf2ea071304b8
d618e90bdfdef3e0dafcd6051320f0e7
15f2fa4e1b26232bea0ef1d509edfd56
efb6ff15130acb1601fae01c090108f6
f2d5d0d8f9daf3f0f208000df504efe3
0316e80ede1df218d722f0f228f411ec
2512f9f4e8e4d0e2eaf510f3ada12ee3
3533c728fbebd5e711f32ceb0226dd01
eecfe90f14e9cc0edf1ff7094ff2c5fa
0bfc0340dcf0daeff10bb8dc17f80cd9
272416d3c1f604c9f9d52504252fe5bd
18190eee1d1414dc03fa0102b3faeaef
4718058ce9d7e50bcfcff6242544f65d
dba6ec0af125f2fbe708f90cfa0325f0
391a0be0d3fd08ed12c2f702dd1fdb09
4e38e7e40329cedf01bd4af8070cef23
e6f01af139d2f207fc24d1f301000d04
fc060c210400c9dfdbe90ff622f7ea0b
612f0ee5fd0d35fb2df564f91ddd0fdb
effb2cd5c3d9fee1dbc9e6fa09f3d2f0
0d1f13dece1e0500191ce60ddbe31a27
42e7f416e64ef815e21d0d19e1f6f4e6
a70c0a2313e901da35f1f5eb08ffe8d4
06d2ea11e6eefcef2208dff1f611fbeb
1011b4ef11f2f72206e0c3fcc2e10ec9
f3f6fec7c80bd0b80cecec25f82dfcc2
475ad52d3436e502e150fa3f23e8e029
b9c708f255c9e5f6f31a39c91619dffb
12c8d5c02103a7fe23f506015696e004
e1c81de51209180f11e81ce3ff09d4ed
39ebd4fc13efc6d115f0e32c27ebf005
fe14fd312fcdf0f9252a08dc64de40f3
d91c13e613fcfbf2bcbdd4d7c30e1901
030f082af9f1c8fdc3132ae9d00a080f
4427bcf122f502f9496fe8564bf3381c
1de9fbdbf811f9072610ffd2f3e3d4e7
41e6c811fee714f5f8d2e3cceb01f8da
1a015904e212162befe8f627ffed04fb
ec16e5e7edb7af07dcfcfafcf70bea1d
dd12f13bd8dcd5dde9bce346282105ff
1dd361afe8330a04edcf0ae4edc2caed
16fd41e1c622e3e10acefbf2ef13b3bf
cbddef42f910f2e8e312f406344cf5dc
c032b01d1bbcd6ff3dfc29e4ecf6ee1f
f9c70e081b271becfc3a19006328a91d
d417a4e7fbcf09f4130e0ac8c50c07d6
e200df5206cf12ecf628f5ee3d39f704
d536f929d920f1e8e946feef1b08e944
0bb4ecc84614051c1bf71701de0de0db
10e2fb1ef809f7f21428e825d8fcf1c2
231d042cda0822f6e05d1d0d4133f906
03f5f00d5f25e2feedc13e0ae829040c
fbc2fe0e12fd02f412191cf304dee9f8
373af511dcd9f9dcf019061bc814072f
2e451908d7bef2e2dbf5b11d11fff02c
0d1bfb18e9f3f4f70dd4f101d902ede6
0b0cc9fedc3ffbdff51d02cd02eed915
09fff3e6233e17f4178e42d102f7b8e9
e92defedf940010c0f3e213209f00203
22f8fcfaff0d16fe1038ecfcff0611fa
13fdf31e00110713010a18f1fec1fa0e
dada02f63c24d817f1dbd59ef7f5fab5
f7021f01f201fcea050705f72e2531ef
21e314fddbca07fc061cf720db0ce114
001510189fef27f2002cd3eaf6ce171f
03fbecfdf8eb091982f6bb25dc135e12
dbdf9fde2c08d529f2c7f7e912da99b6
1e0b09edf3eb021220cfb9fa18f6edcd
090c170308e61407df07f2e5f7171301
cf06e722081d43dd261e0c0b2c08d8e7
deede591f50a1ef225080444b1e60a1a
de2902ee090e2ae80cc627f2ef192e55
d318e017451e272120ff16d6e218f4d4
32f1d9dcf6a7d00daff5b6c6f8eb27b7
1d14f61c1b1eec26073ee2fc230718f3
eff74c14102e07ebe70f160a0f09f7fb
110cf73a1adcdbea0bdd25ebc8240be6
0bf8efe209b0e847eec7e8b4a005f20a
fcf31512f8000ded11ffcb0b222c12e1
f5f705fa01150904d506fa0a0f17e9ee
fd1e012b04420bd7f3e83fe8db090ff9
060deaa9f407e6351c0f1a3fe3ed0823
33ff05f1f6f3f25bb1c52691e600fa46
ddfcd8f5cab230fd06f61413f2101a06
f80302e8d601fb0dfbfc04ce07eaeefa
ca03c6270d1eff2cc328efd3e29f3815
45df3b2415ef10ec4310851a32f5fd31
16e0b305e5bc152d21e52734f9ea1d0f
f505ee01202fe551d021f1f41decf10c
361bfd05d1a0d2070d04031dffe714fe
d2252111f20bcb23f836010ef60a031e
00f5e708f7d114011d0ef1eb0cdc040b
190b01e8ee0ae4331f0700d8efbed210
eeeeefda1621e413dbf10514f730c5ef
1e1d20e7fce703f4e9fb19e0ed1defe0
f1faf600e6122cf2210821dff6e8280b
e4ec22d6fa13072bfe14f0ced1e0fa26
241661141f7f1ab2f2f2dc22241df544
2af9e3e10435f53304cd49becd1ef412
e9fcc0f0f9b9d5dc35ff162705e71cf1
edf81b0d190cd7f6f9f918ed05101316
d30d0919e6d4e9eacedaddf0dbd1d228
0336d0eec1f31780bbf0f0d8e805b5c7
3827dcf5f3ebc1ead5f218f7e6e3d402
f0f9d51f29d10425dd0711d1e6d553d2
d3dcd2e50dbdcb0316e8f30ffec9fbc6
eb07171918e452481cd91e034a17320e
0d281a193013f1f9ef141600f904f4fd
ff0936032ed8f1c2e7cdecbdcd0439ea
cbb7dac7cadde70514ebf50fcac8e9d5
17031cfe121913281f0af3ff05f9dc0c
eedcdc051320c7e9cdedf2050eec05f2
34142c402a30fb1de9d7f9c3d715fadb
11371be6201b25bbfee1b7e5eb35d123
32f1cfe4ea08fb2908271646eff4d902
cbefd03de50bd40e14abe307fbe914f0
03fefaec0dd0fbeedb0b2feb100bfeff
ce02fae51bfad92c18ec04be39daf30e
0926f8d8ef050f20030e20d3fdeeebd8
0c28eee3ce1c0afb11e5ffeb00b727fd
c70ce5cc0d1809e7209d210d1bd81b20
ced0eae8cac9dfb4cdd4c91e00f335da
c309eef501ba43dff407d0572610df24
250c07e0000109190de81efc06dcea18
c5fac7df0ffa1c0cf9fbe21606e7f416
10e6bce0eb08f8d9dec5f521d31c11b2
fceff712f8e2e8e9ef0c21fd10e6ef0f
09edfef3da12d7040ee317c0fef2fb0f
eb3806ccc6113ae0170e0dbe14d80909
18110224401933280a5ad5ff3901d313
1f013e14cde71daeea1bdc2d143d56f2
0ce5fd19f8f20be82719c9fcf1df15cf
f706f10306f432ec1a21fd0015001404
0e2ffb34fa11e390031d17f1babcd6e4
1100e491f3fcefcbe20ed4dcd9e91f0f
e509c3c8cdecffe2de2cbf1be2f6471c
1230e072d8ee14e8e14a0bc1ccae26f4
aff4ed1ffce2e7f1daf6d602e406d9ed
eb532f4a26c72006574201e71ccac70e
f103f7f5060df7f70e020de2041601fe
f1260bf5e5ea22c9e427d90d06b006d5
bb02dd27e6c0baf4f2f5f213f8efe5f4
f91709f7ed10001afe0b25ee060a07fa
f8f0f108f7f1e7eddd17de01f9edfdec
fa4ce0d9dcd8f8eaeb0117f7d5e6e816
43f810ba22e6000626e132e33803b704
c0beea310df70c34063406094219f141
e612e319c1ffecbd0af8dcf917fa211b
f1f0f71cfc14161ac3cb01eb0717fdfe
dcd61022051ce7172ef935e9291bdefc
2de8ce001233cdf714e50304ddb5ba2b
e8f8e5d50acffee909e912160f0fd00c
f6fd482a2bf216d5f1e32bb70954ebf6
f31cdc1fc7d108f00ce602d516040df6
20411b461deaf9f2e81b28d31355111c
f9e00811130cfb230eff0ef2fc06d91b
f1ec10f8081f0f0fd2e90bcb0df207c5
d9470422ccf70be0e101e713e5fc1dff
fcecee02f5f4e6ebfc2feb1a24042b1d
caf51d1509fe18f8fd04f7fbf0f9d701
11d32efe3434d1f3e31011def618d3e8
6d12d1ed24dc8ddef541f6101dcff625
d148fe00cfc4f202e1f9d6ecf30310ec
0f2809d3cff5c60d16fcf4c42d9dfc03
ff060deaece71d00f5052130ce0b2bf6
d91cf82003eafe02e5331c402dcde648
ebaaf129b0cde687d41410d91dd0eaf8
dff2d5dae10a03bfe6e5f604e8dddd21
f512d208f1f1cf0dffe8fb35e33bccfb
fde74bc8011fc7e728f617d2e8bad5e5
012b263009eec2051f1d0a58ce22f5f6
f5f8e9030ee805fa04f1f10605021df6
dc1beee7ccd6ef14e51d1df2d5ba0908
d0e51ffcdf0fe6150df319f1f4e8c3ae
231114f7f3e1290d04341724050be20e
f014d30be0e71c08d4f5f9dbe1f6fe01
bb0aaf25f9cfe4f802280e20ed100d15
f3c33728dc191702fa2217ff373cb823
0d1e2b85f55d0b3117d321c6bde1c5e4
212a18e5fbd5fcfa0210ebe2e905f206
aaf6e40634f00316eff6f7dd0fea0cd5
16f6e40a1ffaffde15f00f0514fd1819
471be0ddd603310badbfc7982aff10cc
150ad3e537e60ae417e54c13cc4fd022
5d150fe012d5eaf6fd0fd7f5e61c2455
16e3eb022e2afefef4c11521190b05f2
21012b2104ca03f127f7250bc71f32f9
f6c9dc163635f141ff95d6b9239aa3f2
1b3f0fdfccf3e8ebedf8cb0906fa1024
f2c5f50ef8fcff06efb008dd1d03e6c2
1def07e001c718d8d30fdbd3fdf9fae9
d7cbe20ffdf12af80cb503c44ec1c3ba
05a2ec1c2149e43118310abc1eebf4f1
0714dd020a1f1b4f0e0df8edf3fad3fb
e3dac7c5be25d4e2f30507d706d2e8fb
f3c5ddbbf3ea06d1eb1a1e05f40f02c8
2524d6bab5beee3d05fc8f1914d64f01
0127f7f719ee170907d81306ee040132
b811d3f132ff0c0eead9f6acf8f6fb25
fa1a043612ea19e1f7e5a9cb014d51cc
c80cfe3712127fcb0e29171cde06ef01
08e60ff2c80dfcf91cf5b216163816ca
ce170de307190de9f92ef63d14d548e7
4fc5eee605aed427c2faf1baa10c1f16
e725d91322092acc0ffc120d0c10f7ef
f5f8c914a9e6c632d8d012eccb14fb0b
1d21e0def2b9e41df6f9ca0cb50f1ff7
20b7c6bbddd4e168d8dec3d3b7edfef0
50bcece91527dd3a02eff4fdd4243225
02e804f20f150448de011701e5e4f37c
ed0c11fe13d5cef3c98731cce206dd14
ed12f50709f800260f1fcc1b10c5f02b
fc145128163211b11addee2b2c24e1fd
ea0d1713560de9f3e7fb0bf42decfa1e
baf32af62efd1d3bc6142e0aac18fd17
c7ffecf6f2d1d2210b40dafbe4e024ec
dec60a4b41e11a0605f31215ffea145b
d305050adbdce9064e1cd8f4f8f917f4
bbf4f82e2fe60bebfe22161b47f2ef32
f73b0dc520fa052cf2d5f623261accd8
fbf6ea12f9260812e300ffe898d20214
240b19faf9d8e62f0feb191c021507de
09e91efd1df8230223e0dc3f0c142705
482afae31cedef14ec002af7db26bfb3
141c2bdf056d01e7460d081c2b29c8ec
3713fff9077ffb150d011be74d1bd50c
fbcd24d6f7ffee00b3c427d90f19c9e8
d4fd1af5c51102fbf6d28b07d9fafced
09e824cbe9fb05c9f4e1014a3727afe8
1a1edff50d0ff305f5ec38faecfef5ae
2c11d650eefdfa42ed4ddcee33f9b1e3
b200e91227c2c9f60e21f6fdd2c43dbe
ed12f3fff2fa0c01a6ef22bdf1eef5f1
ed040917fa090ff40e040826e0f6e5eb
070711ec18f8f9d3cfdde9c9d820f123
1a1cf4f1e81639244a300345ce25cb0c
0c27e92326e7fd12c2150ce2dedfeabd
3af8f902df09f8fb1e0dfe2ce7fcdcee
2bd7d6d1d3e60d201bf4f8393a38f8ec
10d7e9d8f22cce1a2df2e238054ce3d6
15eef4d70b2ff60dfffd180bfc183805
e2fe2de7d7e8ce0914df04e900260b2f
fee6eaf1fd491975d94f0614f5e9d8e8
a91efada0220deeb121e06c001ff0ced
d5ebe12911e424f6f437a20cfe31f9f8
0e002200142f34e52e03eef8f0eb3119
02eb2f999e0e0ed4f11af1b51eeb20fd
d1ebed0d3eedd2f22ee114f2fb0e01fd
db01a7ff2067fc1514db23adf9ba0b1d
e519e13456e3e8133519d931fa262dd1
f3040ce80c1b2128e9ef13fa0ecef81c
420902ecf10441c8bc2dc83dd60729b6
e222d7ddf21cd6f7fcedeee717ddfa27
16f8f8fad7d72cd8f900c72edf1812e3
fd1ff21af4293cfc00f7d9fafc19f5d3
20e9f855f6b62de5cf40e433fd293ac8
1d1000fff1d43c070fe2fb12da1ffadf
1feb001e0108052bf72a02000704f515
10bc06ce040229020ff121efc72621d9
f1051ccf1005e8f20308c20ae6e616bf
0cfc32eb32fecbf6ec9d312921ffe610
0918f908c9d21806e200f2de14f311ed
ca4de10d0eeff11ea3fde6e40515e224
0df4f454dc16e2c51645c4e8d3dafaa4
2700c905c32bd8d8e843e0d9c0df1ef5
1cf836eef0d8d8f440d8fedff4f4f609
fe11f2dad01014ed14e82feba6e228e6
b8fd100cf8d9c93e291aec323249ea15
2c37e5fe16f9e4eeae2dfee5d2e007f3
cfe0fcde0dfbd50de6e6e10c09100204
20ea172e25f1f2d5e5c4b604061fc70e
bfab28051bebbc1008f1cb30340c02da
02e02a40090be6c434264e131fc7e9c5
06e2e80e14f1f2e7fb152b4334fbecf8
f50cb8e9fcb4ce31ab30e9f4021a3654
f7fcf6de1f13e226e690ef2116f6c3e7
3c02f933f14dcce61c14ec3fd6fcfde4
383207400828e3f91b2bf2faf7291713
ffbfeb6528f1e1f5d6f00af34201eb4b
dcf61d3fffe83d0fe4acf8e33244f0e8
f8ac0f262b4f0b1048ea4a082224c2c7
06e4e0e5d7d4d1e123f6fc091ed21de4
12c5df071102060f2c01002e021ed30b
0c3ae214dc07dea0e0bbe419aa12ff16
c4ba10302e02db091c012cdb21eeef07
0cffdce0e8dcc9f8e1caf2fbe9c2dfe2
14d53804d516d1e41da7de0bcb0de2b6
bf0d289cb2ddf2cd95dbf0f1d7daa1ff
f872ff17d2ee0d150554f3eaf6fb1903
2a3c0714f51fe719e32b150cf81002fa
f9fa3214ca0b18b5d3d9d3f11becf2dd
ed93e8ef08c0c6f6e910f0fc19e00c0b
0fb23cdcbf16e83d2a07f50310f9b5f9
0ef208140fc910e609f1f9221bf00018
c5e4c3f2fcea1545f5ebdc1be0cfe030
db27f50aecedc815fdff002ec4f004f9
e7efd942f0cae6fcc2ffcd1a17c4262d
05fa43f5de1b052a343a163327f6eee7
c3fee8fed6b2fbd1f41b1e02f60218e8
2efa349c543838142fff050f060ccdbd
ed23813009eada0202270bd4edc7df33
e6c330dd0c09211417fbe205dfbaad08
deda19dd16f80723f1d2cfe3f8eaede7
12d538870e363b1715db32b8a9d19bc4
01973fcb100eeefe13091f10f4ed26d5
0b01250ede31f809c0d4fde6f6141dfd
ee26c7d105243d06a2acd02006d4ecea
05271c1a15f7fdfa390af2d91a15331f
53ff1709f509ebf20e1817e2eef51222
0bd7173de4ff3d0d36e800f8eceffdf5
2f0bf2e6ece4bff6b747eafdbd3c63f2
0a49130deee3fdcef7d50720f32dfd33
d9e6ead500e5ef0a042bd3e02adbdd10
16cb07f6e4eff1eaebdfcbd7f8e108d1
e8f30325dcd816defcd6d4f20b0aebfc
18f906043ddd02f83a301ae7dc050015
19e4d8f3f0e71b0cfe180cd5ebe599cf
17eb150d132a0dd22d43fdfcfc191418
d1f9e00bd62ddaedd818dafe10192fe6
d8531a1af1f6141ff1bc12f1e309ea0f
4927f5f6de22e5fa17151f211d2b131b
def5e80dcfe433bedcf9cb0808f2faec
36f9e41a21d4f2f16e013beef1fabdf1
fe0712ffdf2a252d07f515ff4020fb37
fb02f9d024e7dd062527d9feebec23e4
faf90211100d21d10227100ef8f522ca
d4570219400441f70e031e0c1c21c82a
fe1bf424f2313dd9563c1b220212100a
470bdfccd50fe22ed10b06f8fba5dcd1
22b8d880efefecd0e809e50492dd0ded
f2fafde815d5150b31fbe019e41704df
eec015ea13f7d31bc4dbc524f4e52cc8
013b140f4001f70aedd132d7ee0adb14
cb1f2d0c3345f505fc0f5d1507fc0c20
f92dfcf9f31400dd43f705ec233fdfe9
09fc040008faf1b51dfee5bbe1112312
f10d230eda27250e1cf60e0925170afb
ee0611ec0effdd040ae40903f92012c6
eff8080ae3cdf4efcfbadacafafb2df1
fede17da09f032e406f111072e1211ec
f003291d38270bf91124f10351f1eeec
eb20e6e7f904f11c210af9ac00c8d921
c4091128251becf7d113ecdb4201092a
ea10ea291ae1d936f529d402ff99072d
1eefdae7071213ecf0b81c00912de1f1
1ae21fc5eb1e2d001df503040befcc2e
d001ec0303e9d41c45dfe74036d80bf2
cf03f1d8dfe559f9f903ede9f9bed4e8
10ffebedfb05f24dfa0924342af7dbd7
0bfae8001fff5b48f708f0053f0ce707
13e62700eff300e5c4e301f9e4161c16
d929f305d2cfb5f3efe510ffe59fcb12
cd00c721fadf214808ebf015e2e1ff10
18e521141f052005f9ebec69fa19dfe2
2c09bf1902f0410eee07d00b04e1e206
13fd3efe0f30ef43d6011e304204e7fb
ef0cfde9f80e0de701f906c80ed91c02
e5080d2d2bd707f8f2e7fadbe223250f
d42602f63ffd02e9caf819ec1013e825
af3719ff08aae9070bc9e2d8ecfaebdb
d1d906d8cf0d0f1f24160aff32e712d0
f6f60dc8dd2b3f16f21dd91110fddde3
e1211bd435e529f408e2faebfcec2413
c4cc17e2f61de40627e4e521b01e16e1
2718ec2b2df0f7280002ff26c4c93a0a
32fa0c181e3ed20bec2af4d8e41f4fe0
2209f92d09ff0905e5f40ccef8e0e6f2
d50bfd32d6b2d5f4fdb1a8ccf20205eb
ed2cfbf22b12000508eef2f0e6f63001
1fc7ca0ff51213170e08172a4d02bfeb
dcb9e0da02dab7dbe5cbd4f413b4eee3
5621ff132f2f001e002805cee0df1714
d817edf425ef4a09ea00131513142011
d526f1d3f0eff3eaf30d08d513d4ee0c
1cc81fe04ce7f63313c81bad20a1db3e
c51b09dc3104ee010df50aca30caf61f
dbebdb26be1afbdbbfc01017dd281cac
d6dad6d6f51614f9000a292104f8dba2
c810140a06db2732191debf22bd2dd06
05bcfc090cfcaa0c02032bd1eaeb1de1
29df18cdd61918dc00db1d0ef0fc2500
260a210e2e4e11f21c1769f0e5e6e824
fdf5faf010f60eebfa10ff140bddec18
dbdcfcfee6e500ecefdfcec10fc1bd05
e2ed22f5f82bde1733e428f2ffed1718
f004d0f5e1ff06f4ecfe012ce3150dd2
e6cfdefcfc04d1ef2dd1fafbffd200d5
e8ef13fd133ae537280cf4e710000738
fd102229ecfb0af71110e5f7e9d31fe2
fbf61de6dffb06e123f11732e5f3e7e2
196dd627f20617d2e70814bad309f6d5
4a0a130fc3e0f4d92229f3f7b1d606bf
d8d1333928dce40dff1bfaf4181502ef
d6fef71d01e6162cde04d9e23420efee
1205f6fada040de33deaf508e5e6d706
cbdaf8ebfbe746f3f050e81825d51ce6
df09f21d0b01fd1e041ce1cdf41d0a19
fb0b04e541354b26f430fcc90aed3b17
0e01f7d3f8190c2ae4c70ce7eff5dc1b
16dfe3b5f5f5d1abeceee546bae1e0dd
fc11ebe5edfd1514083cf2d3bb1a2411
e6e50dfc24ffadfb0bd4b4f901de21e6
fcb1e0f4f1a1d8f7c445c60fd5de01b5
2511ff271f2df31219e3cc0611110948
100e131d1821e31cd0d40afef203eae5
000d34fafeddf430ece818b114fffe26
2cc3d4571f3615e0293303e8290de436
fbfa0c1972dad40939fd4cfb3926ea22
db352500cbe5d3e909b1bde3c505dff6
e3d313d1fb46d313c4cef5e8bbfdfbe5
1a12140cfff511e0e5e02ee2f411bf2e
e1f119f9e32defe6c3eb2733c010d2be
ce0e2946fce0e9e5fec7f2cefdf1f401
02d6431e1356402cfe111c38100df0ec
2309ce023111ebd6052cec0431eb2121
0be8b9ff1ef0b514dad00ebadde1d71b
d4e127e814f113da14f20c193f36c9eb
3a0d0fdfbdcf33ebcc2c15f2f60e16eb
05d9f7e4e32de8cab4b5d21bd60df9ca
2c0e1e16191915f41d0c1407fc361328
f6c901f6ee01010419080c0013e6231c
c20bf9090af8f9e0040005efeb0b1b14
c948b76a14c1dd08ade1f401113a16ec
f709da1df480d8db442e14f31f08f64a
0fa11df53064e830e0e80ff0f39ed10f
15a0ea0a0108122ee90616f102e4f0c2
c5f99ce43beaccf5180328272c0917f5
fa011fe7f6e9f51ef3f714d212dc2dd1
e815ecfb3c1f2213f1e2f2ff84f2eff8
de20dbfc1ae230d4f7eefe11e5d973f6
e425d92e1801fe071600060b10fcb3e5
dfdbccee0ca3f5c11606e6f602e09b03
c422e6e9f3c7f5ece2deeee0ef0a1217
1312310ee603f70e25dfff37d6ceb1dd
f12347d0d0dbc0d0dc011edeeda2efc0
06ffe30be5fffd0c52093e10ea0bf81e
054c18dfc805f509ef4cdc202b08302c
ecfb0310081110d705121df7e4eb0cf8
cb06cce11d0aeadd1ece280af42110d9
cb2efd1eb7f819fff3b80cfeeadccc01
d6ec00ead6cf11f2eac6f3f5cbe6dbe4
0407e712abe6cd1111e4e315e1421a32
f7311becc6e90606bdd5f1ccebe1d9f4
ddddf8f0e100f5d8e1def2baf3fa06e5
ccfa1a09daee17fbdbbef8dfdeccc3f5
e9e3b7e816ff081206f507ce21dadcde
e5cc1419d1e80996d704d916ee1946e8
afe7ea0bcde1094febc1e0cdf20be5b7
d806071f0be2f000f3d4f8def5efe8ce
ff2bd8ca1d011b02f4f5e1fd091fd2fd
dbdef40021fcf8ecffe41f0bfc0be6f2
f8fc2d23101cfef8e80cfd12231ff4eb
9917f038791b2bac28fe31fbd51ef414
032b0d385407eaefe9e412eff027e401
1b2feb03fdd7e328f4dae3ec1928efea
1ae7e9dedbf0d0c80d2f01c4ecf21807
fe06b2d408ebf0e5e81af9bdded9ebf0
f035e00b3f2a5a1c4309fa38f7f3b462
f9dee5ddf1eef0cfffded6e3cef520dd
f5f5c8f1e3c3f5d22e173ac2d3e4ec1a
01ccdef113d5f5c71302f9d5e7d00f06
11fdf6f01fcae708b0f1e5bbd1fc0714
e11305eb1f11f20af2f8264624fcf8bd
e3211806cce2ed3fdbc743d807b8ce7f
f0e6010a15d5c3031006dbc4d7fde8fb
f5f106d1e5ffee40f6db0222e2c3de0c
0dff2d2c38fe07e5ef01fed815fbefdc
fd05d2fd10fbf40ff32422c3e9f70216
0425f4ff1a283e3fa80afad1e209fb3e
f3fb040bffe020500b08d5e536d8e414
32f3050319c6d10ef819f42809272ac9
0528d204ca0fbc231529e70cf5b3ce20
f4e9f8de06f3cb14fa0fcce8d6ccfa06
45dd1c1818251315f02cce1c16b2ff26
dd0ae7dae105ccecfbfea30ceaa1d0ec
dfd80d0614e7c13af019ecf8fbbbc715
e7fed3f2b9fdd9fceb44c7daf7bcc61b
28f71af308f4040f081f24fff72dd3fb
d2d0f0fed2dc2edff2efd819d5c7cb23
40ed03ebfd1fef06fde3ff141dfee5f4
06f8d8fb04f5d9e4f303d9fef2fcf61e
21f7190efdede91233fa2936ee472013
20fd0fef00fb0cd9d5fcf4f3f212f5ff
de17050621feea350b0013d303cc10e3
ef410a3327151442e4dbf9c8e3c821d5
1602d9fe40ecf04f3b031eee00f6e70a
10c7f3071c30c654371c040d15d3f3fc
f8100820ebc6f7e5f5a3d1f0f413dc07
d116ea01f0c1e1f30d9ca3b5eeec01f3
f7fe1bfb349d19e5cedc01f2c204f3c6
cbfedd24d8c1e9e9edb8b1b60b0f08f7
0cf40e03f7da0c16d5c5f0dae4da09ec
ad1204efd3aed0d010848ed2e81ddc21
1cee0201f5ff0a05f6271014fb06f215
1fd103f2fcd21c20090813fc0801d41a
2ff200f90b07e835eada03f60c2fb70e
cfed20fafecfe50508dbf4ddf5e02415
1330cc102300ca1002190f2d38e5f901
f2ee0dfd12d6f9f60b1a0b1034d6f106
0c04d804f21be81010ea39e3fee00527
f30aeec60a27dadcfdf03cba2ce5f110
ea0720c84a1b2dc7d8ed35e0f1e318f4
f7b9e9381de51ac7e107e30ffb053b11
cd12f0f4dcca0ffde603c0df15bad615
df0c19e2d1d0d9ede007b1f234acc211
0e03ebe324f703fbfbdcf5d442b5d229
cc1b1fe8c0ba0917ce0888e817ca9323
f6020acb12c8fde6ead9f8f317b3f9de
d4fae6d7eecdfad5d03390e026c9d61f
12c6f61bfbee16cac123f703e6f40fe1
dcfd1dd0f20d12ca26d316c9fbd0ea13
5cd12ee0f2e327e3ec0609ebefd6f0f4
eb021514eeb710d3c600dfe0e7f60ce0
f6fe1304cc25130b1eede72eef2927e2
0df0042cf2faf8fd1fde1b0ee101f5e4
f4ebdd44fefff215ea3dd4e508f009f3
1f4bfd1919ddf8e89430efedeac423ef
1a29ed0ce8022cc1011af5e4da1817c9
1ee929283133dce927e9d615190918e9
30d30ce5fffcf2b924efd500c9ecedab
f7ef12f9fedce2c40701f10dbeefe2c9
0950d40bc1e113c0d8f41ef6efece1cb
ea0a240006f9d3cf19c2e509cbdb80c0
fb18dce9d3f9e0dcd5f103ebe6eff5d9
19dc15e8fce3c68c09c6e81fcaffc7be
e2fbfe0010d9fb12b32804f619fdeee6
e94c0b1015035924b5e326e407361207
ea0bcfcfebf3f91febdeff26032d1625
1509f71ee6e6ddf30c02fe1bd714d1f1
f1d209051e0fb012fdc5f50f20070420
da192117f41af6d3e0f8dee4e508e5de
bd0423fcf2e11a12f0eb26f0f610ffe4
1dd2501b3c42ff0f2c022bfd1922f4f1
20352a131f20e4ee05f4fcd4ea2ee909
191908ffd71805fffd0010fcf50c0b20
fbf3b9c312e6ff0dd8dce3b5f5f6d71b
0a0cc1e509f6d815ede7fdc5ee0b812e
4523f354433bdb0103421037241dfd2f
10f4bce049f8ef08c2edf1b8cd0c9c3d
22f4b81300e9e2e1f4dde7e1e11acffa
1adfa1fb4331e030dde217b9f705b221
1011e62eee0ffbf0b9f031e3f31c0810
14bf3e29021e01e102242c4cea1eeffa
260bd1fafd12ccf8f106d9d6edd3d952
c9ef0ffeeedf01ebcfff0dcfdcf500fd
b427073bf1e0d6d520d701daecc50d1b
c7f11e04d8fa0500f8ea13fee5301502
0e29d023bd09f4eee3f40802fde90f05
c046b011e3f3e4e4c408cbfadec8da04
c514081e37e80ae332eff512f25318fa
020827edff0a012f32cbea14f308d0cb
eeb8e8e6e6b7cd18130c1de4e6e2bb09
d6d9ece9e2b702d0eafe09dbead8c8f7
dd2b065a0117c31ced03f01a1713d217
f2eab6f7c184f2e81bf915f21ef1d012
d3e4e0e60cd701d3fef9f71704cacd02
ddc6e5fdf691bdd9201bf00ff8e2ba0a
030c1011092aff37010a02f1bcf7f3d0
a1e2c51411b5171ef404f337191603b2
03fedbdc23ff31dbf1eee4e8c839f9c8
e2e9daf819eeeafa15f4ed06f2fcdffa
03022ef91f193ff3f5e608d3ed01f50c
f523d9ff1e06c71805db0524fbfcd6f4
e6d4e310e1cf100d3de63904f10acbc1
0b181902f321eb050f210917fb03ec0d
f806edf807cedddc260225f7fee13820
fdd6dfdb74e3c5e61bbe291f1d31d302
1616bc28e3de26022eeded43d41b8ce3
21ff102ff81c2c17fefbdfd6eaed1620
0ecde7ea191adeee19151ebe0fcdfcc0
eb3213f6fcf3f30000eadfefe905dac7
00000ce8e1ec33e537102c24f22a2ddf
130b170415eacacec5fcdb0f03071322
290ed10cba133b00d895f9e616dd1929
e91bcae5b6f800f307f23556c903140d
e9f2cde7d91ad042eb290320ed25ec08
d5f7bb021817d114f9af2f1204f0e1db
f20a4bebdee725f607381305fd092df9
fbd3e3f2fce406291becfdeae1c3e2e2
fed6eb0ddcf2f800c3ec2ccff1d3ef48
f4fef70f21010802d7180120f7f70507
0ff1e8cbe1d905e7f7f303feeaf7fee8
040ff8fdfee6d24df6f8d7d7f4fae2da
f514f61a041508000afd1dda150fdae4
0c06072235ff22e30f224b19f5f00206
06edf2f80cbfb550c0ca0b90bd1cf8f7
c714ec4412dcecdce30314c30407fcf7
f1ea20fae71d02e51b12b21a20e402ec
f4fad6e0d303191a22f1e624f2ec31c4
13e7eeedd53616b65aeef22cf11837ed
b7210440fb040e0e22070de52104cb15
dd1ff5303ef70044161b18e5dc13d2e1
441ff31312bafd21f5ece3c9fafe02f9
dd142dea2cfcdadaf00fe221460f013d
fbf0ede001c1e800d7fff6f915c31113
19f2dfe0d817ff1c10044511012000dc
d4ff0d020decf9f70620ebdb0cee2021
09edfe250708fee6e6f1de0855f604f7
faf1060ff5f6e128acf03963e554fdc4
fcf7c11d2014fa204bff0911cbe10f2e
eb22eff5f2e5ee402c220426eebe0720
3ef314defc05c90fd6154e25c057baa7
a91005cdf2e0c048db19e5fcc4d0e708
eb01dc0aedf136dde1ebf914f20614cc
ccf5ff2207eb1d1ff9e0ce0b15140023
de271f26f3e5fd2e2404d4e1f0b409f9
daf0e509180bfef3fcf1fde4e4cc24fc
d70b050dfa2ed927e80113e6d3f90e0f
db0511f6e0c8bf3bcd0de8d30dfbe7c2
d6090bce30ec1bf2d5eb01e85b00e3f9
1bd6090e283ae2dfe0f8f01e0a3207d8
15dcd6f5fd01ecf8fc170211d804f500
e5f5fff91c0ef203f91bf3ed25f415fb
ebf71ac5d50afddce6cb0709fc07ffd3
fea6f1e7fd51c32d3c47143416260e0e
cff7ca173f9aae1a08edf2e8d4e03119
0b1b3830f9dbf5fd121beee4db221b00
ebd7d1e2caebfd2ffd16f10f0a150228
fc38f33801efbe01e2d5ccf1f6ffebef
efee02d819e9e5eebad3ffe1e1010cdb
e919fb01ab22351f151ee22df1eae8d5
f91ffc15c7f61c02ecdfbb070908e3cd
e5f2fb1528f6cc07e20a18f0fdecd929
f8eaf22206e6ed1ef9190f09f3ef3c3c
e2dcb5e0f3bf030040d41424eefcf6d3
230327e1311c0916cc05f1d8110c2114
09d3e9d3e2eedae3fadf0d06050efde2
42fe000edbdb13f9f4e5f715df1004e2
0311e9df1204feec18e515fe06d9f121
e6f6c92a1626141e23d8f109b6c90cfc
17d3ea6d08d11e0c221eee1ed1342ce0
100017fcbb07c72c0cceff1013ec2b17
fffafecfd60bf9e406210de813bee80c
0702de6ce8b0edadd01cfe48d70dfbf7
f208fcb2cef3fce8c90f00e221cc0bf8
faf9ed251ff70b1bf30a1cb6cbd8f316
071105320f2c152d0a15070b081a23de
f73edad448431b062944cfaf27d9fffd
31e2180504ebc3ef14d318c010d0ff2c
320112bdd1fa0ad6e9dd270e190dfc08
d8bf310928aa23c1d0f6fb2505150be1
43dc0215291a06f7c9162abec8bdd301
f6f5ef1df8c301e4000407e6cafafee6
d2bee2c2f909e92adddce31632011909
2607f71b041613f11427fcbcfc0dffe8
1cc026f01beb0cc81c13cde420bd0ce1
f6e2d84501e9e834d10fa0f43f001010
fdfa0708022df2fb19e9210ccd0828f4
df1539060a260ef2f52efe10dbdedef3
e6b10f55dbfc1538e522f50525f5eac7
dbe5f3f50407e7e5ff2f3d17d8e1cce1
24c80df1dd212ceff0f20eeef4ee03ca
3e2320f906e8da03f9c0cdde1419ef3b
10211fc7d2eae6a31de4ed3adfc4eae5
fe08bd0f0d12ed1bd51711cddc14f9e3
171bdc20f1ff2b2c17050c1bf41e0e19
150df932ddb8c0ea33eddee9ef07e6d9
e8210dbc18f13e233405f905eff42ce2
f7de0b1e2affdadb091ff905fbfdf0f0
d6f9deeaa0fe1dfbdf0edfecf7e0eeed
070ff813fa26081ef9ed0fe2e132fd07
3319fdf7ff15f7ff0efddd0c0bf7f82a
f60111ede50f15d515eebe22c61ff0e6
a9151d0a03d7f4b6f61cffa8f219bf06
bcd8f8e63afa001bf4f4fae6effcc1f0
ef2e20dea9d2facca4ddd3b7c4eff91a
dae00b0b36e113d1ebef24a025f8cf04
f3dbcadef4f40b280d1af94924ce2402
19e210fe2a0adf130dcb030913d2f7f0
3ce4f4ce1fb3cce6f5d0020e30c1bd0d
c2bdfb2523150dfc223208e020c9effc
e7fe0c2525f209f3d9050ae9f44ffdf5
4b3ede11db02f9dc04fff808d2071537
2fb8eeba0955eb23051f1042ff13e053
331cd809f4e60ff7f4fae301ee08e9dd
f8170bc106271dcb09ecfecaead8dcd8
0d39ed2405e80b05e6ff02f100fc1512
17c618f2ec01bae7000e06c815cc07ff
1d1315fdfa3c2726ffe0dc00e5f4d323
d904edfd2d24f9f2ebf306e9dc06f432
bd12a2e202caead3ecf918fbdb2d2018
721524e4c730da2721dcdfd4aefecded
9f459a940698e303eaedfeebcfedf1d6
12cbdff0eadefdf0ecfafee51ff10104
2eb20a1401dadaf610d516080beade19
e1b8eab621d2e4d814171ddb3ee39a09
0036b132fad210fed3eb00d3f21407e5
2121c2dc2a2cf6f3030afe47e824ea12
e7f520f54037f42433c7261ff0ef9e00
07dfb4060fb216efebf1fae3162a0809
27f13506ff2de7cfeacafed4e9a2e1f9
f02bf8f20c1e0f20e4ff4011eeeed1cb
19e82602fef9fedb1bfadee5ee1113f6
e2e1dff611140324f1eef6cffdccd4ff
ef012610e1fe2a07f9eacad515b9f7de
cbe1e7eb3330301d1ce82a12c8d0e0dd
2135f70fb9ffe4c5f30708fed4574e5f
d11aed14dacc13f401c90ae50eeecfe1
e70ae7120cf7dadde2f5f8d0edf3c800
172b17d6e7eedfb3f25bc40dee151f30
1e13d6d53ff3d7d62dcf2b0c0a0cfc0e
ee2e280efde9def89c12c0d2f215420c
f662f5ffb7cfb0e2b2e7d02b112d4851
18171d1ab8fe22be2238f50eeeed160c
1724edf9dc3610d4ffee161be203cfdc
dffcc7f024f9ef03ebc02ad6110f91c1
9ed302ead80d464bdf2abf19f2051da0
ea2d033102e2140c34e5fd93222240f6
ca05fb08050418b42921eb0cffce1e20
28d5f8acf0f2d50afee012e1c2e7eb1f
1b220ae6cbd9fce72fec1029e2250f00
1cd705bce19dd00f04e7c4d20c2b2ff4
a456080109540ae15611112e123730f4
01f0e8f0e7e5e0efedefbbcdeded0b08
f4e506edcfc5f218fac4eeefef04e0e2
93371b2a36222cbd0dd12af9f9f8ef28
e417ebefdc1ef10013c603160b1de238
fc0bf313c1f818d62e0fcf1b13110122
a833be17e04755e64c0b3e1c170b09bb
f720141bf93cfdf419e8400df20511aa
0e0ff733040122d3141af9f2320efa0d
06e9c1effac1ac51cbf303d409db170b
ffdaf2dd1f00d023d1fdd8f80007e13b
f2da40e1e02d9c2eb33a442ae528eaf7
04fe0508fc1ee80df0fb11d034fce81c
0326e7dddd14131412ea150fff16de15
56ff38e8f9fff507281ff032df01f443
53101fdbeb2cb8d2f7fc551dcb51b4d8
d2db111b192311181aefb82815d32032
dcf5eafbe0fac901f7f1d6d5d7c4beef
0d0900e716030ae519d01237c52de4e8
efc1e23c40ff4f0cd2edfe303b1a2b2f
04cbf709edf2234406be2b2209e9f8f1
f6e23435150debf0ce04c94224e12b22
b1f6042c0ed70d09ecfb962bbbe03733
e905d8fdecec404b2df9160fec0d0600
16fff904d4f0d8efe71c05e5b3c900fd
360cf3e2e2ecb2fce3ca1d37e822e9d0
330c0dcdd12e00a5edcbefc4fffde2e4
14f8e9301dfcd824ea2616f1160f2d15
c2080e07f41107faebe0e1ebcef5dd10
02ece2fbce01260d00f2faeeedf907c7
2b0ad234be19152c14ff0713090fd332
e9c2a3cefc1af64c1e360c4016f00446
e921311401d9ea05fed60200f2f5e8c5
dbe7ee1cfdbafbcd0395abb003fff009
17fed5ccb20d19f3f9052208edbae9e7
2f18e6160523e60ecf12e7f325c8e4db
26f9b7d2120efa05e0101702022696ee
13012f31daf80015e8dbf2edf1fbd1e7
371bf42df8100ff4ef02fd0cdbdaabdb
f011f701f8db023f27f10dd7ffd306f6
c54d16351de3e537f62eef263a2f102d
f7d7ddd6f51cbc06d5f8fc49e00cc00d
e6d1280036e51915f1db0bb63532e70f
23db261fe8f5f9c5e3020ee519091806
f3fee6ac0d1112db161de5ff15e200f7
05eee5edeefb01fedfe50408f6f4ebbf
0cf729fa271441f7140ff4f2031d0af2
28e9084e01ba02beca10db15212813c0
e8f00dd84644ea0a1de415d13fdbe312
d81a05e6eee7c6e5a61ba1c40ebdac00
1fdce7faeef3e5fff4def9f3d64000c5
0817ccc6034f16104d996214e5f3f30d
f7ff2834010112201ce7260cdcdb25eb
d8e7d9da0d080545ff05e2d213aabe24
f905fabb2e35052c0506eed428d50403
000009ade726d8fb35d340caf0d7f525
e909fe01fae7d508e9f904f516e5fc09
3dd2e846cec8dde8f1f6d310ca2720cb
25e80fd0d9c2fce6e2e1eccdf8d5bbe6
c604e61a0cf40849fe2812f337f10804
db26da1ddaf8051ee8ec35cdc7de1709
cde41409fee9c4feffedeffe080d09ee
e72b39e91fd6e02904dcdb02edf9ff19
aed6e142ebdce72edf1225e32d12100a
1951e2d4e8f0fabde724e9e2c0dc25f1
eaf61ac2e3f1cc940dd2061a88d0e7d6
d2f9d9f214d50eddea03fef51bac02e2
1c2bc700f9eade10b02af5acd4e8161a
fae2dab7f20dc4080021d9e1e60835ff
2623020a1019f1dcf9cf04e3b7f5e7cc
3d6bd9f2cfe4c70ec5eae7e2ed1d0158
0ddb0800f00f0ce91138e0f4c50a2cec
1d0b0c1e3603f6d6ffef0b0206f6dbe1
ccb5fdf6deefdb14f0e5fd30341ace02
cfe01ec4f81d2cd212a2661ed201d2f6
b3d20b11350818f2e91419fc134d131c
fbf221eee3eedd2cd3170a04f40b0dd7
eb1a1706d006dfe0e50ee6d5cf01ed13
3df132c72e21da11ebd0031dfef913f4
e90217f9d617ebd3ea00f5cf02060a30
44d8331e4e32f5fa3cee056131f1bef7
0514efdb02fedbf601ef1ab7d7fbbc2f
fddf1cd6ee140dd4f209fa09c7e318e8
1abd5a1714502d09081008f9050624f0
31ece3e4110905f619fec9282dd8e901
4feff31c2c1606fc3122f26453c60435
0ebefbff1bd4e5c745d9f42279f0d2f2
e50b2fd9f7f2fe0adfd50c231b0cf4fc
ceec00ed12b3e502062628c8521a1018
c921d002c1ab08e7ecdaeff1c6d8f607
1c1100f50ae8d0fff05d141218dad84c
0c7ca3e4fefd382fe5f71403c71cff05
ec0ff705d4d211ddd32bf91516f3fffc
0baef9c5f4fafdf50dff0a28eb02dad2
f5c622e90ae206ed250e0075fdeea9eb
57d64cedf9004f2614f4da04dd0efd9d
b43fbf74e78abce7f401dad232ecd41a
fbe9dbfa0ea6e508f80713fdac09d5f5
341125c3d4eedbe8e2d4f2fe00b3dbf3
ff0fe23bffcce3e2a6eac71a1ffc1a41
1deffdd90010fae9e3e6fef7180dbe16
c8de1920f8f3dec0d91afb3124eae21e
9dd8e64606d818ed021decfe3448cb44
f939d3c419ccf0eb0a06fc0901131f05
223eedfd340a0905fa2b2cdee3251a0e
080917c51662e5f4e8deffc3aebcc3e1
f302cd081dee0a2602fcf8c3e73df7f6
2b21f9332b04feff1f141d41ce1f17ea
efc5fd06f53ce81218193112edcb1aa3
f322ecef11e80cbe06032322c1f62102
ef0b0debfecbf10ee2ece314ebff0009
fd061a25023425231029fb13ea123afb
d6e4dff70725da022308353417de13b4
f4cecdf90df6f0fdccbad8d9f305dccd
ee1f180bd4de1df4ec131bd4e7e3ee12
d9efd905b740292bf203c9d240a1f219
11311dfe36381ffecfbb1b1e0fcc2132
e214f122e0f70442dcd51812ecf0ecfa
07fb01ee0f4001faddfceef62df6fde2
e8cba4d530e7c4cefb26f3f6e43404b8
00feddd2f01e0bcc430719041614b803
dce40e07e93bf02514efdbb7f7e3e2ff
90ecbfc1ee28df11eaddd9f9fbe39ea0
11dafc13010a43f2051fc21526eee8d3
93eb130417eccee9e3e8db101e2f0e0b
ecef0004f21a3ae01d13d5433607d3ea
ffc7d1e2deddf1f7f3e9ef2d08d10c22
1f2d07ffeefd1d3df432f1f651160023
27be0dfb0dd3ba2bd00dc1ea222ee019
ee19d4e0e7e2a828fbaff3c8052710e5
fb0dfc0d09f20fb80602d3f0e6e52502
4a10f40eee02fdfde6c956e2dd22010f
310e064fdbfd29e6210529e4eb0348f6
dcf7fa04ef310b0823f4c8f81af9d2f3
e516e00c09000525f6d7fada0d09f9e2
d01500eeffe1d622e603d4f3d9d7bf18
f0e407fa2aefc1d7cdda0ef4b70cfdd1
ffdcc8cfebf4e2e6b1c929cbcd10015c
d13811162ed2d70acf8718802c2cc8f5
ae2bdc370506e9d3ee30ebf613260ce7
eeea04f510060eb226e534ed191afec5
cbffd12bfdfae7e4122ef5e70d1afaf9
e9dcf9fee60301e6fb00e0ed0dd60ce5
2e1323080634fd0005f7ff1740ee2d10
0cefe8d1fc3febefd5ea00cbcc32ceee
0a0c2ecf2311cfa210cc2b53b35fe90d
f0f9e1f7ee1cfe09ed309bc700a90c29
051719e7c412e901e2fffd01a9d2f4db
162bbcfe01da0a2afd070df3cb13f30b
dcf3f31af606eaf3f3f50f0bf1f51ce7
11e945e81112dffae1f91dea071701f8
00fe20f7104fd8c2100603c722edeeea
32efbece02a32965fcc1f5d62cdbf0f5
35f908d6050c020e10e613ebf93df1f0
e0ef1dc6e8e5d727bdca0f34b74e09b4
86f832fffcfde908fc262dfb20d93110
03eff8e22f0c201be0ed08143b02f8f7
0122ef0703f3e6e7c7e6f4fb13e4ffd3
c6ebf200eddce7f7e7c9faccd2f500ed
0ff842361cf7061216f627f51101041e
11c6f9f808d0fdfee5d4450f0cf8f630
19c6e8dad9f923e9ee0f01ded31c0612
ec30f62406dded240ac4ccc4ef0303ef
2ee0d81cdd29397f4b54eb01fdf7d2fc
fe0c0914d1fce644fe061207001a2025
e525fe25fcd3e6cad30105fcdac8e2e2
eeffc60500270bf71419fb06c513f2f6
fac8e2d0e4e6b6c6c2d120dfe1134312
d9ddfdd1f8f8f4651ef8e40af8d7cfd2
00030516e007fa1c010feef6e0e5c7e9
fdb6cedb4d010001cf1b46240b34dd0d
9cf1ef1d2fdddc2301ef0a08fdf8eee2
f605d9453c0535e1ec04f2d6c01209fa
f614f8e30ff5bc2f17f10fe6e001ee20
c1e9ebee0af3f400e1e5d9bb12e3e11f
082211f4352901fefcf1150521152715
08e2091fbba4f2bed9ff010bfd18fa12
03f0e5232dda25b1b7f607fa125316fb
ca1d07ed06e8aa06e724f9cc46cec112
27ed22ca96200e9bde00131700d72dfe
cb1807e40115da14f4070024f830fa13
b314e0d7401df0021ceae5f9d9f602f3
f9ece9edeae8f4e4e702f7f9f6f5edda
f8c7f01f0bc310cdd20b01c508d7e3f5
c5e7c71ce5e109eefdd02e2be4fc24cc
12dbd522d00ce1cdea02d1eaf210dbc7
08f014edffd1e4b5db0af7fbd92c5518
11f7112ff2034abe303e25dad4970598
cfb1efbafe1cf418f8d81fedfbdd0cce
16ebf6f2fe100f060524021ce2f30ad6
0de70e03e5ecfbbf21f4e50f03edc2e8
ef0dfd17164018f332ee3604edf80ef4
effa04d323f40cd3fc2420132af4f1eb
b920f20cbcc4e20cdff8f62426cbf0f1
07f823e525f00af0f5e5e8f7bdd1cde3
c102ff0f06d12416efcbfbedce21e670
1b06130cf2deded7554bc30e050ae5dd
1826ea23dd03f4f416cc5401c6ecc1ea
e00e1110e3e80c0cfad609052d07d9fd
c01ea7f3ff0a050ab41c3ad52806cde2
f3eb012a19ca191cf21dcddfaeea0bf0
c9b220f6d105fcd8d909def10ed3dcfa
9948d54c12f7c1fbbcd81c0b112fef1c
d100e8ecf3212746020a270701083de8
e8f00bd8d6f9e91deb23e1f718be02fc
e0e6f105fcfa0ef90e3bedea00f51dfd
01fbc301e0eace15f802d1eb0ef3b5f6
093e0f1105fbf80ceb2020171cf3fc33
b534f1f9fcdcfde1ea7fe71307ea321f
1df3dbe613aec2d2e3ddf216e3ee01bc
0cf209d92310082ded0645b9f712ae18
fc043606e7d3daffdfaf00edbfec191e
0c20330d35f6e622f0d20be7081bf8eb
edfeeb29f8cffa231430f9f5370b2710
ec14fc25faf2dff919f4f4e1f820e6f0
18cfb702df171ae7e6fd031aef1613f8
ce3115d8b01d23f4cae7e019d63cdff3
022623e2eb15c0e5e70aeee7c3e6f12a
a2eaf404f9e918a9e013e0f717300a0c
0223f1f9e7bc9bf41b091e10f7e65808
1920deea23ecf914ebe6fbcee60023f3
12ebd609e7fe0700ece922cc03e01efe
e7e6f5fef0ecf5d9e902e7e6ea3f04fd
dd0c15fb19e604fc1a1c1109211d0bfa
ff351008d7332009151f07e8ee20dae3
fee913f4cc35160aedcdf140cf02c9d8
bbf0fd150f9fece609052e0cd0141102
d1edffc942e7080846ef072fbff7c6fe
02231a1c1703e61d5c2032d92ee2f307
f418f5e40403d3dbebfdcd04e0000a31
f21702f1f431e922f9f91f0ff30ddff1
e5482152d90f1d07fae2f5ffaffae8c5
29f1f39c4118eb26fc01f8f5dabdecbe
2ee322e2fa1af80cfa0203b2d8e1f405
085302c80606291a02a4ce30aa17e5d2
10df05fb091711f6f70beff1f7031eee
f205eb061ede1c1214b1f2b3f9e7c2f5
3a0c17050f19d9e33d0d0bef1c17f9f0
412ee7e5ebe8eccaf3f00834e41fb41d
f90ad6d5ce0b04e807d8f505f028e41d
dce3f7fa03cf01f0d31ccfc0a40b40ec
dee71ce9d2db11bf34062d08ea041c00
07df171ac61ff027193e1b00f4224e0b
043310fff40cf20890d108182cc99a06
180902fffaf5fffef5f9233ea8f62eff
02e426fcc12202ed5111d7c4f6eb1b0e
0a000af801bf0ff0e132eb17de1025e9
f4dae0fee81d0c30f6291133df1014b0
1518fa0920f30d171af701da15ce0b39
e5f30cf7fb1de6f515e2fcfef6f30bff
afd9ec08cc5e1838f81b26e0ea0202b8
021d030de00c02ff03e829e3ea1436d0
e5e7e4d10cf3daf1d0e11ac5a6ef0eff
f11306ee42f9f8bbf72b220fdfe11ef8
e1cd080df41720fa21001d3818fedaf1
f31dfdf6021c112c2b0be015f6cebd14
e4380eecebede9dd1e0a3218e406fb49
f803ea3d1df607befcf5f2e5f2edeabc
1d0822c54d0ee1e8051a0242a6eab37e
df16f4f80341dbe708e422d216fce9e3
dcf50331cf0519fefa13c0103219fdd6
0618f2f8dcebd3eed317fee1caf80b05
eadd1ccf04fb04050cf1e72310e4d5fb
e8d614f5e3f3df0ae223b40f203ef442
07040597dbee09d211e71514b2dd0dfb
0deeef0fe0f10bdd0af0ea05132aea05
15a6100d19e8e9edccfbbbf707271417
07e02017f6fa0e2514012027361011e5
5d06f1b00ce20420daf3f2ced405c4fd
2be7071041dd2a2100fcdd023fe425f3
ddcfcc311e182b1932ce17f2c3e40efe
e5e5f8f7fb4af9b60111e480ba33fb04
fbf670021644fedaffeb18202a3a02e9
e2f0c305c4c90b2cf9fcdef1eca2e5f5
04da0af80f6f571ce0db08f036cbbd1b
071ce507f8ef0205170b01eb9ffc05df
b8211a05c331f5a61633e1b5eef31afc
f519f3f7033908fc14fad4d9ccd2dc1f
0af43ced1f421be9fd0016b400211508
dbef17e5ee460b9fdee917beed0efbec
26ff08f321ee1d160301010513faeb1b
1d06c0eeda12dfe0dc0afdf30ffb13e8
fd191bc0f45b0fbbe9ee3dbdf1ef0bca
28070e1ced1813ffe71e07fdd80210eb
e8e0c9fbbfefe7460c1bd0f505cfcdc7
e401e708ea0a0bfa29e3d9e9e6d1ffad
e430d3da04cbc803d6fbf1ff1bb820fa
c5fdf1e11bb9210703fe101de5c04309
15d9fffb01000db1b23016f5de11df17
d7f0111102c51012fac202d6d5c3dbb5
dd011af11dc4060cdec302d9c015fe3c
1236fb3033c8ac312b03f5ee360bf232
fece19daf8f30cd0e90f2cc5dd23df21
f6f51b1ae1f409f209d1dafbf919ed03
ef03179510112a15d8f7fef5e037e310
dcefe4da320e1d15bdec2af814e9eb1e
0cfc07dbe514f616101afefae812dee5
eae7ec04f3ec080b13dd08fc05d9efd7
c8a4d4a5cb203217d8d848fb0b14f721
11f2e2e728db3b0c13e9fa3eeff924ef
08e5c633c6faccacfee0fbe7fcdd01a2
c3f2b2e92d1c211707e62606f3b7fdfd
ed20f6e7d92ecf2714d827dff4c31b0b
04fa0d030bdeb1dce6b0ebe021faf304
01f3edfb01ef65efd424ee08f02dfcf5
d5f8eaec0609d2fd26a901e4dcc1f101
1affe5c227111b00e4bb3fd708b403d3
c7fa4ab18b0ec9e50cf902fe16c7f703
d8f303340eeed939f925f5de16f71004
1bfa0ee50d0d03f2171b0cf909bcf8fe
f5d123ff240bd930d21126e0dcecc8f7
14ddf718f5e9fe4431e8f111f0031526
e8faf5161527110028000ef4f2f214c1
c30ee1f4e9eccdf503dffc1c121be00d
13bce822e9c2c4e0cfc50f1817200aff
0cfc0af2d6f307fa1e0de113f6e72610
c3cad6261ce8e3eaf042daff3bee06f1
ff31ff2529ef26e2f92daec7bbc933c7
1fd1e71c0607aafee71d2fd7dbc53eeb
0429de240ad2f2def3ec21cc12dac332
e624b4f3f81903eed41020dc28efd401
f7f7122de8e81cb318f8d6e5d8d713c8
bffff4bbc8f928b1f00b16f3d4e21efe
e5ee0b1ee6fcd8d3d42b1d30f603e60f
010203bf1bfe4cc818ce51faeccd1ce9
e1c71ce5cd0de80912ff05dfcbe514e5
0adf06d518f41ff4e8e22df2080e1af4
faf6f4cbfc2b0707cc9a61e41df529fa
faf20beefdecf2ec0a1dc30202e80df8
fccf23210917fce6fbf204e6cdb2f4ed
df9e0bc50bd7dcf6e3fa1ef739be18f7
33250105fdf8be05ff42211721f423cc
ddeb19eff71ad7c5d5b71be28021f721
49e63929f57f0c1409af45fa0152f1ec
80f644dfeecf14c62ff5d3070d120fd7
d502473e071104d9ea12c1e2fd1321de
7fffdcff0edaf9cf0b1efd28ecf60dde
ec1a18fcf6fcf7e5eafbfe1be71ad6cd
0d34fbf1075809b5ee260b2bcb171120
94ce2903fcc8f4e6f92ff39dfa01fc27
f0fcc502f8f1fbf60b26e22530f40df6
f81b25d3fd07e402c2cefed2dcf1d92c
0b22f014f108b2c6314bdb1e04e20620
da3be10bbcfa01d01c74cc1b51f10a10
f81029d20727c4f3e5a1f4f7ddfec9fd
cdfc1009f5f027e0f31f10e5ecf71bfc
be3dedefd5cc21aae04cf4e5130619d4
fee604e8e9f713dffef3031f1513eb03
55f9e2f6f80eea4101d90fabd7ccd3ea
ffdff819f317be1501f5212813c70ff1
db15e0e9eee9e8e6d7fdbc08142ee4f6
f706db5d1f14d9f80eeccdfef8480cda
090d31f8d72324bc9ceee2fa09fc13d1
e441c80e35bdecd20702d00ef0ddd7d2
0bd0fa29cce1dcc8fbe207c01f101a07
ee0ac80931ca041030ea04e1cc24e813
cc03e0f0e0fe00031a25eb1117420a00
dae80fc60fd20cb4082803edcf0d09d4
f1dba8fac1e80ef4f116e0ee1730e5f5
ef27f6fa0a0911f0e302f60cfb2fe7fe
19befffa14ecddf0071704f8e8e908fb
01fbf51f07ebad19fd0def1ae0e017dc
2f20160ac809e114e62af5a7cfd7d8d5
e7d517f0240cf62c0fdf07d714fde7c8
10db1523c714fa0b1726edf8fbe618f0
fcfc181e0610240e111d1f17b619ecd3
253cff0c11bce5f2fd0cf8eed604283a
b6d00733e0ddcf241efa270dfae1f79a
16f8c4d609b8d7eb1d340326ebf9b307
33fcd5c8fdcf213adbe03212ea0308e1
1a0f17ecdb03fbfef206d3400a3fea13
0aff0d091237f4051011f8e804df2502
2420020ded0008ec50062527b7f6da23
0be8c7e61b1dfe35efeff92809ffe5fa
e8edeffef7161fe4f2dd0fc23803e6b0
0e05150cfa181af83501e80efde1e30b
1df116f3f625e6f24802e0f2fbd12809
06062309e4ffde19ee161ff8ef2a4114
c9c0d511fdfeed14f9e9f7dbe6a0dfc7
2d1cf6eafb1bb30dd1e818d0fc08d80a
e61c24f825f7e8d8fff103f2fc1107fc
ed090b13f3f1140e002fd0112ceefffe
f30727a7020d31d12b282846fcda2117
aee9364a1df0dfeea6d503ec2432ce3d
eae817fffe0900450813f6230a07c4f1
2ef3db2ed50ad7610fd4ec1d31320ef3
f3f6262c1c12f8fa0a15cc5bfe0f0a06
01f2fbddd9feee0bc6f2f2fd1af5f009
dde9011cf91d12c823ff15f7e4061bc3
14fb03d8e408f23d44f22c09e8f5cc24
29e0d903dd05c6e3d4d11fb5d42218e1
f833c80c01fb1208edffffe1f60217ff
0af917151925e9ddf423170bd6f41101
e4f40ad218ed1c14192eee16cffb1a61
261c11e3e2d0b301d4cc27d6c60f002e
20f58ed3f8da0e14e7fb0fe0d6cdf00c
ca16eef6cceb08f8f9e015dbf2e7fffa
b3e9fbf41906f2cef41620e01ff8fde5
1dd9343c31ee35fccf09a02750e51f09
c5fbfff2e4f5e6e1dd00e5ce24b6f3ec
f0e1f814d82ef32501f431fac513faf5
0912ee14e1faf30611f8460a24ddf1df
ca1d010deb170e01fa2806c7e0f50708
0d10f0e1e7f600e516ece5fff9e706e6
0306d730de150e34092101f5dcb1e72e
2e0ccfea0e51e03cfd0340eefa0dcfd6
2110f8df06f0df400919f7e0ece7d1da
1efdd3110cd5f833e912ea1c04d90905
e9f60dec011908072522cff024e20807
141d08060a6708cccbf3e0103739ed07
161cf2ce121ab812dfe019ee0de8ebc1
ff10f706dbf00f42f6e2060d01c216cb
eeee031809091a0ddafa04eaf2f40deb
d6f22410f0e7f7b2e8cf1ae8080bfd3a
15f70fe8c0fd05c2c2ecf9c0e6fbc0f7
37c6ecdb1cd0cde9ebdc11d2f2ebe519
f30ffa0f1df1ba26d10fe20fffb036fe
1cdec62953cde2f9fdd4c624ddf2dfa9
910a231e45d1f706041209203cc7030e
fdf134f0fd15fd081024e9f328fb0e09
eb0c221d02caf8ceeafdefbdabf749dc
f819f3efdff7f8280bef284002f6e716
07e1f50c12f01a7f3705070e27eed4f9
effc1203ee04eb23161cd6f105fc01ff
fefe1df0d9d8e9cc10fdd9f2f81dda1f
c2fdfcd3d1f940e3c90305dfdbf6e612
0cf8f7fe001bef5d02042a14f4ebbee4
e9f2fbec9eeaceed1af8d40df4f3e6fc
1809f2d518f1d9e905e826db04e60209
cef7ea0e1bd5fb24080bdd1012effc3f
edfdcadf66380e572e0c1aec04bf0511
43e418eeeed307d4b414f2bec2b5fb01
e003f306d309f1f215e3fffbdcfaf83c
2809fcbbfafa08ee321a190de00d2d17
fe3507b1e130ab0a31f41ae027e7cb44
0ef21b08fb0aeee7e7ff010d0af9e8ff
a80bd1a60619fae614d40d041adc0316
f80fe7fea8ece7dbf8c9e937db223ff2
dc0d03e7eccff9bbf2f6ed11f91224e1
f52505ed2401040af6ea1bf2f7d719f1
17fd06f2350b0af60c0214f615ceee01
0cd1070943fc0a130aefed09f104e1f4
1cf21bcfecdf4ec2e9f614fef3ef18da
e1c0351011eb07d42f1200f4ec140c06
e5fd070507021e001be5f9f8d0f1faf2
ffe72602e13906c30cc12b0305dcf59c
441c02bfed04e8e612ed01f3b4a608fd
e5e1ebacdeea1808e7041a07e31833cc
fcf3be2e27f1e0e0d7fc24f8d90621f8
ed1be7fbb020d10d0fb5e925c854f0fb
12f9e847192417fe1df846f5fbdcec09
f8da23e707110c0e08da0b0106f4ea09
14e51bf5ebf3e3b22029ba04be9eeca0
edf10812e5e0d40504ee0e1a1d1b0329
a0f5071105d402f0f512e907f9f9fbf7
e10a0323e102e70cf025d8f2fde3ebfb
f80f24f5e6f820e4240edef807003cdf
2f0fe7a0faff1af748161d0814c4e2e5
bbda0cdedd03160dfde6e03211301407
98160de4edd3c8feee03f4d5dddf173b
d20ffcffddf1f60de9edf5ef0a0d0e14
fd368c06ddf91a02db3425fa140617ed
4ff1d2f01d5ceb031ef9d1650ff9f3f2
f7f1a3e2d6db01fcc976052cf809cc1a
ad14360ceef1f9d706070bd9082b37bf
293ad505aaa8b8fbf519e1e701ced2f5
a62c3a1a06dc10f5061623f93a651cac
d2fd08e1f5eded27f50dddfeffdbf109
ae0b12e30d143afdffac1dee321deece
d2522f1bf6ebf304e047c6dcdde001d1
e7fa3f1703d7f007ed0310c7dae9f4ec
d3f12bf20624ef11e8bef2f1f8f1c91a
f7df00f7e723dd3917db1e11e705f70e
2f2e042af74be308e039032ffd08441c
5131e21ffa01f2e8b5eb05c7b7ee2635
1d0cf6c92a0ac1d723e31aaac2f7ecec
d818daddf5f114f310030e14ed0d1e04
ec32e6f0f7f1e9e7f00503f9f8050bf8
eda4fa47eaf5b4afdd02e9f521070610
ef15d8c1e8cd2bd4e01e040be52001d1
e220b127151fecf8e4c7e810d015e114
e7d520bd230f2ee710bae9000107ead6
f136f54708dbd6e02813d7f9fc3e2918
12e2fc0920fc001e0504eed4fa0f14f3
b30d1c0ab1cad7c1ed2df60103b5f71a
270827df434525ec1110f1e6c8e0c2ff
1805f6be361501091bf1fdfdc1d4d3be
0801f80717dce8ea0cefe401200bebe5
cc0406fee6bfc5e30eef2f06f903050d
02b83c42c00cdce80031eb0852f71f1b
ffad18da2e181f08efd72a16a92510b0
39ec151bcfc518b3092ad2100fec382c
3d36f7e825df08080ab70ff1a63a2731
0ffdf40a080eefc6301a0bf5020e0802
15fa0fea1b0101cbf3cb0de320f419ed
123401f32fea1cd938d1301fff45b707
ffec22061cfbebc7350126e1f210f200
0e1b2c05120429d6e6fb0e34d43918fa
19ba231c1ff3ebf245101b10df1de7e2
0b121b1e131df2f41b0a0bc4c70bf7f3
0bf4f0120b2ff90723180e01fdeaffde
202f150807f12a1f07101408aa1c0c04
4b4222e736e9dcdfd909e70dcdfbf93d
1401f6fc31fffce0d9e4e50bc8142ffc
2a032d0f4a49ec300c2f2006e2330e16
fd00ff041921e13f081c05fad6f6f7ef
00c4d3c1ff0cc9f9051bd9fb54b0fedb
c9c8ff8ae41c2cdf16162e10f0be07db
fd17edf92a2a13d45211071022de2410
09a8f2eb19e4ebe0bd0efc0e0d11e3eb
de26d6fedb111322cfd70ae302ff3e21
10f9d12a2525121d30ef160d3205fbe1
dd3efdfc2a0a181417180c1e0ff1fbf0
f0e5da0dd82710e71128e0295317f6c2
bfd5fdecf4f6f0c7c70db4eb1fedf5fd
271efadc2e18d1f4e7de2603f90f16f1
fd1afa1038e604d9de1af2fd0b0ee901
f10eef0bcbf90507232019162705ff0b
e145cf15460731fe380d1339e2192eb7
c502f6e3bf0a280e1ff90909e0fd33eb
28bb17d1220d16ecff32af541c03fae4
132102df27e60d1e0bf4ff22d6130141
e41d34da28d8eae9e3cd32f0c904b84f
0ce3c716eaa92cdf3029cd0c2ff11c2e
fcd107550c75c61b2105f12e4a0c3834
0815d6f7f5b906eef5ecd1001ae311f9
180707e8d48108f4e5fbf74209fe07f2
0413b015e7eefc5a2c242cd008e409f9
06f8cf2810f6fc0edf02b43446c7f5fa
e50b0944f9fff8bf2304caf01dd9330b
f407eaeb050cead308db0edc2b0fe0da
f5f020d520cb1a0df031d01c4bfc031e
f4e9f8c6ee1f00f2eb05f7f83dd901f9
ede427230a1d18f718ea131d19f02401
daff1e393df84235f63cf1453cfa175f
f6fb5a44fdf2140354edde2332ed222e
e20ae20b203c2ed31123f71d31ed0c12
1a043107144b0ff1bcecfb01500ffa10
09fbc7f2dfa61626d8ddf3fbf9e4eaf3
f228170bda0edccd0bf1e1faff14160a
b92be127fabe02e5aadb19d7d3bad3f3
eef0fbbdf6f0b53901f722fc0fca20ef
1027db2e131fa90b4836b5dee025f7d5
dee5c30420b6ea0a12f11119c4d30d01
fcd808d6f50f1723eee01de3fada0bd2
ba2e0a18eeb0efe3d6fbfbf10de4000d
cfda21fc0dd414d1cee6110015e7e0e9
12e51cf00bf72d0d2904d7eae4f1f2e1
eaec21f8150e20ecfe0ffbfd05eff0f8
1f18f6ea0cf9dbd2c0dcf5eacb1ac9ea
11280f261ff514f612f00ad8c1e219f4
0019f2e4fadb01f6e7e9f4b7aaf8e2ef
951652d0ea153be9e4f42b08de185305
1bde0dd9f3f40d15e61ffad5b729dee4
41d6b4d3f1312b7237420d1df1eac4ca
d912fef43613f0270c270cc401c8ff12
c614c00e61fcd4444803f31516142230
12d9e41d0ff80d1323d1f80efdea11ea
02f820b0030c05090217f1ccdafe3725
9d1418d928e7c528f9c1f506f6d01b1a
020eecff3a13df1113d022d7f1b1f126
eb0fe6e8291ee0141e16f910f8e312fd
34e8dc27fbf8c5e7db0110cef0adf924
1edee9f759132ef2de29fe0bf3f7df16
e5090ef10eec17eb12edd824fa06fff4
290e0bd03cef1f1203fce5e307c8120d
ba16dfd0441c203bf818f310000911eb
d325f3cc47213e4e0722f6f1e7c9191d
caf4e0255838eb1908d224262050d91c
0feaeffb22f144efef05f1eaf71105f1
44c205d1ef140ddc1dfa310db6f72ac3
31f00ed9e424e7f42716fbfee4fbdade
2225cce1e916c4bb393324e4c0d1df11
f2c6131130f007f20115f0dddfc61415
f6f3dedfc4f90e38ee04d6f51fe7f206
0d4b124cf324c4e83e090147d61b0eba
0deadd23021205cbef3206c2acbb05e1
1bfa021ee729f6da52142f0c8ed8eebf
ddedd0e6d220fdec02c60a0ad0d909cf
e416e01a1bce2df62840d309c3f020e0
f0fe2706f0f910ee0ad80bf5eaf7d8ed
1217f4ea961415e62fe1162eced81706
283de928c2d6ece212f0def3d9ac07f0
25380307aa04e8b740e50901c2ef28ea
3029280906163cfc5d4350c12ed0f1af
091b00ebe0eefde8020b1c0d430919eb
ee03e9fa3ac81f1b0ce59ce0fe221853
0ddcefbeff0bf411ec01112d2403e3f8
3325cf612051ec054f0b186240fd10bf
0e10f5c1b41413180204e2f0e41accfc
0bc7ebf4d6caeecc08d2d709ffc9c5fe
923d105805c90010fdeb0da3130b0b08
ffdf1015f6611a0416ed0d3c051cdbf5
feefe909dfd22428265b22112bf52cf0
07a2d1c8e21a081ddd44f82703faf11b
7f092b24eb4f0021e408431bf537fb21
122a0714f61aff22def4e7dc06f0250e
2620b2effdfddf0d1934f6362fc2ffe8
57ea435d341dd40e4adc1735151f03df
61f9daf816cbbfc6fbe4f945fa0df3e9
f9330ce0ec0f1821e8341b37fa2c45b4
5238dd20fa2be9cffd2aff28e911ddfb
f91123cddfeef6cfedc4e3edf50eeb0b
d9adc20c20added2e81717d71cf33321
f9e20747cdedb5e8e715011662fefc4f
1ee4efe9142de90a0308e406cc0111ee
a11d31c4f7d0fd442ed7ee0af6b2d80b
df31f21034c1fe1c48fbc503d236fffc
eb010a0f06c6e508e707f9fb08e00001
f11de5101be0afe1fc100eea29fe2921
12f8d8fed9f901fee9151cd5ddf151f9
38eb1b0930e2ef1826d6e1dffb081bf8
eafae7fd1cd7cee7ef00f8f4c7e024d9
d51716e60f0e1db3cef4eb1f1311070c
c1060729fddfdd23de17e8274311e511
f4e332e0d2ecf7e5f307fb2d4301e401
f11d3122a32abdcc202a35055afa5b0d
f62c3017d30e0c06e70515edf2edf9dd
17efde94190f1e2c24d8be1bfde9fbca
cbd4f3040a2513f007050508fbf008c7
0cd822053cf31bfc2a1a210dec0613f2
eae82013f31909142c15e9febc022204
ccd922e4e5f8f80a14fea5bd160717ce
133dfd0017ff09e005d8252beafbf421
05eb110bdaf4e921e013dd0722f0334c
2b0ffae4111ee6021adfe4eae5e21532
4b3cdef1e3b4e10b010df446dd5bfb2f
f02100d7e60c09010a1402feee001221
0bf2d8dff3c20ae1f848bbfaca1bc61a
eee912160d1536e7374ceed949e32bf9
e3d8d9edde34e1eaf4f421d1faf718f0
f52c15fadfdd16f307061ffdc1d8cf0d
1e00d9cbdf03f8cdfbfb300c02fbd5f1
293525fa00120bcbf4120f0bd6122001
bde2fbfce6e3f6f0332822eddf0102dc
eaf245ebdccfc026ee06f0c7062ddb22
040001ee1dddffd8db16d30618fd23c8
03ee0f34c81df7f0f626c3fb12011604
c608ebf438d0d325b5e82dddbdf0ea41
ea0aea01ecf429e209150709020c141f
19e422cecf040c001bf8ea21dbeaf606
de2407b7c0051bdb20d61210c8082800
e5f007cf5c55280a4b42fb262207dccb
37f8f1ec3afee91907d42ef5defcfdd7
e0250aecf217d02122f4280208f8db22
f52bf9fa2f29091007ed37f1cae4d2f4
ebb8083007fde4caecc800e20124f912
d5b9e1f1f3f1f808eb01dae00ee4042e
e0e2f1fe03061c49dce41dffec151ed7
f412081edf080dcb36ec0820f6150fbb
3123d7f617e1cb18e6db15c9d40213fa
2eff2cdb124306cbc4ec0fd11160f3e3
fa0503ea1be8f7061b07eef652fe0efb
e405dcdbe526f100120ddce7f7dce20a
07ee3cba2430d8e996da13c51cfb06c3
d323c0f10bf4dfeff32a090708de2f00
e4da19f213ea2208eff22635f007eb29
2e052e284fd9321d1502e5712814f00d
acd4cb2e0a141d185d27d90001e93013
e705fc1208f42f3ce91d041defe1db0f
0601f233140dfe1d470145fb0022faec
3e1316f724f5460bd20ad7e0f71abc42
1eee07dd00f7e5e9dddf0bbce711e6da
dff6defffa0db2e3111baacd0595d908
d6e6faf0e8de3e1d13fefd31dff2e2e3
caed0f2712d524fa3305ed541aea0d20
07eb3bd709f9303eecf4393d36e3d8f6
1fc5f0fd14420a25e038311a24263b16
f4f30e02f1e91c0cf6cfe7fdfcf62007
e6e83bfd15de01e7ece1e0d3e9f61517
d401e7fe0b00fd011410f3000901330d
d8140f09ffead41bebe3f2df0311042a
10030edaf5da28e3f42ee2e5f3ead4f3
2b22ffd3ac2ef412011be7eed717c5ca
d704f1eb2ecc32d3b9b223e5d5e80df9
14e1f5122aff06f714b3e305e1e510b3
2710de1317e50401de0c1ff6c5e8fdef
19091f0ff92d2945243011040e0e61fb
0bfcc0da01f12114e20d1eeff8e1dee8
e2ece0f7cebae2f915abb6e63ef1f9e1
1a1fc409ed2a1432fe0a05e6e609f03d
d60d461600b233f7dbe7fbd1f8d9dbc9
30b9c4b51435d20ee3d9e2e6d01608d3
f4f5015af60d12aef1fb2e200c3c03d2
c805c6231f0725f9041a1df7101910ed
d31914d914e3e2f80b1ecfea1dd30202
1ad512e4fe010ecfedfa0be6d9dbf402
f1db2b020d12d307061ee1d636e4111a
e010d8d0eb2210e31bccfefbee0e08c5
e2f91bd226370b0f07001e2afa1dfadb
991708d03315034e59a618eb2ffaf61b
d6fdd5e7dd1a03152fc862dcdaf936ed
31f40ca2070840f2f7a824ee30d11ded
0010fa0ed92317ca33eb420cff08ed2d
04d0dfefd4f0d3d7f0ea0cfde6000325
f0d7052cc4c7c23fd115bfcf09b6c604
1a03eb030707f7101cfe080aebea2be3
152da3f51e22e925f3f3fa28eb0ef417
31c3d0db351745cee702fee3d4cd3adf
aee5233d27f32a1e02f421e62df348e6
02e0252c041027ee151b1fedfedd1cd2
0ffb1601d62311ed32c63e0abff60af2
c6eed911e1d1ec0dffe72acd1017cc0e
18daf316e300e9e632f90e1ad1320af1
1bf3520d18f902cafcda0214efedfbff
12f809e3d4f407180e10b8e3ffe826fc
5548e430fb03f6d207e022e69ab922ce
f2140dfbf7d620eed62be001f3f144e4
fd01e424b0d7f033ccb62ce9fd313417
d530e1f4400a542c0248f4ce20e0043d
e2da0bd6dccfe7d3db23f7f10abbece2
17c106cc21fd14b80ee5ddfdb50cd4ee
13edb70d051bf211dff20de8f11a4426
20ed18e3da0303ebe628fef5aaa90f01
ddf2120edde306dccc0ab22f0d4734dc
e92c200efcfd15f9e700fe19d4302011
fe010bfae9130c2701f61617fa0903df
e912f2f0240fe027ef221d02f7daed09
14ffed12d527ceeff504f1d9cde6f416
dee3dae730eb07160e1cded907f5ff32
0ff81bfd10dca9f102150e18ece5f913
4dc736fa0c21d5090e9cf3250ae0dbd6
ea1b29451f30caf41bf4f60b1a5d13fc
061a31e5fd5c0fd235f2111ed739d3f7
cf2203230909c1da1b2cefe001241ee4
0ec769190a390316f9e1021ae128ee09
e3ec16efccf008daef37f0d2f4e90402
e20bb8ce24e5dc06f319e3c500e9971f
f9e3fbcce7f4edce1bf50b1619e50ee4
13e32ffa05f6ece01700fc16020ff7d1
2e34df15ec00ddbcd8ff023bf11eb1d7
4c0116e1fb28194b1bff0503cc29e2c2
12edf111ef0b0e0307f110dd0904170c
ce0d05f01ad8fdd8192cfd02fa2d31f5
dc0df5f92115371300c7f51ce924f3cf
ea06f91e3dbe00f21f100ad30916072c
f5ebed0df710c7f711161e131bfbadfc
119c291af8ddd704fedf0ee23ae2ed00
bd2e8b2fc5ebf6dcfa25f8574a21f722
f2fef01efcf71a1603f5f40717dbfcec
e1fa08d6232042be00c9b40fb023f5fa
1303f8fb27f41d2f1ffff508f5140210
1b19d8f6e4fde80b0df9ece7e5e6c318
d3f4ced0e899bbe0fd1efd08e8d0f11b
db16f5d513014419ead8dd10f81ae601
0011f0f9d1e6b7d3e726e3f43af80a26
b43d5bc8224246bd03e50338c8a7f2e5
28ea2be0f51fd6cf2d26e4ff16fdf1f3
eef80900fd53ee141f2a0708e6f8eff1
1209e3f8dafa2f2d0cf6dbc9f3c0f022
0b24fef1dbde2da4ebd3fb0211281624
dc3c030d01f92af4bfe500fdf910e00e
01f5e7f5e6b60ceff9d106fdd90acaff
bbd5ffe8d718c0e9ff35efe01a060ec3
cd27fc16e2ee19f3d2d510e9fadecc05
d00bdd21ddfe12d5ebf212f7decfe516
f2e1d9edd0d8f10af1de13fec2030a0d
dce5e6efff1cdf0331e6f9d80ee912cc
b7e1f5f6c2da0819cf1fd6b9f51c02a6
fdc7e8dc13bcf926fce3f5b2f6ebe6e7
2a26eac9f2e207dfead5dde3d9e0d62a
0a1707cb2aebe2ff0b1ccd08f0244228
fb0c04f6d9ffec05cdfc0406fcfef5f3
0ae805240a25d90aef27f9fa0319edda
ea090f222001f2eac601fddec302fffd
d719e9250f0cff0ceddd4010f6e4e32e
e405f8310d2721cf3be4ed0e1f0e02b4
dfebefd3f2e710c3dadbd10710e006e4
f6eacceef3d8eee0fefedd06dbe1d20e
eee527f0130eb704f02b0819dad8c932
d5e6ebf8f4fae1f6d0efd60704d8091a
d6f8c608f0d4e5e420ebdbcbe7fefc37
08b8a2f312c8dacec0ebc1e511f9f703
14f6270921eee4f0eee902d5ee4510fd
d4220ee83701a7f400df02f7c225f51f
c822e4a010c5cb16f1f428b390f2f129
e0ede90c1f12162517f63a09fbe0d6f6
041500dfd3f5e9471cf8ee24e9f7fc05
14ff0713f51cfcf1fedb11150503face
eb16e7f30dbef73201e6ee1a03e30bdf
2d0618e303141df91ee5e0e7220c0509
0004db03161dde04d1ee00e3fd0efa00
1dfbe925f7edd532cd15ff0be0dc18fb
fd06e4b5d920d9e0eb00b705d7b0fddd
f807e007e70ad5d3db0bc603eff2d805
fffd1bf02e5efba3b2cdbac2351ce500
e7e2d901f013e8ebea16d0f9f4d4e2e6
e0ffe2f303fed7f81df004d608f6da0e
c5eccfecdf13c1f004fbbde501d8f6df
031114f9f5e5f017e312e53327e4e70a
09d31cdd2a273ff523c5254fcc18becb
57f0f7e8342e04e8f6f843152d2eb7da
f4f8eeebe6e9db090813eebacc14f118
32fe1afc0b0e1fcff5faf11fd54a2d26
f7f5f00b1402f612e515230cbae0f30a
d909260b001beffd031b130b27e80be9
1dff32daf9130ac0cb0114e6e0ea3c11
1fe0bb0fde02d44dfbe7fff72500d837
d41bd62f06ca0c0e000d0cddf8b50ed0
f103d806deb5f2daf3b8d8e40d01fe02
e100def21ac0e7ebe7c3dbf2ee2feafc
e59d2abc22d4f02beed442eef4ec060e
e1e418e3d8cce4db0ec5aad4fefce2f5
e0d0f6f1efe0c3eebce7e9f6de0fe736
b3f3eefddcb3e0e4f6a1aabd16f1f229
eec9f1f9faf925021311f7effddb04e6
47bdfcda0502fd2fd5f72204e61ad8f7
39c6dfd605fdd62af7e1070dee0892e4
1221e20f07dfcf0cfd04c11409eb05f3
161135eaf81d0c14ef28fd2b2a16ef05
f00f1a1ff4dc2c09f600f41000ebe6df
1010e3f313121811e6c9fd2927e30af2
e8eee609fe0feee6f7fa3113e6e50109
1ae034baf2f7f5ed190656efe7de010d
c449d019e40dc6e726e8faff21e0ff23
ede8e805afc4fe0ef10d92bc1ab7d4f5
dcf0060dfedec2e1e104b6d818e9bff2
e899dbdf15b7dad3f3b7e32512ebf220
ade9cfe7e804d2ee060bc0a810d4ca20
18fc0b010fe7f2dcd81afcd215c2fcdb
b7f3ee0bfbd8b628df0ec689ecb79216
e1d8d8ae1e0030eeeff7f152f3071c10
10d406ddfe2b32abdedd02eccb07f8ce
59f2fd46e812edc8e0f213d9e612f3f0
f9102323a0e5b1da0c0ee7f502e5f700
0f2105221000092a121df2b526ff00f2
e12b0de1e020d70c00c3f60c14f90c1a
02f1040afe01050430f50ab6eff241ef
d9f3f7062f2751f0eb071cdbd2020401
b50ee6ef290c050dcde3f9c7c7250e23
2c1c2f4b200201ce0a29f0e3e2c4dceb
1ac6f9d6e42900d61def1a14d0cbbce5
0adf21ff06d802d024f1fb22e7f0d8da
e8f6c90a34c831d0e50a14d33be615e4
31f2e2e2f9cf05d622f5e41fc7e5b6c7
c9dc1bd8e5ea08f5ded90005ef19f7f7
03d6e8e721d3efcd4cdcdf0faaf0e3a0
f72213da19d622ef22f7b6f8f2c7f8f7
8deee1f1c6ea1b46c6ce15fc1a08ff19
dceac804cfb9b90495ead70d26f2fcfa
f9f6dce7fefdeef1e9f2eef90230d41f
3e5f0e08040ef71918af48f6f51c0cf9
010b1d0013df09f10c18e7e8e8e007cd
cc21fdd5d00c1ef421e0d40912f006fb
f63d2113de3422149efbe3ffe31c1ce5
edf7042a04fc090521c8fd01cd3d0719
cbd53d2036d402ce2f01f9e53a08e8e8
de07b5dfe6f2fdfb0c2ae7c000f0d71e
ee17c6df130bdbf8fffd0bf008fcc60d
eb2c0745f91627e4dd42d909fd171816
0dfacfdffbf2e0dffbf11dcef4fab803
09eac3dd12eb0a07f8e9ddaad7f9ccf7
c5f10fc3ebeec1f1fdfce3cff51fc90b
254ffd07e20ff30bdbe511fb09fe0b11
03fffef9cdeaccd6de42dc0ede0d05ad
06dbe5e1f44fd5e2d3edee0eaef1b916
b2fd18fb08e1cd10efc2db93ef240701
2c00012b23e5f00ffc160c10cbcb0702
813d2d1f16e8e4f9f1dd17ef0812150e
1206f70804e0e2ecf5defffd14f42cff
ed1fe8061304e7dc0002fa080a0d1cf9
04eadc1f33032024f8f606bfe44b1c04
202ddf0f09e5b1301300db1707faf71d
d5cbe0eedbcee9ef0cf1fce310c2df12
f0f0f3ebfdece6f3f6ee0ae4f802d700
d9133b3cf503ebfe0512ed0d0f221ba6
06eae209e0a3ed01fa0609cccdebe0fc
e60409d8eed926d2e4ecda04cd01f4e2
d3c9e2f8f181c2c70114d4ef07f8031f
001854f3fcdaf70013ff0c39d4d3f7e7
ebd1dd99f212481fe1f5bf1de257bdcf
2def130ede2c0610bfeef7dbbdf6ade7
3210d731e2e90002f00600cbc8fad00c
2cd8f20ffbfb14021f0eeb335319fc06
0100c91d2707c815201dee09f7e6e910
1cf5e7e9f8c6f32e151f1f2cc035f507
0be421ff140d17f0210fe2fe1d1c04ed
07061c12dd0ef2efe728e9dbecf64210
15ca0ddfb7d1ecdc01210bfdc31efff1
19eac7e8f8c209db16dafb27e73b9318
f5f7241b3eec04c934f91310e4e81709
deb1e906cd1af7c9e9f501e70ef71a02
c3e80ef9d3fff1f7fcd702e0f5efeec6
dabde110e6440900c3fbc2f8f3f1e1ad
523b01e31cfef1e1f2ea0f0bc824193a
06161eece9b325bdf705361ef9f6153c
cde2da03f416d702cccbe1c910cac3d3
f5f3c6ec151010fb0ffcfcf702fc8116
1220ebe028eafce0bbe50f08e6db1be2
041b230ef73b22d81de8dd8c26d02af7
f70ee920f1fee71cff000be2d7ff28fb
d50c3011ec1511261319fa1b19ead802
0a14081b03f8f003d723ef02190415fd
022e1adb1c0ff61507f90df7e3eb0f28
a10a18010a2ee3900bf10cf5401ddeb4
edd70c0c0a150b1f0a120f1f1503e9e8
f2ece9efe60305f501332cf502d43ff1
0bef03d6fee18ec3f7e5cdd7a43d2dd1
e40dbd35ded5d90f0df704c2cc03112d
eec8e8f8c3ebe9eaafe3d1cfe721ffdb
e802eee9f21742065831094af7e602f4
f8c501f6adfc23f106feef10390107c3
d716f810dd19dc10a5d21eadd9e6ea2c
e80cd1f721081d4016fc25ec11dbdc15
d4f106f4fefb3710180fecedecd9e9f2
11bdddb81506dde7ebaf2de9d2d115f3
fc590006e006240f13fe1612effd2601
f3ec141de91407f329c028153100220f
120cfe0b06c41d010cf2efe00dfc0c05
00e73523f5071c020ae6d80e57f8f5ec
d3f01717fadd321deaedf1110ed1f5ea
d506061d25fb04d121d8290ed20e030f
0e090e1b00e60b2020f51b102dda07f5
e9022be2171325114a9df2434901bafe
f60600f912ffb71afffd15f8ecd10d1a
110934ce2b36c9eaebf74ddfbc1ee300
05fefa47191115e8541dd1022b0b1c29
d6f1b5f1f5ee2cdecf0ae4f7dcdc56f7
0afb05000ad7a1f8e1f409faf6f6e8e1
e70cf0002018f017d8dc3cdeed1ad11e
ecf6cbf8f5dfdfcde7f20cedf4eef90e
58060cba05e71e1a0be608c6ee02a20c
0a05222b0c3ae4c7ee0cf81f6a1d1329
2113ebbe32fcecbab8d11906b9f410f2
f90601f3fb1be005300cf3fa18042206
14e90cc9d0072d07d7f6f0ce063aecf8
c7d40116f0e22a0ed4e800dcfdd2feeb
171aaddc23f6a1e9b4c716efcbe413fb
130a2f080919f0d822f501f41445f1f9
0ce407cce9241deac0c20ecbc005dbdb
ffef0a1e02f1eae1f9f7e7ccf320c739
e1db1edbd712e5e3dfeb19d1e6ed0ef3
e1171807cce500c3cf050916ff13daf4
da1ce3e7fed6fefb16b90aeebf52e426
0adbd11e0417de170307d20afbfddf21
02f7f2261c17fe190e2f0e44d3e315ff
bfe6201eebb50cc4fac00b22e1f4fd07
05f03bdad0260a612813ff27fcf91afc
0606f7f500ef15eee4fd01ccee16e3ce
1d12fc07ed1713131c050cc6d2331b01
0d1ef3fb190afc0306f1f4edeeee1dec
f3f3c5e2290e5622fbf6fd12cf0504cf
e21bd122061911f415ddec04f5ea1523
0e301f13e6fbf91f16dde4e8cff7110c
ea3e25f327093ff20515f7ed0711e3fe
dce5e003ef1d071be90113ccc01df78e
f8f0fedadf05f5eaf4f40bbc05c4dde7
e4d5cbe6e3eaf8acbdefec0f0c40f0c8
c82c24fa4014f046360c00fd04e5d913
d206f805ff2cfa2efd07fac512d9c326
15ec2b21b5ddf2e0bfffe1ccfeebfdee
1bec24e7c5082ce0fd061512ff191aed
ea251d031f0be8e0fb1f21f506e0b6d6
12bbd10fdb27c7ca07d3f506e612f7cd
e7fdeafb22f84308f6fc0d0e14162012
14e3eddbe10ee312dcd313fdfe2833ef
f8101c08110609dff40601e4fe0111f1
1021fabaf6fd0bdf3efb08d4dcd11af2
070de20b101a09a91c27dec9e5b713ea
1df4e6f7caf4bdfadbe03ffd05f729cd
eaf8eb01d9211dfe1ce5fd07fb0cf4fc
cd23f705c6d5d4e5052ea9dbedda0af3
c5d8fedbe1edfa08240cd7fae90df3ed
bd0110f8e1e009f0ee230dedfcbbc0d6
4e04fb1402000ae619f209e4e0e2fd1e
47af10c4e211d19c17e113fec1ef15cf
b6eef31adcdcd013d401f8191dfdbe35
e015fc0c1ef7fc2ed60338171b51f70b
20e0041f05e535f2151ff2f4daf5eae5
d5000e080de012f1e635aaf509bb08f7
0d25e1f5dd03f0f70007b90902fa0619
18f8c1e4d70114d4f300f21c16eedbf1
edf4010118140631fee0110dd7f9d505
7f200dfb1029c1de1010ee4cf6ee0f13
0b0667eb1deff9fbf411d9091114fddd
c2e8e8dde1d2ead91a3306eb192716f1
0efce1dbee23df1ef0ebff05fbd9c318
4bd00fb9bbc5e5b01103d114e61c0fc9
f7dce002e5c315dec6f9f4d81ce4c41a
ebfef1fcd3c422e6e13120ddfdc919d0
250ef9431520091129c9f2221411f5d8
a30ee5dcf0a9d6ee0b3df51956dc0be3
edd1f311d9c408e3cf07dfa8e6cdf843
b612e60531ea01bf01d4e0d4fd3d30e7
99e2ddf2dfe3e31d1a00f2c2f70c050d
b6dc50be0237d8ead7c0f1f4bc1de0f3
6425da07191be7f817edfb3ae8f8e509
fb0108d1c80f57d0ccd31bf2fdeb120e
2408f6f913d5eb0e07f0f60efbf61e28
09d0e7f0e4ebeacbe4fe06ee37f6f7e5
161d0507f2cdd3cb05d5e81b0ef4eee9
ec0adce8dbee3100d5ea07f5f3fee31c
d5e902eb0bd716fa27260d06fa321121
26def5cfd2edddcaf9b8d80114bfd8c2
def009d10ad413dc11f1f9fad316dcfb
1af9fedce9f3e00604e2fff5cdcfefcd
dccaee29fad4c402df1f1a10432e121c
f01001170cc1f1ce003319ac4402b436
f604d9d819061b27f9e4f0e3890ff5ef
d83105dcfb436200fa070afdd1def0dd
13100dff03edd2e8d115e60209042fdc
37c1d8ce00f2da5913001fe0c6ce060e
e2fd173ae01de5cad5bd1707ffe3e8ff
f71e0d2be61701dbccc60bcc40c4eac8
e690ec12d41ae1142cf42ce93ee000c9
13d7faef2b20fa1805ffd1f611df0e03
277f211509d239dc30de161f130dfd32
1705f70ee32003e8e0d423152c0fbe15
2ff201cdfaf7efb7f9180c04ea0a0509
df11fdfa1bdf1ceeeec41cf1d1ddd905
0d02c3ce1af1f0c831d1f5120524d11b
09d1f3ebfe3505fb2d30ff040e0825e2
02bad605f5f7f8d3f8f5efdee8c2fede
2717fa2e44002a02d0080df9ea4423c9
c0030ac7e20c09edd414e41706fe11fd
fde6f301e91f0e07d72bf8de14e516ea
1b1218f7e8392305e3f902221bdbde1f
f3f709031cf5d95fea01f8edc4e1fdc6
10f8e00ae6171f43c112d4800efcd9d8
fd37e05111b2fcdff8b6ed9fda2d0ecc
f0d6223922d7f9bbc519e8cf2324d71e
fbe4f7cad2fe140d0c0de70fe2efe7f1
050ae4efb3f021df510b2a10fd164928
f212c320fd10f2b315b342f017db12dc
f8c5e5e9f62deafbfb033f0ef9f40125
dbffaddee0f905dd00e2ac01f8d5da10
0afade0b0af502f206e8e2d4abdce0d6
a90212de36121019e1fdfef32616d925
e218e1f3e4e3bed2cdff35bff5fdf613
0b001023a60a0d15000ae8fc1225191c
e41f272a04f5f424fddf02e41bfdd019
22af180dfb0adbffd5dc27e5081a14b3
0dfce803ef17f50b18e6f5e31b330be9
f81fdddecff0f72f2cdaffeb17f81511
ebc0bec5abcfcc00e8c810c8a209062f
11f30beb06eab24bbc3e0cdcf4d9ee29
ea08e1eff22cfdebdbc9ecb1e1da0fcf
2b1c002cf70010eee9e909fcf806dd22
5727bd1d42d626332728e342f1e30e52
2d12cc23e4d3f254fc60c1e0fbdb162f
13b8ef0112d618320dfddd131ea9f91e
edd6bceef411e1c5e416b9e0e9daf9e1
ecf115ec020905233edb2e3008e7cde0
0fef00ccfb0b4a0d00cb0eff3bf80ed3
0cf40fb3fdfef619dad9071df7e2c8dc
4b1039d44716d4f5f809250033fe13cf
cfe22dd7fa14f1c2c1d9000217e730b4
f80bb6dfc105273501db0d0bdad7eeec
2f05effc050bca22fa1302f1b00e06ea
f3ee380e06fb0b38eee56657f92ef5ff
50fc18dde70dcb0902ed0600e905c0f2
0f05df401fecf839171cf6deea0810da
f9d0e1cc3305201dfbe8d1cb0cdadeea
1bf204e0d51314f608d7f9fde4e3f3f0
13281527df10cf1c32d4e2254514d204
9c05de1df0fbca462207ec0e0c9524c0
e301eaffdaf1f5060bd4fd040be8cff4
e3f1fcdeeac6e0eadba0c4c1fa00e401
edfe01ec1a000921de03dd39caf816c9
10c9f9e805170912daef07edf5f3ff1f
2ec2c9fcf6f0fd5bec070317ea08e615
da0913e2062ffef600f50cf7030dc8f4
1b190fd31f2015f301172a0d2138d13a
fbf4172121f2ec2e18ccee22ed02e0fa
0116e23808d5e81f1c04e5fb52ee021f
3804e412f808fec6c416e443bd3cd9e3
cd00ec0de81a001b09f3f1c4c3efc8ef
0ef70cdffbf0d3a3deee240d07bcfc09
f2c4f3ce20e6c2ff0fef11c4041b0d1b
fbeced04f5efec0214ecf803ecff0ee4
ec3b1121295ea8142a32fd041e013611
c5f6dc08fbe8a5f92aaeae3e23cff914
1be6f9e100332a1b22f342fa12cf0a04
e2dcdc16dfcbc6dfd324aca713c9d300
0ceff018f4264d0cef122609f41122e5
07f2f1e5160f0925edcafffaa1c0f6e9
46d40bf206c3f6c7f7e8340fd5d425f9
d7d5f0352f142215fc22de0df12cff00
18e1470214fef402cd12cf00d8f0d71d
0de40adcbc2bf3d7f603220fcae400d3
ecf2230cb621cefa26f6e7ff17c5ee14
26f2ed19e80232d10b51cf0ddf0530f7
f7dcedfde713ddc2d40de6e9ef02e0c9
b4352244240a0d1f084dc6e5e9f90216
b3de1d02e00b1af5e8d51531c7f4e7f8
f6ed140c00f806e609ec16fbf7e412d2
1fce11c1051ee3c9f420bf1a050c0fd5
2001154effeaabd92723a6cff2ed1b03
1f000ed20e1b2c28060204f8c8153100
