1741c633432ff10e22d75e0b230ee622
f4f1270c150a441a10150a0d203304f9
04fdf1c10d1cd9e8300303a3e8dbe964
171f171cff15d4b7eefdace4ea2f2111
1302c3df08efdfee15b6dbdbd7e3ab13
132b84f7dbeeebb000a8e1d6fff68b0c
20b616e0beff2f53e2158044e4e90dcc
12f0c6ea0a1dec03e2c7ecf9d9edd7dd
d308f5f3f2fd2622d2261812c42d04d9
25f6ebeaf2ecf8f60ed3e1200b44fef0
e2e2f8ccfdf8edd2fd03cd06b7feca10
0819e9ec4902db1affd74dd9ecdff5f5
c613f1d71c19f0e1ceebf833edfdf5e4
1e1d26fa1d2d2a57e3d3f303f405a9ba
de101e2298e10009cf04f11ce81f0ce6
0bf0dcd6fa0ff2ae16f104c1e508ed0d
ef0ceafdf4fa1127ebdcf9fc08e3cef2
12cb312900c0e30216f8fb32020e02f7
1528ebd80ee9dbd71afed224cf0a2718
df1a1b1c03e4ac11fb0c271515142f54
ddef06c8013f04fef1e0e0f911f9ca10
c107a2e1b75015f1c7b701ef233ed1fe
2a2ff9f600f4fde81dd9d4a50fd50fcd
071e0aeecfce3ef4f016f7060c303af8
fac402fd2bfee7cb13c3f0daddf7dee9
f9d2cc11e9031ad5cbf21c1fbf12f413
150019221f2620d51edde9c0fc1bec0d
fa29f9e6c213ff22b71816072fd1fbd6
d9c6331615e8350fc5e82403351b10db
e4c300fbcddd090ecdfccdf81687d3a2
c3bd27291816172225231714d6b5dff3
f7c1f91506f5d7cd03cd0afaede5d715
25eff4e70806f6183aecd7dc3bdd6357
3c2c140cf413ca290bff21fa10260c36
ef20e9f9e732e726d72ef2262fdecf2e
2bf20effeaf034e41540f71af102d20c
ecd1eec0c8e5e2cf0437cb0b12e00b0d
ccfecdfaf3fa0faceb44ef0befb00dfd
c00437e905e6ce0df5d64d0fbb03fecf
cdf9faa0c49e12f388bfd00f03e5dfd7
ff03eecde110aadcfac327bfbc0a04c0
dad41c26aa081de60507c0e5eaeaf019
33f5f8dfef02d319db20ed0f0edfb20f
1dec19f9d9dfe8a21f02f0e5e503e037
de1af1d0d4da15ec2fc2fae0f116dbe7
f94907dc162ee225df20b6140926402b
1837f6f1e6f4e616e2d7fc081103f4ee
fcf3a1f9e00823eb00fed8deffe513de
1b01d004fceddb52c9b7f727376e6043
2ce4130de9d5f0ef1418efef2a413133
1705f923cfd23117eb13d40c1f10cbfe
fd21144d1fd4dc14b6261cf4e7e0fbd4
f910e9e9d417dce9220814e7c0fa24e6
e4f6a7dcbfb29cfa1d01f5eb0be3ddc5
dee025e6143a1bb8063af9c68bb9ab0f
3edbe7d7ea33d8db533bc200db1be4c7
f50104fbede208baece5f230e2250ff1
c602f0ca3326f9f0f9e10bde22ebf2ee
ff3f040305ce2cfb09d4fe18d2e3c1e5
f42a94f312f0e428110d01e53c2ff8c5
ce2202150bf000ce0fd7de002bee0d22
3f19c01af0ccd51115bdb914d919c915
d20a1018e7fcef0bf8f6ef08111b0041
c7e20713f305ce930e1d2fd5dcb50dd1
1c22d9fe2cebed0405ddfd1d27fd00e3
defb28dad7a9cd36e84007f5c2ece616
ac00231bf51504eacc3af00accf2801f
eab90c0e2a0b11ff4128ba041908cf05
07fa05020bdb1123e124b832e830cebb
51f2ef25a5a12115c912ea18113cebab
13f4e114cf09e6f3e9f8def6280d10f6
1dfa1ffbe40c0801082210eb1e3efe05
e7010eefff0f1dd50834e2dbeef63426
10b5fa42e2caeb54d919d529b90fbae0
20cd0b25bce3c7dcf40cf4e0fb1e12e2
0e02f30e38ee9ef8e7cd0df4e6f8dcc8
f50cc2bbc20117ca0dedf2f80231e5bd
9cd100c4c35df6fe362411fb192c1d14
0324ffd2d7ecf9bba9dbd7b4fa04e7fd
19130eed1818110cf50d4c0b342516f5
c8dded0ef41bfafce4f83c1139010216
4f45e789ff0a11ed28fdf00da6ece4cc
fc3719ddf7f606200520c1e8bfda1105
eabe51e00a18f70c1901e1c90d020cf6
d4c2fcf809f8eb4c0bfc19e730dae9c6
f3b1c7fe0731afc42fdd26bef4b0f9be
1e170f0be70306f21e3316ed142ef011
f9d4271036e3eb141a1a0df8e0ecfa08
2f59fa1104cf9bf7e12609231f18291c
2fef13daef15fcd510ff04f809c9bad1
b9d51d0f1e2400d83acaf7e6eff238da
c2dd0b0fc9fa1bfaf3f0291d16e8b337
bdfed304d9d3edeed1d0eafefcd2eed1
1957eee1c222ebf531ad1e1fe1205b2a
f3f6b837d916f2f2801e05e531301f33
cdc80b141e22102609e60506e1bfc2ed
14041ae5e2eee8f20ce3cdf809142813
004f16b747f4fce4aaa31209fbbeb51c
1f16d8af3bf1f121b3edeb1ff6ffeade
091df8bf0bd6a420d117ecf9da2d30e8
172adea4f6f0b1f7ffe5d804010b130f
e3c80db5fb47bc0e14b8ec8ce401ed07
35bd05f219d80307000aed0007d51011
fc12e50a042bfd2df22c02e53501fb0f
ef15ed1d04ff3e203a0c162a0d020906
3721e9ec35dbbff706e6f023c7e919ef
ddfacfe2b400c5143404e6d7cd051ddc
d0d8d0f1e6f9c0d7009b19cbc81633ed
cd05f6f5b94e05f7e0e4fbbfe2fbc200
01c5d1164eff3b311f20053d43e1e512
ddf2dd16bfc7d6ffd9fba9e1ea1adc00
07f41363d0ffd20800dff4e4e713f60d
eec7ebfdf4eef111efedf2ef25df09f0
e1431cff0c1d3aefd608b00e0823e8d2
ddf1eec8d9fbed15eaf6d8f51d02ad0b
db19163302022e08f7fb17e9aa19e205
00eafd49d445ee02fee7ecead603ea30
14030ce4fd291bc50692ded8cdcccc1f
df2cebff0fe9c4111125f90a07e4d1b1
15e9211cdbf42122fac303e3f11d2313
e90c1dedfa13f5fffa4e0e0fe3c0de0d
c61c0f182a21eed206db00fdd2a1d123
07faf31eda072cd8f3c5d9ebedcb0120
3fd8dec7f9e3ea050fdfeb1e1df222e6
24e90fcebefeec14d4f0f6f6e813e0c3
df703aef19230f0e9550473fcae3c6e1
efdafbeee5bca11bf6322dfd18e827c0
421809cffdc64e03f3cbbd25010308df
16f0cfea2cefe631e9dde812d50bcf03
132e33d9bee7d40c16f5201c4fee4436
dbd2b42756062325eee40ff4f4e802f4
d5121a0bfb1c15d1f80df900fb21f91a
df1f022012d4c0f5b9ecd1edd6f8edbc
0131e3f50b0e18eb2c1814ff1120fe03
38fa113a1ef3e119e708c52de403e928
10195218e039e2c4ec17160eebb20bf1
e010fb0fc4083adf190f0fcd2a09fc49
06040b2801fbe002eeecf9fc2bffdee7
ed00ccc3e8031def0f27ed2025e13d30
37029de931c9dae9dfca4e0a13e9140e
59f8e70015f3ebc417fe0d0ae7d3bd12
cceb121133faf814cefcfc48bde7fec8
e6f9ef1af4ff1ecb131d43d3dc04efe0
b2def2f123070ad218dd56acf1034c47
090dfb06a7e131bcb508e9d646fadd07
1ae7100959cb1d1e690bff24e7d630ef
2bc308f092e5efedfae200030bdcd533
0b183d053aeaf81a2d0ef9e1d1fe2804
1507e4e9f0141ec6dee6b1def30906fa
ca02e50a1bda010efaecf7fa04e62401
d9f8db1802ea0ce3db5d18d7460e112e
090369ce11033c3341eec94fa8f7bbcb
3d2bf3e81aebf9dc42c40906d0a02aed
c8d0f60d2621ff150c16ee0e1d06e3c1
357404fbf8fd030d27fe4137fdff1c23
0301b132d6f4ee21cec24328ee1bf9e3
cc15f2cce52e47cee9d1d5142c40f32a
14eaf0f1ded805e2fb34ccd8fe02f9b2
03cdecf6ec15f9ead508f50dfbc8baf6
2b12fe1eea0d0bec08b60707e0fcfb06
c2021ff1051ab5fd01f50c0ff5e419fa
3000d230271f2241ef2307f8213bb941
f002fdfe39c30ee3c2f903fba5e708fc
08c52b14efd00262f9f137211848dfe6
eb05c1cffe0fecbfdde922df95e1f9fc
45d3341415fd111e350612271d01f81e
e8e5f8a02ae1f6e4fc44bce0efec2ed7
36f819ec44ddeb0911073be0d50bc8c9
1de0e74c53021738020707243c3ee833
162700e3f4fee6e7f1f713dff2040902
e2c14a032a01361319270d3b1132efea
cff0021af1dc28050efef8063b1dd52f
c3010c08dfddd6b5f721bc2606ccf8f2
cc0efeec0914e7f3f5eef032d30302c9
0ef8c501e452f0e20fec01f4e4f1210e
fb21ee39fe2e27f8e414dc3833101938
d4ef000fff41f6c812cc255603ebe0d0
fc1e14c30fef2f25a1e01702583a2412
1acad206d232e6c951e3bf0a22d83006
13f249e41fe1402cde01f9d21af0dee7
e803d404e4c5dce7d9f9d9f814e8d016
061918eeefe7231e020ff0040524ffdf
11dee14c1523a80308fe29142fd50617
b0162002070cebe1b10f0df7e64b2525
203117d50f27702fe10e011200f311ed
3fd3ec03db1ce82b05cbe9ee002d2c0e
ff6826e03bf4fa18f7221e3cddfefce7
ddcdf2c809e6fa03f82011f025df17de
d5e780f306f6ddea0eeff7191b423507
0fe1cd19f8fcdddc07d01ebe0abff30f
0b001aece50af522f3e6e4b407f41204
392634c8fdfbf01ef21414262ffb3312
c4e9ece4ed2f31151e080b092d1a3a28
2ae9e1350c2cc91130fa163cf2ccfada
ef1b0f001d1ae4fd3a171eef19fe3240
1ba8491ef3dd00f2db23c2f8e7fa04a2
a242fd2bfd4808183bf8f51020e0ff11
fe13e61ae439b738fbc4f513f7dfdc08
d6e10edf0ef834fbeb20b3de19fc0e2b
feed143d33deedf4c6d1ee2e152884d3
2520e0063b02043bcf03fb142f0ec590
011510f6f004f302f5d60df5f311ddc4
2b14e9ef4a48f3f1b3e934fb08aae610
ff13fb07c8e0f94c180ec22cfaed23dd
1415e0494aecdad8ebc50d09c5b7ece2
1a13dce4f8cff7f4e0b72c0404ebd2d7
12fc1a0a32d3123fb50b3dedd32df4e8
13efee25f706e61216ea1bdd0013ece6
e62c01f24209e13640212e59e2be2fcb
05f0fdbdee231bcef9e2ef0400c9f1ec
0f541b0af2d14a2f141b1e412527033c
d6db140533fff6f335330fcbe4f908ab
0525eb0a99b52b0df02af6280fe12afb
eaffdbd3c5e70fdcdd0516f4030b10f2
1e2aedd6f2c0dae015e1f7ddf70d2bd6
0ff2f6fcf7170fe2cf42bc99e704a8f8
180ff62649c2161334f3e80f211bf4ed
0ffdeedbdc1dfb11ddcab3e9f914ec0e
d424bff201c414dade04e7eb20e8c420
fce90507d8f2e5fcfe080ac505ffdfc7
2bc0f59e00ee2afcdc18feeb01e6f8e2
bf10efced0fa0bdeefebb7d305eaf0ee
f4c1c80af1e0decb21091b080114cdee
46dbdaeae31914f5e1dd081b26d101e1
17e31a2c19022c220316160bfe24dc39
fb2907b631dcdcb50132160c13b91015
022456121adf41f5110c0f25482139f6
290b0f08cc0dbe0bd2c101f9d53bfff6
f5062c0004db360f042ddb2e313229f7
de1a0de22a01fcb90315f9141cfc130b
dd33fa33243c350405350750eb1000f4
2b2907f6e1309cd9b9f9d20ce5c746e2
49e2f7d604d7be2dd5e2d5bae01a2d0c
cbea0dd3f9dee1dbb8d9e215f0f103e4
f0e710e9e3ebb2c6f3edc4f113f221e3
f8fce70a16e9ddeae80cf50b040a16df
100535a90fd11ce603d1f5f006ba0c13
d4e8d3fdfad5ef970008c75bd9c91212
1ff9e807ea18df0aef0202cffadef6e6
eefedcf014ff12011ed4f5fd130ef528
f7ff47c949cc4931ce12fc1d101f3118
cd11c809131ac8ff00edd405e84bfa50
f41ece081add05100a36132a112e29ec
16ea1a10f0d506e009b194dad2d2c224
1f26eb0a12fc0213f70c2415ee4d33fe
1df1d92fe812971210dce9251e1d0e1a
13f8ffe1f0e1e4f0ee112fcfc182b6de
4ad4d053de2cbfb927ebf628090ad113
23d40723ff321b560cc6fae8202ef007
111ccae8d800ece72fe1ef25d5d20df0
2bfd12e3fd0fd50816fcddcb49030bfd
e317e718d917e30efbcc0be8c5d4de0c
f610a80bf338f71412fadadd20e51121
301c97c2f408fdf9fe31df2cd7d102c6
df11e60401c836cdfacc1cefdeb9ffea
e60607f9001520140eedfa03132e1017
0b07e5f5212ac70c1bd4f7f604b80efb
cf2581011e2934f35ba114fb19e808d5
e9dcf5a3d828d5d8dff7c8db8de6d2e9
0d21b8f7b8271bf921d338b14dcb6029
07dde50af303b1f5dbc52fd9c8d8ed03
142aa311da35a400238f06ebddb5e937
1ebdf630ece3151ed4f3d50afbcb029d
3247d9c82607d210ecaccc65dcd3d207
4318f4ebd5dd1b1c0df22763ed14480d
f025e0f4eef3cc2204e6cbfcf0fcfa0c
eae91c0a00ef27f41827c7d6fa150af7
fe0e25c4e0cbe7daf3dbd018fa1a4be5
f2e701db07da0befd63e22ec1923560f
0531bdface61c8f204c5164721cd0f26
c84150d2f2e70cd5fe33defde7ff13cc
17a4d8f1fa03d8e91eb5e3e4e9ab12c2
141cfbe5d1372d09f305ebfcfbf5df2f
0af8d0ce23c2d61ae2f80a2404e627da
fb13debfe41005a2f8e9cfe4d5eff716
2429bf06d904e3f9c714521214166a36
29f4cec9e00f0dd3eaf1b2161afec92a
ca15ecdc8fc106e7b5f8c72211f4e008
1be428daed0cd9ce36ef00dfefdc26b4
da5abfd4b1490a1202382ddcec17a80a
2db101e6c81b07def2ba191a1b110bf6
02abe7d3c90debcdcfc82d00fae9292c
2b3af70309e800161dd5d6a6e2da25e1
ea2a2dec11197646e6f204f202f4ecd2
f0df45e652e4d54621223c100cde00fd
06e909f3cb1af2dfd8ddde59bf16fe14
f8d42d241fc22256504304e2eaaafdc4
ffe2ebe1c706b9b7b1eecfeb22f51899
54c035d4fb0c03d106e0e63010c639df
a4dd4e64ed3e39f3fb360024201ce326
e329fed2db50f1efe426f7461318a1d0
b32a1748f5147e244422011762e8eae4
d9ecf5e81a34c5f0e002e3073ba502d8
cd0515dd294214bfe81ddf3c419b350a
3a0ffd0a1c18eb0cf8d82ff1be4205aa
c1f227c6fac6e9b4e3faca1ad1b0e8d8
0ee4e312070a01ddf0cafde5ede9e4f7
b8e8e51120d9e0fb020efedbfaf809f7
0100ee1930013114c0c507134c19efef
e2f525daf3d10a051a0c1039c1c413d0
00e01212cffe04ef101528ee0e1bdff6
bdc36ed110ad0bc0da3ef14f1fbcfe2d
0cf8f9f30508ed24cdbf03e8f24604ee
cde5c8f620152ca41c0c30dbeea8e4e1
1b15ca2205f5d61142ef142f35165c16
020105e7fe08f4450321ec131a3feca2
e11011cbededd8fbe20906eada18f8fa
41db2600d720c22c054817032a1d1af7
d607d8e615d3d412f9e90210eae1210f
decf9ee804ffcdf0292721f9edffecc2
d609151735fc17cd0b2215ebcc14d346
061fd015fafee8202afedc260609c90c
090ceaf71adfbbd21dde18eff729361f
1ef4d9f1f220d5e02b071aecd8ccede6
e5f22550fd0e5e17df1816d312cfc8e9
f12d08e507dc02f039bec210b83417ed
e9f0f808f2cc14e4fcf60f22d1ef0a6a
fc44140006fdf2193bf75a23fb1cff07
2bba360304090b16ffe102190e171a24
d0dffdffaa33c1e534573b93c8accb0e
181ede1d0bf3f7fc0bb21cde2801ec04
e7f315d9e5bc1bc9f2390ae9190b02f6
c42538e1f921d9e1f9efeee7fc1da80a
c5ff19092debf6f2eb10f935043bc9d2
e51a2b0327d51adbe035e410fe1a36e8
ef0bc9e4e7290dd939c910f6284d712b
1c17060f2e0ee62e0421a714d6e60af3
0d14fc040ef7f5fc261421ee2e041e05
29f6ac22f23d28f327ed04ddecc3000e
ce01ffe4bfd77ff6340e16235211f0db
faf135fa12d7e91d1d210e00ec06ff0c
f224fcf4f9bdc322e1cee83bf9d1f80d
f00acbd8f30bd3f6dfb328e3f9f0cbec
f7a9fad3bb03672c563523f83fec512e
0b23bd1829e6d4ace7baf6d4e302cd23
e7205af8f3fd1608e43ed2332310f835
d5e3d710cb072ee8f8f02f4b1de911fc
244026d3031107e959f8e8d5c2f95226
071003ebde0fef0811f0fef6ddfcc4f3
dedb42272529fd252439b7cfe122cdf0
dab6252c53c5ee102b5342d7eff408f8
9ceede00ebee0324f6dd2bfcb1ea0016
ff36f4fdcd4324f0bf0601ecff19d605
d4c0ec1313f4fe260215003517e92108
4b3be9afa5f1e1aeb714bbff25f0f0f8
fb23e43a04e6a70836eb2fd7abcb2aa5
bdb909fb014802ff324c06e628dbeed5
e6e711f9e1e00501ea200b1f6410de10
d8d2e2c896e436cfdfe0cba6ef13bfcd
575f201b286431043199051e94dc5dfb
c1f4e1bedd1600e2e6f3e5fe1c50c813
fcf51f20100fc5442e05391a14d00d28
c61f2317f12511fd170ecafe0b241c0f
2d2df63c2901d32e04b80c0ad22419f6
edf7c81dfdf8cdfddd06c611fbc6f40a
1a4002afdf03cc2adef0d6f0eb4bffbe
0735e9eade2dc3faa3c216001d24bdfc
e0d21a2ea9293a34fc4af2d74ffda96e
f9f609070adce102f1ecee09f5f61b04
eaf2f92cd510f41235edfbf615fbfb45
e802c64f10fa33e1252b181a26b91cef
fc023137e0551149fcc54aea0742c9f1
2129ee1cf8c1ee26d5f5cbc7e41dd618
d7cac3dc22acb1bc0bd5faefc01762e1
88d501c8e01dffbcedd8aadce5ad1c24
1b0b27122d26353e0aff25272d6fc14a
93a9ddedcbe4eaee0124b75d14beb920
2af209e9fc21ffe724f511ed320bda24
12fcf1edf9faef2a01ece1e9e8dd10c3
de2f3bf31dd65bf918f111b415b8bee8
120cf605ec12ea1e051306d816daf3dc
2f14181bc9d2f3c9d3eef3e9c3e6e60b
1fda1b06f0f117f7ecfa0dfa01e8e7ff
07f34aeef0afef261925210373f11bd5
583afa07ef14e4fffff409feec04f516
fdd2270dfad30c59d3eaf31a3b37510e
f0ebdd35f210f7f4ed5c0ef806d1fbd4
d81514140e0232e5aec7fbeae8e1f9b3
f00bf55d170ae5062dcfd4ed1f441614
ccb7aef4e32103e122afa2282acbf6fe
f0b9efe60639dd28e1e108b612f7c8c1
a23d08cd07e251f3853b3ceb07040720
39edaeddd1e7e43a39ff40060efb0cc4
2bec0029c9e21506b806fcdd24df142e
14ef10f300f41e070811f732f1a7d4fe
eb1c62d3df3d43110a36091f30194e1a
27e628030df0e73dccd5e312d6eedf02
f7bd07f3f80f03dd121d0305cde8fbf8
e2f7ff09fbdf30b7df0bce31e5380700
f0f5d0e7e134fde732f2c7f313db1526
191f110bf3d5147fe43c0026fd1a0c0f
f4e221f6cbd207e8ee000ce9fe0905e1
eaf619bca82251066137b51f06bd6151
1ff5fd1f22d8f907e0e619fd0400fdfe
e1cbe8f9061c04cc130ad8eef0e61804
320cda0f0b1719cddccf1edd16db3033
1d0b021d29b5831be59b3ae4b8ade1e6
0e0fd514ef0fd5fb22e413fcd5c1edfe
0a031005f52bcd102fbdded6e4190905
f3db0503f9370ab53410e3c9fbf11931
e9ea0ef5015621dd0631fbebddc10cc7
3f0b02062e37ef2c59f04a2a03eb4749
1fff1c03f20030df1c02fd010409faeb
202bf7bd18fde8efec3df7bad6d82812
3743452cf71518f0f81bdfd11c0b0ef4
f427072de50c09f0f7dfeb00d81e2f0e
36c402110d2807de18274bf7ffecffc3
02112b022cfbf7256e1f08e2d80d06ac
244ed61009e8fde83eedf5ff8fd46b21
ccda18f709191201f1ea0f171cfae3d8
6960f7e0f926280338c7f91d14fd29f7
ecfacee2e00c2617dbe21f20243bfd33
e9a8e6c5a46919c4fae118f9da0ee034
13def6b5bd0f21e4d0be0c431503dcf0
1bc2e411dcf2a4b907c8c21ff9e9fc0c
fc5e0000f01a08c9f5bde31cf4f5175c
22ec0ff9e114dcff25de19e6ef050f0d
06f24e3224e2426b3610113432fd9942
410be0ccf1c81dbde4bae7b0adc931b6
e6faaecb04e602d7c6e8182bd01c0ced
ec0bdde2fbdf0911e50c3310dcb5ec0f
dff7070c07fe1a10052af90e37161917
3421b9e63af5ebdc13db08e7f3d509e7
ed0d1e030637d822c5e92d28ff26d300
faccfb3e16f351f40610155c2c3f9703
04fef214ec12edf7f5f9d3d715f4f826
cf2a12fd172d4320cf0cfd64da250ff5
dfe1d8fdfbf31ae51dff0714e9e225f9
27e3e9befecb0ad5e9d6c3ecd9a71204
e121f00211f31980162df72effd7f62b
dfedc022170549e2f32ae40e2cf0fe2a
deeaba33e7163101f847064f3ec1c710
e232e8eef0f020ecc30123f1fd13e932
28584fd3d4d95b3a9e06ec0c22105c24
ccfacae406feebb9dcbdb617ecd51531
12e40fe0cc1315d3f41bedefe5b6caf2
062614f716ea17dc2e331c20d8e6cc2c
d11413e2f8f1e5150e2e2b00efecdad6
0e0307052b00e7e3e1dd29c91dfc1145
291922e335ec360a91e7f4d3d944b8ef
b02f17ebf7ef642480512a06e5e5d90c
1bd0f3121115f0e610f5f2f7020cfd3c
f84721df1ac0f5060b36341fd017d1dd
e906d6e5f10d02cc1f2c1fdb1cfe01f6
f511abd4100d01d55ff9d0fd0d1d0805
10f1eff406e7e6f6f432dceb16d9200e
e4eae71a0929f2151a3509bce9e610ad
0532bbd6ef062726b04c5b11e40febea
f113090d0e0dead02ef2ecf82ff51953
16bb580e14e41fedf458c40903f01bf8
190ce127140e0f0f0a49db341ca8f4ad
df08ec1af9080edbe0c1f902223c030b
00031211e734ce1c101b0e0beaebfa06
2b1530ed2019d43018191c02f6e91426
ae0de4deea30f604133908d7e0e72245
ded027bcfa0e1be726d1e6aadb11db39
3f1bd2062ab40715e51b16360ed6d5ec
f7dbe8b30efaf805f109f9f5dee8b9d4
0301d81afb150204ddec2d0adbddeff5
d7eb4af1e4e65df7e522fc1c11373aef
1203dc03f6ecc90c0ae1261adab1dc09
15050403d9c3fc3cd6fb0a15babdbff0
feccbf2cd2b2da3d9ac0d1f1b0f9c4af
e9e508e30f0ee3291e2324def8e7fb1a
d12008052338f72c18f0e321c7f9601d
befd2e2a3df2e33d3319ed01e5e1fd0f
1111f3c3e13074e8b9f1134b1006c3e0
04ebd4240ce2a7e8e8ff3cfa07ca1cf9
b4b0e0b1de3a2704fcb3e15ef730d3f7
21def6ee1e1c320604151a3b2307ef35
f635dee40cf7ecdff6f5cc1cd70c3123
ccffe7f4c21cd5e5f511f102f83000fd
1ad3eb17f4de411bf221e9fc0c17b6e6
160de6d1e2ec27e3f20380d0ef00f728
e331cda2d9e0efbfebe6e9e7d510f5fb
e6ca062643e0dafe3c1249edfab626b2
0722facff80a08e5eae4e51b03c3e5bc
142ac0afa62119c8d4f8c52514f900f6
11b115d310ccd7c40ad8d4c9082ff9de
15e5fcf3d61c13ef21eece270c0fd316
d9ec205d0411332e1b27fc3130529b06
1d0b05eefeffef1af0df0ef20907f1de
12d211d6210a34b932d82548e4ff3111
e6f6ff34dd30f80fecfaf7ecfa2ee237
f7c26107bcc80fe215132515ff1c2d20
42ad07f1e9d00ad8212915f011ed28f5
0307d7e712012cb60d2310203b0d01eb
e2d8ca17c80edadad801d4ef17f5e9ff
f2de3ad826cbd503bcd8c728ece31c1b
fc0724bb0904e2c1c53ffc1dd6dffa1d
d3f5d4f6dafbe9d315f1f8f905bf262a
113e10ed0c271121eed629093c52d504
e60711e30cffe4c125f603fbfde5fd33
cbeaf1d10de60ad0fadff6fbcab42502
c813fefe070dc0cffcdbcad8b1d333ee
1deb15081ecdf1ff1e40f1e334e0fd61
f6f917dbe0c01126a40a66411318081b
0eff1df3e4ff17e015dffafbd6230545
1201e53c40d01cf20a16fc1b122a3026
21fa2dd8fef13823fbe107d000eccfb5
0570e7e45dd4c31c20181159137c3106
e300e325f9e70fe6dcec061f1e0e3c6f
07d1b7fbe706f042c8f01de528b21b00
e610e5d7fbf713fdef22ecebfad710ee
f0d7c9379cf1e3e211c0da1ef3e73de6
f7f2e4fbf70eeffeffede7f6cee701ee
e5e1def6c7e7d4c60dfee70118fdc90d
e9c95616fed8fb0eecee14f5e4f2ee10
0f21a204e40c06152ce4c01dc2001f0a
f404dd0de6f3f69df7c5deb0f30ff603
d8fc1c23f015f0c53eb5bcbffff8dfd1
c63d0501e8090b2b1a0bf5f026261a0b
eeff02fd13e2d2c6dcf318e2d414f9e7
f2f1bbe533fad6b0dbaf10dae30ff919
fffee7ea0404e9e3e6d3001db1e0b213
f82dee0a25d720fd1c0406e2fa1b4bde
1ef10913cb05cdda1301e3119fc9cc03
e2ea0a23d6f5e9cbf1000dfcd8bedef4
d525def309bcec03ebf8c3c42d17d2be
350bca11fad2e9e4f3e3f12ae4a99efe
fecb11c8e1f30915dcdf0019e2ed14fc
09da1abb03f8eafb09ef1723df03fff9
a50ddd02ea2621dd1a08e6b52bd51321
fa512c02c1fc2039cd3f122119fdb4cb
e72314f23ed10515e30fd123244650e8
04d81efa1f11e6023b0088e5f6b8a715
04fcded2e9fddf0018fa25ff253202e9
e7f61aee093becda1f1322cdf10c07eb
040bdae0f01d2d25b129f90cf8d5c5f7
f310dac8ce12190bd9f4052e2afd0d0d
fb1ab1d4f713d5afc1ebfce8d2f9e4e7
544b172211fcf94edf0e5c4c17ee2424
f40533da24240feccd15dcea1cf3e801
3bee0df407f1e2dc32e3d7e2ce1a99c9
fef5f8fcfd0fddfff00a52d50af6ffe1
e3bed3012034220aeb19d31b1dfccdf2
02a5ee09082a0611370fc7fee6e0d52c
fc0607bbdfeef4c70ed4dfded307f71e
092fd7f3d8d2def2c71be404dc1c4e04
e72a3cf9171858240cee3bdfad3e2703
bfb71834f1101d1719e058cc08ff0ee8
051c1ac8c40021d91a25bcf21c2409f7
d5c50610f6f2dcf1d1fc2620f3240adf
2efdffd004eacb0311fde518cae9eef5
32f5e0f7e8bfe8f21d9980eae5e90af5
a7e2edf6c6e211e624fbd60822c8e9fd
18f7dad3fa0101d9cedebdf9d7c2c3f9
ded62f0fdd073c293e0e1d221117f212
f2f11af71bffd9e7e9ede700dcb835d8
1601abcf2e12e9e2e0d5e9c2cdf6edeb
b847d829fb56e4fae8bbf2c7d834db01
e70532b0e8de8ee0d51706dbaae7efb7
0022df0c1226dcd8fcccf817f2e5f5d4
faebdae7e2d9f0de12e000e30109e3e8
cf13fbfb041811f7d529ee4f18a6031a
27d260f63aad130f1aff48eaf403ff22
0ffe11e9c2281ef7f4d20de71a3bf1e7
cb243be614fec0d01bf9b60ad7ba1b8f
ecd9dd28ff200700fe1d0add17080b2f
4dd4bbfef4fadffa05160809f2ffe534
0df1bd2de81dbedd0006e8f531ea3d1f
37f30ddf08ceeb09040e1bf3ec09fec8
ecf7e21beaf3e00502fffcf5eff5d1ea
17f91f062be8eb16194a22e602e4f0f3
be18bbfe1d38faeb3be9d0ffd0e8cae6
d6efde09f0f4d0ef370b0825faf227e7
29c704ed2539f5f7f6d30fdbe25121f0
c1e0fbfac224d7c211fd273502f43c02
ddfec1f60b01dad82a17efeae5d2f009
13e0efbdeeec08f32eefdb2cc094c403
e4fa1deec6e8ea34f73f511108fac8ba
211347e341eb54d10ff4fb2f2a241941
fdd1180558c029d7f9e8eae7fa0cc5f2
d60ad80ce1eaf1fd16f01b38de2ae30d
12ebfdd6270dc336d91a1cd123e716ea
1123e4be000f2b31d7f30ce3abf7fdff
e0f0f6e31cf8fcea3dee02e5fbfced1d
c4f424f30aff2f4e1e27e801ff020122
d0f30ee0331608ccfad4d008dac9a6ec
fa29ce110d0fdf013cd80f0f0a00e61f
e4efcde052f6ddd302d908cc151a291d
0dfabd0c1cf7e3e6fe9bebd0fd0af74b
4be431facae84317d56ce925f80119f6
2cf015093a07f7e2f0f426fae2d0f418
de03edf427d73e13113336c838181dff
0b42f3d7fe4c2bbf0ecd3dc4ea061b22
23a54619f31cd0f43acbee01fdbcc439
dae257490ec0bf5f074ff154ece2b2cf
ea0fe7fbdd161609fd2009dff9c009dd
fa6bc2bdd3191fae53f2162424502824
f9c8f02200ce282d9bdba719b9bacbeb
e70547010bdc0bf3df0adfe0e603e83c
e80bf11dfcde1202dcf94018ebfefb32
4bd82217f1f802ca1fc5f626c4f12abb
0f25eac7f8dae8ebec2ebd02e408f80e
e30d05d709f40b1bf6ee031adb0cfded
b307bf020d13ffd3d2e8330dec235b49
cd0ad20098c9dde3cbbfd7ef07fe1655
3d1e21402f0025ea64ddce02ee0f180b
e7dbe515152037fee61bfd04120de72a
e1fb03351cd7fa070b13ec160cf106f3
d2fdf13716d40ffaf1e31747d9324022
e3f80901da0bfd1bfd13fd08e3560c05
05234ff2f6e80d156d0a25a22d07eeb6
37ca01da102610e918c3e4f301e003ea
efd0bb04264def3bfffd1c3bb8e92e15
400af4dee45bb9bd2dd21dfe0900ff9e
f5f001e155c905f71f5de5bed105e112
d6100cf6e1130e081cf2cce509eee7ec
082bdc1d1f27472612130e0febedf609
c543c6e6cfe7dcfdd2e1de08e239de11
e018f0f9fde62edf0f2100112bcf200b
faeadd18e40f01f15502ed1aef11f231
e9eff3d307f3f50d2107d6f221a60c03
13c2f8040bb7f249e6c537fdd24e1dcc
f3160e04e3f22111fdfa12020e0d02fa
dcb8eafa09e8ecfd004a24dc196efa1c
c9eaf431f16934e3492a300d6624e83a
d92deccefbca2de10a1fb3e9f029fcf9
31210afe2a90ad0328c224b5c2eafd9f
2fe45212f7e1fcf4eceb29f1fdc6da03
d7db634305670a0f40f3f6054a0dc824
7fef07df35f2e6e9c3cb3241cdb607cb
fd5bc4e11411a802e7f1f51ebad820d1
0ed0df161fdafaff1302fd00220f3020
fc2c0717271e3cf7060700cef31ef80f
defb0e08e5f2fae20515ff0be2ebd105
1d23ea1b0805cb190b112618e20cd5e8
f4bd05e713dae81bffe30111162aec9e
0df0b4dffa36b8faf7e03204efe039d8
c6172eeef4080fd31316f52bbeea072e
e3e8ec0ac612ef0904fa12220c171400
fb090d1905ec08170a1df9e61ced2deb
3ddcf3e40fddde00e4d950ea16fa26e0
f9ffeecbc722e5fcfa1b0c06d0f1ea17
d6050efd26f75c0a3ac8dbead413c350
0f1017f917fb1cf405ecf731002ce9ff
262dfbb53cd00621d2201508511340d9
d64fc5233bf92ad7293bc318bd1eb909
dedb2011f21cbd0a1cf300e7dde62bf6
07dd15dadde245ccb935cfce24211beb
c709f5f8f70725b503defd0dff05e54a
161242ea17ad1729ea080d24e500f4ef
fec3000bbce445340939e900dde1f6be
02f5edf0e70ce716ff180c0032113715
15f8c3fbddfedef708cd01ebfae4e823
3e003b0a24f90bf79b32dc1728e70ac5
bfdc0ccda40135ea3145bbec06e64c23
fe07d9c5dae7f9d705d8e8b4fc3907fb
fc06ecf20013ddeff8cf0c0417221529
11cbedd7d45401eb35f0fafde509291a
52f42cf52dfdcc24db0fe9fb111104bb
41ed164c1cd6fe1e030aec08bed6e4e5
faf5340fe7fff2fce112e3d402000b10
eff2391eb908dff24807fad3faea120b
ff041806f50efad1231406e2e6cf1f19
f9d4ec55ffe20e061b1d001dadfb22dc
311ef9071c2af042c143ca03c2f63326
f7df42271af60de22f2ee7fa11ecee22
573320f510f4e5f3f7e80fe8eff41db4
4545200d193202152ce1e2d808eb3cd0
ea1115dacc2009db81e62313fd1a1e07
b1981a2b55ebf83918393202f92afa0b
101805d823f2b1df2402091fd508510d
d11bf4d2ee25df04ffe84bf9edf9e8de
dfdc041cde2300d4d1e60a27fd26fe2c
0424d40b07d2090321051f05041831ce
ecebf9ee1a28211cfaef27df2704effe
2d2c17beceee11ca0ef4bcd543eccdd0
c2ce260326fe10fa0d0cfceff4e0edf4
2208e3c7ed23f3bd1bf8e1fff7001508
361e16062a3debe634e4e328e80b1c05
eb46d514b525d0401ccedd24b70ab2d3
29120701f02a5a1106053bfd2cfac0fc
1909e2c5eaebf637eadfe8d2fe11c9d9
16f904e522f3e2edf3e73ef8ef3621ed
3cdde92f141a1f3506171611eb21f0e1
eafaf4051109fde81a0501ebff04dbf1
2d31fe12c600cf3c04ec1bd40633ecbe
09eff73b31f53e331e057f34140bd9de
96e9fbe1f3562cfffa17030e0422ced5
011c17f7e7eeebf6fbfceff508d4eb0e
ac2d3324f72716e7273e230b0134f5f1
fce1e6c60cc806cc16e7fcf4d3e512f4
e2d9fabe08aae8e0cac1fc20bed450c9
e8ffdd10fe00ebe414040639f11824cc
10e9aff514fb23fa17fcf731f3e0c909
e5fdfd2f0e09fb29f427262a0fcfe7f7
e8db1818cf040ad8d7c2191fb4f11bcb
f2bf13ef06e9fd1ae4013a324b2500fb
f0f4450a1ef50ee418ddcbdcecfbe348
f41806fe3b2a1ecdd907c4e7d1edef1c
f03804f208d719f2db47eff30afb030e
b90adbe3eb19e4f7f6100b1e17ddf9f0
07d53b42c8c5f001c5c13800dc001d28
f5f44f08110d58079f472fd3e3eff104
c9e21cd1dae3f2e9fb0653e0e90003d4
08f7e4fdfc19d50b1bf1f11441fdf0ef
f82c12d21226e12b1c0a18fade02dbce
f4d5d4f013f2d2ab2000e61605013a2d
c422eefb143ad4d775e2e8e3dc1606f9
d0cd1126f0eae7d70cf9140ec8e5db15
ed2cdadad4faf2e8e239f8dfebcbcb12
ca30f8cd1e0a17f60918d702e0edfe10
0c1efa11ec26cce530a5f412f815dd1a
1420111b051a0cecffe9b3d6cf28f514
0fef1ce4f6e731fe0803e63bf80afcf9
f3f1a9dc0240e2f60dde108b06d6ff2c
0ae52810f9fab5c63514d9ef0215ec0a
08f70d0614e4f0d3db0b0a203b09f714
c603f914d69dffd6b3c5ddcef3ac1f11
03e9012af8dfe60e09dff21cc0c0902b
fdf4b0df19d8f301f9934413ee16f3cb
20d618fbedeb2742f1fadf0525cedffc
d987e4f0d6ff1be94f0ff328e1b00ee8
fa12befff41c0cf3f00bfdf01e291719
fdbd06dad5e737ec18fee229e7e7cefc
0db4310ee6f926cb1b48e2291afdfae0
310acbca31c0e9f2b9c131c1f1fee1d3
f3e4d90606fef3fcf4f9c513afeafbe1
fa06e7f6f9005c0ac116cb27ca10eb0f
f5fced13070fcacbcc0217f908e0e723
caf7260c1c173a19261f20dd390205ee
1d0bd2dad0fae6eac0cbf7111321f537
efdd0cfeef6058280e280d22141ee1f3
d9fa090307100e1c1a1610e50cf8cf1f
d807defdcce3ddcdc2eaa3d50b2cf209
bf2bec17cd0323d7f5f3dafde417fdff
e19ccc2eda012900f2fc32fcd8fdeb29
25ee031ff4e41a0235eeccbf011efdd4
24442ff4312526f63f08c6d6dfeddde0
cedc040ef00218f9b802172406213342
2e15d907f40fedf11b17d5bad2f9ebe5
f8fd2e0f42461a29340fdcec1902f525
bda6dae6dcf1afddbfcaf0f1fa2ecc30
e00625faf1fb03fdce05f5c412d10010
0016efe5e913e2f624fe0728f0dcc90e
f549fef01502fdfbf922edf220fdd9fb
d52125f4bceee038e7e9ff0ad83901bb
c6e8f0120c0f1af0392bfef00dce1552
110667d5ccf4ef1ae9efd8e1e713239c
f703f0f4f3f6e2040200fc0ce90108da
ddfdf3c0d340f5b4e20ffe4a18e0fc2f
f13b18fff2d9e7cbdff8d341f1bef9a1
ae101be81629fee9f7080ab942d0f900
df0c0dea14e5ed02d2eef816cfcb02dd
210df60e14e721131de645fee62b0e03
dfdd0716b74313f4102001e62d2ad4fe
fbf5c8f91300edf4bcfaf2050d05ff09
f3e1d788ebb8e82dd2dd0401ab1dd4de
fcf1c919e509cc0d34000bafdbabf707
1eeae0f6efc7de07edc9fb1cde07f7ee
3021f7e010b5e10bebfb2518fff0faf2
06f5fdf7f226e008e05452ee18e8ede5
090e20e5190722ca09edfc0b28361afe
1d29ecf1f3e5d737e42b33ced1a9eba7
e240ff043a130a013de5213adc6220d7
db13f3fb02e51c02f3c90cfcdbf91115
c5fab6e5a815dcf3ddd732ee02ece605
e805c833bce2dcbb2e0610f4f3f2cee9
0bd2efd61313eb340cbbf8c5fe151e09
eb0efd3202df09e3f6f3fa33fa0cccfe
ba1f233de2e55296e7e2bee8ac28101f
f6bfeb11f6f60e06c10b081300f2f6fd
f0e718dee0efeb1834e4dc03ccf9ed0e
cc1dfddefe090cbbfffde101a20ddd1a
13b8cafe05c6c3fef602a5d1e6c4f8d6
01f4ecddde21fbd32205eafed4e9fa06
ea423904151726d5612a62f970291006
15dde0210a2250eb09233eb706ff0322
d8eb02ca0cfcecd0f1cf1938a00280f2
0dc6c3ee123a03e11ed6f731fffe3136
fa31e42108ccdbe903cf25f2c02798ff
ee37d9d7202aead409c403dd3aabc9fd
c6a2ff2d2a280432b810bd20c6d6ffba
f9d6b3220507d8a8e08ae7ff16f2d216
0ddae029e0d80af8e418e6f3eacf0803
e62deec6fb11339505eb050454445512
14e7ca13fa03f2e40f21ee10dc1ecc39
dc1817c9414bf9d336d315e61efd3443
f6e8e2c607dfc1bdd0fefb09ebeef621
e71af81a6105ccec2ce73ed536e41532
efcf1cfb1cf020dddd3bdc1000e7fedc
3a3e80b510ea14e9d6b12cc61ce7151e
0310ff0278cc2846f823141621dc2412
e1f4c30cd8c026e50031350952fa2ff4
0128ea1f93220b05cef8abeafa19ca37
1816f743fbe22bfae8d0172ed6007722
c61cafce10080ae10efad002ef0a8032
e3edfffad5b7f100d7f2e31721fce72a
2f0e07b1c7fa1cf62bf9d6f317c3e2cc
c84bd5c4b8282cd4ccaeabf910412627
2426d4f4c71c2bc801bcb3ebfa04efce
86f0e50b14f012f104a422689eb53b19
e142e5e30c3dffd916ef0e10e81cd517
d7011cdcaddfe7f6af15373fd1292b42
f8040f44d004011fe5f227f7f51ce001
1506b9a5b8a718e5e001d30d3e3205fc
10cb440d36f9dc0d4137fc02e3d212c3
e8c2cd14df0ed9e4e8fa2860cbcfffb3
2cc95671beff2863604efbe61037dd35
d2e1de3711f616f409d1db2612d40d21
173d1bc3ebf7e002ef00c8360dbbe9ff
c2c8403ec7d2700e6a35ed2a03eb09f0
0dedd3b7e7d6e5c9eaf9e5d2f5c624ff
01d8f9eaaa29cbd5fe12eb440c06f311
05f42d2741fefdbb0cc553019a0d25a8
aff214f8e4c7d6d8d506cb0ed8eadd01
0ef1deef173bde8123f00d1bb0e1f8c8
e4caf646981a1529452bf0ff44f68b24
ffc5d8fb06fef3d4ea260e2522011f10
f11d2448cdee72d840330a2729f61740
e2ba17bce0d828edd3f601c5c63ee1bb
b61518c96d0e0ac6f825d9144feb1403
ea00270901fc132e00d22f0fc931e2da
e8deda399a3f2c0a2af936e116e4dc1e
503114ea06f11326bd25e12e391d3228
f40afe11d42e01231b08072a0af4ddf1
dee0d0cf25f69efcf60bf705fcfb16fd
dde9321c1d08fa120f48250af5fc2cfe
fffa9c03fce7c628cfdf120d1b162000
3f190ff3d3d0cc1c090a27fe20f4310b
bcece1f0fa30d0c13cf8fa2ecfb7ac37
fdc0ead7f0e2c9edf2d52116ebfcc5e2
a91ebcd4d639f1d0d55a0be4ee0301e5
2af02bc23a800e2307f0110f192f1ad0
9c16cecbe0d21ae011e607f6f6eef01a
fc0502e8c802e13a174405db2f2254bf
c1ab0bef1ef8dedaedd70abae8ee0d20
151ef7040216f52bff20d7e2110bd5fa
bcf53f1af3342ff6fef9eed5f137f934
1de4d0e9dcdfcb0cc11c43bc42042ff9
121926eb25dc030ae2e4feee2919fc17
1b19d8191a1303ca27da37f5d7f5b5ff
e0fe1e2105c9f212eb09e206b4e1c714
09d21d31edef1c59b40dc606d4b3f2ff
0ffe240904f8edf9d02de3091c13f1e1
e9e00e3bc0c8071a25eec02bbaeac9a7
10fcf9ff161fead41c05e007fff7033e
31062a04f708391e027fda1d24df17b5
2508fbf1c730fee40dde1bd628db5737
632dd20e4dfc054e01cb4128efe1bbc5
2abc34ea2ebba801d1fbfcffc2dbe8da
fc401df03aa240d2d50dedfecd1a02c3
d612c702db1118f0e6d7dce3fc0ff7fc
175529e2f4ee0011eb122d29ed0dfec7
0bc8170330d406ab3eca09dbf2111926
0d2e15f4fff63918081ef0f22550f8e0
d1e7ef3007e1f61ae6e57407fd0a0305
e6b21df4144e0affecefeb18d9fbce1c
efdc1bd1fe05f2e5eb1bc8ee09d9c0e9
15c658e5fa28f7f903eacbe70934b1d2
dcb9123530f1e619100e17f7ecc51603
14edf5f103021d8041d7f88e21d800ac
fbe7f1d3caf618dfe2f0c9171e400f74
efff1127221313386429e8cc05e70ef4
0bf60012cef8e106f418b13ae306254a
e6b5d11a002529e2f137102a4d34c5cf
ebb10efdfe6a45e70112f1ed04f4c90d
809ae525e5c4f5e9c53d1ad1f032f2f6
ecf3d60deddcffeccef8f2e2b9d00ace
01ef0ccced23f80d0b2904caec0bff01
d7fdf7f9db0fd402b006000bb8430228
4f2e0d0e3e39212f1cf00dd203e30fba
e3f03ee5d2f0bceef7e7f4bc151d0df6
d93f301fb7ea05eb030ad3fbfefc1519
edfbf69414f5a3e7c3f1e8e0f3fcf400
0ded0ba7f6f2a901d007fdf812f92dcc
2518e609fde00d110b03eecef908f2fb
12c1ddd5d2ffb1d5ed99dec4d4353db6
e8f41aeffab327e6ed04f3370c251be2
090503fb1bff0422dc0c2e0ed51115ca
c43ddbf7dc1e4201435a3804280a0001
cefcfeb7f73fb7dbe1e6b5e7e3fc3c01
3c0ea9aff6d7d60fdfa134bb92ff30ec
f60ae3e58dfce0efd5d6d0c3ff1cf1fb
cd151015d632030207e8d2f4e1f2e500
0cfbeaf8ded4f2a102f807d8e4fc11c7
ab090feab4c30000291ebf2429e30a0c
1be0320ff353e07710c312093c28d41c
f5d00dda24f8ef09ddd809fe13f819fd
f20007f0daedddfef3223424151827b9
f1ecc7edcdfbe0eefcfcc74416e1f50f
fff8fd2cf70cfaf812b4ad12c629ef3d
20e72a18ba0d29de1cbd26eefce4e30f
fc11f605341652c332b6f9e5b5c5f20f
fce4b7120f0bef0bff1d215bcdf90dee
e7302f241efe3112fbf5dae9e31cf621
fc092415f30008ead5362fb927e9fefc
fbcd961ad74ba20a43abf9cce0ecf50c
c9f7fe0d3400f7a92d88ddd0b2e03444
07dfeffd17c2c708e0f9d3f531def341
fdd72cbcd1042cfcd70905e108c0e8b6
0508d9e01b09ed0e3106d018d8f9f42b
e622cde1e1a9c329e8e6f7ec0acb2cfe
55f841d9f0ce32011a05f329e2390d33
0ce5112228e2df1bc1f110edca13f2bb
e94bda0437441ad62af43ac2f3e6451d
13514510111d00d8f8295b0c0b11de05
b7f10fe2a90f10cae05df3e209212af5
1054d8d61e03eddf1c9910f531f91de5
f515f2fb21351005521f1ddc3b032543
31bc1c443502e73fe921d1d3bde5ea4e
dcf7f0c98b0ff7c2f320caf31505fefb
e1de1d28dd283ccf4824e7de120a0102
f9ee2a39e8eaf70bd41e0fe8fd03e5bd
1d33020702dcf211e4eee040e9c7d5f8
e763faba0a39eecb48ec5ef441490c33
0f351637f6f7090affe81c07e5f0e1f7
b1ee050006e2fee5edeffcebd7e5e1f4
b8260ae207f0f30607c82602f7400cd9
fc02e8e0e10f33d645f91dcc2603303f
18381611cc0b5817d8d3e3f30f32ded7
753bfde829113225e6ed06143d025802
aca957f846dbf617e14ffe21e2f4cf19
0a0823f403c9edde55fdd7f0c7d5101b
a1ce11e6e8051a1e9eadfa35c9e5f64e
1421dd1a140a01f510161f23dffa37d8
ead4010ae745fedff1b00bc523691dff
fe0c180a1e1620f91d07e80eead615d8
4465f61c04422bb91dede34aeb1e0e26
fced091f200afc44f4121ef210dc1aff
0122ffe1ec0c653d09fcf0ec2e06bc12
bfb8e3390df22e17ebf26576ccf4311d
fefdf50c0c2a2517f9c70dfeb6f8d6fc
ef11e0dcd1e0fbebc1eaebd5120b1028
34050ff3f1f103f2e80917dda9adf7cf
6959cb13070afaebe4040115d6de551f
ca00f6091f37f7d9183fdc2d0f0d42e0
e9df301d4b1a2713231c0a5720ceda33
46cd11f7e5e608e919e5d3b0e71b1644
08d4e9f3ed051007f2d32f2aeff6f71e
eb2cc90bcdf82d0f0afaed291ebba432
e6d92b29feea54f92611003713fa0b23
f934bb9332f7dee3e500e7240d255fdd
f7f1ee0bc9f1063c024827160efcdffd
d705e32b320921f7162b32551bfcbc07
030be4ec0cfcbb3b0cddf8e5e921fc02
bbd622bcd2b6e3d1c6d914d4b2fe38de
f5be1e35bf04fc0b5114bbf74000e61a
25ceeddd9adae703d7f0e2df1edc05ee
08fbc8ed2f17fabdffe00204ddf4f5d3
0f18d51a117816061f141ae213f5080b
c8f24850234351233027252c36f0bf4c
e3f6a0f3fd22cf0244f621baf1c8c6f1
ed1226dfbf3508383c43d32af8261911
08b501dfeac3ea22dbf5c5257f203a24
f3db27e2bedf2febf530eac1f5e2a814
14d125cd1ac8a835ea06fdb826ee7d16
0b382ddceb17081ef82e1212371d01fa
edeee951ff202cc00ce232bac1d7d41b
010438ecdfea2cbbe6250722c633e0fc
e1ee1d04e8182223f1063b00cbbcb7d6
f40813271831f51301c4e9e101110013
55e2d1ff2329fafaf7adc07ff4221c29
21d914bafec0f778a81f1b0e29f763f5
0fdebec72403fe14ef09bafe1d252632
eebb00eb0013ecb3fdfffaff3fc6e0e3
182106e704130517d8ebd9e428eb1444
261dffc81506fc11ff2bfb331d0edfc2
bfda283509f01f072242142b039ffb07
eb1c441f440ce20a1f04213decc12e14
e71ef2f20b1f13fa1ae11aff12aa08ff
ba1bf90fc80703f6ea44f1da2d0cf3cd
fbfe802d0822a71500c7c0f919ef0b03
24fc191e25fd0a2c0d12061ce4de19fc
00ca1f2611dcfa0bf81b0bf605d8da28
4a04e3fe44f6bc0e0fc8f8f00418c70e
dce6331d3be837fed702e0ea26151ba7
0205d6fd1903d5fcebd8f407d207cdf9
2239ee20f8d0fcd9acf810f0d31dd9eb
f4cf1a271fdf2705d9f91022fdfde68f
0c12060038de002cf0c910fc23f7dce5
0531f10403c2b8f209cb1cf8f1ccd913
2025ead5490032040bf7231b0c30fdde
090506261603fb212bf045ea16031816
2a5ee9f92a053f1730e5b8022ae827dd
1ff001e50517fcff1500f25217fed6f7
1d081e0c06182f04daebf7fc012dffcc
00f6032042d9ce1a202437d9ea992800
1d1ae3cdbbce4f1eb8d0032d3ef3d918
0e1901ede1ec28e3d21becfe2310c9fe
336de5cbeaca99c60c1e1bf63022dfdd
ef52d6c6c6100909c313bcf25045000f
f4ed182142e014e7682bf9dc15e818c7
fd16f7bfe8172e02eb15d1f6020dd503
d2fcf2edeededd05942dd8cce409a9e7
f8ecc0154cbc08f3f13c3404111cf0c4
1ee707fff7eb290baddaee01fabe0edc
e2cff1a6c02f1b3eae0ada1755f1eb40
b5dc80f1fa00f8f2cac727102fe028ed
17feddf703f7f43df62b062de0db15e2
070df40c3bd71530d7e70a4333332817
371b28d621b1deceff1517d704023b0f
c307141919eb26c212f3fe04e70428bc
35f5e703c908f325f9b8f4bce547dfec
b73437f11e04171f060e014d053551d5
0ce6fad742ebf5beedd4271af50c3be4
ffc8cebc451efeeccbe32703c7ddf5da
0c50dce2f306c5fac820f4521ecd02e5
1df907e226bdf012e1d0e4cff94d1df6
cb02efd5f6c5ebf0b7f9ee2efdbe13ee
c7e2feedd10fdcebc7cfc0acd3f031ec
eeeaeeba19ffff32dcbb22c7e924fdf1
f8e70f18fb062eef32cb0dbfeef10ef0
def3efa7f4f49bdcbee5e518d5ca00e7
f9ff3d24bc142b1706e4feb11e22fa42
1d09fb1ad9db06fa190a123b10f3080a
ca2154fdf10703010f2ccb17d9160dfb
dd23f126d9122e410ae1c13f0327221c
042bd9eb221fe9e1e322ea00fe3e2e35
ff161628121736f828bae60ef2fdfe1d
0313d60efb21e60ff9f0092aba2a0223
f719bc06f82ceada2111023c0018091e
d512f5410a3a2ee9c635e8e804af92d8
2dc4fedcd51eb4fb42df1d0defd1cbe0
0fbd4c1fec166d131fc7e7f9f809ddfb
0f2bbef7e114e9e1ef00fe1e1718e0cc
3cc9c41814e4be9ce1c2dafefe1506e7
e1ccfe12f124f7ff22e3d0e900e9f50b
eae0edf00805d71910eac413111e181f
16f9ccd8cfcfe23cf9b2df0ceb250715
21e6c6dd0ef1bf3016251c0f0c05f7d6
0b2e13f8f9d80c1ffb001100f5222c2d
222b4c2d22ff03f31917170f3227fa24
232796d808f5211a5fcf22df4608eef7
d0db1ae3db1838d7fe1edd0893d7cced
1fc1de16da07c70feaf4a60f28e5370a
09072e2bdfeeaee707ef15e7eb19e71d
4962d211f80ad3c1f89ef9d908dca72e
06cd08f0f1e62318bc11e3009dd2dbcd
07eb01fb12c513edf4a9cd0393d3afdf
22ccef1cf3e9fc36ec071d3dd10d0abb
f2eff8e0ea10f9cc01cefb0c19f31710
05040fef0add0af312dbf4e4d00acd08
331901ee30fef4b2eeecd6010006f3de
0fdc27e8feb40112c852a23203010ec8
2d0d1c0aed3697f000132535f195e63b
f21651eed7b50be0f21bbb15b32a14d8
f3cbe9e71e0ecff8ed2e0ffcbfdef519
ed0e05215306071828fb290e0dedef71
02f4f7f4e92b08bcf90c1c01ffe500c7
1aebf0e8ee3a36ee460af9f6f126dcf7
e818ece7f7eaf809f20a3a572f0e3706
f6ece7eff2c321f4f106b31d20e6a523
10f3e5eaef2e0d1080eff22b10d4f442
3def19cffe5418c4e3f7aab71bedd9be
fe17d0a1defc3a2ad3159d97fe18cd18
21f6d5ce3000e3f90fd7d507e1deeeab
db1b153fdb0b0705f2f00e22f2103160
f8fce40af9fcddadfe4003dafdedf706
eb0fec3ae2e019c7af560cbb14182dfe
d0e641292e290b4c202969f53b1baffc
e91129ec03c141db00fecff8011aa718
dec91e152a01a2117f1f32beb9da27ce
24eefff6170ea6dd0d17d5ebf02f06ef
67112d00fbbfe8202e0ed2e10b141f10
a1dc2041cd3b27f6190135c708241909
22f843c11d2c0cedfc15f029d9dfcdda
07094323fcdc15f3162ffaf440da36bf
49eb05d4e8efd7fbe506dbe80cd41af8
e2fa1dd71a2419d3d006cc022a84040d
2015efc9380bdcacf0b632ba9c08fcd0
e4dc01810088d280e0f113fab3d845c3
2eefe1df4629f9bcf4e92f21dd01f4ad
dcfbfe0ec9d421f8513d1d2a34fdd10d
df1af0e7bee020e4aaeeea082508f9c9
c62c45eec909ccffccb7f13dc0e4fed0
16eb0ef7b817cb03120e2ffbee1406ba
e2e845ed04e62206c105d4f6d7c9f518
e41e2616dc37052d04c410c1f758e8d2
f9f6e9fae5f9f49126fae70bdeefeefb
3c2f1020f50ef81eeeff093478214540
1e1809ade905fe1d1af7f0fb311c13c6
d3fd0d0607fb050212e901e4d80ab1e4
be02070efef1f6ea236b123e1305d52f
16fcde0cf8efed32fce3fdf4ebef34df
d8eebcd607eedf19e32bf821030e52e7
9c39b0366af4fba92cb5bf19eed9df38
ef06a52901151ccff8bceb0410bdbf1c
e4f909f11b2b3de7e312e2a0e1c2133e
cb1ad9d003f1ccf8ee3e390b0fd0f6cf
cefea239faf501f6180403e5e5a9d4fb
1afacbe5f8fdee832dc2b91ec00ed5f7
bbe8e8e428ff2dbc220b2d2cc80dbe17
1937caebf7000f040417043e2a5c3c19
e1dd581207eb42cbd6e7fdd1d4e0b4f1
e9d9e3e5ccd5efe9bb152be6d8e0e7e6
080ac811331be3eede030ef1224531dc
d8f0f9f7ee07f1e50bd3dfe1a7fcc7a4
dfe73a1ee6d8f90de6edf20cd322c307
a1cc0cffe609ded698269dd6db11e5e0
e6f42d07cfe92bf1e130d42e273d05bf
a14838cafc1a75df1c4638136d5c150f
f02ef31c1df0db10d8f1dc24141cdfbf
e71737dfe13248ef2419091a7537661e
45bede38e70db914eee4f7f6b4bde105
02d3f11cec104c1cfa35b4140cf3e1a9
c0153e05d42433ceea12faf0446502d9
db4beff418070ae10ce44508086c00f8
dafcb218b82ffde7eac817e3d2f999f9
0715d312e0c9f428d6e0de2b8b1a8d12
062ae2e2090fd3b7e20711cddeeef5f8
e6051dc6063936e97afa08d47cce6c75
d1d2c84bfce50732d23967f510e01504
0c3d1fc40d06ece601ffc2c9f12df105
28bc09df1e0216120ae8f3d5e8d3cadc
e98005fc05f3b92210fc06ccec2db7ce
edf02f332606ef1c1b392bc5ef071792
ab2e06166fc10b202b1926f0a7f46fe6
e10fe9eadb1223dde0f1f3dc1dea0109
defd13402efee6522a333a2bd6f52ef9
1b18f5c5d02afeb6fdfdd930d90bca2e
24020cf2f6e9e5c13801fadffcd0fdf0
bed61a0154f83b133e2b1ae1ddf1dbdb
dfc2b915faec1907d91e12f40eecdd3e
11e8f0afbd1e03d2e3be0f05c7f3d2c8
d50becc7f80e0b89c7cdb4e3e007d8f7
c3f2e3eee6eef7f1d334dd01d2dcf3f1
23311b3bfedce21276fb1846c7025946
cffffd2ee6f7ebe71cf1f9a53506050b
c956bdce01efd1081fe0b319eafa07d3
07f202d6230af10ddebce3fc02e2ecfa
0c1ac8b6ef22a72ba501dfe910daccd6
103316e5c96ece39e3d9f91bd25102e5
22b54039ee1a0b5d201d1ceb384ccc51
f417f10803b9fbececb81cbdd1e80fed
19023837e82d2d5c41fd08e11a45f135
d635c0ce12b9e5820800041ef5bc3013
20ecf1f43020e900f5bc2ae8dfedeeea
5ef52017c72de84608f9e510122eda34
b0d5261606f7d12ef2facbf2e50a231d
c4fee71dc03aaeaa27e0c3e9f317f108
e72ac0c83fbe9ac707efebd4e5e93df4
fbf30ef5c3e4fed6fb22d11deff4070f
0621233a140868403e4f4f0b582fd157
fddbe30e131ff62a11dbfbfa140a281e
1c0cc3f2d92c0eaa0ef3eabddef7adac
df2ed8dfe2ee071a0ae6da294c0df927
fffa1f04c6dc2ce7faa207e6e9179ef7
19d339d8000614ee06d9e800e8f6baf4
40e57eecfe9f443fab2ae1360f3502f2
1ce0ed0ae418d4d61f06e407f3c20011
140d58060ab11d25d11bfffb342f1407
d0e3bc1901feefe00410d1c916eb1aed
0b0711eb0d0928bcede3d4d6b5d3ce14
64f82f200cc528fef9cfef3102191af6
1fcdfff4cc12e5efeed8451457f641fe
fbeaeeffd925e304d8f2e2e100e7f2db
d6ff80e10a3b02a836c1be0e21d50105
10d0cec9cc09b91a2afa01e5f4c92fe2
10252ec5fbdb4346ad7ff51a670d7619
e4b7e40613f11448b6ffc2059fd1e8d7
301a34dac03044ba1f6f0d0e24f71148
fe1e14011aecc9e79dce24f4ee32b3c1
f4dbc0e9f5f52cc8d50ddaece200f4df
060ef219ef11deaab197d9f695ecfc14
13f7f5d7f2d30be71721ec1cf5f619fc
0d09ef39ffd0b84cc8c3bd00d01df1ca
ec12dbb6a132feba303bddc802123d3f
ead824e9de1613112841d716d6c01921
ec1931f703d40f13c210da200948f0b3
0afdfb1650f1d1ffe2e403f801d6d3de
180dedfbfa1ae1fa03a02601fad1fc22
2feddafa23f3a9101bda534519f1ee28
de030d0b0cd4cb23f60bff17b8f1f406
fa14efed2f302cc738c844cd38030643
e324d5e9f747f2df3ce9113630c1307f
2411add5c320e3cc40edf4f3f50bcc14
2e4f001a40f1302d320c1eec01f43926
f6d8f7d5b5fc0ffef2fd031830f5deee
d2cc05fe04ccb9e4d910e8eb1302e416
06e51ee8d42630b7b51ab4f11607fa40
f3250c00d9f10f20fef3f2fdd9180819
0b88c6bce204eed208fc0ceb34fddba9
de311cfcf5f3ff4a0105fb1ccaf13001
2f4b32e00f52d0fe19dfe812e30df41a
d5f0285c1611df3d222a45ed03d81dab
2f2c1ed7d10345e3dcf9f4f91008e507
1415c6f3ddcd1b00cd1e0d0dbbfde349
d5eaebd4acf145fdeee8f031222dde1f
1d07f1fa0af4edcf0ae2e202e3c6de1e
0a24d7ebf9fceafac603f85adef82c1e
18190c14e10c092aeb00e9ffd70a2f3c
48fdc1e84829c4dcd9b93719d3ccfc1a
2555200424ec6727f11e334c1c25f01a
e3070ad1fcecc30905c0efa9d9eb022c
80e4bdf1cefef8eef30bdbe3ef52d5f0
c629dccef9ebfadccc1ac670c0dfd8e1
c521fb18f4ef01ffbc14f31607fc0df8
0441c1f3d82306db17f0210419e728ea
d715092df50530324c280c49ff23ddeb
f9090bfd1ac7ffc9ff380f2604c9d5f8
1cfef5f0ee15eb43e9bd0fdce1151820
e4fa18d6fef0f7e6f6e1e2ec27ab211c
dce32e02dba934e33123e1193fc915f6
eee4c4ffe9d8fab0fa1aacecc3de0b35
ec18030526041dcf2cf1211ae8d6fc00
f6f1015ecc2137025d41fde63befe46f
ba0e0de8fafd25025d49e43657de0631
9f14c90e16fd2fda1ee806cec0c9954d
f50773f2280838e4041cd81c2e030d3f
34ccd7fa0616c51013d5f7341d04590b
f89f15d8c7361810fffffda40bbccb09
ffdb8eb39ffcdbc152f2dd13cb9ff7e3
e80d12062c00f6f713121925fb021d05
22a5e2f6f41ae4b501f62fa9e2e1f611
fc004bd8ee06cc1a181717e1b503c211
da4d10d72c0904e010291f2910edf323
1cdf28f7fcde0002f205d0160f1e0320
0328c52d130af4002c0a221d01100333
0a2ad1f9bde7c913ff0f170417ff1009
2016a50200cab40a0eb113f5f70333ec
e717daff24f6e9e4e71404e4e8f91214
fe41f6e40dc6e57fd72213ea4c0c3ee9
e203fcc3081bf80a2b0e1a24320258c4
c2f729e7eee636c30056c4e2100b0ec8
b0e52dfdd5eb2cfbe37fd50e3b3c28f8
fc0b242c0321d53e06240245f3011efe
f91ac5c8eb26359f1ff9f90f2c2a1bf5
ce2b30150312a22f4b041f4106fd0dea
f0e57f18ff13fd26f04bcc38f814130b
c0096808fdfd1422da0912f7d613d1ca
be0ffa530e11c8b51ae4b8f0c9e0e81c
24c2430bffec2317cf29e04ffcf6fecf
03fbcf40020becfacce60b03e5b1b415
f8ffd903fb20d9e523df2bd7d717da1c
bee53be8c5e14100e33dc11f05eb1bb9
fc5d0f0f3dcfc6f61dae38080629dbd7
252eb01be1e2f710ef9f0aece8f284db
3c05f71f0df10c07fedf2007e918fcd8
f241fdec2740e8ae4dd27f2c4112142e
38781af8360b0b224d0ae9c8e7dc0ffe
fb2e2e2e4df3ca1758401be7e0de2fee
1e0902ef06f9073125f42229301014cb
e824011edf03e31cea1e45f61bed2df2
5c0125a8da222535fec3dc0a07f6dfe1
17dd293554daf1303527df1106dbf605
12cda9070ce2c4d3270d09e7e0d10edf
103010cbf52d023c27e40e08d60200ea
0aea1a062d12072653423bcc22ffd0ab
090600e5c50a19eae5fab605f912d406
e8f6b9d311f205d99614ac1e170dab0b
1926264538ebe41c2a1824dbfdd313bd
eedfe3ede728f1f3f1040104fe93e5f6
f0d6f2e2cd1817fcd7dfe824f2f69b2f
f399051701edbc023cc41ee858f2f8bb
faeefe1f5306201ac902ef39cc0d0931
190ad109550c0730eec156fb0165aee5
2c162bf8f010f652d70c36d8f745e3e7
3a27210523e811db21d913fd01f713ff
c00e0557c41e1ff30648dd110b47af1e
2ce95d28261713f3fc430e170dcd1120
63fafc0115061bdd2815130deb05fce0
0c32ade5f5ca0e07e2bb0803ee2af7ec
011af314f3dde606f60f1b1deff800d0
4d00fdaff726cb08dbc11ecdd84411cf
f9c4fb9c430ff2d3c51bca0cfcdfefda
e5fadafc02f3fffefd0dfad410c8fd17
06d70e181bebf71603e02af3f36fdd85
29eaee13d3e5021905d0c30ddb06ea2c
e9e9ece8e8b3f69702b9fae207e4110d
f602ef0e0904d5e7ddd4cac602f5f9f9
04043628d0ec380f6a63e40b2f06d25b
dc0c3addd8237b11cf1de556c5e3f121
fb265f0716ae53ecc60b0f0efbf30706
f15be80d3d050707e4f0e44c065c2d4a
10ff36d4d8e4333fe12133f7cfdddf92
0e64afcc34e406eee8f9fd54ea47fe4a
ed34123c27d3270eb120e20f061c2f67
ae0efef0e1f635da0bf4ebb625c7e203
bb00e31eb4fef0f3ea11ea25e6bbdf10
c1caefddfd0347f419db07120c1aec32
ec01c7082602d4e73ff32a0711230f14
f6fdf217b332ce05d6f9ecd7e6d40b20
c0ee252c0dda3cd0e0fb11f3c6f1c931
14fed91ed715e011d9fec7174d064a2b
e8f0c1e2f5f2f40e1aedf1df22fe4de1
ebcf3ae1012af80529cf18cdcbd40fcc
e7ef010005dded53e60df51e674039dd
ab19200ad91af4b6e3ecfcfcee62e994
2fefc4f8d80730f6210bf9590411034e
e3de30fe0415f9ead2c1c6debf1d81e0
d60aec19d9eee751c3e61031dae72fe3
182a0a072602dfc9e8e711001423d714
f2b0241e0206e436df3c0b18f9bcf119
03144c11c1d22fe4ce29f615241d0ada
e3131cf50fc41a01b850e442250027ba
fdc32edcfcf606e0daef0bbc1d2dfd03
05cfd7f7d8fadfd6c3c6c609cdf6270f
1307beda1df212d6cdb3d2d9b1de800b
21c7072517083b10d20181fb07f72717
f8f9c4d3faf1082bc2d80806053807b0
bdeb360d1dad0925c05dd214ededeece
f30fbec3cb09f2e442f930df2d260838
fedde8e2f9110cd6010c111a4c492902
18b1011535c71e5e105d14a8e8c6f0b6
1be31fd8f60a1602f8e5142edf08161b
d4e61d0f0bf3cfb44028d0f0e1ed142b
1cfdef263de71cfaf92f30231c14ffec
bcf7e6f9280ce542f804f21dfbf013e2
03c2012721f7082f0b4fbffa1603d703
1301feff11e10cef013024d8c6d82edc
e2ee44220504fe697e2711d4e2edd2d6
ed05ee330d05b6010dde06dab9c92ccd
f904f1dce22c08d2fafde5f1e3dfeacd
eb1bbeaea31101ced90ac2ed1123e91f
1a0328f8c41118013ef025e30cfad61a
b0e30006dfe5e4fdeb0d7afe2c04fa80
3be46113202136360637e9b7f3d9ff07
eb169dfa070bfcb4d5a844f6ef260623
fbfe1ac933edc20aeb143430fee2f0f8
09fcb3f403de080bc3910ae1d52cdbf3
dff15138d5080cfa1a12f83418dde61b
ec200facee23f50ec2f4a8ffc6fce1d3
03241ed5ddf71afc22e00412bd2e38f6
e1060aedc50eda26cf02bf1933f7f418
53e7cac2fb0ed3b404eaffafbeb61dfd
bf1835f8fe00284d16ee130b221fe1cb
3df8ffbab607f137a9cf428db81e19cc
eb1ddf2c1958ea1308b5ec07f127dfe1
fe22cecd06d9d6bff2e40fece9f7f8d7
c2381002f3ecf8c72005e94e14ec10f6
02c61ce32edbfe02e8df38ddece214d5
be07142fb15118e602d131ace2263c14
35fd37a6eab1b843b9cbc4d8bf3bdca8
bc050437d727241548063bfb250dcb06
0306f05d0d54180104181de8daeae541
1fbbf204c201f5dbe0c4da3c0b2e0ff3
ee2a1bf9150a2e58ff08113a24142c48
ea11f650efeffd22f6f5cb18d101e3d7
22cecb1316ffed0424d7daed38e0ca37
2ed0e3d6e0d3ce0c0dfff60e3a04f6d1
dd0ddc3ffdcefecffdf1b63401112036
2a1f47f20deb4128ef0507e3e504aee9
04a73904fdd015dfe0a4fd350a20251c
c6e852d4e0cb1ce1fb1d290c070a05be
f3f7fec304fafdce37faefcf01fabafd
dcc0b8c8b4f7ef09fde015fedc150703
37f31542240d0edc3730fa16bd1bb82c
02e004db2522ded219f00eab03f8bbff
fbfe2d31d70f43e007d7d11808f91227
132d12def247e22bc81e50d6200a14ee
f60002c700caef1d0b0bf4d8f6cc0719
e60501e7f1e4e523f30223fd260030e8
44c0e321dffec9131b02f5fadccdaea2
e42412e3fdfefbdc13e219e2ce02b232
e936b70e0722f1c9edc2fdbffafef7f9
fd17b3f20033dca20aa93cf62b092d53
1ae1e7fbfb24fffbedb0130efaf51d65
36fb32f407fd0afee712ead810f3e5fc
1d04f1fefdfdfbe8e3e417e21a0a0629
06e254fa1b11f6d4025501fb4827fbe3
033dc5e1e4070f020ced33ff3601e817
e8c8c0eb3d0d0de340d010b0efe0ed6f
0625f3351bfee123e328141013f91340
ff080d04fbf7161b2a1c1c2b0b1df007
c51a0f08fbea542c1b3b070606faf3ff
03bd144422cbdb50e7d4d6e4adf40322
20d5d80f1ad4ccecc7ded9e6d1151414
fae10e1c10eb113fed1462ffe7f9dbe6
780513f7cd3dedc1fbdbd9be13f2e5d5
cef4fb0c2fef0f1f1b1de10cd6fac902
bdda0dc6efefe50fe9d8da06f141c6e1
b6008b2ae9f22ae1c4cc3d53c3421d16
ca05cab9f3d225c5ef0ef05cf136fc79
2afb110b010a061d0d330a0f3518e11f
1901261307b5f2160d140efe13092f31
16e3ea3d3bd2f442402ded05f3c1fbc6
eae2f7ebf5ea3c1ceeb00d2e02f72e22
9afea5e6a92c0bf2b6bbec24d8282a5a
1acc0ae80ec0fa3ee4f845f8312f2524
eddb381a0cf30b1702d2e038ebfde62e
1a36db2d72ea31392bd4e2fed6ba360b
02fbefefeb50e50d13d6f7df3218c7f5
0f0dfcdc1c0207f2e31900b721f4004c
23ff14ea0201f40111e51dd4f80bfb06
f7f9d30607fe09d0df120007f3f22224
e40ffdfbdffb070de1ecc2153717d110
b60c0527b10bf5e4e9339e1430a3d83c
c5f90b35e3580821480ae32245f00533
f7d30abd9734e2f44010f8e22fefece1
0ef8f7f41ab40212220210fed60920dc
1deb0e202e1e0bd01e2c200923fed8dd
50fbe8f50af22b0f270429f122213a1c
0be7ff45df4b5b152e050ede2121ef2c
80e7c5251d3d2004033cb82e1bb40d11
40d414dc37f4e4dfdafc1c01cad839d6
35eb230b31cc08dff71d51c2f5100029
7514210f4ce11bf6ad14f3ce0318f11d
06aef2daf4d7bdb5d008fc0ff4e2fef3
f447f5e50e33f2f40be51dfe07f320ac
04cfd60b151f26fae6f9c2141eeff425
effbe5f1f91c07df2be0e9c4e4e90337
091f180cb4ab070ec413f408130efdf7
202305dcbde9c61504191be30bdde9e4
3609f2ce33e9d4e6edf2e91b13db0d04
e3c3d6f7d004c34f27010ef4f7f4ecfa
0be60ffb182a3ef50828f521f4ea0dfb
e0d20008fb2aff06e312fae328e3ece4
39f30421f2ed171b3fe2ebe212dbd317
15f7e4d31d01dbf1e7151011c1f9201c
e7cbeecdba209965100d3b13f3d900d3
ff0ddd162dfe04fb41d2234d19ea3a2b
e3091e0e59d710e9d2d905320d083f47
ff37eafc28151d22c611f4f9113505f0
a5e3ff460715eddc2218f908e9051f34
e2db04e9e3f5deb6e63ff2fdd7fae6e0
a81050b2d0003bc5144b10de2135161f
e90a09fde80323f2e7dcf0280c2cf104
01e73020e3c7edf20127022604e20c0c
c3ec151ed3e4215def2fe34c08d818d9
6af1f91a0bef152e0604f733d7ec038a
08fe0af4e5d7e820cedefc13ec09f0ec
ece806f20b0345b49342f2c1fc000bf8
32e8ef08012a87200cffdaf5c7d0f504
b2042ec8e6f81bf1222ef0d31a0428f7
cc1cf3ccfb04f5d614dd0ccb2c100543
02ccf41303f70b3cf5ef2b0bf7d2c6e2
0e33061c40e4d9e3dd1411fff9f0ffd2
3f14262d5113dcf3e9cd28fca5b9b4e0
d9193d01ebe622e6e3170e022a3de22a
2ee4e722f5330e0bf2ecf8e5dfcef015
d3362f15f1d70005d1f74a0ec502f5c0
1604244641d5d52c21621d07d7bb1713
1017c3fad7e813f0060af52bebdc01fe
15cb15fb09fd46220423dc0de9b9ee0d
160855fc3af5c9d72b09f7eaf3db22f0
40eefee0c64ed7c7c6c1c70d12eaeeeb
dfdc2bf003ebfffbfb240e11f4f4bedf
0539ed1d1fee160c2606e2e0be1e0f43
6ee811d7c7e906d7f8e1cff60bdacdea
3436f90221efdff25bf12ee8efe939f1
cdea1f0ce7d6f40ae5144824d009161a
ff0dedd4f0e32dc9b9d7221ef924bc25
fdc94fd21028052707081bdf0e21ebef
cbe4df11fc2143fde2cb22304d21e2fa
dbb12b4b3baa0f331038f8dab9c202ff
f32617dde511fbe32f27d50d290af207
f90ff4cc12160ff6e51fec03fb08e5e6
10282445fe460169eb1d2f082737a5f3
b436fbe8f125dff4ebe1cd21e501dfe7
4200fcf3f6d5cd07f9eb0bfee4ef1605
1eec15da3cb0ded5f3ef56fcdd1e1101
41d8c705dac706aa0decf4dcb689570f
f91c00c5f911e807f6cad1d2dd09f519
fe0ce9ed1321f94201461501081f06ef
0ff5bbda0fea10bdf9b01908b6f021b8
28e0081804fee41d05ea0707013fe81f
edefed0cfa14190f222a00f432fde22d
d61307d019eec2f32bd9defdd1020c01
25d40dc30cbeef13d9dd18e4c2e0f7d1
05cd1ad7e1adbce90b0bdcc44206261e
221d031402e32638f6e4f5e20e76ece3
1c07e1f80efd06ebf90de1280ca9e912
03fe08eef2e4f9daecfdd1fedcc70b20
fafb7dff0dcf27daa0180a0431d1e3ef
d912e4c802170c0000d525f3dbfa0dd3
ec1716121fd2f429fad0f3fd1a233219
c206f6242a1f40e2ebd3cac9eaf4ce4d
c819e5e11b1e0def402edddbd9bee533
fbdfe639012de99afdaae1e6fefff52d
0a0b27f0ecc12514d81ef8c6d4e0ffaf
cd07bdffd84303e8072be2e4dfd4f3de
d8094213f4f52ce2020ae2fef4dbddd4
0c061ccb0af2f620d41e340a1d0afcbd
f1e5e1e4e022d2ea1607f714ff1e171d
02d8e3e6f01a1be7edb3cff1103ceae8
26e5bfdf0105f01016d3141c331310f7
19c30e07e3cfe42e8ff80e21001c1de7
f946e9d606f219eb051bf1dfccf1fe00
2517e5ee2819061c1104aee21d210f1b
2e06e8aaf12223c902c9401acacbc91e
1111e202243bfc02deee12d7c8fdd4e6
e0051ffffde513fb080d1e1448e90fde
11dadb06d8f0ef050fe9e03ed9ff0e1a
cd30373207010eed1be5360ff3190903
d6f1110c06eaf3c4fa0012ef2229ebfe
e6cc1ac701f52cd8cb0d03da0210dffd
faf61cfbf6b81cecfc01e234f9f5e5eb
ed430fc318ee10cc1922341b7f4318e2
f2e436f30de216f5de5411d5f1eaf8dc
cbe07f130de01b2cd92de8170118fcea
ca11b1cdced921ee2516ed13292a25c3
0c060a042fe2f3daf8103d1019f4ce15
cd0f41f01dd3f3d6e35c322704f5f312
feeed3cc03fe71bc2bc9d09f482c2f4c
2600ea2f11d5d304e4d40723b8e1ee2a
2c2ccae5e502fc16d8150805f0ab2030
0714e309fb30e1f3f1012f05ebfcea0b
02f1141a2b24145d141042fc10ef2738
e116ece0d7dff6d7cbcb26fd2e070e51
1cda470406eb5d5d051b1b0e1dcc0adb
c8e0f20a10cb1f291d3322f0e3070115
2cf2f81403d2dd0b500412da3ee4f5f5
34c2efe1170cfe1a0d0fccc71e07b7ff
d7fd1a4e482b1a5eebe7582b112a190e
0df7192920e2fe282d3db7dc021beb14
2905fe030fb51bfd024be6eaddc9c428
e715e62e1ae91ae9e4f14e18faf801fd
ba0c0efd00091d0aede0b901ea11e62d
3f074b152d202a7017fdbb01009c3805
e806e41cfa22eadcff1c3ef4c8f31628
1d0b0ab2fa2e10b6f6f8c602f91604eb
b202e10eff1ff029f311fcf8ca0b02fa
ba2dfa21e315e0e71403f70efbedd4f0
221d5307d4fdff450ff019f0ee5305ee
ad12fed9d401f3f70f36310edf00fbfb
fd1929c8e1d8e334b436ce2bfd3210ea
04f91c0b0030daffdaf708cbfc44dde9
f61bc6f3fa21d92c29f70215c833d901
3a0be6cf1612be3bc5dc0800e51aeaf5
0a035b421efde3de10212ad9301dcb4e
4bedf4e41dccd50ec3dd20ebded804bd
3bfe29d236edb006b0d611e1e1c902eb
99ed193adf24340e33064214063515fb
3923eee4c61ef60f140be01ef4ecce11
56e840cf2fd81310d2c50e09ef3fcfd9
89f9d13c0b45381f310c01294328e3ff
f51b1fc6fed10009da05ff1d1ac80b08
f8f82ee1e5efea24ce220e2f20fff802
06e9f1bee8f4eff7e5fa2104fd01f6d3
2f0522f24af2fcee020e2333167f28fb
d50bca16051be12aff2a34ebf9d2f4fa
23f70521ffe51fed150ae837ec38330f
14c9f7e2cbf015fdc8eb2a1b20f90be0
fb950f20e2d91813fbf04cd90cfe05f0
f704012505250fbafd01cb270704ee0d
3cb853f62404104ffbf3e03e5c20f025
d5fb0915f1d1fdde26e1e925fc24ca4b
ebcafe6502c5e8b92ad49938e5ebfe17
fcec2bbe0ff10708e52fff0209f7e8ef
1ae1e905e4bc0425e0edf51cfc062e0c
bdf8f4150eee45d31ccaa37f261b1af2
f1032bf217d4d20ad30615ba0dbbb5ff
0f22b00b172709e50a25fc3101e41c0a
faedf21d0807f2301103c718e82337dc
ee3fec3d2cc00307f2072adbe799f3ce
15f2e8dcedd1f1f7e2eee803dd079eeb
2054f0ece6e750e0da27ed3a7ce34dff
dab519131fba11ee09feeef8bd00d0fe
e91a2ee2d0e4d5b9e705ed02f62fc0eb
22e827e601ae1405c501d8250cd9eddd
0b2609f2ebf72aeda7f9451e0039f5e4
0831f9341730e9c5eac50cf60bfa121a
f00804b8003717b435f60211263030fc
07321a2806f2d3f107f91a59b9bbfb22
341be6370729e5042e8d210030ea141b
fe4517e502e11114df24f0133af3fdea
3de2071f3727d82c2d1ce423d6fad531
f2c112ffdbffebff1029c513e3cf08d7
db2dccdb0e00edc0f4a3140113274e1f
021d2208ff2d06d2fb16ff104cff0fec
18fbf2ddd2e5efdfe408fef6ff27d30b
d4fcdfe1ee28ebdbcf1ecfa8ecdce0ea
e92a3a61f70d551ff4c47446dc19601e
f3dce4c6d9fa17e9f211c5f6ead7c838
23dcf5ece5101814056a27dad9b8bade
d7081df5370cf31e201605df250af3c7
a2cffdf905fa3a40d7190d64fb1ce636
c3d7e3f50d13e44ddee40e47f516025d
b34fdf2708390b0ddef11605bbff2f12
ecf0cdf70cf42813d5111c04eef5ca20
1845abf0ca1e0ef2a0101f3743051f0b
ebcf4b2a23da3b2f13ea430a13250734
daeb28d1c01833ebeee2c0102a088919
2c0704b91bf4e50f19ef13f6f4ef16be
02d9e70508efcf1fc7f92c33c4d3d900
df04db200520d0e9f5e6ee0df5fa0c0e
fb2e30e83e1df6b103ba470dabfb0e0c
23190bc43113daecd904a62105d5eed5
fed57b11f5062408521afe821e1ad1eb
f710d5b3d746cfe7f819b3f1ecdefa1f
dbdaec01cd2902f9c3f025f2fddae4e3
c1f117faf8fd01fcc8c956ebda0aecbf
e5f13209d1ab2119fcc9ace558f10a30
f720082f00f101e037fae31222ffff39
1fbd6b38bf1c3f152019381d2735a101
28db21f8dce2eecbf0e3a9d8bfe415ec
fe2561140e0110ed4cfcf21de1ce36fb
0e1e00ffe5e4ee2007d3c9d5232bfdf0
e92a12d836c5cfc8c901f0d9f8f34417
08112f160ee806ebfcd6fdee14f9f7de
e6a80244e2124a21730c040014e0c310
160c0514200ee5fee50a05fdfbf2e320
f1e4b60f2b0813d420d9d7e0b743f8fb
f4e3f0d8cfffdcf7f8ffacf41c07d2fc
161d27a5518ffc061409ddf51901fe09
0fe0fcebd9c1c8d9d6d2f4f6eb0204fd
f31da52325f8d83bb41ef0f8cdf0e5e8
ef08169fd815d8f64ddcf3340b440206
45e9dd02fecec11eeef90c794a111bf1
f115e50cd2cfbc28f1042906380f43fa
033c30ab0ebeef0ec3162e0904fef6f1
fd0adff940f5d2c027c4e1c72f3e4a1b
dd16e81ee8fac93ce54f06324c204303
efca5ef450ffc9f3dfe00bed2b00fa05
ca31d04147f9e7120de5c639d91d2000
c4222105f831f20e1d2101ffddeee2f5
11bb23ca23cedf02c6504ba42b12ff0c
fa0203d209d62b1edc0fd2e40c2725ea
3235e7082e2415ef1b2f520010ee0ed3
e4002a07f1c6f524ab2de6d8f719afe9
3bd31e1b38db020ad9fef1f9eff2d20d
fffdf8fd020a20ebdb09b2f6dcf1eb10
4cfcbe207debd13dcbea0afbcd05e7e2
42391bea1653ee0740ce43232a293a49
04edf60729fbfff9fa2efb15eab3eee1
003020ecde22230d490afe167f3e0b02
2e1bd1013242f8f5d9d10ae2ea15fd01
ea2037ec49221323e4ecb303c01cd9f9
f6f318c5e502f0cbbfd5c3b4d06adfe9
c4041e25ddee04f41ccd1e14281eedd4
d6200904ea09070dd523f0c6ea1dd4eb
fb4a574169dbeae7eedf6a24febdf449
f6061516f1f8fa180ae5d90eb2162505
f9efbb2bd0defa0ef1da65ecf1eb14f1
0ac3ebe630074d4105f5da3c15fc0807
c5b8dc02f6f6def6131fffade0e5d118
f0ac3f0136370111f52fc4ef320de9d2
13eae7e3ed18dbcff2de17cd15e700d1
d2e3dad3da11d0c4fff8f2cb17dbb3d5
e0f7e62715f93415dc042971ee263d3a
1a4018e419110eed41cbccfb0227f9fd
f2d6011e1ceee52ef60a2e2900010afb
cbdfaef5b305bbe1941fe5d51f282bc7
09c72609e556d1100921f9e20106d302
dc27bc1af318c4decadafab208f5b8ba
d7fcff04cddefb0aeb19fe3100d326f6
fb10ea390ad1f7f4fc1f19d2f7ed0eb6
cc0b0ded1814fb26ff01f50de5f0e603
1c36f5ddf216fcb1f1d1ea1f191275f7
eaef041bf5dfdee20af616eed31cedde
41db0917f81eecfe1103c9e8fc131d6d
2718e2c3020cb813b5d307d2ccd6f0c6
12eb118dbbfac328b2f406e3e0dc260c
2525e8ec1fdadff3fc0dc1fef30d3623
26aec7f5f808d99de0efd6cdd6be4cdb
00e32838c2e83029582ed8f643f1311f
16f60b035bb1e21f03e123e3fae716de
0ef4ff44e6003917510b1f01371ef302
a20da70a0817f2a6fc28bb2708f72d00
2f33cacd1932b4fed818fd0be1b70df0
d9f1de1a0b0d34f2f71f07060b32e3ca
e2dd0417a7320ce132e1090b00ecfcfd
ba46f437f4140b0b0908f2f5cd0ef2d4
0900f8efa721feb5dab3c9f518c80df8
f1f1f0e021162bcff906eff6073c05fd
03ce00de38fa0cac1cf228fbded4f713
17f70fd32b28014a30f1d91e50157f1e
1bc1f613a413fa0ae6c8d4adfbe4d0f8
0a130b1701102f0813ee0d05002bf4fb
f23209060b082e0c24efc0bddad1f912
f7edc42a27470bbf3dc0e7eee2b4d448
25081ed3e4f3d66d010b254f64572fe2
011ce31b02312ae6310dece61823f610
12d422c513e5092eeb161a015121f4e6
1808d8fcc9e0a0ce22f22cabe2d3efeb
0114ef4810dc17b335f003c3e2e2f10f
1cf2dff9eed1dfd5dc060abacea2aac6
01fb0cd71fdde5dbeb0e16eb14f311e9
41011417cd2b24db1ae2edccf5eccbe1
15d9aed7ffa59a23e2dbfe2a2be33140
4520d3d200414bd1f90ee602d703910a
2308c50133dee30feceaeb1bcddfb2e9
3414c11d04cf1c0cc1dfd4349ed8c0d9
f70f1f15d5e942f3cd21ede72b431de1
f30c2cebe405ffe9bf132920fe06f0ea
0c55caf9cf0007b433fdffe22750e70f
edfb08221b103727ff2c290505dc2511
630ff5fa3433f21e06f543de19db0135
b8b709d8e010d6e60d18e4ebe8c5e2fc
0412df0ae022e31eede8320406f4cff3
28cacae1dee71f2a2528bfccf7ce03ed
2d44ece5210009fbddeb2e1a123ab9b4
fce1ee06db03e0e2d519d0130f171410
05e9df2db00ff0040b12eaffea07af2f
fe11e4f517d82f0bdcf9f7f0f71a01f1
f8cbd115ec1affec1923f8c8d3080808
1211dd174cfe1a0508ef1f0cd6e6f924
f5add1bb902adee0afdc180c5b37e7e0
0118b9f1d10140b8b892c0c2030fe524
d30cd94400cfd3e5e22a49e0e2b927bc
15e366fa37e8131a171ed7f0c2bd02d5
e3f9ee5e4b07fb55fd1747458bd948f0
0f2c08f1ede73bf60d10e1eff5f60cff
20e8cbf70421d518dcf1ea110e64d829
230350c6252fed2b4b24ced4b51913f3
13e2efd50b101f04f115e021e1dbf310
070821ec071de20200fbf1deecdd08db
c8f814072af00f02ff183616170ff9f8
d5d6f9351d0ee107edea7f1c15e934e6
fee3ecfef031ede1dd19bafffdd2f2fa
eddcf01d25bf3ac007ff1aadebfbf2c3
eef82204f9fbbdd8f0d3eaf00efafdf3
0531dccdfbfa13b221e5e3fcdcdc1a0b
e9f525e404f7f0800fdef43cdcd22e19
caf2fac24004d7d1d2caf4f401c31ad0
10281c17e931e53aeee437201707fbc8
1dfaffe4edf1e21309e21a071ff4d21a
2c0dfd4ae10436151a1614c5250af95a
3dfa17041e0c23d2f4fd06191adc0800
2619dae021fcfb1f254af5db30af2b0e
f30f16fb2dfd1622fcf0f20706e9c7de
07f6eaf12605ee00dc1ff5fa18f9d630
e611f3fd1ffdf11ced19051805fef6fc
1ffb47f0e2d3ce2404c4081421ed0ae3
1ed83119af13190c2f2d31dc041d18f4
f86008d20de1d7f40928ee020911c7f5
190bc4182815aef8eb01f1110a270ce0
08fec21ad334f1c022ee113607360936
2adec9ce0eee29e80501023a0aff200b
e8e4b918101dfddf39f71f3efbeaf9cc
f1ecd910094516a642d4b2e40fe2f1f1
31d93fe2ddde0733c7fbd9061dce3115
1115220702194a2301f3fcef2c1c1849
28e640c8f3eb283cc5e2fbff2456551f
fe15d0fd06f1f7f8f702ed19f814f809
1811bc332122f7161103380d07fe3dfe
d13a05f603f91ef2e802181bf714ccc2
0913f9ff0b16011c18dc071a4213fd27
fefb0af5f81309af2aedf9dd98e0c5fd
28bc120415ef041aede015e01e250a11
05ef15e52ab701e5d91e151dbe01da4c
eaec03fbf9ea20e8dff432cb0ced10ee
f9cbf11f1b241409f1c9eecbf9c2d20a
f400e1f9e9e0dfe01200e3ccba09d139
fb2ad018ca0eef0efdeaf738ddb31bf0
553bd83257bdc0fed8d9f4039afaa69f
163ae3291d04f451dfdb2615fbc3df03
17051c05da11003210d4d04607fd00e5
d7d209fbe3e20804d911f5f9eae20ae0
2143d31d13310b2848d7272d0dc32a09
20ece70c00eb0230021bf8fbf9dd0fe3
fdcc0a531fce1c4fcb05a4f3fa00e3f5
270c10151ff8e00b06eb10022c1fd5f3
f0dee9e71cf13ed0da41d0011edbdc08
1d0beae249dcdc05e29e0710f1e9c8e2
ceea4e07e6f1dcc4cf21c6caeb1906b2
f5f31afeec0b21f80928e00a12b2120a
d3d51f02d1ff2bf657fcf90e1a291ff9
1829d1d303e9d1f1c7ea1f04181ffbd8
2709e02e4a35f3eb19d9fdece1d93f38
cbe1e918001af51b04191603d9e500e4
fc09ecb1c9dc58f6da22e8b20525ace8
fbcfead2f22a420ce40ef1fe2107db1c
daf1dcefdb211305e40b120926f40fd8
213a39f30f0a0705eee411e909efead1
e8d7efbfc92d080eebf3e4361503d2f9
f8ea1ffdef10fdf80312e9041111f923
18ba300242a0e7e81bfae2dc12e8faec
23e0e7c2c3e21b0fa31312c2100ed4f3
eb1c01022cdef41f3e1831ebfd0c29d0
f3cb20d2f71317f71219aadce63be11e
2d09230613e6aee2fd02cfb5e2f3e3b0
f301b8010603a50e0c14150bf5d5ecdf
2019eeff05dfede90600f1dcd89d4acb
b1cecb1c1bd92227df260de21ae5e7f4
14fed0f0bc1bcf1fd111161e30113840
f412dbfdea00cbc406cad2dde5cfcbf1
fa01ce9beec880eca996c9ecb21630ee
ebe60ce715e4f2e5f4161af32ade182d
f7160ce6131126d91502e82ed1f723e4
f6c628fbfbedc113efed23edd110feef
dff254fb22fffff92af9eb1a23fe3af6
12faf4fc2afafef50826392434ef1218
02fbf6ab3bcdb0d2ed172618dfe53802
1de3eadbfac709eae3e1171305e8312c
e2ed17e724ef0c42032bfbc7002f2fce
0ff616c7e5dddbc1c80cb90208c01402
fb20def22aedd509d1e1f508d621c801
07f90df9f22d0ef10cdf23e6cd2623f7
0aedf930ef6a20b436f821170ef8ee09
d5fa06ead0e9c926f7d9d9d3f30ad206
a1e8ea04a80133e450191319fa180e05
0202d10d0713efc62a081ceef1f6070c
08ebd9fdfd66e0c63da59be61bd72544
181eca09162dbf264af3fd07dc06252b
e824e8292d33f80d250f3816eb15ecfa
e13e22f50f1a26c11302f304d3eab81e
0616e0362817d536e213fb47e64c23ff
ffee083df30fec090d0224fde906fd19
e8d8e835de26fbeaf3e9fdc6d6ccd408
130eedcef221be1d402d0a1208d73222
1b1d540dec3b511a32ee1511e4b4b9f0
eef198f7fbd4df08c7d3db32270c3f01
f6dbef0bd230f7d5c8bdead2d50ff415
0dfd061407011225f414eef1dbf3e105
d6fa04ea08fadeecf32cffdfcbb7d1ff
0896d9d4d0c6d72ff5ebe4f11201d1f2
f719ecd113d5d5f224522ace0414f1e5
d40ccc0c08e71007feddfbd2dfc9e92b
c6e552fa0b14fa22e16418c7f9224d12
d0020a1eecec2f2c154aef06ded7bbec
f719ece241f304f4d9e0d9be25f80f1a
06b21528e5d6e54ed949af52d5a2060a
e915e0e12900e4fd01da21e0feff052c
cd1d3bde131ad3e6ff2af2e818ee203f
30cfde11c60def30d7debb38aefad5ee
2c0b352740cc110efbe4f43be9031519
11c9c302f514d7b6fcb707f8cdd527fa
0001d2b70935e112282b0f1c2d9b1a4f
13141f1509d5dded87f00105050cefd5
2833f24820fab5d9ababeb1dd6cc0bf9
003fde1206f31c1303f3413f15ec17a4
ccd93b1615f52110d71bf012bdff04f5
eac205bdc72b10190229c60ec7dc041d
f1fef601e818e5cd1fdf3af122f5123c
f3fa5d121dc9e9d72f36d8dce9fb1b24
25f101e217f20fde2df0fbfd08afe78b
19ea12e9d329050df424a301f117e74b
1c2327f50c281a03ed017fd82dae0dc7
e1f8cde4d91fdefe02eae6fc1f11181e
17fe32263401e9330d5dcb02f7220537
e6ffe6cbe816fff1dae2341030f6ef8f
fbe015080320da02e30b31131312d41e
16e7c0c593f4f314a5b4c028d10defdf
d0f90dc4fc05da0de2e1105beb1cf22f
14cf20dffa1d3017c3d6db39f9e8b910
ed19fae6e51f6b0de0f5f10a135ff30b
ed03131c4ee9df2ff9c3782ce3f34519
00dc24f25fe4021b5759f4dc051eb5f8
153a14c80f01cea102f54108ece4fff5
d7d9c2e7daf8fcefe0e4051200f00b0b
2a07e801ef37f43d0c14eefb06fdd5e5
33ad15e81c2b06d9f3c124ddb00de7ee
fae816b70120fdbdef01e4f75bc018eb
11fb28ed08c7c6fd1bbd2ee903ff5191
05dbf4dff4000909fb0bf92201e21519
191ecee1c30019e51719f7091c0318fa
3ceb2fea371a29d1fde108e1dc3416a7
dbe106d1f6badceaeee7e7bdf9fe210b
e4f68d4723ff3ac43e070f3207fbe310
eedae1fbd5c312fc53250d1115c4dd0a
05f71b9beccf01ba0ecff1f9b1f912ce
ca2355bfe1ebe2c69defa9fca38df2da
03084a14c2dc0b2547df1faf0a6d06d6
5a382580d0c7f811bc1b2906b9f6eacd
11022401fd1735c71be22d0ee33ce5db
1de9254b1a1a1a135252fb02ecffe86c
fbc04a45f7ec020cf21d36efbbd3c3b9
f33cff0429200ef2f4e5ec1bc603f73f
e80cf60915fbdf1e20021b20ef03f4ee
b6a9040b3c3d1bf625201909c814072b
e0e6e304b5f7d9ece71806f92312f5cf
f5d61824100dfe36f825312e5438f201
eb0ec31ef742f2f01103f0dadc0dfc4e
4c0b042c38f7281cefbbd400e811f02c
eff6b4dab7eab816221fce081def0dc2
0744bcb623cfe625dd1814233a04270a
d70ccbe745e3acf616bde23e0d2c5123
10510ec44b02dae800e41038eb341418
04a715de52c92e11fcecf00149206639
1d3fdc1703cd2bd81fa5c53fda0f003a
fc2adbcbe7cb19d0fe200a10dcbfd403
efdfe8f9f7c1f2350a104bd603ef2df9
e9f502082ff61808d11c170034eb3b06
1c3ff92b134100d306ad34cdd5d4e6f0
10d63918dde61a17bcf8ef0ffb22f200
1d0537fc19dc20e5e824f20e2819dff6
d6ddf9c6b8e22f0ce6fca80ffa08f7e1
dc15e6d20c3f1cf23821f6f20a794356
e73a020a1df3f9fae41dfb05e2f1fd9f
ed0205b6daef3a041b141a0c0ec60ee7
231e21120b13fd0b051522031b11f32e
1fe9ef26d8d51af8a6bbe318a11eb5ce
0324cef32e33f3a173ffe0cf402c2306
e2ff12e6f5f136cc06cee1d4621f2501
20fa09f3c6e4cde7faec1b23ed0fd8e7
f356ae2108cbf7c7a7ac2ec10324bec6
28f7f7f406f828b300112926d21dec21
f5e5adfb2509e4f61006f1e6f0b7f537
dfffff2107e0e0ed0d077f0dfdf82ce7
ec081f1ae3195edcea0e026dd535e00f
07f3e40d02faeb060f170afbe80b05ea
3c1b45fe091d13f92deed1fe2750e708
264beb01e21415c7eeeb49c8f3f03980
1907f4f30ae609ec26c80f1ae10420c1
3024f71b20280cdf2d10dada130c11fd
5c39f3db12efed0306e50f28ed0119f5
00e8fb0c4ef8c753fe3af2f60cedf83f
0df9edeaf9224089ec020fc12410a00b
bc3ff428f0f208faec1d49ed1934312b
ed28d9f70718f5ebfb0b0be800064127
c5dbe311d71b11ffbddc16fee1daafef
0181cfc4bee4cce7ce29e3dac3cf0dcd
befd082f2907335fba23edc90821cd40
1d5dec349cf201d5dae12ee6f2271a28
fcdc3228fa2af90e210f210e032c0e16
f70c160cbdf124080b3904bdf9cae334
25e5eb0c190aec07edca0e07e6130509
0f10fc014e1ef6e8a50e0ff5c7031cef
c8f71b052822dee2fb1b2c1f152f1000
f7ad27250b13280006220f1c1aed1e26
3828ea1224edd33302c60a0beeef1ccf
e3e01040501c3430380f1b370f18e70e
1a3ce20ce11d12290c0313c9f7f8e4e0
f015e6c3e624cabad0d0e2e7c5f61fbe
b2e0253fe7fd4b1f17ea061f520f0725
b0f72153f8141aeb07e724080f64eefa
e3d63210b92df0c436a0e7c9eebbd8f1
d544e1d71524cce2f2d625f1e1f8d9f9
2a12fcf3abdaf70d2c01d207f6d210ff
f12fbe010a1715dded0a07390cde2f09
09f5141a16ebfcff070504da0cfdc81b
5703c3f40114e707fdf4f8fd55344ce6
ecf2020ef8f5f50bdce504df27ece8f8
29322131f8d841e4f4ed2820ebf91403
fc011b0310022af1190ad7fcd4e3dafe
592df3d4e4ee242ed226f83af70ecb03
39c9e87fee40f4d307d2cd14210b190f
292929e40fe327040212f6f1050fe7e4
0ae911f6dc25403110ea0df2170a16fc
12faef1ddf47b1f90bcaedeaccd8bc08
2aff4907efe3e23fe91901cdd83bc29d
cbe311fb1e21fdc61403340c1202f4ef
10efc8af1f25afcb00d70b1823253525
31a205ae9f328bbf18be029ee2b7c89a
00faff09ecf6d80723063af905fc30f3
f716f60112e203f00405060402f1f9c1
0fee0b0bfd35c35400fb040fa204f3df
0a31f4fc0880af10bde01740a2f4babe
cb4cf5ae233211b10dbe0ac6192f3513
01e50ae2ca370df2191a081a000b190a
165cebf3e01dc7bcf29c600c2a15014a
07fd0c1116e81725ce12d131b4d8c8eb
09bdd5fef1c7e5200ec6f4fbbfc0c9d9
f1d913def1be0ea0d545e6cd2413e6dc
dfe501edfe0bc5fffcd7af13eaf3c101
1de0eef1cc0bf4083011d3071e19ff07
3c1900fc18efe51ae4160c0c12fb09dd
1014072dfbfae2e50c131f1a35022d1b
02081215e019d014e9bf1adf27f3d862
dff82904c902110eee1de9e2141ce5f9
ee27c0ef0f3bfecf52b619c923191159
f8fc150001d5be38f2e023d1ccde0b10
18f4efb896e4badbd4f3ff1f14e2bf20
1607c7a08e1045b0befde09f0208aee8
f118f31bfbe801afd5e62c3ecaee133b
04211c0ae5fbf9f626fcd008f4c5200c
d7ebeb3ce20c4f59dc0c0d3fd61ce47f
f3ef31e3e2ea36150dfee8cbdae4d700
1b0ce8c6b71ee5bee8bdf0fc321ac411
0b04082b3706e70901fadce4e80127f6
07e901e1dc1100fee3f7ccbde804dee7
291ede070606dbe3fbc91afd1dde30cb
eac7e9092ee62831de1d1807f7fee114
a6e5093b45ee1f1be82718352e19ff21
c90ce4f5de0b01fa19e10de8ed02fb22
faa106ef4f01df09080733f8f7f6ef08
2246ce16e7e5ebe2c4070e59f0211701
fff9f6e9e81911da0d1aa9d8c1fdeff6
7cd3dad739e536d6e2fc2feff4ac2200
ddf903a15bd4ded2dae0eb09cf9000d9
07e32135f9343d1107ecf03d4ef9ed19
e508e5eee3c4dc1714e3f8e9ff3d04dd
f3b3191ec4ec3e3eff190ce02dd8c22d
f02bfcb110fcd5e6cbbc1607d526eac0
0be78b133e0ceee00a11e92e08ee01e3
aff8d8dbf609f135c0dc0df3e00a0fb2
f547efcb0a08fcdbd1fff919d5ecf0d1
43f8dc1a38260bfadbf840011216ddf0
fafe4ce1fce09d0f37c923d0df1bdf11
0dd05e26d2d9271a21ffd7f5060dfb25
01fc1914efe6f9d21c18ee1521e60626
2ae6cb170fff0f120407f503f6161442
bf01023ef9384c3e4658f71c32edd05a
f1eb14dd21e5bed5e2d7f3dcbebe0def
ecfaa940db13d61763f9dfeaf7eae908
13f5bdd5e316bcd0461fd92c24c72f2e
03f9081bd903b22fe71671f01ae2dbbf
e6ea16d9df032e10eedb06fc14dd1f1b
2ee4cae5e1fde52abdf30f1755297fff
f3f7ee0106fc0fcbfbd7cfe9dffd1641
edf6bb25f10a02e7f412fad105d5ece8
fcfe2dfe0c0628d6e7efe2cafafa0af6
3204d4e1ef31f1d720eb02f9baeec0cf
170820e61ddf43e9e70df8d3e0c8bbe7
f8e3fc292bded5ed02f8e1380a330935
4bf6fe1b069b2b31f01b3d2a33391005
1ecee8ccd0d7021bf6f910fd2d1817ef
201cf843eef608fad11a25b1f3c4b008
133220f103d6e161052f28f223fb1fc3
f9030116f8d32adf02caf005d5f3f1a1
f003e5201d9ff501f7dfe9308ddacfb6
eaef1effecfffdd8d074f719f6e020fa
01d02138323318303830f8db11dd2327
d9fff4dde22036ea1ffbe90c330bf0f5
ed0a510ad7ecd44cf32eec160ffe17ee
d9d0210bc0062c23f232e7120c222e17
cfb22f0a04cd3e44e90ede1dcc0205bc
081805302c08db1bdc2f00ebfa0dc671
10bbfefbc1c30403ed1edc00dfdbafc9
1102170b2ff7def709fbdf0df7f8b91e
020914f6475544e304102fb95c212835
20ee0ce50f072112c4141420d6ea09e6
e6f818e6deef2af0faf8d4e9e502f804
1ae224e5fbfb0311f91509012609edf7
220fd0e11de6140925cf2be7ccf0e00c
fbee100cf24bf708000d1a1128f71603
3227e6a9bffa3388ee01a79503edfed7
4413f8fe2b0de3e437ed10f1f3031628
01f820e4e0f9fcf83f14ff190bed2b05
0a41a61b0ef90fef4aa206f0e6052acf
18c07d02f41a341d3732060a12e8e2e2
11e1020a4f07f31b2118f10407d11ccc
11a40dec0aa59dae2023dec734d5bcd6
eae4240d19c6bcf3ff2fc3df0de5dd1f
574317dec4380df924cc1acf2c03dcb7
e7ce1ac9061bd7f7e0248bda20f5dd2c
cfde242d17c982fc4f1f1e4af300041d
29fcbd2305efeedaee0f2decfccd01e7
373100ec1106e3d7341b0cfe05ba14e8
16cbc720eac2f31de80efccafbffff1c
2b02c6d2ceeb0798e3ad0514fa03f7f2
bd100f0507be072510241402bdd8130d
f707ebda18fae6afced1fa07ded419f4
250f23112c003decfb04f40df630f6f7
2b292a3225f032cf2e272707e8f722c2
ddc80b1af420040e151bf3f40222d32a
630d4622f9bd19f0c02009e2e912f9f0
410c05f50f112028f2f5f20624feebed
5d16e1f41815dda4c3c621e49006f0cf
dd1bf7d0d1edabedc820f10122e1fadb
fe32021233d7f7aea6d5130f961c0ae1
15dceae6f1fad50c0720000137dbf5e0
00de0b21020cd00d26280e0ee2edff32
13e524df200cffcae0c42101cc34008e
33fdee131f42343821040b3d2226e103
27d6c3dcdf0003f90fd4fb13e4dfe012
c104bd24221655d221d50c1205e65139
1feed82600011b0c200e0208f1240810
0f55d500d218dafcf1b9c500fbe5bb08
f43f140eef0a41e50920fbfbe915cfec
e830c20f2a040a0c0a2e2e02eb40e5ee
10200aa920c3140e060005ff23fef2ed
d33e0a405c2239f50dfcee22e84aea34
faff3240f3f23a0ac527f6f2e301d72b
dbe0eb62e2fff1fb0bcfeebfc4b8f515
0ccef612be0f0c12f7f0e003128f1a33
d21d2bfe0c2f1ba01cb4f510d9a5df0f
e705dbfee62bcf15e31b24030516012d
0ceafffef4cefc1ad52ae4a221e33bc0
eee0d62aee34e08016ebef0dd8bfcf1d
e7151bebe5ebf1dcc022ff01ead8e0fa
fed3f4d1d7dae506d8caefe739f3d6c3
f70ae207e2f0dcf1114e15c4ebf8fecd
15f31bf415e42428c8ebecf7d445f6f5
f3d900fc1ca900d7d4d5e39c0741bab4
abec32e3de2c3cfb3453d5041d084031
c5fed6ee270ce3e3fceee314e0f9d309
0927eeefdaf8eb00cee8aad605142abe
ede2eaf60bd00eba00edfbd010d0eb33
a62e49171b88ecd8b408ed2a1e2ff5e1
df0f30d9be3a22d436201b2434296151
a1fc271ed1021d1b3341eee61f30382d
06d8d1f0920724aeebc80aecf3f4e7ef
17f2f51f26fca707c9d51829acb410bb
ee1401f015d8e4d104da620c0f09ebcd
4b09ea030801e24dbed8cb1ee3b9f3b6
0413a60afafb0df207e5e409fbe02e14
e3bc2de21f04206313f9e4022a09e111
ec00e9dfff481eef3bedecdd05143334
02eebdbf161ce5e12fddfff9e21c2634
12fac709d9ebbfec010d07c4bff4f508
19ff0a2531d60e244815fc41ebf93315
0e27cce9e50fe4d5fdeeb9c2e8cd0405
2adb03020e03062edef25c0a1efb0fe6
ea1726efc53927e2bef6cb02fb250cd4
01e2322255a9c641586e26e9e9acdee9
3058f30ffbf6e4f400e6285506ef3d19
1629004312d2252a2833f838ef02faae
18debddec01403c2fbf0b7ced1c7fbd9
bbd82ddff227dad60518f8c50c03cfe0
1817dd01fc0b6744f1faf6f5c2f5e718
0cf21be6e302072bf0ee00fc2c16f1e5
1707f82bdbef0df0cae8441127071eb3
3d0515f835c0e7f7375bf30304f95a1d
f72de0ef0d07ecf21915200904203a29
07e9f613f4f3fb1e0503fbe7d5f920d7
da30e0c5e40eecf511c0d91ebb0bcfd1
17f2fafd083e213c252349201232e626
d9c30cf528ffd123d601c331fddc1404
c6572df6d8d92d1f28c832edc2f10618
f0e603e8ffeafbd8eef9eaffe8e716e8
f14923f7e823c539cd9edfe8fb01dcc4
faeb2e6dd2f527fd3c311d0c56f2f917
48f2130648200f6424f221dc073ce635
fa2cceff550d2bf4f0d7eb49f8fabef9
ead9d1cdcea9d0c9f3bcc8f2c9e509f7
03c642c2dcd50bc103f3fff2e2ef19e9
1ffb571df1dc13dee1f10c30d7de1bba
a3db3518a40934e53810081adb5279b7
32ec0bec1828f14adc07e939392e02f7
ddf2111af90937fd482717fe4334fc15
fae80a4dbff834d92d06f1fae9f1fafb
02e7bcffda20fce5c6112997a1f7d4a9
2c2f3ab424004b4bed062dfe1f3b0310
d21301df24eef6f30d2be9f8d507dbd0
fbd0180e49ebe09526f0d7ddf4c7ad1c
fdf105edf005e4192208fc13edf924f3
34b8242be1f2f11aeecfc9f511d9f6de
1ddbfecf00c91238c6345a220510f0f9
19051552dcb12042161cd1ce37f0f0c5
e70aeacbe256e5ebecf9d5d1efaef0dd
ebd5b3f9f4d0bfc609beaed817cfd42d
4cdabbe032b0e1f2fa09c5495d371f3c
3d05d6b513fa029919fae534f423e40c
010535e550ca0bfc0d3a3405e20de719
16253343ea172b0af61a0308db22c707
1230fdbe05dff2fce13c0c10e7f6f317
faeaf0b11de8d106ec3129e0210bfd07
e6fd14eef3ea00d7eb16d60edc1d23f2
4cff0b461303ebff0e021b3efac5bee4
d70a27fac1fa1ef5d9f814e2f318c615
2736ddea1715d7221c03330afce0f612
040ae5d8310f099318cbbfec3c0a5455
f9ea06f723082fbfe50bdcfcdebfdd19
0a1bf4073904f3cf2fdc07f12f1f1805
07d3f1e717091cd2210cdeedfebd1104
e3ffe5e0f32f2cff4cfb38dc1b214eef
e5f528ecf9ee3c15103e110928204abd
47f8c41d21f3d4eeebc6f306c18fbeed
d4ea17fa0ae50b390913ce0f2017411a
e52e18ede4261d3c197f141a451743f2
f31bd30ee123dc230cf6eecb12110316
e9325f5a2194e949d337ef543ce705ec
27e5c5fd26ccbc04bfc01cdca2baa7ae
fc09f61ff7f3e2190f1566fef0fe1ce6
18e1f1c6c72b342cfae1d73114becad9
ebf6080d281400f90038eccac20d1321
011f0d02fc06000904df03221530f744
d426d90ed1eaf7f0dbd26042e0562d67
f2e5e407e3e216e21c01e4cbd6fe0e0b
f41ff5e9f3da0cc6e023f32d15da27dd
0e14e8f7f0f0dde6f7fd2401fa0c1a04
081dcb394ddade1c35ed010f08ca6209
0e1a0cfa32050ceb33e301bedae3f9dd
0238e9da862106c8b7dfe1180a16d420
20080d4d41fac006d014283c16f2f5fe
08df1c6345df086c7cf2f33ef0fe0ae8
04c8f5e3dbfc10fcdee310ff02e7ee0e
07c0213b08fde9eddd20260f3423e8e0
c2f7e2ebce2314d8d5bddf975823050d
f9131902eef7e7e805eb02e8f33ad803
1e03e8da12d50dc9f6e2190de8bc27e1
1f3dbce0f314f34f0118f5f01521ce0c
c5c4ecead6cd10050c28cf402e0023ff
88ee1830d7f227cf5744f318400f1c09
d80fe7e6b9c0d6d727dfee33c2131f09
0cf3251df01f5744f439e30b2e0ade31
ce172002180b1fe6291424dcff24c7d3
ec19072bd4130e2a274900ff1b340f40
280608f3f6490d10dceb55fdfb10c3f5
8af6fb02eae9ceae2ce3f7d8edd80100
2ce9ee2712fc2c1514f4490e21e3fde4
69c848fd401a0417f11b45c92643b537
031eede1fd22efd3f5ede3c508dccc3e
5bf3fde4339ccadc03d8fad2b8d169d4
b3080be2dad6b1cff5ebff16adf14dd3
0b00111804fd0609bcf322e3d5eb04db
f3d2caeb47b9fdd8ef17e50ff81f2107
fdd12dd4c6e3fd1de1001df816cde4cb
f62120f2ebed2ff410113b29fe1638f6
04e908d23b0de4ed026222de04d8ebf8
dcea22c60c141d35db0b3803070c06ce
54070af80422e001f0141d1d5b2604c3
df2fe8151e150ce219fe0ac1e8dad0c2
342d7115f3f3f62009ff06c501eeeedb
1313351c1cf424ddefc6d8ecee0dfe0f
fe17baf216079be60914282504e75de9
e90f160e191bfd23283c3a110602ea02
03210f2553f43428eb15ef4540492139
1429eef7012df9e9fefefbc326dba4d3
15e0e743300600f350aac62b022b1f29
e5b6c0ece32fc7b72de917cbe0d5f9ee
c6e90fc1e41a3dcee80f0acad11fe2cd
f5e1093505f6c13c3110e409bdb0e0ee
083713cb0e171624fd1112d3301b191b
05ff03f6eaec094ded1feb23082539bf
09fff22d24afed0c101e393e302d2b11
ac1e31fd22df0105ec3bfd1ce01315e9
ed1811f5220408271dd513ccebfae4f6
46f6bee8fd05df36e7fdeafcde06bbad
eacd0beacdeb2a1df617eef1e1d3fffb
d5c5aed3ea4028053bf2e7ce0728152a
e0081ced03080adcf0e61ff3001bcc1b
f4eb210b0afeebf1d11903fb1e161fd6
f01807d9f0daedeaf4bff5d0cf12d903
cb03eeecae0a68dfd905d0e5255307e6
2ddb1e223402d9eeedf20e01c0ded02e
45cfd50c1d13fbf501a814152c1ad3fb
2103e529111714e239dd2bedd6e714c2
2e1ef3d7e22021a70193b4a1fdd1e0f1
0409f205e9d70811ef27f9e6fad50201
39d822f13e0101221ff4f104f7d0f6d3
fdaf0cfb5d350c3e0331081d16ff15eb
09db212a2e1bfe282104f3e00bd4ff23
f6fe090705f621331814f9dde7f50315
fbc2f9fef049f3f2dfff13f7cbeae1da
f20c04d41513d5dc3f05d500d7d223fe
0346a40bda0bd3d7c8ca3911f7593e4c
f6e8d71732eafbee0c3d06f3e710e314
d60d14142000df2f180f16f5fedfef0c
f1ededdfc7344008d3f4d3ecf908f216
fce718751cb5e2f0142414efdde73bf2
ecf1e502f8fcee0fef1bdffe1c0ce012
07caf1ce002001d4d7c5ffed06f2f5f6
f21c1e04ec2efc62eacd27fde52fb0e2
f430c5051fe0b0c9a92cf235b8c7fb5a
33f00d1be05ae63306d5eed904e0b029
23db22fcfec1fbdf212928d7053e2317
2decf40dcf16ceeb07f1dfdc17edf513
40030ef2fcefe71716fbef09f224fff2
2bdbd90e4505064b1b3b22ff070aeeef
1204e2f0dccb0ed91415eb101402dfe2
2511fe0b12f207fff2fadeee13dadce2
80fa073ef10442fb324dea2a3413e31e
0a3409f4e3f002384119ef18f4fcfcde
080df40ac0e7fe40f3c0e8d9f61cebe0
b1e315deb5c7f91a3b00a10fedf810e8
f838271e051e186601e223f7fb42a207
ed36ff13f4d8fb0f0c0aa60307dc0a0d
1ee7f70cf9d5e0f30309c54609eeed5b
203e2ae5cced470abbfb08eaeee6b6a9
af38b6d5d346efbffbe5cbeeeb03dfd7
270c341bebf40c19ea1d3df8060212db
ccfffa1b27e11c22fb23af0c1ef2f35e
f8e7b92000d8130fe500defd2c613655
23f9020f170c20deeed8fb0032fb150a
42e9261f1ade12e40e0123d4edd7e89b
fef5d4f3dcf6eef8f820f1d7eb0ede39
b813eafcf5282bf42b12ededefffb7dd
fd1d13d725eaf2060e4230e7fabbf1d9
2ae31b3fefcdce0eebe91f0945f71bfb
22f70cd62909f5dd05d0e4e6fd19f605
c003ebedc30fe8da32def3c5d5df0fd9
15c66430ded51af9ea0720a2cbd6d8eb
01d0cd20b8fdc9eafcec0e05f6fd30f5
fa09f9d1010924f326e5f7ebf603e626
eecf0d0616d70dda0d56e80104befae4
db1513ee1411ecc313e4dad9dc140b10
19d4f50e090e07d9fdfbc9e31111f400
3cf4ca1e061e02ec1adad703da9e091d
d11e17e80d3c34e33c1624323c20fefc
c8fef5f0f10c13b50befecb70718eb39
89cc12f0c9bf48e51a4ee1b6f3f609f0
020c7f35fcd31a42fa769b0e3b00def9
fa0fd1f8092b17e94b09d4b93d3372fa
f105240122e50218eefffd0e01dfda03
b3e50afac2db1b31e8dcece4f423f0d6
e3f7efda09d30deebf09fb060f0620fe
b324d0bd1c2b23815ae67dba413b1b2a
cc3e1dbfd90137d8eef709e13855fc01
0ce0051610332b122fdf0002eef1552b
e9181dec1b1af1191efb1b0b06f6d834
fe1d07e3e22d02d93601d3b7dfca1204
23050dfce6faf4f7f803f902e43b3e0e
164debf3ead718f6e4d3fc28101c30e4
e03fd2d2c31c2cc081bbf1120a4fff1c
0522f8ff05f7140b2b152507edee4012
ef18f619ddfef1f7cbf911f2baf81f1c
e9dd03294edbe4d418020ccfaeda34be
7afce9fa32230b293e2fc1aee00622c6
f529c335090df7f70df4322e171761cf
21d01ce716e12d030e17a4ab120dd8ff
f3d1d11be235f6e80d07ebd6e3c73e28
1c00f10deebddc02e8cd4cf6e0ed18c3
061adbff27cb160b12fbfc4aa1ed2435
1404ff0d31b9bd0a1618e4fdf30804fb
1e30c206b418d7bfc0e3e8120008e810
c6ac1fee0a0018000c182a1fd323f92b
2835d3013f14e53afe15f70b12521416
161bf8eef0d7f5ff24d8fdd4dae6fa19
e21c0135ed252cfd142bf60213260123
8df228fceff100940bf8f11cf9d52f06
e72c5e4dfc1c28271128ca2e46efef3c
e720fa06132123191609de0d1315dc0a
32f9ec0bce391341e2e2f1e6d956e0fc
7430dcc624c1a829d5aefef5f54e09b0
cee42b5bcf31402a67501a092532d70b
14e2ecc002c1e4f8e4f3c514d8fe00d6
27fa080f13112e34eff6fbfadce3d2a4
ccf10b0eee00f40d2efd4009db2803cd
37010a4ec424343f3a3afefd5c1fc658
0ce23502262d2b11e0f0f708f4db0a19
bae3f0ff2f2132fa2052001d54ff17e1
2dcb0414ec0013ed2423de110ef5fb27
f14002e0fccf39d80517fa08dce5cd06
d81403fe25e90902dcea24d5e5ddf1c5
e923ddea12ebfaf1262d0616e2ebefcd
da08ebf3f428dfeaf63f3e0aeeff2aea
db4833fc27fb0f4adb0c1f38db7713be
411013d8ccc007eeb0fb26ec0dcfe2c2
030654f6b6da14e4c5f61df5d880f6de
d61ff57105381cbc1cf0cdf514fabbf6
05153d0efd1213250d1c2602e1cdb5c2
fb14ea06044b17e911e2f00b070bef03
10fa132d99f9b73d1a031a02d6bed8cd
fad412d41617f7ffee22efdaddedafe1
272041e8efd32151c43936f940f52de5
15e353f9dc130344f00608f00032dcbf
c5121fccd7d1eaeaf135fef7dd970f0b
13f4f426faebe10f0fcefaf40f1a410e
86285f7a05cb70928725ce6487769d15
06fccb0406a01467058f3dce05b9ccf0
894acc4506f0b2f805822bd70596bf3d
06f7764b099fbe5309a7b994098e1e16
0687c42505aa028108d7d0e609c33c98
86207cc686724a2b06aee5ec08de0f3d
069234c70693cceb069d5cfb865217e7
8836dea8058065cb078a5ba70581958d
07d689890799183a874274be06c0e891
07fb9468089e6877895dd4e90785866a
8a781edc8779ad1109d853450cc4ef57
882a648f08bf4c4106bde20f0590ab1d
069a192f856280f38821928809b82d68
06d502fa05a6b0eb87568df88567e2ad
07d86a2d059eacd105992b33877e852e
883b61d606ff293705a7bc5807b1f41a
952bbea1922d33e2d1f989f0abc273e6
eeff9233847defa1ff0b87c189e61146
92d178b39e2635dca901dbc6bf158d71
997ae301817d9c24f90f117095979650
95173b37a1df4328ba812f24de8f4684
98e5f8f6d78e9f9688f16ec28b3494e2
a0634497919e8d108cad9e3eae5d70a1
b2a885cbf75f8369b442117bce6561cc
d25582359c2f4d8095b6b96e93f65e64
c29a88f1971acb77f318af0d9b32c91f
a8375b3da80e8852a9e8b32a99a9ea26
a3e2a66c9b863317a19ee121ee09e385
8c5e5fbdb52d1f4dcf1c5ef9a2067929
fe5394e8e62a38a5e5a8261bdd425853
8e4bc4209f89f600e70592e19db8931f
d817b3a886ad81198eba714bafaba9d8
00000009000000090000000900000009
0000000a000000090000000a00000009
00000009000000090000000900000009
00000009000000090000000a00000009
00000009000000090000000900000009
00000009000000090000000900000009
00000009000000090000000900000009
000000090000000a0000000900000009
00000009000000090000000900000009
00000009000000090000000900000009
00000009000000090000000900000009
0000000900000009000000090000000a
00000009000000090000000900000009
0000000a0000000a000000090000000a
00000009000000090000000a00000009
00000009000000090000000900000009
