04e1f7f61a05dae01d09ea02f9eaca16
fc121902dc1606fb00ccfacfb8d81639
f0f3ed01e7d30f0dece7c90c0add0a03
11a5ffeff95911d428e729bf2d06f90d
1214f8eadbf102da0c1cde02110ff509
eb21eeea1ac9054c03e4bd22edc738e8
31e926383cf7f0cceddaf3c606f3e4ac
1afe1947caf41a2fc61aa6d311c6f3df
b6fc1dd9f9f3e7d9f4dbf7a829e1e116
2147173eede92fa62d12e805e442e312
da0115d1e22112e00fdcebdc0528e61f
222f1744fb07e3d219c92cde070c0efb
c926a7c4c74f0fd9de07e3a9b402fe12
fffd1ff308f7dcfccd1803f021f62103
11182aa2c7b3191113e2202732fc12ef
0236eee1d0fb03e527f718f905cfd607
c3051eda0df60c1c110407dffafe05ec
fab539c82616e012f7e0e3f1f0c70ddb
13f52c21f0fdfbbf00d1c400bdf1e8fc
25cd8bdf07ed3a0f0b08ef0f0711c4e0
fb103ef2f6ef17e02914000000ed0d1b
0bfd4e28e214055010f2f9eb9de61ff9
17f61df508d72f0e042aeae9cbadc4f2
34423103f3001a093e272326edf12004
14fc0ff702cddbd1f30fcce518f8f3f3
14e22c024fcefdfd0b271ad6fbb6cb0f
edc600a7b61ae8f308e609e81f09d51f
2ffb450529f7443e290215db02d4f4ff
fa1211e63df08e412903d8b658040eaa
01071d0df8141b121d0805edf3dc011c
54d7fc03ce1bd719182bf00dda0bf2e9
1d42fedc1be400090048f3ee1729f4d7
352119ebdc250401f4d7dc11bcf522f1
e762f2fcf3c52be1f30503ed2f2df3da
251fc6e8b6f5f20edc030920fef7f20e
29e71a17f2ff0df9e33e0308b12cf32e
2d1f0815d1080f0cf501120deb2b1a07
c90df4f6e300122504ef28065306b4a1
d4c319c4dfe1e0fbf60a030dd913ec3c
9333fa32241bd830ebf4dc0a48330dc8
07c9150bc4d4f4320a028018d017ee53
1a12f413d2fcde150fea312eb6f10213
2b272d13f81d08cc090013c4d5f825f0
2bbee807ca4e52edef1f0604f32d02e2
1a113707edf617142a1ccb09e7cebe2f
d2e3fddefa1615122302e9fd122711e1
c16ef5e840311ae2f9c6d5072704e414
62eaf4109120d555c2a9f0350d14f8dd
194eca3ffdf1ff0cb8ddda06c3dffb2d
30faf6e709f5e2e904f8f123d80dcc12
01f4faf313f2f4d4239ef40dceffb7fa
1b151cd4cb4d03ff13d404e6efca19fc
18ec01290106f31ae914101402d0fc1d
33e6cbdb59b3df0ff7d829e9eb0c0a04
ed2f09d50ff1e9bcfbf0e9fb09e9e4f7
fe17131e15ed393dfb1023fe2d0c0f30
e8400001021818fac806efd9cbffee9f
cd2fe19314ebfdbf11022ff62bf528fd
3cfb01f0fc13e4d8d508c0f60ce40c0f
34c7bd0ed10b1afcb236300eefdf0d2c
644bf93a1c1600d3a7bec8f9d80c11be
1af6ea09f9d4fc02f5c4151a0310ea04
18dcf3fa06ecf703ff05d808dff92048
fc7bef3605fa33f7d413eacc1dded510
dfbc0b03e83efdf8f4fa7fd8420cee14
f60f06c8ecc1f3eac63fc804e4c0e6d9
382bd726d1f016e1f5ebfe4bfbfcbdd8
2dfad01605ed25ece41febd8f50c00fb
f0d7c523ff2301dea4dfdd32b3d0eb12
d1fe14f1151309fcedbc18d611292718
f6191ce3de012cdfbdf01af62906c2dc
060f27c6cd39def8e03d53dbe94a270d
01d6d21b0e00e1dcc7e6e0fbee1409f8
3f180318090e181706172230e235c4ef
0612c7d009ee180f07e01a1edafaf1f7
42d3f205fb1f1ec5070141f831f414bf
163f040ed6b73adad13b21e6e8e416f0
13dc43ee044845f34b0b0cc7fafd3d1e
d243d11cbb0ceb061aff1b112deabf37
025dcc0ad72aff99e62114f5ec1bf50c
03cb100cccc00f16e301d8fcd338ee58
f0fce1e41ff40cf0eb0b01f4f4dfca05
dbfedefe3aee163503efc6f0f6d4e90a
d033ade7eb16e8fc0b04fef50ff0f0ee
cd3600f0f9f50306d5fef2dd19fe0ef6
0f2e081419191e101128191b0b0304d1
0c07bae9f2b90f010d0c01f52a11e2e8
0cd8caed1d09c540270317f0f525f500
f75cebede9f2fb0de60ef01c3702f50c
2d36fbf9360bf6e8e9ff4b0c4837f5f6
d82c0ef5fd2ffb0fbac6e6fbfa0cb900
ff112ceae4f90a201b14f6ee34ef0a06
0e1ae9f2260cf0f2abf3fedefbfd072f
38023def1d00103d51473a19f5fdf62d
bf2911dd32d2d907bfeee8e7fe1cc62d
d419ead41e17e8caf004d00643f5d7e6
06ebf6dfeb14231208571345bbde0145
ed1a0121cfefe4ffcaebf0f7ef201af3
492619fbf6d0d302272009e1f1d7f257
d42420f7d8f4d00fede2faec020d1cf4
cdef00d711dee72de50be038e50dd7c6
dacc21210222f9ee0118fd011e3af315
16ffbc0fedf91afddef91cfbd415211a
3416f6d8f216d622442909e3ffd4df52
fac332eee8fceaf8d92f1be432e22027
c137ab35001fbd1cac8df5e61d3818cd
2d2145fde21ec7caf81a2b110f011ae0
54ce270bbc45cd1af9ec3bf8b7092efb
35b8dff3e1dddfd4c0db1f39fbdb0e0e
26490bfee0eeeff3d304afeef4507f8e
66e037050716fe382832ecc4f3f1d32a
41f6fbdafc4bf53afdf823f99cde0051
d953e60229463204a743e7c3f80a2cb6
092bef4e0ff30efee6c4ebf102fee035
0ec3f9f72be2addc12ef0f032312bdca
0d2751e40de4224502c7fb06ede81c0f
05faf6eee8daf1f5fb9205fcac08f2dd
0444f40d1816fc1fe3311ccff41d1412
c62503170c2ef6f1eb0e2a0835c817bb
e620c7c011f31c0ee71901cc5deb28aa
36f781f4e9fed00be4ed3ae3dc043df4
3535e23cc7150aea37c1161012eefffe
2c0bcb063decb4ddbcf3afeb24ca001d
4616baf217fb850911350dd1400b0533
fbe9d6b40ff0021edd0e162b23d504d5
3bca22fb4c0cd5dfef2225df3911f52f
1124ee02e5ffd807db14e1082a1631e3
3125f30ed3d738dfdf02cd251eef12eb
fd10fa04dcfa02ecf9f8ff02f0df1e1a
1fe6fd40e6fa2004b83c36fee8ffcd42
57f4c80103d7e6c4e5e1d22447b71e08
161cff03080700adf9e0c4cbfeef11fc
22ee071204050312092e26ef0a0b02b3
04fbeea72aecdd30e602e9ffeef9300d
d81ee612eaccf9fcdfd1feef15cbfce8
27fd281e46e31ef9020701242731f526
eb15070aeaf93f26f50a090b7ffbe11a
27b40d0c1aebec2c3ef2e544d9cd0ada
0df622ebefda10cefaf8d1e40f4dbbb8
181ae41700d8da17c00ff21bd6ebeb0b
f4ecebd62809ecedf1f2f8d2eee5f117
f52b06e816e5d7f1d5250904ffeae72e
d60beee9bc332debcb2b029007f9df17
1048e4e9a90105e7e322f415bedd1711
f8f01ae3080206fb0e100212eee2070c
d56f203202c9decccf30db02ef2721ee
1b1c44f2e9281bace92d0cd3d70d07f5
d4cd03f6192cfce9f5c6ddd4f6cbc7bc
f6e5a21cb21403c103f4122ece3718fa
fb222bfdecf005fc4d19ebcfb8f91ede
e31448f0da05e7f7f702d8def8f8f20f
0cdd00e0ffeeef0beae42429eaf60d40
10e368e8f02f17300a281ebbb903f746
f4f8c41ac61d0d1007d2f5dbc2f316f5
24a1efe104201fd71e110bf8f1e7ced1
f0fbd5fb3a25e9fbe5e213320e0615ef
d803bdd83bf1f611d707fbdd060019ef
fe1cf3ce58ed02fd02fc0df37febe2c9
0deedae9fbf9f8c8131c004114edd3e1
f6f02fdcfcead1fb0003f8d22d01d2f9
4bfd05f4e3e81b1c071bf510eff10f1f
24dc3b3715e4e6fcd96308f91af5db42
ca79193ce6febad0d30109e53b0414c4
3a3136d2f611f7e2220ef6d8b1fd79e1
c1e1d2f8ef071bf3a5c422e0020fe020
beea1d0c01f025f903d8100b344816bd
571b24d7e6dfe60ee706cdd8011f17bb
400adbddce06f2f6f9ea470ac7e2391e
3a7217e9ebb527f7c007f0fb2df528af
f119c0ebb9f8d71c24a2f60aec0e1198
36f4ed14f0d515cc0d290ef5d52d44e6
00f0c207f7d3dfffb1d140f225e8f2e6
f7c3eaf815fde9f4fe12e62a20dbf406
0fff27f6d7181bfa1e14fc091cec0417
3e112b06fb0814f92cf5b7fcfb0edbc4
ffeb0d24f0fcd84c29200e0edff70206
0c00dae908f60bcce5fbf3ea0f05c3f8
0f07bd10e0f3d14721eb17e6de0330a4
1df83c4b3ece11fdd94a30f109be1534
6b0c251946f2b0b03fa9ae36e6ccfe17
d8ebe212f3f8230201d210f2e6cb3ddf
f221e3f5d5f62d08e8e31608f2e7e4f6
30c9e8fee9e9eaf709fed5f035f10114
dc1807e2b702e6e4fb1e1b4de8defffb
1cf7df2d6f0abb1ecb17dc171319194f
ff99f8a11abeef15f90102101310da39
0ae1ded0f7deb2c616e5471e03a1e414
f1d1fe15e40803f94deffa0a0a040a10
1a0e0beed928e90ef0d5fd04b70ffe15
211d1600eee0152fe9b6fd11d116390c
6fda09d910bf1129e9bde9fe1db91df4
f70ec8df010926e1e5d7012af2fbc2b9
1027fb12ef1f0015f5f42615edce5414
ddf6dafff7b2e01cecded9d4e6b9fff5
35f7153ac5e8e9dd00d012f9bcff0ef9
e400e005d8dcd500f44bec3018cfed0b
08e60ae52a0513e7b80a14f81ae30705
edcde0e4ecdd0e0b1df6e51402ebe82b
fd2ffbeae8dacbf2ed07c91a07d5eef5
e0180535ead9efd145fffb41392ecd21
2354ece7b8411cc3d819eddfda0f3e28
edcf11f52efe1eed22fed9e4f6cc01b4
1142f3c4de1eecacc3e717a91c16e804
d1310ef8000a0dd2d0e1cbb5500ef8f9
f0f707cde5a1e625ee1ebb02d1dc2b05
08feeb0833bce4d7e702d727f9cecec1
f7f220fb031925ccd3f50d1502e4f104
0addeaf43fd1a2fa162edf00f3ea13fb
ea0519bdfb12f23605ddd6dbecff471b
e2203ecbd1f3d9cbd3ff97d9112e2e15
03fee6e03e1eba112fd6fc230020ceda
f8fee9edfc2bff01eefdd8e800ee0b14
e4f9073fd5cee6f109ebf4fcf50604e5
0d481edafefaec010916ebdcf5170c08
fee6cceafb091be9db1ce50601f00a26
f6d844da4700f1ffeff8fff92d05f218
11fc10b3f003dd3753f3055a4e03dcfd
2dedfdff21fd060bfcf1f7bed6fd0b09
f5a6c9231cc60802f4d7ebe6fcf5bc05
37b62bec1717ffd115c8f11afb13daff
11f93e02ca24e9f0e92ab1f6f3d641ff
d6fefd143f1ceff5e4df0ad2fae917d7
efd701fddce8faeddfeb0af70bf6f5fe
ecd7b60bc20d010c0eedfcf5dce3eb16
40fa2ecbf1003be1342038fe09fa2716
eacad410e8e0ad2aaa26d34d28e6d4fa
49f7f7e5fc0ad013100e2b06eb1e23fd
dfd407f5ebf1fe08f8c510173cf3cac5
dd121fd6ece900df252eeefaf7010f34
08ecf70ed7fef412ecc10c001d0e13ef
1616e2f01fcef83bfcbec6e4d9edfc1b
43ecea210229cd4cf0e20d0ed61904db
1ceeea0c1ffcf51f15e6fe0ff02415d0
1a12e8efb6c6f0d817fcd712e3f735ea
33d124e42feafc2d222b0805d10b202c
47030722fb0114181cf9ce039219ed3d
e9d3bf3311dbf612cbe80fce2703d4cb
34fb130cc3e40ae1de271203e9f817ec
1d0701f1f0130be30319e6f6fa02142c
1d1d892c86f20811f89c2cfeef05f3fb
1326d0dbd9e7bbdd0bc1ef00e305d00b
046d08402e154d04eb0eecffe52ca50d
0ff202d5f8e8c1952b040622f7c89008
18c5dcf727d407f53218050aeb1bf0d7
25d203cb10fbb7fad2d7f307b70be70b
0d33f20d0015333bbd3407f8092ae9f8
0c1317f1fe002fde02050509fce0bb19
6722c453d2ec26e0c41f0efdf6e6e127
521cf47810e811f113f5ccf41cd8f6ee
21fcfbd204f40efcc80606fb1e0cea16
17390f14f6e911eddcf6f5e61bb005ad
eb2509f3ece81fc1e31b35cae9a43bc6
fcdac5e90a0c06ff24e7e8e4d71b1ede
31f499e806f1f9b517c1fe5e1209d22b
0ff0fbe3f90dd80fe2f8ec2ae6dffbf1
060d051c1cfb483af9edf6dbe913bdca
18e3ee08f30ceeeefae1041203f6c42b
2be10ce7cf0cdbefdcd9f514f8d5272c
0c0ede04f63eae11dbbcfc15dec727f6
e486e2c10733ebe5f60513ce162b1e51
fa18e1f9db2031d1100de1fadef2e326
ec1b14c903e70b35f0fadb0415d2d61d
fa0015e7c2d4deae09e5ffe105ef21c1
f2311638f502141ec218af0a0300f902
0206faef03e0e919d4b527c7dbbdf0f4
27fefdf8d727fdceeed4ffdfde13170f
f122f1dafe163be6f70e07d5f01aed0b
df2506cada1b13eff6df0e001a1fe6b9
d00ac4e8d90e191ff0e7bfeed10616ea
fb17001b460c04fffe0de8f2b71723f2
eef508d2f228f3ed0ae7f7dbfff8ebec
ecd7c90fce40d7d30ccae7110ad8f11f
ed0e42e30bf505dce7c6f5fff5e9e1fa
01acdea50d0b19eeefc4b52311dee5f6
f1e210f6020fed08e6fbc611f13108f2
12d539efbfe2c42b0b200fe1f0d7dd37
000205d71ff7f619100608e71d08ecd3
ef1b0d32fedefefb04f41fe3f001fa08
0ad71ec919091d2000eff7f8d901c3e6
06e81bf1c2a8010b043e21ee0fef0f27
14141ee00dd5d2a8e1f1f40a13e9c8ec
f9d21ccedd19241e05030d0323c1c3f7
fcc807c4e9f2e0120708fcf21337f818
1d06f819f0b9221b4d034c14c2d40ce3
dad53df12cdade62f9d1d48ed20022e9
f4d6f706dc27ed15150f08f41f160c0f
15f3f0e511d6cc3d1107e2deeeae071b
15002bd626c313edff2010e003e1bbbc
27ce1be5eef40530f2e91920b81e0ce2
e867ffcce4c704fd09e6d9d90bcaf0e8
46c61c08ebe102fbfd32f2fcf530e704
331afd2af01f35e6f87c0eea0becfb3d
2a381904e70204f324d80001edf71728
0853f700df0011f0f8efc2aaf8f910c5
0ce737f7f7de2acf0619f8e8cafc0619
b4fff30d1307e307c0efe70a2312d8d8
39c039dd00beb7541534fe0d08f0d647
3e0e42f4f300eff51dd506e9d83a08e1
352328fa1006fbe7fd1202fde3ed2fd8
faa63233d4062fbd0fc6c8f0ce3308f6
220842e201fd22ee184e18dd27e9f2fc
f5282808171ffd0748c5082f15ca4aff
243706f6d7f80ff40fe3d0b2f2efede5
5e9f1216dfdc141e002afc100f11d103
051fef09ec13faf6e6d4091ecfceb7fe
3f12d0270aeab5a642d8ea10d71bd31a
14ecc3ee0711a9e7fb0a0519b0fcf0cb
51fce89ffe59e415e16730e53a08fdf2
1923f01be610f3c7f7f4e40dea0fc602
f6ecc60d021ff902cd0406f2ece6e61e
10f084f7f1eff8db03d3c4f3f7dc3915
0b0109250906ed45ef4409ec08d60938
c4f9d3e449f9d0db09e7eae5f101eb0d
14e5c0eb14d6cbe73bc4f1e9e59ee71c
17d7f0e8e5fded0ef1ebea0418131808
3ce7f118ebedc7fede1127023da8e6df
77f7f1ec1ee4f802dd3ad8fe273ff10a
2f4100fa1ed7f7f6ffe6190df9e1de23
1fe1dbcd2dd202f3cd2f0629e403f204
d55404fdfc2f0ab70d2128f8e1c5b2f5
03d801d406df280ade0e2ac91afe2a20
f91107eb0918100400dc28f707eeda00
2026e1f0dc0118c8db3f272bf9b5c3e9
02cafde532f007dfbd12e0061c111ed5
1fb518e3fbe6c1f5a3e701f1e7d5f6d5
05c610190e0ad4000a80ffd81e0b1024
e2e2fdddb3f6eeea11f10b130af8da20
e91fe7ccd4fed4f118e6261ce32c1924
f4100afa0b1836b4c912261defeae6d7
1628f115e14323f90220f8fc0df9daed
f1fecbe916283fbdd11329f6d8e1ff00
e1f52ea3ffff18eb022af3c4db0b1a9f
fb0400b3feea4bcf0b151c0e01bef033
a82e0bd0084bfe0129f718ebd34d0e6e
dc31e8d7c7fcffb9fb021c03fef3804f
fc46eb0301cd0cea1525f62c00efca25
f8f7f1f2ca0e132df60bf7fdb3160c1b
f11b18ff20fe31f5f10317f003e10ad5
0b06f208f41416f9e3fbf50d1ce6f4e6
df2efedec706efedd60821ee24e71c13
d7d8b605c6aff8f6e0f4cbde030e0c4c
020923f6e6160b272f032909f6020109
2311a544e9e20c1c35f4191b16deffb8
fdf80c2aeb37152208f21019281bf8d4
e90ff2d62715e31be013f2e21fe2de03
11fefcd411aedd2203ed1e095600fcde
cfea060c02fdeffbf00beece20bfd0da
1c11fdf0f8f50818184515dd0c61dcc5
0a27e6df0707d0130eefe92f56d1f1e4
480731221f00042a21411ef727d6fee7
df1e530df206d100dcf1ed1417d0e72d
e9441d0a0715e903c0e0dbf03746fdfc
52d0f3ffdbf736e5d40311130af1cd57
19de1d18fafcf918d204f6f2181c05ee
064be9e9f8d2ff0be1e70129baed0fe7
a5fc06f4dbfce5edca04e8ece9df15f1
c2ccf60dd117f10403ff36d9dce7be1d
e1f2081413de25f5ce36e8e94127f11f
f72cf716f92827e9f4ddfb24e213d6ee
4c44cafad3ea042cdcea42f4e5d318ee
0ad9111119f9f4ef134116e4f6ed0b23
d8bae1e22afe1301ee2217062df8c1c0
223109fdf7ee2c01ed3dc3d9c5d10003
20f3b30cced3eac6f8d8f7edfb0315b8
0654dbf31d3213f1f8ba14f3ecbf3edb
681c0416f228ef0eed3bea271831eefa
61d9f8f5dcf2e23dff1dededd7f7113b
212c030ff503ece50ad921afe9f31ee6
e005d4db2effdc27de2622fb21e3eaea
ea25f817f50c05e0efc1f5d1f90a012d
1af504051209c5f5fe8ce9fe19f0151b
2130fbfa27ceff4311e714cef2dfe71b
122febe8fe0405d5ccda06e003f7f6cb
f225c7cb350cc82cf34f37101509ea14
fcd5eeffd816fb08dad226f2ce0800b4
1426e25e2ef23ff7240bd7d750c5effd
3aca9adc1a17b92fe508f3e214d521ed
182a0f21e8f21cf4121b3c36da4af3f6
13fcc80dcb08ef1dbe0f05f2ffe919d5
08f9ed00cac3f0ff03091ac00f02f20a
1241f6daf128eefdd2c8effbd6dc2405
19350bf6321e0bc2055d27ee252fc914
c40eec13a6160512e2ff000b1a0d0ddf
11042016b1c9f942eadbc3e947ec182c
f745fff6fcdcf40e01f40508e3e2f331
0117c704d52235d7cd46fd0e00efddf7
2fe81e2afbb53609fe2aae04eab5f8ff
1f1bf1e118e91d8c17fed6edfde415c7
13ea120dd1ebc421f2ffc60b10020cc5
313232fb1bf7f53222cfcadeb2ee153a
22f4fc07f0eb07f2fcf319e0eb04eaa7
2aeaf2141df72a4edef1fc1cf90c4623
e6ee04e5a60509ef16050b00d60cf6e7
dccbdaf5e209d9e8fc22ff1d09e11e12
33f3fbfb11ff32bd0d101e44190db60a
2610e5f5ddd308f1f2362519f1f6e4e5
b008cf36fe28e7dbfbfd0bf7f51cde63
e71618ee2c39ececd5bfe0eb250eebf0
fac2e823eff6d3c1def4f2dc3efee2f5
d030ecf1e1f4f1e8fee1ebc5dfeadd5a
e900170d17ec07f30c0801030316f432
a93849053dd6eb04e812ee2b15fbe43b
2a1a25ded606e19c061721c6080ed206
0cf54bd5242ff9edfdd0c8fe45dfd3dd
2109d400e806fb401909320ebb1ef6f7
03d848f8051305002a060a1104e931fa
dced0917bdf206d0e21fcefaf9c0ef0a
dde3f8040515ff00e9e5ef00df001911
e6b60dfd28c2361208f9ede213e7d106
f315f22bf6fede04ebe2d8a0c9edf8fd
1b01e307ed1840ff43130c251bf7d8f7
f0e3f1fd1b10fad4d0f7052f2021f7d4
c8191d023010e915f7fef5f427e1f4b0
c919e32f11e5f030f9f0eeeb16f4ddf2
e7091cef320324000efc00c825f7e31f
df1519090cd908daea04d8e715e4f611
7ffd0c06e0eeea1d0e342708cbf7070c
47dd2c1729c809eb285c0c11f304ee1b
d0290cde22d2c1d5fdeadcd3ddf84ac4
3a2e29c0073111e01a010d23c2fd2397
b7e410fa1af8f2ac2a0bfd800222b2ef
0d0610f1e8c4e2491cf514ed3ffc26d0
06e71eeff39ee94fe420100eeefffaef
29231107de27e8fc0cfd490306d4221d
2829ebe8ccd60715bd2a2126f8fff4d7
30ffdddd9df9f412e2f1210be3e0290b
2b05d40af7070eeabbd022eefa160f01
d6d8c5fe1de808f4f080060520e8e5fa
290432fae8e80ee6e721d5e80515f22a
37ef2ceee3fc261f13011ada04e94113
6b1c35e8e7203706f7510ebaecf8dcea
2e1301e90af1c642081a0bf9cd201832
0b0fe8f3ff17e0f20209f3e72602e2f3
17fde0bd21048a0ee04d1cdf65e515ec
1d27545e0519e215fbd6fcd605bdbfee
4d36ee071ac0f7d121ecfd0afecf1523
ccb047380ac9fb3100f813e0d0ebf1cb
dc4fea0705260d01f0fcf1aaf0eeb606
fa07deefd0dfbccaf403f723f6ceb827
eb0dfefdea25c0dcfef00a11e205d415
09febc0943f6d1f1d1e60f05dfd3ebe8
2f0710d4290c0c32b9e2c2020d1f9bef
0ae0082ee72af32800cb101001b3f523
09f4191bfbec031a1ce1eee3da1c3cf4
6031a1dfeb2cddfcf5f4daf7d12f212c
0a12e416ffb8f9eed8e0e501ed05f31e
63f9a2c718efc512b8161a0a0bd82737
0e22ef03042008f4c903d72708e5c4d0
e213121c2bc7f4f3e0e62be5c2f830e1
13c8f8dbc3f5d6b882cfc318aacf1918
35cb1f0a2ddadeeb29093bf9cfe2e80b
1c17ef171feeeaddee303209f9f4de00
f306e300ded80addbc0af0dcfce60eb0
fac4dff621f3f42208e6e90ae2f11715
07f5e9d220f8d4e6fdd9d72326facde7
a3f5f0eb093606f810ee08daed319301
0548ee1be9ef2ac83924e3fedfe402e1
c7e1fff20018f4c92d2200b1ebe81926
f52bccd70d1d24cb1ae0fad90433e20e
091ee9e9122406f9dfada1d4040a41cc
e3f4f2b1ebce13fde2fdb62bf6a609fa
05dae42309ed08ddfa26120b31d2d9f5
d7ecf8b6081406ec0dfe1325eaded409
5aecc5e1e9fcb6472f2a0e21dfdaefeb
e6091ae0674c184ee3dfedca10eff831
f81c07d805e8fe05e32fcd2ac6140715
fece0a06320aedfb01d21f070afbd8db
f819f60236290a07e7e6f6fb3e0d23f8
fbd6eccae6faf605e5e8f10094e1ebe4
f5412225fcdc0705061eddebf50df9ff
fd12d2e0c826fed6ebe4f3f206f6040a
d52ce921fed220e3eae0e5100ff811b0
10fb14be193eee233c24200f66e5fafd
08082ad637f1f01c301e0300e7d2d6e7
02bfc7085204fa23eceff9a413fae3b9
eac729f20c142d1430c00402c6c52f06
d2ecc9c5c7f009c5e830f10ff1e007f3
d6cc20023c3d21fbfdee18e212030e0e
f1f4c202ffef14f8f0d513c6f7cb1500
e524df12013ce1f6fef713d50e2b24db
7d2a41cf06cd10ffdc093cf8e7fc2df0
30acefd319caa103af2241d5e308ec18
28f703f5e5dcc514e7c7eb01d6f828db
02e5151106e1e05c39f74214e6040cfa
871b16e5f5f20a05e8210503fe05deb1
11ef0310d901daf814ea09da21001ef2
190006eaf8f3f4370fc1ee20d1f32e02
39eb2b210c22062506d89b20d911282a
e51744fe2700ecf0fb1f1734cb072a93
0aef1000afee19ecd0140d3ee11227f7
3238fe1421e2f016f24fe617ce1edbfd
26dd19ea37bdcb904635fd93c62e470c
e7d5db0be1bbc33a29e236acd703eee7
07220434dbd91703c5c925d4d1ee1de2
e921dc31f4f503ef1ac4e7f3c7fd0f05
1bdaa91c8315bb52c6ab5d3919e8d9d7
13bfca0402d7d2e700c2f1e51dd00f2c
0af9daecf2dad7f80205bf43d505b1cc
0de40ceb0d130c1cf8f9f4f70708eb17
141cebf226fc09ede9e30ffb29f8d4f2
efbd08e3b5c2f0ec0dd9f3f9e703feda
112a0f19fa271ffce125eb140139800c
fe43ecfe1df71b07fda8f506d820dd20
1562ee0de03905f51303ef1cd61dd60a
2ced1e3116ccf5111d13f7e615e91c3c
091fdaf21b2121dbe8e1f209c4e5f1fc
3309d10ece0a11f0c2c4110bd2e006ea
1faf16fe11e29c8ed800dffd36f70fe7
f3ebbb00e2e906c426ccd4e0cdd5c9c6
f603bf19e81ee8b3deca04170bde1715
14fcf8d19a190bf6d9edf000ed06edd1
f1161664ef02414613d9e719d51e96aa
ddeddd09060fe117f80b0aecc9c50e37
1ef8f1dfedf900d5ff00dae1ebf0f2d6
c0e41910ec0df711f3c3f014d2fa1636
e7ff28ded7071e2d3c053ed2bfef203a
191dede5222d22fb1200db0be80e0135
fff4fdd127f6fc04fbffcd12e2fcf8e5
06e0fdaee805f30ef22bd9f6f6ed1b11
e7d61edbdff2340ee216f34d26260ae1
c2352d00e4ed1bf5c20d18acbfa9fa02
2110f102ef24d90af3eaafe8220607e5
0f2c02d0000914f23d01f50d2bfcdf08
09f4faf62315f0030acff7ee1011d8cf
fef2c93156db0b18f5270e2f0fe8f9fd
2ed101252af4ced5060001e5fd0617e8
f0f618c51a46c61c3daf0ff3f7f80b55
0de813d2dfd3f821fee21bf4b9c8471e
e50019e9e9e2f2fc0a0c09f8ca0fd5ff
f5fadde3f43af037cff30606fee4a226
04d6cefcd916004cfae7f4e5ecde1407
10fc2717eff7050415f711c1dbbf2525
f7290a203609ea18ff08e5ec0d0b4ee3
f71fe11803fdf9fa14f0e5e9bbf7e3a2
d5e129d8f314f324d0d8f7b60fdeec03
3eaeb6f6fbbb153b3a2e4128eae93b35
f0f352d7b302ba1bd6bbe3b7fc00f811
c3d908c61a0f064e15cdf1ea00e4aad4
ea0de1f8ed05fe20081403deefe6e5fd
1510f0ed061951f72d021cfbdfdcedc3
cb132420e41507dafd07e3ec97ad20fb
df08be1cd6240cf30dfd261b1b04fb07
d6f21623f33ecbffffeed5d9643c3add
ecea3bea1a0df8091f2200dfe913ed1a
35d51801e0e9f90cdc0e0b0fff0c092d
e2d708ccefe1c9e9fdef24bfdfdf3b11
2e0611fc1cc735d22a1dedf2e7eefbd9
4cf3001de909e5cfe13022f364280514
ebef021006fe03ba2aed0421060429fc
00eee4f2e50b0008d9c8d0c7e4ff17ff
352c04e9e0e712d306daf5e2cd05f3da
9044e4f82d00f013200f11fb14d10144
54380bb843ecc4021b22dbe0cec32145
3be86ce50ddb000328f1f2d8e20408ad
e33ef3e5e6fb0bdb1205f007d7ed35f2
ee1f111002e610c7483720e7f31adcb6
e50328a82c0ee1eaf32bfc9f18f726f0
d1fe1c0315fceaf102ff3700f6f92c0d
5a1642faa7f8cb413cf32c1cea014565
30aff2dbb7fee9e3100624c6fc160141
fdf2f8e4ee4be5fa0d2ae621fbf607e5
4000bef7f1c9a780fbf5d8abed18bb2c
16ad1fed01f3d8f02803eec40321bde4
17e403f200220220eb17f8ce56450aec
18eb09f9021becf10a13f431093adcec
d4c52f4dddbc2a09ce8ef605fdd0d8d1
0cd5dfe900eac3fec3f8de1001e6f011
d40de5360412ec27c1fe67dc30ce4d10
d8e0edbbf022d50704e3c6daf8cd1e0a
06e58b1511d5c6cd45b1cde1f0c7ff73
f8cd00fce3c6f912120213f128f734d7
fceada07d6b6030810f7352636defbf8
63c2f32f2998cb17fb08f7bbfd15cd50
0823fffc1eecf9fe03ff1becfbf4d920
1c7fd413140446f3bff6e33dec2fd700
d5fbc409100abf17f7110cf911f8f3df
ecf0fcf42605330e03ecd1e724ea16d0
26fcf333ee2122e511d0f620fe06dd11
23d3c0bdd928eec4f9f4f712eae9fdea
23bc2fce1f3914ba050913ee09faf1c1
eebafce5ed15f518adf3ffce04d333fa
d5ee20cf05fb0c0cf20e1ebdfb081c25
0ad808c907ec980ae2c2b1133700dbfe
4047e8f7adfe10d04ae9d01f0f27d528
d8fbf7fdc90a26b70efa2517e5d9cae2
dc2bfd0b03374b1ff73b07fafb15d737
b6ebddb7a4f01410df032f240be49e12
24b106d6f10307d13227111804330dc3
11e8debee3f5fae3c827f20217e0d32e
c7311913e62c0603112c3e1adb3a1457
221ccfb3facd23f4f60fff0716eec410
1c1fc116f6ce13dae24cdd1beae8b9d1
ffe39ae8fc17092aea06164bf6cfc610
0e170020110801bacc23efd71a0cf3e6
d9dce6dae4f9fe07e5d3e9cf46bc06ca
cb1eb9ddf2e5d7251b211bfa18d8fcf6
c3e0e40dd42cd80ae5f504e3fc071821
16ee62dff7fdf52223071f2fcabbfff3
05fbd253f2ce12cd151a1d04fcf73029
1f081626de1517e10218fd0035484502
f2210f1a02ee0eb8100a21e0f883f412
e4d73df10abfd72d1ffd0a0d131811cd
feedc000fee7e981c302ddc8e3a40be5
4d2bdaf440dedb451708091c16f1bfb9
0cd8c10eb603f602d8eef9d037b51200
43e717d272f51f1c412702f84af80af5
eb030c35a8fdf8c1ccff03fed60436ff
ebec09ea47c7eefbca8af2a7fefb172b
fd3400f5e6af221512faddcef30d19f3
ffc70724d41d1d3af9231df8f70adafc
ff50edfdf6f012e328f51e0df9d4fcbf
ddd3d50aee25dc1fd9db2ed3fafa01e5
0cf8d7f4b6bbf516ef174b1215d6c6e5
0ef6f1001607f7e30130c8ec251108f4
24dfeb10b50024be1cd51acc1c19e608
1c38cf23071ed9f10af523cbe5112f15
1e10f612d3fa04f3f321e608db1901e2
f99d26e91a16120b58de08342405a826
1d64c122edecf8e7eccdccfed5f8f2fe
c80bd7ffbddc0112b70efb4dd948d78a
011cc5eefb1c0ed52bed2919e7cbcbb4
43d60c1ae3051911ea4713461316efff
f333bd06dcfffd0cf0191cf60dda29eb
d307abfc1621eb14da21f65fac2fe9a1
f3e6ce05dbf8c52d0adee76f08f0d339
f700f912d213d8b907031d2cf301fac6
2912e621ebfa08edbde4fe13ce290206
f70e0642d6e132ece3bffbd9ecf7bff3
06f5d9c8edef06f4cb00e4cc05f1e1cd
12fe05efef00ef32e72415102115ef11
0819fb08d034f1eae3fffe40052af9df
1935214e272c32eafdf1e3ece1f0e22b
2de4dabdfdfaf824c3e204071cdd2de6
2b0ad716380b294fe41e25f3ec0c2bdf
dcf6030ee7f83a38b7c802cde3d8f8ae
1f1226d4b8eaf2069eedf20511f413bb
f2041adcbe002f03b4f4d80dcd2426c3
244e08ed27382716e250f6df2610f0cd
d123d228cdd6e5f8fee8fb100527decc
03de33f5e1f6faf923cdeddb2300f5b9
f7fb0af5ebf10f1308fe0314daedfa14
f203f53a09f93eb70e190b01eff8ba0c
41e71228441025410f0aebff0c03251a
00070efc45e739abea4bef12ecdccbe0
2cfb04001e0dbb07ee03c3fe02f2ea19
2231082b1607120edc16d9c5c30d2627
f614edcb01ecc5fce9f6f9000deb2506
1af10f1209b60e11e6f4e318f1dd3014
0022cacccc64ec0e300b06191c16f2f7
16f5f500f5f9fc03fa16fe0db0370d1f
dfdb0ff6dfcf090214fcef0f122fb3fa
f704f324deeaf6d1d00be12110e9e8d6
f903d724b933c7fbe7b708c9e5f1fa16
18bddaf40e1adb0426c72be4f2271219
f4e91530fed0e9abe4e120f844edc7bf
de0bfffd04110ebd0bffd4f6d3d4de0d
fd171c0d12edeb0a0313ffebf507ee0d
ee0733f7d7f000a3f01df11b008e0222
2ef7a817a816e3f1cb3900090512bdd0
e51ea0dc4827001ff2dafae95dda2ed3
0b1100eae50a18e91e13f117db2d04f2
38d608ecd1fffd47fd2be6eddee6dd18
ebdb06c800ffdff7fd12edfcdf0edaf0
e5e5f20a1a28f213d3ed0de2e1f91815
e2d7ece733ee24500011e7e8ee1bbef8
c1300ad41e07f82af60eecf6ed171ee2
2915cd321bc94008203615ec12c9fdd2
efe919f732eb26d5f2e31aef231aefef
d10644c61fd0de5ce7d2d2fde7b9f929
04dbfe10be281e1fcfe2da092f050ff6
fcf04509ef0408e329192013d8bcc845
f51206c5fbe7c8fbf7e5f5e4f5dd1a1b
4508170cee041601000022f5e40eebec
f61d2c10e2d919cf0c1beceac1f70ae2
d770c8b51a00beec28d8e8e6d6e768d0
f2e43bea232bd786130c02faf4f7579d
21be23f841fbeeabed04dbce25f6e9fb
edf2dcd617ec002107dfdfd3f8dc2bf1
071dffd3fdf4ca01071f04e5e8e5fd26
31fa18dcffdee63cde052be70ae30226
20cd01ffa2e22c560e1af80bba22bb47
25e6cef8d105e327a5d93812010501ed
05f9cb26fe182fb2f696f433ef1de6de
fb00f0080bfc13d318f30220dbfce8b4
4cde7fe4e5c502abfb4104e52406bce1
d8e42315d5def0fb29f777d3ffcf0d01
4ceb362e09a6320a000bf2e3ba1828c5
311f14cbe105ee1f0ff71129bdec34fa
dcf6ff0df019e719e8f202ed1a0f02bf
e7fdd2d6e519f3180534060c7f140f21
d8f34a53090c1800caf4c7f78dccd122
07d0d6eec917e9f8f6fc12dbe1f20b29
0cda2a0c390bdcbf2603200f08f5c610
f219265e261de3230ff3e3f41ddaced8
c8df02efdee7d204080ce3faf7dff8df
140aeeb31614c21020f4fec507ccfff1
0cf6abf40929fcecc20103fec4d91b81
0d31ff33051d0033e9eef6d40509a4d7
0102e8e2de12ff01ee0a38e90f071703
150d1d0200f0040d05f00104fdc403ef
3ad092e21c0daed9073ef61ffd39de03
fa0602eef8ebe00c0815e6e3ec280d08
2ad0e7dbec0ca0eefe13f1ea238fcf29
0dfef2f6fc14200eefdde9f1d411e006
d5dc05090fd61b03f81b17041313e3bf
eef726f1e94c24aeadd58d31c2dd2de4
1101fbe4edf3ffe6fe171c0519f41918
fc14f7ec23e100c0b328f305d9b6cae2
e0c51adfe6ec9eebbef0f02303e018dd
33e80c2de61024f6e7f5f6f6b7d00806
1fea0bdf16f33bcc152a04b8e6f8cdec
09ccec10530cfc212ae6c9ebed1fd700
fb45fa370d1625fbd740f41735e2d1e8
e2efeeead00fe6eff6d2f1ce0de61928
f103f5bd14070ce507d9e0fd1316ae1f
fd0d05f6040af4e00ed8e6ded3130ac4
1400e6f106e6f70ec807acfbe9c7cdf1
eaffd7dcd5e012d9bd020e0730dee9ee
1cdbe2e3fd02e103d7d6da2100ebbdec
51f2fa2d8b2198eb0f22fe06a7ecf21a
c2ed13c7d80720d20bd4e802dadbdd1f
f8e444e8fafdf32bdf151e11db801515
f0dbfbc858ccd70ed0feefcffd0dd7ed
e6260cf22df92316f8fb1bf811f316d9
fad1f2edee090efde5e7e708cdffff09
e2193def0aefec30f408f205d43af5e6
e2f6d0012bced6f00cf412940fe206ef
ff18540fc9eb07f9f6130e19bff423d3
0314c42d0c0aee040a332cdc1dc91efb
171720f25207f25100eb00d62d11d8d9
f32024e74a091af6fae602e8ee28060b
1bbd000aba4718fff5eff2cfad8cf608
fdbbc51417e70eddda1ad557ffee0808
df07f91810fe0520fbe5f9ed21fedae4
eeffe755f9ed07cfd407f3d9d2cf42f4
e0540ef92e3d3211f5f41a04f55000ad
4d194acce0ea220b0024e421ea0122b4
e9ef38a835d7f4db251b1107f1ece3ee
34d3d4e1fd33f52cd4f7fe04e402f6bc
26cdf41efccbef10ea06f33a941a20d2
fd14d8e0d5000bd2de07f9fff3d3d025
e998ed290725d207cc15fee628fcd5d1
f6f0fbf3f602eb22dadf282ffc030de9
0ccd24fbeef5d2d707d8f0e92bfe47be
c325eb080c0ddb0bfce5d743c90d01e2
6afd15ddc5de1d00fb16101b241ce40b
3de2030febfdf9c0d81cf9edc11b2be8
09332ad62eb728e6fddaddecce1519c2
c12e2c021db4ccdd1bd3c3a6cdf01af9
1f07ec0ddc183014e0d2ed0efee7fad0
f113ef0ee4e5f0f011032cefece3f806
26e9de12c21bd82ac5c04deb10efa4d8
c916df33dadfe1ceb4f803d107a6d316
3eab07fef095b6d624d3f7f7d8dcedfe
fd2114fe0ffb1ae92e1abee1c40c08e6
0e2009fb10f413c6e7effb14deb82007
16edc7f70203f4cf08dcea04d823effd
240e13190228d5f7ff1c0c11f850b9d0
f10b260cc0fe24bb21e0e5cee6cce8ce
08f6e60d0003070e44362521133001f6
eef32ff03902fd02f81c0eede60334e3
161e062dfe11f4fada12f016ea40d2d3
471a0de74f27cff5061d3624ed0ffa06
f6ca20e919eb1ad52cdacccf00e5eb29
1dcdf000cc810ca42aa21c04dc01b63b
f8f7cfeaf110f8f4d9b40933c3fb0cf5
2a150c21ef061403c3fce3f9d93bf1c4
0b4f127f11ed501411d1062cf52a9ec4
de01f20118dee1efe413c5d71ff5e1fc
ca5900e437efd7140ccbb4b9dffd2645
fac8042026d0dc1af516303cf002eff0
e307ee9afc4c25a0e9e6cda71f101f2b
01e8f8f0fae1f1eeec01251928130506
fefbe0e5e8ca111a07d3030806aff6f3
0fed0a0620fcd5e0d6e3fff1f7cecef6
03da21ece1d8f81bfdfcd9e508acfa24
02011d170ed2f302ecfdcd142708da2c
061cbb150a1f11b32fefc70fd3edf90a
db1dbef1ea0cdec8fcf9c0d01ef41128
dcfeeefc1d02fdb5ee1124ddf5312525
d60b0be2080a23eae0ebe0a7c9eb0fe4
1906101801dcd90917d9f3090602eb08
03162caf54c7f2070def29bf1b0826f8
03011ee928f408fdf5f0bcf9040de5f1
eb131c0d300808151a15e0e50adac314
f1d71c05d02706f7e4f0180de3e71aaa
dcd52005f6f601cde5fccef3064b1ad5
25e7bbc6f5192b12282b26fb36ab1507
00e71edaeb29fcf30eeacadf191a0900
e40426fd09fd12180cf4fac8bb08f0d6
fad217230fbdf7e4f8eff903cfe6ce29
1952f4e7fa394cc9f223181ee8f72a0a
2aa50217f5f8079fd1f91b36cdd5d6d1
fcdb1d0cf80af052110aeff7d5b8ecd0
1acb06f2f417ed2b3306eef301f9c605
09d81df7331f4cf3481936efffd9e409
f2c421301ae2b70809fcf1ae3408df25
19daec04ea2eeb0017f6d2e1e5201200
16f7e307fd670615140f2bfac919f4f8
f41b0711211ef3f3e70b16dde3c4e52d
282ff9e4f40311ead8f1d70ea80912c2
e6c321fa03fd050bfefc021432be08c2
2e16dff2c220e01cd1031841fcbbe745
0006160a0e1013013205001ad3341e11
f6f40615ee0a0cef0ef3fff7f600faec
fd3df100f7e6001ff346ea144d18e080
37df12c6c1c2d10903301518d502e50a
c007145b3e1fb92ad3d6ae172ffb00bd
440bfaf7bbca1efece2409ded91d19d9
114e04b0022aaf473a04e834d4f722f1
011a0be6f8280d2814c10c01e52806b7
27211638170efee6e91009ec052815c8
df2a03d3eade0421d715e6fdf4db1ced
bb12aa16d23dfe22d2e3faf91803e5ee
ed311a080909f4be01bddff1f5f53bd6
540a17e2f403c808d2fbd310e5ef4115
051fcd44e7fdeadac21adfe9edb4f542
00d61710e6c606b100ddf008da4bf0f5
09fffbfaca15e6b1e7e605af9805d9ec
3510e9a9ec3108ec12e1f423f6d81906
04f31725fa0d10e0d0f8df1518dbeb01
4bcce71f2bbcf53e0dbf1fdae4e0200d
19082201051504d007ef040106f8b5e4
0a111d00f0e53c2b3a3001fe1612080e
a3bd0a3726ecf3dc161b13e4ecd7cfd2
15fa1107f2fb3fc9d5e1e2e70fce1427
3eef1e3bdc00390bf1e4cf15e9be1235
2b291cbfe7fbd7d6e7f93fdb3016c22d
40fffcbe4006e0c1d5e5e310da3dcbe2
0d3812010ce7342031cc0400e323eccd
0ef9aded0434b251ca17fdd8d9040d55
1a11e1e8d90bedffeafbda0f16d1c446
d1cdf0ead814de301cf85e03042e3f03
0df5dfdad0f5dbdfd82bbf2017c6eaf5
de17f0fcfc0500d5dd401b3adbec1bfc
1df1ca08c9ecfc04f20d2ee9bd191b23
0d23e726ee430ad0bb1b0713e1eefae2
cef002c7e2141bf9072b16f1f6100d11
1a2423ebfb0e18c6e4f8e708f6eddc04
f91f25bcd700e1a0e9fddfd0f743fe0b
ed1dc3ea06190beab24ddceed0c30ed4
0f0623020cbef101dfd4a0141630dafe
3327cf28160edb8eb7dec10cc7efedd1
e1df2b0816fbead321e90310d7e60edf
0e12f72b02ee289ee0f7d904f0ee0917
11e1610e0efce0ef3a2a38e1d9350e10
0139bae7c5f604bdf4ef0416f8109e15
0930e0dfebcee1bded2d0313290a2619
15e6e50fd5ffe80b33f523f61723f3f8
c7eefaed080817f6e2fef5def5dafae5
c416f3de0cd9e714e7dfebd1018bd7f9
ee11c8f60d13d30b07e1f7311049f736
ee4029ffe8dbf633f1f4ff041caa3621
fd13e3edffd5282d2c27242cf508e6f3
11e517ccdacc17cb081211eb2af1e00b
dff20eefe706014202ea2f0c0410c1d8
d533f2c81fc7f63ff034083d12fbf21d
c6d5bcc8172bffcbe8ca3223f8fa31e3
e24b3cda2c241109d41dfb0c2eafe0e7
0a0b0ff317daf50a0fdc320e211dd7fb
ecec209aef08c34f1ce2fc15e7d0ff28
2e041ef8fd24fbc625181c092b8bf400
ba050bfa23f0edd0f5dd0908bbc0cb23
b1d3d1c4df16e91f01d8c1df3a3e014c
11fd12060e132e1ed12836243a17e537
002020fef9c7dbffde2eedf1d70901d6
15da1ee3c61a0ee21a2716389df7ef10
fe140bf81115fb52d8ff3c1d01ece71a
281906f6f5eeb157ea0b15f7fdd5f3df
e9e7022a04f9f1f5fbf4cff91c3abff9
ef1ff50bf2ed10c4dd2313ea971ffc13
13dff4da02dcaae6521b1e0b1a8ec614
e4e800fb3bed0f07030adc12faf1f315
f3f9de2e1cc8d0c0eb810ec9eedc22e3
221b33c8e61b2ef4f41209feb63247d8
4f29210cc7480f1507e91af0ac13b90d
2406000506f317871f0d28e8b80330e0
f2420e3abbedc9f0f9ea0540eaf225ba
381fe924eac6080ff42535cf1920ebe8
ef32f4180c2a17ed24f23d0780ecf230
ee5612b72f0d2e14e23218c0f6fa11ce
ff50fa1e3bf12104e2f9e904efdee0e2
25beacb6e6df96f2e9ef32ff19d0e1e7
2d2b15d7ffde304d0fcce413d0f6202b
ef1a0bf0cbdeede7049e361cfcdb0be2
031507011827ef34e4021721ed131f16
f3f1d4efd214cffaff091508f3bff3f2
fd0ac7a723c6d9e6eaf025e811c50cd0
0813c7e5e6e6ade716a6fd04c9ef1efe
dbc1200aab22cfea42da0b0fe226e128
2feede430caba3bee5c9e405dcba1443
5804d3f5b8fa15e2e8e50bffd7f62f13
1683deeef2b7c80fea0410dd20bff8f3
02ef01fcfc00d8132ee319f21615f538
0bc2e712e71583bee001e1141cebdbe9
09fa1820ca1905ffdaf4decfe4ba38f7
ecf3fc01e6edf3f3ed2005ec1edff90c
02fcbffce9120ed6c21307a69af4f1f5
d4e70dadf8efd3f9fb01d6fa6eb4edf5
e367f6fa54f9efade60bd00dfb23e81b
f3da0621fdf2f31ff104280b2a02060f
f928f5f0f6dbb907ebd8dc1904d6c8df
0cf6f1fa0ed4ed12f9f12d02dbf0eae3
14fdfad3ff3025e02805e90968ffd316
d8eef22ed9f0001a0310e4096003f4f7
2decedee23cecd15f43928cfcae21dcc
061429ce0f0709a915d299e7233beec8
1d0a221112e317ebefc2e000ff0611fb
ff00a9eb0ddbd8c4f9fb5de6eff932ee
2f33defdd7e0e6d8ae4d2034cbe9ef0b
c137f3270a091d0cfe2a02c2e80efef5
ffe8f616d5d7e501f7170ff5bac511e4
0be0eef8edf00506feeae310f0e20ef1
086ffeea21e4ffecd653fe2ff81ffb03
ec1cffceef1629931dd4eb04f78b0607
dfd8b001f732ebdffcd614c31ac31201
01b6ab50061834c6b5ec3b3af7051a02
e0ed18f5362ff707e6fa07d6a1d81303
d215ebf01228def1e2e3dd03cf1c15ed
d5c5311538d90221d901e5e2f8db3712
e5ee54ebf81901d20103edc4f2e404e9
1e1ecf38db07f9feead9060af5dcf4df
04d6ceef1bef31182e0e3712e1eaecde
e6e1fde2e5041206fad50606d4e90418
b51afc02e0f6e631eb0dd9cb281202ef
04f1ed011bc9e60016f7fa0f1a02efe6
edc6cd2e07e5f9c516f90e17f0edf00a
1fe6f7ffd602e409f101060a19201dd8
20f5d7e1fbf30e0afd08f2f6fef4f508
dacb2be71d1ec408f83410d012fcd817
3c5632eba3dfeb04d0ffc72fb31efefe
04172be2e7260eb752cbfbffa70253e0
1601e2fde3ede195f4ccfbeb39f3f746
080008d7c0d42502e1bfe8c8060fd12c
4414f9ffc7c0d528dcfc1cd9f111e9f7
2954ffe4d811e318fb0e05e0d30d22ea
1018ede9dddfd9efba2698fa0ddbf2cc
0f1ab5e523e7184e07c935060ec609e8
f3fe0712c0e833e316e001de8018fcf7
0303e917f9fa17f2f9f63debe40ff904
ebc9fa0bf408e2021b3520f4fde7ea35
fbac0f2afa100408101a083907faef09
21d5f302f2231803dc0fdeef013ce7c9
e814b5fedcdffdffd61f2718f504f40a
e8fa0af9fb021cebe303e4e5f6e706d9
f1f6800422f3901400c30512e4ef02c6
3df5faaf1d292724d12fcb6014145113
46b6411ae70aa5e2f1b3fb2f278ffe1c
f1e848c9f829e5ee0dd10e30eff7f2da
d809e52421f02c4a170ad515f52bdcb5
20dadbea03eada04e402e2f814f20518
f8421ceb122c0fd8f6fedf13f90c0af4
432ea54c5bddf12fd017e42107ee0d20
05e82eea0fc22c1ed2d8f3efd83a9f1a
eaeee6ebc6f70ecee4ef4532f899efdf
decff8c9bdfcc5fff9d80329efee0de7
1b28d4ebf807f222e3dfecc5d309f7f9
fd0d200fd8e7d10119aeedf3e5ef2fec
22e7ea0800cf1f1a029b2d1efcf32cf3
c5dee4ece0fef08d1b0312f2070cc0f6
28cded0ef922dee6062c25d0db16181b
02d1ee1cc4b6b54e0026f4f024f83cde
0d2c22e644dec0ddf7f6f4f49eefed3e
26dcd4f8e4dc150ee60446400d110319
2be42a2d051b06ffd82d220bfcf63115
f0d5deedf69afa2509f5f130fde6fb2d
0824ee14e5c7b4180c1401d0ff1cea08
faffcc1ed3dee2f91b14f420e8ff05e6
3e50f007dee91ddc05f4e800fcfb2823
f6dffcde16c4ee06e6e80bec02f9eceb
e91d01cf391bbdebecbdd7dc21fe08ee
abf204cdaefe22f9f8dae6db7fe7e129
cef70e09dfc1a021c0f4061348afed03
fc29e7f2f91615c1ed13f20d1fd0e6ba
f40ee6fe143217e9e329082aee0fecea
06cfee15cfa6c81ad6dfde28e4ffdbd5
dbd02a18cd4aca4325f6bd001afeba17
f5fc173d0cc7ca05c2bcf914ed1bfd1f
d212cc0e42f2053a2de7cc251119f22a
0cd605ebfd391f1ebdf4e01dfd0ef503
cf0dfd0fbd0cf4c7f9efe706e8ffd50b
0cef010db325fe13fd0a02f2eb09fced
f2e1b42820d90aed0119e73cf41f20fa
ddd838010000f3f800cf09d0fd07e12d
21cd38fd244a1dee11e9202127f5ec10
f7bc1645f8d40c07f2edf3e0c7b3f123
f880df29e1b8171fe8b9f312fcfdec2f
18c3fa364bde2e04fc0f333925f4dfee
edc8411fd9dbd6f9f305ddece8f92a27
ea21e9f316d7211a12ed0cfd25cdd8eb
e8ed03f1062201100903dc08f7bbe810
d4e1db1ccc1eecd4d2e008ebc90e0402
3455f313e512e6562a0b1f0bee32e519
c6f6c50110fdeef4881721395bdba9ff
11a5fb10f2b6f7d90be306fac3183756
dd04bc0dd2ff190cebb0302aebc8f1e0
23350edf90f3f8070c2045e0dbf5db0c
120a0c1f040aec3fedd0f3f3feee41db
17dde1f6cfec100508dc26fbfd19cb0c
133a29301fc0071ee801e9df0f20f7a8
de21eb101dd70ef5f0d206110c232894
130607f5bbdb0f0be9d7131cecfb1505
10caf410cd1612125856f9cbeafcdc1a
4c3cfbe315f519f1ae14d110b00deb59
d507fbe00fd8ea12e2f620cc33ecc503
ef151e1cecf029c819c1cf05a512efd2
0d2428fa08c30111121cf603d6fdfeed
4a1caf3ae1f90414f9bb51f2c7e9e114
1f31f402c10ef23610c2d9b3d11ab005
cff129f61326430f303d1b45d1511d19
f0c3c1c8be10b6bbdb0126f51916f90e
ebcdbbe8d60cb9ce2a000a0ca4f514d4
0a00130fdbfece0adbf40bfc0708bd09
cef216f2050ffbf60703080b052cc815
e1f1e223160615cf0a14f7250905f4e2
23f4031dd712f6ee1000c13809eae30f
29211d37e2d907cf2fe7e92e17c2d723
1ae01c1d2cf30ff3c6dde705e914df0a
1035f40d181c0dcdd118ed1ee81822f2
ee65f1fce9452ccefb2bf617e0064bf5
fac6d0e0e22eeee5f5d7d7fd981be121
19bfd1fae8cbf50cfdc41d19ea801d09
32d6d3dce81780e1e708e1f434d7120d
d21b0e3b151df6da1af303cac0f8c0ef
fdd3e005d301fcdd193b0bee13fff808
fa2b16ce34fae5f6eadcded8eaf10137
fdd50009f9fad21dcbc5e6f0e204f8db
c80216e20f5350ec0807f5c611ed1d17
f8ed08e0080b02f821fbe7fef515dd0e
0049edda08c6f2e9d60bc3272d03d225
1cd5bbf0ebefd0a90ce703efb513f6f1
e20145eed40d3e09e2f1bcef33dff22a
1ed10b32c4fb05e7e6f60332f9f2e110
0df0db1103f6cbcb2cc8e708c906fbd7
f615f628ef0a1bd60b15cfd901ff01f6
02121901fc0430cad4080cde2dd8fb24
f9cebfe4f4402e1bd71bcf1bb7efea2b
2e1be2f1dc0bfcf5fb0400fbf2e930d4
fcfd0ce02c19b1fc08b9fec7f71eecfa
22e4110b112dc0f0fcb6e03501b9031d
1516fad723031ee4fcf809f6ecc8d8f3
11b6a2ae381bf7ec06e206eb26dafc1c
0cdaf508fdecd12cdcebc90c2035d3dc
13f616e4dc3ae12424ff14e93db71812
0007ed0efe0aedfe20f1f0d31a12dae4
f7d9ebef2fa70afd0dfb01e71310e1ff
f2e20dc52b26daece808e1f5b402e13f
1800f31ff0d71c0efd07e11f14f84819
00d6f2ea081d0ecae5f40241d90f8c29
0596ec251ef20f23f9e7f1e3c92fd3f5
e2f34ad8eb05db08fa0421f00400e816
11f61b0304fb34f6233561fff4e2e32b
fe02141adb2a9c12e313b5d708cdf5d3
f6fec215eb2de00fd815e807fe181f17
22d205f13003f0081115f1cdf8ce01ea
f8f712f9061e4dcaf6fd2000f9eeeff3
40e132d1d4000818f2031216ad0a19c6
ec1348d2e0d8e312fcf1d51cf438312c
4edef7f6fae80a20ec1515dbe2fbf3f6
382cf2ffedfc2f0d61042820f6e023dc
f209ecfdf3fd1fde01e90f04eb132ce5
1a230bfb240201e3ef16b9f9f9fb1efb
3526e4f2badd12cccb041af2b0ebfa1f
ecfb0d0c390a850eda2fc92226d4eccc
1e15e8fbccd1d7f2f4ef431cdde5faf2
003af4f82cf2f906e02ff5bbc42b03d9
1e10f6f700f6240dfd1b0c0fc8e328cd
1cd3e748b4ed27d9e9e1d8f5e234f6d3
d820f3d8c2ffdef10f160ef4e8fb08f6
daf6e6f606fcc005ffdc0e14071ff9fe
f65306dff5eb2a1df6e9edd2e8df4da3
5dd7ed0bc900e919e5141913dafb26e1
f91a0af1d52ae8bff2ffd91afad9de0e
06f6e92ecee51adef8c30614c7ff2725
f1f0e0b9121cc2e31eebfd0c95e9f2de
4730fbc205fef729cf19f6020801e909
f5f8fac6e5f4faf80218e118231f000f
2ff90b0be0f4fbdde0ef28fad9ea0bf5
1006c2d9edfff807ebedd4f9ded3ff05
fe29e6fef6ed19f1112033ff1bda16e6
0d020a06f810c8fc15ff07f7b7c6d611
59f9cb10001ec3d8f4f9d817d7fde623
ed12c4fbcfdd0bf61610daef10cc1318
db05e6fdfbccfc0be52046132bcc06e1
4bc2f233f6e30b34f3bf9eef84e910da
0a0b1e2910db010d22fddfe0cfefcbc9
1401d0fad7c7edeedf05dfeee3ebecfb
d8360cfeeefce0e2eff8f00fc0d2d50f
14d3faeee8dd173c082615f80c0522ec
da2901a401f30302f207bdfe15bbeff2
0a400def2fe2fcb3d5271f360f0fc618
e40407dae20001fef5f7e503ef16f9f2
4ad6110c0a0ef9dcd0f91c07eaeb3d39
f0e00fedf0f5fbefd8e9fafb1f11150c
edf328e2201c24d1e70a05e3f90bbffe
fb2d11c5bcd2e6eb1d27fd0d022bd818
2702ede4dc13f6baa7120b280908210a
473adc33d51f1b1deafdb32cf3eaef2a
1306d9f9ec5f3ab103fd2dfee6ae2d34
07b5033647d4191310f710f212d31804
3d0c250e6ded319f10330811f9e4fb02
01eb48183f19f4d61e3a39fdec4d0efb
083de10ac0e91ed7e6f819ebe2c2d81a
3b13f32716ca2febe716f20910e5deff
0adce80ac527c13f0ffe05000c0cfa0e
ef36011b26e0f9d0d91200fcf9bbf8f9
e709d11506fe0a1304ff0805fbc4d81a
dffdd4c006f4f20c0ee2161cec1e053c
f21c0316d8111ceae9ed28e40ef51f6f
2b0f45f6e1ee062723161f19e6db1810
fde3ab130acb181dfc02280d3dd61214
00cdff2d35fcd4f0d8dc03081a1013fe
cb1110f1f1fcf81df0e5fef718b4d921
e1c7fbe4f0541a0dd1ba15110ae527c6
be1632d20131f304e00607f6d8b61ded
34fd360602e2f5050c0700d009f2e61d
ea36f0e1121018f2de1c12fa30a81003
2c11f90dfee6ecf03b240c1629dd2bf9
ccfa23c213d4f1ced9ea0822e911c6d5
f44e1815fb420d0cd5e3e535311af617
1fdacbfeaef3010c38ee1b092739ff42
11dafc0efd0becfbe3d3c703e2fdf9e5
122adfd9f3e7f4bd0f141207800453c7
060427ea1822fb03f133ee0b08e70f06
00f0d2eae709c514f8165cfce7cbc917
0d03311426f806140f1df9e81527cd0e
f219d107e006f6e70ea6df11cd0e0be0
333fc2e01500fcdf1ce702ebe6fb45ff
17d52ff317e82702193862eeb8f0e3e5
17feebde1c04d4bfb5dd2dcf4709f88f
2d0761d7d6b41ddf2f2effd89ae52fcf
3dd3f109cf17f7c4e7f001ecd9fb3da8
f8030ce4f4f40c0615df01d3b9076ac0
e701f815df40ce0be5e6f500e1082dfd
14300709d6efd530f91abad3f7eadb00
05ee23141bf1f7f00cd41ffbc1d933e6
f0dbc2df1bfdb72638fff6edf815e6e2
0b3a06191f05181608b5ec1e0be5fee7
241d1beaeceec4e618f3fbf430ef0c16
1ceee312b5d308e609aef11a0fe2ed0d
03f1f0f90012f00100d413af09fbf6ef
f0ef89ea16fbe134eb052808f01b0e18
d2e80505bafaf1f0fece1efe101614f9
4c110f02e818ddbd05ebf3deefe0f115
23b7dfe41af9cc0ae021eae32d994aec
028f35f60724d2f1fdcb1543ff52d5ef
e9c9c100fa0183e22105e1d6169bf505
2d094301002c23e723f3ff9afd30d943
16efbde4d4e4e0cde427fbfc18c0f74c
e532f9042add1cfe112f0f950f09dbf9
0b24270eb33df22cc4f6021f2ee40203
e8b2421815f6c41ffe04bafa47f71e3d
f10809060503f5f7ee05f706fcef0708
3243ddfe082725e5b121fa0100fb0efa
1013f69cf7be17e21a98d4ec53a5bcd1
3a29f2ce4004fbb50ef0b629c9d704f6
01e600d6be17e5150625d80f2e10da22
1f09cb19cbe119f9cc38de1de2c217b9
30f600f6edfaf9f107f30e02e0e6c2f5
fbf11d02fd3110f5172807fd060dfa28
c8decafeab1ae3f2f9e2ebe30c02d90d
f4ecdefdc6bacec70b001b1c00c10f05
00e7430616dc25c81c03f3f33605d2f1
1f3cfa1e140110e0fdfe191509e328fa
b9ddc907e2f6fbebcd04b4e0c0effb10
053612f0fb30f7b6e60fd7f803f1c720
d935e8b1cd130113cf11d5f420dccb0d
09eaf70ae4f004d8001b231bcf04fff4
f4fcfb1302f401dde70df1080c07e205
b32d2fec0ddf00f606180dff0accde37
070c0a02fed4d9fbe6af3e0323e0fb1c
0e13b9fee73bff11eecfdbd9e7e318e5
149d05302def28f21bf42003d9f0f23b
e9042efd1027dd0c01f6de18f7181dc9
d8eaff0fe10aeec5f0f4db0c13070608
e002f314340eee40eeede5f00f011c09
e5b32104f5bcf7ecee01e9c9f6d8c9e4
13f6e3b9ce31f612e3dcc7ec3c2feef0
13f5fffd02253c06362a38291608ef28
d1d9f3f3f6431dfee2f10cfbf0ec10eb
f2291ff2eed6fe32e319f6d72bdef2f9
fd25c0eff6c5f118f8f802ee520bdc0e
dc11e32819dd06210628150aeeec9cbd
15dbf518f4f5e9020df9020908f7fbd0
19eb05feece6f4140f09120ae8f2fd00
040e3fed01cc00fb241c31f2d30b1ceb
e1e4fc26e503cfd50decfff5c9eb35e5
a2214ce8182c28e066280bf9a23d7ec0
fdf00f37f101f4c729b7e1d8171db7d5
25d0ff05dc03ba1dfc1124f6f11bf8ec
54dd12f6d7cfd31fd51e39ee121ef026
22f512eac707d71ef6b9fc14de072620
d71fd5edf2120d33011acfbbf9ecc9d9
3112f404b32d0129afdd3945d0ccf122
f8121c1ffb1610dd00f729bfcd2c100e
0509f205f200fccd21aa18ddf81105f2
f3fa1a1007040717de1ed5ecfefed7e9
d6fce0db07fb27f2fb07072604d7feef
2b1a162bd8ed203c021df5a7b72e0201
f8feb9ebedcbdb2febf016def414f72e
cb1dd60108f7f2f6fd13fbed0cd3d2ee
f6d7b8f930e38ce6f610161e6cd53aef
daf00a392b0409dd53d6fc0c22241911
26c30f14ad8ed2b807b90c25dad30356
e7c3f9d3d8eccee2f7ef334c004106ef
e02ff55ef8051a2deaebd1ebe4fb98c8
2ef7d512d508d00f4cfd0524d008e51b
1b3209ded11bfa29fde2f2f11adcb3ec
04f1931ac2aad32de50a12f7afc208d3
0417f4feec0f2215b3d6eed5e011950b
fbeee8eee8e7f5ff0a07252dfbc3ccf2
fbc61df8f1eed5d903d0e21c12eb17ec
3df1d1dad9aecafdf8f3d7fedbe231fb
f00e17d4f8fc1b1410cffa21f3f44b10
3ee48bf408c8c41723d3044ecb802a3e
fcf01529eb0d0de219ee12f40a06b6f8
0ffeff24dfdde4ffc7f112d2800e34be
0e09fbe49dbed72de80914ea2be515e2
18cf10e13ac000bde31afc19d2b4032d
4f17f642eedfdc17f11efa5901050b05
1d0edff6ccf500fee718351bd8e512eb
1dd6f0083fddfd16f00be12bf1d7ebf7
35ebf8260fefeee0df1bf60d06f6fd2b
1619c534210efde6d72d3c18e0000116
27fade2a00b71be00420ecf7f3e50af9
e4bdc403fccdfadbedf9f5270aeb0c01
d509d5ff0bec3bf8e217b5d2f7060729
a321fae9d42a02ffdd10c1b62fd5de08
fae8eec009ead51dfae6df1d05e1eb0d
fdeff7171bc5e0c2e2eef71d20d705ce
ee1ef9d901ff1bf50b26102afdece9dd
36d7c8ecb0e30ce307f7dc1a26e2e829
d7f01c2755fcd6411df7e4ecd63228ea
fa0520f30bedb11be3f7fe21ea23eef2
21d8fbfd2bf2241a03fef344fadce71a
e22ff200fc340c1ef8d5faec08190be5
c5fbedc2000de4eafaff12f1cb1dee3f
f60e082f0914f025f5f3f0f3ed23cb30
de27f00f2d4c03cffce7201239330f04
06ba00f80edc28cde83002ff07ea0523
220501f9394829f202cc06ef2dfe2ff3
f6e1feea4bfd05d6e1fbf6ddfc13e8e8
d89cca4055e30a220dfafae001ededd3
fcdd3e3124c2004002091314fcfd1b11
00f5f013e7fbf097e1dccc0df71c12de
f5f11514fd223901ebea16f3fedd1efc
d806fe02f314e6bef70ae4ffffd11427
eccfe3f5370f150eddceffe0031c2bd7
173000d33304d85dd4f4f225eaf4e506
f6d104d92302e433eff50f1e0ae9ef13
3bfd10e5efbdbfcbeeca160ead034aeb
0306eb06daf9e9daeee300e811ea05ea
0b00f8fac8d8e5f6dc0c141dd6020c2d
0ff73b2bf3ec111d01eedc18ff0715e6
2ae30ef0c4f0f1f90cfd2e0703fefed8
31c623c8d2b90fd1f1cd1fe6ee3304e4
c3eb4d07450afc0112260d27e107f5a0
2addfbffb1071222e13a2f4ee8fc0a1a
04f841ecf9fe22f70f23c40b05fe0904
40271cf60b0703a4fa3fc7e5032ffe35
05d9090621d7e0ec00f810f900f71126
140c23fdfbe53fd41b1816a7aaee07e2
ff130d11eaffe7dceefd04f5c1e61b0d
18ece539f013b1e2c6e02323fe1ccc04
360ace3007caea0031c1e1e20bedd919
d219289cd6e6342bf4180c23df17f508
00b911edbf20d11420f3ce01ec07fb37
f7c90821fffa04e5070a0d1ad612edd1
05edfdc0c206f8dc04e805e4e7f702f3
f23c13f2e8fe1c0cecfa0436092dccfd
ea1711062a0744e71bf62308120def19
14de311bf9261c1ef2feda77dd0b0709
ffec46321f0e0ef31e1804fee6ef1c0b
201dc3e8e1e9f8cce2e7e104cee1e808
2a02f8f3d5eccdfb23bff53aea301203
07dcd60e1b0cc911fe0d0321ef29efcf
15f7e8d4cecbfdae1fc4f2f8df3ce7d8
05b6dfcc13bee9e6fa042e1409ada900
0a09efd9f5ff151be6e70fe01dd12bf5
f1086f3b174618da02d41343e51382f2
2fc5c0f6f0ea1a05eb212cfbfde4192f
cf11e7c82edfd1b8e4e687c4ffcedada
fbeed0f6f20916febadf0cfeeff9edf0
f0ea1bf113e344da0434140bfede36f9
f601fae4322707f90a030aca00f8f334
e31010860d0cf1ca14eef128024bb0fd
e4fcfa86e20902f4de0abaffd7c8ffe3
d8062d18f51c3b15db25ef18f6fd1015
3cb8005dff16e413f1eddf37c4c20c23
fde7e7d9ff2c9e20efc0fc09fa0dedf9
0435061f1a1421f8e2fc111b05ef0305
ed0c27db0f41fdeeeff430d8030728c5
58cfd41a1a05f70ec735e84e010de5dc
15fe0f000d05fcf6df2e0704b9fa2fe4
feea019d0814e6013bc20f01f535e810
4408111700d2e622da1dff5401ba0e3c
f13aefe9fb39ca11ef0902df07f1f3eb
f3f79209cf3c41172ae9eccf2cb7f1dd
2df208fdd8f70240e5fae1d407c0fae6
0e1519d2f60cdce7f3ec05e3e3801f30
0e112c1cf1daed17141601dcfaf8051c
dcd3c7ea24c01d1004fa0c140afcf1cb
0ff41afe001cae21f2efcaf401f6da0e
08b9fc22e1c9fc14d71c3629fdbe1c28
eaeb36e8da3ae514dfdd22e2aef7e925
d1d9e6ff2019f84711eabfe0d318db8f
02e717f11409e9fcdafcfcf9f517fd11
1a2612e3fc1d2805482746190ade9da4
c4def228cbd7fb12e108ae0798e7ce0a
e7def4e9e71efd4a16ff1be4e31a1fcc
0a15d0ef08210812320915df320426d0
1df724ed3256ec190df0eb12dd0be908
24e2fad4b7f7f71d0ee9fd0a02e21334
e4d220efe3e6f0fc33e911fca6cb0a22
dff90cf144cb1ee413ebdce21ff117f7
243bab2af0140813e04bfeed12ca2307
ccfed2f0010401d82ae8ef170dff35f9
150bf604f7fc070c14f3f415e81d1b18
4134e7b0e2e6ef08e33bde03f6190ede
fa011ede4301cd2a233e0a01f8d91c21
55f5fcaffb83bdd8f82b04ccffd2fd47
131448f833bc170014dbe698e922f3e6
050bfee60318e3e90d14101ebccc0fe5
bfe92222e70148af3e3706afe127b6aa
e9f628e521010702052426e1cada14e0
ecf10f0919ed0cf931f72f0bfcfed71c
def40be1d013f2141bfcdfc9fbe7212c
77e51409d602ea1d12d03cfa04f2fe36
f20b21e90730063d050c0723fa06f7bc
0a1ce02101abebcecaf70fe8cebc075b
23c21de700e707f81103dffc0814eef2
32dd17d7c5221a270c0e0cad552a1bed
f6de2afaf415f02118fbfb2aea3c21eb
ed1afc14baf32ad0fe9921140cf4eae5
111c060c01070beb2020f3210313fdda
0a0ad217df1df3ce160d45c71fc3272a
c8ae31172a08d0404c17cfdff4c8cf35
1939db5228aeeae927b7cae6d2f4be1e
e2f90301d4d80c0f49f8f8ef12dc300a
e7e8f71cdfb6e402e0bd45fbeff330fe
3bd9e35bebbc06211922d9dbf415edf9
fb001e1711e9f1e1e1f4f6fce50cc8f4
0e2f0638f1f713efdffcde0fce0dc5fa
d2e12a341f24e8faeef2dece16eff4f2
f802f7e61d2d3525d730cbfa060bf901
2912fb10f928e8defbedee2df3f0d9f7
16081df91c0519a60112ff1be8c3b8d2
38e5e0ec3415fe0f14ecf405daffb0f1
12f60af9dbd6f21ccb502502e7ab0c14
16201a1930e0fddb111b0bdf1e01e6e8
da030dfb08fcf902090405fd1e20c826
1a14f4cac7dddaac1dc7d1fb012dac1e
f8faf91920f42f1a133c3f253cdafaec
f143061ae31d1cf0e002a12af3d33af3
0938010d281e58edff3b59261ecadbf1
14fd0cfe30d62ce426f2ef06fde8ded8
21f3f0cd291326ef11251e03d4d7e52a
1ece3236251736fe221502f9eef7434a
fdfb0addeaddfcf2d2e4361afffea7f5
fa14cf51fcf603fac420003029da01e0
04bffd3a2f19f00614f7031b16edf0ea
0e4302ee0011fae4eedfee0416e8ffeb
eb16d709f52f19f5eddf2cea1d9518d8
dad5e61927f50f0ff1ebfcebe7c4e828
b5eed320dd22ee040ef7eff7fcecef43
2b1939eff21526d90e122d300de6fa17
4005d33f10c911c41300251aecdc23f2
13e6b04d42e03fc6f3db2f05e81611d6
f7eb151de61b22a0e40118efe88e162d
e20d10c2edf413e2120019d7fb1026de
e5f7e8db241eeac5f4d8ed08e88d2ce6
32ffbfc85bedf81504002bdf28020f06
cf0ed8f8dd2716ec0809fcea11d312e5
011b0dfefe05162c4627e4f7061438f5
e50e1b10f00ef5b8ceddf2fdffe3fbf6
dd1c6a02f9c9f0d5d0e5e1b528cb065b
161729f20be1235259fcf224130c3415
18c511d9e8faef090bfb13fe09e6c0f0
1646fcf312fdd7f7e0f631faa9e622bc
f8e50b0de2fd19e3e61219efe4e900ff
2614edb7cad4de1604152807f6bad70b
11d4d21710f61df9e32afeeaf4222307
e0fdf20b052a16c008e40f19fc09f0ee
1925dd2d2bfcfcc1e2e3f223d32937e4
290b0a0de1b9e818f80d21c9c60cffe3
3efce0e4e6d3e7ea3109e8c900cb27f6
300ab1e5eeec151fbd05e3e0dff224fa
140dc00ff13304108b1a3059b6013006
d020dfed030d140af0d83d2ec6dd51b4
e6dcfc191416f0dc183602ec3701ff07
121e1116ecdaf8eddc190409f7e70efa
0ee4b3e8fbd83117860cf35be3fcf8d8
2b0eeef4f5d9e4f711deea262023f730
e01f051e11f802dded10e909f8fa26dd
2d172607c8dfda1c37ccecf3d7f11025
ed0b100baee707a6d1e5062345dbcb1a
ff57e3f0031ae50df2f203ab1f0cefe2
050ad1fadf2005f9ecfb28be34ef0d1c
dd0518fbacfb221bf0090f3df62421d5
2cf57f63fc0418dc4fa8094ee300e4fa
eecf11ca13ec0ce9c10416d842d42404
fea70e7d084abad7efe20fd70bfcc51d
97ce1005c4f1f52b0fd922dc19c73307
1a2c2600d4f21deb38eb0bd21f091e13
2f2a0b041300ffed14e909d5cffaef13
1123eb12280203f31b3539d833ffd7eb
e222da029efc02fa1fb6f524e0f5fde6
aee90dadf320d2e5e00e2aeec820fbca
00ed0109002d1605f70210f8e1fefaf3
081629e616fd2e0a1d211be80ccbeff4
d2e1eecce9e706231b03d7fe06e00fc5
55fb090a68fe0e96d7dc02fcf0f6e6c2
fefb290438fed214dbf9c92e0c11061c
38040cdffa00f6e10516b665c7ec2de6
2842dffddad019ffebfff3fee9fefd02
20e3e705d12beaf6f2250aebd2bc0bf2
ddfacf94d534c606f40d2607fd203b16
d6c9eeb00cec0af6e0cee9f6d9de02ea
fbd31af804c736d40e0323210b1bdfb8
011ef428ebf2e1ebfad1b52519dd13b1
f0e6bf11e90dec14ecce06093ff30010
d91ef3d4d536e3ee0917e9de1a0505ec
0012e948ddfbf4e0bdf302f314f2fcd6
01fbdf2ee0f7fcdf00251820dfd80bfe
13f8f4f403f6eefafd1f07f50300cdf7
dd0b3dbeb33bf5b9f6d71c0de195e625
64f8d33e2dd414c9db1533f001e312f6
f8f616d4e0fbf402f41bd5f2d0c93b22
17121a331bd707f132e62c25e81cd7f8
08e7280fe8d9da0ff3fcd8e3f80f0794
f6dd1a15181f0524de31e51ff307fbfa
e916f7fee9e7f04717e8d40c000c11b5
09dffccc1df6e6ccc8fad1d7fa1af5e9
c71ecffffd05fa23e1c9ef931d0bedd6
50fafa1adfe542ed281f400ff2e6ecf6
d4fe04f0065113d5efbe0c14e4e115ea
d30518faffff23e1d2e2fc1fd8d1f54d
f720f12add012013bad3fa013de73114
010439100ed833c012162c2282cda433
e9d721f61e03f1e4dee5f926e52bebff
02e315f0f3ef001be4ff11160812eb07
26ef74ebebb219cb4243fede96cd07a8
b81cc7e91b26f8e225fd12fef90933fa
09f6379d4dedeeed650c26cb9eca76f4
0af0221a1cf11ace0b0dd9cbf2331af6
14d6e8082411ffef0739e4e629ebf7f7
1eef0b1a0ef4e6f5cfdf1afb09241305
ef0612d6f2fded45f6f40bd9f1bfe020
f70acb0cd2f6e52a27fd15031e23d01e
1de1f4dfea0ff001b9bb16190df8100b
020ef9ff0e0e28dee7d533c8cd2f0c91
231e12e5e6cce0f8f911f5f7f904f8b7
1eff68f1fbd31ffd044323d6e7e50e17
ffb6e2f3bafb18fa39d80de6faefc810
311a340ffb9d0e1a233137c098f30be4
fed904e5ffc3f62416df0c08e9ced2ee
c32402ecf40df11bf9f40b1207eceedc
f1ded5f6faeed4fc1223fde42ac72a10
edfc45210e01f4fc39e4ef1bc9fdebd3
07ac0fc1c9bcfdaa610313b0ecf1e775
22bdedd3cdf6c3011bea37323711f3d8
0fff19531fe8f5fa1de528160416c9d2
23ea02f712ec001e3ffdee1103100739
1304f81e36e4040a1beefed9e906a5f9
ec1fc11a3808f310f50fee39ab15edc4
f85521f0ca0ddee7dc1c37f5d5479909
e4ec02caced70af12efb01dd0d041206
fdf820390fd704d4fbeef41aefeae9f0
26e6dbc100f3d3d0f41fea2716f60d30
ea090b170f100812c2ece11cdf2326e2
22e0f71c12df010e17ff35f6089be341
fb0ae1f1ef090ec20318fe07290aca22
02dadfd4e401eac5dc3910d1e0080dbb
d002f3dfef4b56ccc7cfe81ad7c5ff00
0712f11315f4dfdb02dcd0f708e6f121
fdff13fedcd3feead0f6ff08eadf00e8
cbc70d0eb9cbc612b903e92615b203d8
21e1e62302ff2514ef18ff33b2f2d426
5f0303343d1912cae81ce311d7d6d8da
11f3cf0f2613f4f0fed2483bfbf7d00c
18eed546e50239df0a20e01c01c62ae5
e5d6e6f50336fc22d6d4c716c6e01931
341700403cf1d2e2baecd0e8fe1c07ff
db38d30ac105fb0cf804fbdfebcffa07
e1fdd5f84106ef15ded9e7d609e18def
07bd18d833fff5fadbfd0cec12e502e1
0a1905fedefe14def5360e19eef9dde8
3721e1bf89fdccd8f63aba23c5c40b14
12fb0cfc01e812d1e1ffd6c7dc0f16ea
26e7f1b5ea070940e8f5234342cf0b26
1a09f1c3353ecbeee9f3f70b16eff9de
e61d1cfa1a090411fbeaeb19ff0c1a04
d2f20bfd1c08ce2eead9d809f7f6eef3
f0ff401b29d8ec02f00afadec9f00b21
f70b12e53923f5c6e8f03ee73f22161c
c92141f4e20f01dc2af7e317c9361e0e
eafa10fd0afb08d7f9310d1014d84217
e6f501fb4d02f32602e4fcb91015e1ca
e0051eea33f03efe07eeee00eadfa2d6
ff000c1c18ae08f329e8f915081f0ef9
1fff1f4062c50fa000e9ac36f7da1df6
f2d9fa1ef1eb2c0209e00ee116b2ffe1
0e11e2f6fdfbe9c3f4f8d8ec11b3ff13
d51ce7de5902f731fa0d06f3023d29eb
32fd44931c04e425d3fb2009d722d700
eaca2e28f2ffe01441f3e2330ef82204
2703e5ebe61f1d1b19ff2737c0f249fe
20e3daf2d9e9f829a1f6162ddb0b0afd
0c3004f9c3defe16cb290cefebffda0b
12b3dc0e1c10fa15ff3b291614120a0a
14a7dd17deddd404d9f43622d7f421e8
3ae720eac11a12cd3cfe0db90a2dfbf7
06e400d0fd0d1318fd0bd5ffe7f1f3e5
05e0fc1ad8ea0f05e014e41d19151bfd
14ee280fffe01ff8350113f5f41508ea
10df11150b00ff5514140719fd1d8c0b
eb1f31f60fc2d8f12503e923e8e126f1
0300f7e6e9d32710eae5e9c1ee07fecf
fc05adf7ed19c03fdb28040bdcdc01df
0acbc917b308dae6d1c2ec36241104f8
0e469f2127e8fa85ed1bf9d1e2c8d80c
0716cbdc10d6cf16fcf5f6dc030be117
e91910bcae170a0641eff809c6010d0f
1d0ce0d626ea14b0d2e91f06c200db03
e7d4f8c5030a13eef00efe0fdeef19f4
08ebe6e6df37d80ee6fee62f0039ccd0
f0173710ed0b13f808f510db24d8e6e8
14e2f544f1e8d023d3fc143cbef2e2dc
b1060a1f3c191c34fc1f1b0ef2d637bc
2004ecd61d3de4dddefaea09b510cfcc
25ede5efd2d2273624e0030b0ae712f6
eef104191fa1f8fac4fe0f33e1f9daee
2ae109a6dcbb29b22fc4e2daf621c444
eaf5e51205db33e100f02708f9b8f601
edf11e44fa04351c01f1e730eaf31ac8
14155530f02a26d6b906175fce3a83a0
00e6dcf527f4d3fd000aaf0d00f2d6fe
fb33e632eefae326340551f3ede3e5e5
e3c60b3134d10917eb111327f517f0d2
fdf21bcb1d2d0ad00111aed21fde2109
1be20e0e10fafa2c08fb060511f706e5
d715f21401df27e1e80e22b80ee5fcbf
d901033dfaf2eceeffedf93b19dcef30
e6c7040ad2c408fa140805e5fcce3664
bcfc139b0aafdaeafcccd2df0efbacf8
dc1ce6ef28e0d6ee4befdae527f2fafb
f81be81dedbadbef10c3ecf025e9fdf3
fac8da2d171fd30e0514e8fb0718efd2
ecf9fb4211c8b8e8d7eec8d3edcb09f6
32d9f02c04b0c7281cfd06f019e4ff21
fd221bf71806ce190e072e0e211114dd
f20a1bfd1cd3ff290905ddf5fce4e0f0
04110fe04a2c1cf00402260727ded5f3
16cd3d3d25dc0c1227ef191ef13bfee2
f9bfc222ea0202bfd2f4fce9e81303d7
f7e3d8ca203a410b3425283002ab3a03
fced001abff0e6f40df4f7e7f636e726
dbd9e2af091c14f00b0a210ffcb4e1f6
15fef52eed80e6a10ae0fd37eed4ed41
367f02b34be000ef15141c2cf1144b42
f595500a0800eee7eec5d11ccb8e28e6
d7110626c91dc8b9effa02ebf9f203e5
fdc2ddfe152414f70fe7f8f7da22d4fe
16e93c280525140930f9500effb6293a
cbea1934f7e98bf398afeadc0cae0918
1305fd07d60c0204f4cb2d0ff42d02dd
3c05aff6e64121482a3c09fa060bfc21
eeeffbf851dcefe201ecccf8f4bc5220
e84010d6de12d2c4efd6c907d10727af
bd990443f61df63f0522062f213ec1e4
14fad30baef8de33cf09f91ed5e6ed3d
0e3bedf40123fce238d207fde62206f1
e6200b26251724dd17e024fa061809ff
dcfb11f0e8c109f1c82103eb24f506af
5db007ceaccefb35072d112791eecd37
3302f1012832d6018bc5ba581bf33d17
53e8fbbdf2bf12f817da18f8db171800
ec13f3def751e00e1f1b1124f4e62ef7
f2dfbffc27212407dcd11811ecfdefd7
c7112d0feb01d7ef16f5fa0a17102180
bb0e00c0f9d0f8dc02080c00ffb00f1d
f5fab430fd070433f9f0280924040915
b9fc030bf4df18d1fbbdf7cd0c5c1ef5
f4ee43cd09fecfbd01e1bd24dc1cfeeb
f9e4e53e26e2e9f51302ebdb06051555
f6f30405f7073aea43f816cbe0454ce2
bafcf0c9de1cf6ddf9c1ece880d5e902
27f91b3f00f9e2cd1fe51523e6fafb23
f2e9e8fcd807d7e2fde8f816f3001904
05f9e7fc03d31c18ccd61ef7ded9ea07
0afc298ad23565bcd71707fa19b7d9f9
410c2ebef7395f37332c37df09306b1c
d4b3e5b39adf0995bf0bfc303fd302db
232c16ebf4f425c3f309e5e1e5feec0a
f3e23c2bbf1d3cf8d4faf4eeeedb28fa
0e10241926b9bfa51a0507133ddcc320
030210dbdfee160c06e8f2472914cfc4
f6425af1f72e7f25f8f3eaffcf15ea14
06eed1250612d817b8fae4f002f4300f
25bec0fac6e808fdf345f83d1be73f04
ea12fe0020f8097136edfcd7c63a2e0e
03f3cce4d202edfc0a31a127eda803fc
ec08ccf5cc1b41cce31fbd18b5e708e7
32e7f737f5b1e4e9100a10f3c91e0e23
33f4eb11f8581befee3bf729a9f4fd46
f40f18efd00d2c100915f7d8012505f6
0af0fcf003071f93142dbcd0fb0edb04
f91bd6acf416d9bbd22dd3dbe0031cea
0709f01aeff4ff0c001bc1e7d7ded4e7
e647e6e2f9fcfc0c110cefb815b8dd10
ce1bf200e2d0f7acc81daef1a7efd4df
e8dd32e833db030e61fdc314f71124cd
f205fec4dc1120ed0de7fec8bcbf6107
f0f60717e8ecf4c714475821fc42efd8
ffe406e52bf9ce9ff6eac8f51400c8dd
d0e4edf9c111d506cdf0051a52d8e9ed
e9f7fdf5b65b0ff302fc20f4231f4eff
050825e42aec08e915ffe2121fb30009
01320302f2b1d12701100216edb9e320
0ee105b5e8640b22f2d5092cfc23feff
d360cc1ac6e9ed18f8051c163bd21afa
2d1f09e50bfc1d12313c0316fc180a04
f9bb10e71cf832211df91b17ecdbc902
ca1d1aa9c9f5dc34d9bbcce724b617e8
ee2300db150214c7c11623070609fd0c
f3c5362f3bbc01e2e9f61816f9a34a17
0d3c01ce42ddfa08012711e60fedfcf1
18e6b7560ce9e32e170bf0e40136210b
4307191218f2ff1f27110526fe27f933
0906d2d9effe25f51d3624e40a2e0e21
ee4540d9e40ff9ddffe704fbc0c309f1
07c5c7d5a404d200f9dedfb7f302ff4b
cc0ee306ede8b516220210e27cd8d932
fbed1ee8f3e107e50612fc16f20ce5d0
06c9fef7f8fb09df410bf60ea9ff05c2
1507df0e281b0324aae62c1412d2fe5e
f318f7e6f71bb70aef0a411ae0e416ee
f315e500fc10f309ca0bdee71d0a01db
4bf124f314ef13fd2e1c10e3e0111ce5
0dce43b4a808e2c06b3ce81b09d3d618
f3e2c8fc0e08fa1fb0e4dff8e5bbff06
2d29f6f41be500a1cfcb2ccd1f200c1c
ed21e9060af60923f5d1d4f89e0ef2f4
f332c335d6e327bdedc8e530013c24e7
361ceaea2e32e5e0e4fb0e00ec1df81f
e61de7fefb41220dfdf65ce4b61419fa
f40222eed0cf1d05191a1ebec7ef16df
c824f9510afe4c0a17eb0adace2100f7
da24f31535e4ebfa10f1050a0f1bfd21
2304f50819eb0bff1a1728052ef10e17
28d2f4e0dad88eed2df8ecd34dc501ec
df52ca81b9154a17110fe9a6d2f3ef25
150ffa13e90ee00a24c222e201e02e19
f2fada1711eae22ff6ee2c1906fef7f4
08f5f620bce6e2f819f9fa1613e1f002
15fec1ec140997fe9de7c400fae9d7a5
e9e9c8b4e612e2f335f1f097e0f4f817
0cc9c6fead00b5c313cc1d4b1e2805dd
f3eee606ddd4bbe42debf31d8d0cf607
37d003d1fa16e113f6fa01c918112f25
fde30b00ff80e3e10708fe06f5f3f0c6
fa0f2929071daa251c21120823e1dce4
109ca6fbd3f595d2dee8ca16f0c5ee31
b8d8fbf7d5311d11e2f7df030af84802
feebec1a04e3f7dbea110b1029d9fc08
03cdc82fd80511f10732d7f3caece31d
1bb0f7c4eeb01219391a07320bc609ef
d528f5dbadfc1bc808e800ea15150b1d
da06ed0df3c4fb0ecffaedfd32e8d808
1df4dd0b0dc7a090f5bffb3836e720f5
17f707f3e3f10908eaf80205de02edde
df09bbfeeb2e09f31e2705f72ffc0711
f2edd4d4f6fc1737d0fdea1929f6dbc6
ebbb0d2340cebd15260e6cfacbe50eec
e7fd23d3af2cf0daf5dc00d105f0f4e5
f316fa0af50826bb0e1dfef7e9c3e0e0
13f8c82ed4030dd0f6341bf02f2a27e5
5f0ae319fdead7e1aa19e302efe51a05
1fdb09fcc2eafbd8c50ee4393cfadbe0
d8f012322d8acc16ee0637e9f6e9f8ef
0fe8f3d80bf4f3dbf109f0ed0e0a0017
f86116c12408cd38d81fe05a070607f7
176222141522ca9ff8fccb29c42dece2
3ec4b926f7f401ef0917f7d821f7103f
de9c27281f540426e8f50a1fd9d719e3
e9092dbd2a14fadce1e7dcf1ea43c217
faf918e2e9deeaeadcfeeffcf10821fa
04eeb6130707f40318e8e7d831d720f4
f80bfaf7ec03fed8d0effcedfe23ffc3
f8b6d3208bdc08a6cfe3f0f9e10933da
3fb2b3071acd0b1c570918150318e0de
d9f400db070a05160aef25fff2ac091a
ec12aecfcc14fe03c017e8eb3b26eb0a
f5fff9f8eff4e809e906da03f501013a
da0a0febed2211b6e00606ddf21fd0ea
f608fbfde4f4f6fad707fece210208f5
02e200f81b04130efffff40debe9ff10
ddccf3efeb30e6fcda06fee330e5d3d3
571044d4ba0c3ffa0a09cc5cd4de35e6
f203db181bf12c272c05e9fcb822f7ec
0afb17dfe5b812f6fbdffc0036ecfd09
1adff1f4c6f43823f2ea1e0dc407ee06
29cad6e5e2edb8e903081bf800e0fe2b
377f16c6f92bd7cb00ef13f3120e1ded
eb4f3404fe04f5e3d1fae8bc22ccf1f0
d7139a040f26c22feb035efe13f01c29
020ceb28dee3270121b6b5f9b339ebd0
0135f1d0faee08f420f3f6e6e9f6110a
bff1e508df13f6dce4f3f3e8fdc9c908
fba80201fb0eeffeef1e7c11ea09fcdc
fdc300fe0bf7fef4daf8d1d3ecc8d6e1
13e403fbdde4e407fa0b1c04e9d1e53c
c8fe0d2320ed3600ebf310d60bdd1809
c4f8f2d721f0a449e8e4f0d3d008fcd6
2c2353b5031d6d5aec09e53001fc3dc1
ff183934ecf0edcf17bfc61ad0f40bdd
cfcdf02306fc2c0027f2114a0ef1bd12
2d361d4b31f05120d4260db0eedaf5c0
18aa140a17fbf313d510f6da30fb0ef7
6823074c231119342907d2eccf041f29
1a13e267571be10edeef1e19edcf2cf2
c30f1604d5cc2ad207fa29d4c4f4ca35
ffccf340fac513f223aa2223f7cc0aca
f202c6ddebf8e5df1f09ff02dcf2e6fe
1afdd0b00121d227ece9fee6e7f519ea
f3eb1af5c2f5c8f924e30db8e92efaae
fc19f93116cc2d1ee7a422f1eaad04d3
bbf8a6c0ecf1d5f301cf28d7f023010b
19ecef2bd10a11e6132c6afbf72e0133
e9c40767e2b7286e1dd8f7f9dffdf304
cdf60e2b16e7e7dc011e33c28f0d09f1
ecde10fafecdfe4b1cfb19f4b8130aff
10cb1517ff240310fa30f515161b01da
05dcd30ac79ef63c0708170a04fde9fc
fef8e1110eeffefbe4040e34c0281d06
facbd611081af063ffdfac13fdd103d0
d4e2000c17d9de0920de9af6f8f30d02
00d9dd2506d7f617c5007c191afdbee5
04d2c5e308191ffdd6cc9c1630e7eec1
c0acf7be1fe32101e802111e4cf20306
e4f8292024e1c639f70035dff7e9d122
0306faeb050749dbf70422f3e3c80720
ff0cf4f8ea1e13d7b618d43421fdeee1
e7080653d4f0e4f3cd2e28f0fd09aefa
0aceedefd91a07d5dae1eeea435714f3
1bf13430d7d11af8e706dd170513e01c
e4d5031af99dc2151d23dee9f9af0404
d0d70a05d517a945cae2cce3d6f8fcd9
f4d2fa34d1d5fdf70cd7071612f9d60b
ece00e1abaea0bfedaf2d110e42ed7e5
e8b90105fa0b0521dcea08e4090ff4fd
f1f138400f631e3ff1bff9d6dfdf02d7
2df3ed0d401d12d719f91b070cf5f31e
f1d70a44acc5fb81e7f6eddf0213e8f8
bb9c1deef3bbe9ccbfe3d30efdf5ece4
30b434f201190cd82ff21d3bc01fc1d7
05031f16e6ed19a6a2cce4e1cc2d1b02
ecfba0e21bfa23f418ea0af620ffade0
e620f8fc070b0c25100dff0aebcfe52f
fcbf03fdeaececfdb9eadafcf20a2032
c40ca417d230db13b40e2ae019fac133
0f0328ecfbfca9d1c701da350bd82815
facef3d5dee5f42520f6d82ec914ef13
e936e90bf2f3dadd07aa06eb05c1311b
0c1cef1bdcea18f2120246eacdd704f2
f708fe08e4e50e1bf0b713dd00e1e200
270ff82ce212d4f408ee3afef5cd1020
da3217140cbaf2c9faf50edd49080881
dc03df5b2b041c20fbe2f81b1450fadd
1920a1d5f0195206bb030d1edad9a83d
d6e803f7efd42ddb0403eed704d4c6f2
157f0514f1ca2c02b0e5d8e3d609291f
f3f8f7fdfa04ef1eca08ec1e00f4fd27
1014ec1edf14c801ddd5f018ad06f5ae
f802200dffec20fc1608f200a2eb22d9
fef6cdfc143019e8d5d6d826eadf0812
e6423344cafd1e39ead8fc0ba30bafea
d125e625e2dffb196c0c500eb3201b28
d8d1ddd9bc03cf35f5eccde437f3f509
f2ccbcb8e40dc8e4e2d8d41aba17f001
b3001000de2bb4c4f9f8faecf8d8eaf0
d1e4c800f323192d0ddfd9090ffe2507
cbfc00f32005cbd3223036bf1afff6ef
c2bb76f6eaedb9012eebce5bee17dd17
ee4126efe1204b01f9f22a3bde250fe9
fad20adf05f123ebd6e6e3fab7f9e204
c9104700e4dd251faf17f30b002402d0
e62d0f36fe144e1ef405f0f0f4f323fd
fcfef5d9cc0d3c07200dfe0dbd06171f
1cd5a60d24a6e03c0ccd18de0eda07e5
f1decd1d0bf0b0041116f8e927bb3b17
be1d160710040fb91715ecebca01a72e
1c19c9221e0915ee1711f7180ffa1114
28110419fbe7db21f61a2017ff003322
e6e726d3ccf02c0eceed0ff20204f5c6
fd00f4dc243540df021b9f1026dd25db
28db0c3518d214163222202708f1fcf3
e001f3f0f5f9e2f3e9ff190202fca7d3
bdfff80af7afc2eef92226c40db8f84c
b6d4ffc00500110ee500bad350cbcd3f
ba0912ea4aeb1cd814e9ffee180af4f0
d7fcfc0d07fcb02cfcda02e1ec140e24
03f3ef2afae4100bfff6d339fdd5f3e8
10f126fcd7f942c709050c0b213726e7
f733ef0af91a4bf3d22f37240ae3f22d
38dcebe5cfc5ea18f410fffb20e426f2
bad909e610e402f72af1fe180b3917bb
ce20012a0c01d2d84f03e13829f9ec25
0510ccee053525e7021508f022e5f613
fbb00c1e70e008f2fbd3f117df4206f6
d7a4f521cc08ca4bfed1ff173532ddc4
e3fccbc2c62cf30705b4311c30c846f3
f5ee0534fa04e10be6e8f4f30930e9f5
f9cff7ff00aee0ddfaf71c09d8f5f814
f90bd20a39ffd7ffefe3f5260b0ecf2d
eb6254082187d116f90521202703333e
02bce117ecf0e7c4eacf0ee7e6fdc810
eee6fd322cdfe5e710b9bf05073a29c3
06e311050afa01150003e8f1f825fff5
3aced0012e0b2fa22a581906e1d52640
e2d5c31625e5cda0aadc02bd12c5ff0b
f5fe21f40e08f520eded11defd20e4ec
f9f7f7e4d91eff1e10f6ebf3cef602ca
0e20fbfe30fbd2c2d9b4eddb1dcc28e8
f0fdf4eae2faca1e17f42d28d30515e3
f4c3d91c34310831ca3aea340b0bef32
e312f90fbbcbfb1905f6ed0e19e9e54e
d94b3400ff09e9ff46f223fcedff45d0
f90419070eeb31f524f0111d20dc24ec
ff011fe8cf05f904f736bfe7fa06df19
60aff9dca909e04dfcc3076ce4e90442
3f0a360d433fbed5aa22c2511df1190f
13ebfee8fafb260348fdf21bb1e8151a
081adcf7fb28dd03c949f6f4f40c05ca
d6ea04fd1cfb281a25f5ee15c4f212e5
21d1b748def8d4fae6fe1923f62010e0
fc15a2bc281ac354c1213d40b981121e
0fecbdfcf50c2e26b2ce16300703f728
ba01f8f21e0ef4ed25d1caa1f0f9d5be
1cececdced2cc3fbf2ecf928a13deee3
f12817d903030ae71f20e10ae2cdee17
f029060022082ef10bd2f41def1e4dff
bff9bdd6e9eae103eae7011de6ea01f1
36070c4d05c5e4ec2b18059c1a0cdf0a
d4ca3ae8e3180c2f1d01051f08222603
e134b10de611ebccfdfffbef03dee7c3
e2110e95bc343433f9e4100ee9d2f5f1
002ed5ab0518180f33291d0840e66209
e720fbc70801e5c3c9f9d11bc5a4ffee
4d4d1715d9e6d125f921f4fab5eeef21
d3e9f6ecf81025f00713f6e8fde231f1
eaeb28a510f4eec52c140fda09f597f5
1c0a1b11d2f05710dbafcea1b5f8f6cf
e64e1e03170c3334eef4fe03be26eee8
d4ead2f8f7f10e31f40e17dcc1c817ed
e00d13cdd5eedbf0fb08d129e3c70fdc
17f323f6fef952362116dbfbd9eef70a
1e2c04c4081602fa051ba7e2efe4e8de
022c030108ea40ddf21b071cf6fbfd16
22ce090fedd8f8e0ff16e3fae826f51e
1be304141219c3eba82d5b1c09f81c11
1513260bed291811fdf909ece50deb08
130e210c2d14fec42640fb170a03d6f5
ed43fcd612da05b9f402f82cda23b5e1
2ef0dde9c7140f07cd19cffef2be1de5
0923ffeabe191f1bcb08c6d71bc903d7
d7f3e8fbda04ddd2c2b9b22204d21df7
ebd40b223b0b1ef4324cf613e2ead918
162ffb081907b9c5fadcdd2d09d126f0
fbe61de5f520e3f93318260b041a20f7
240e050355f821dbe10adf08d2ddf8f1
07f1f70e3cede5dfd5200c030dc40aeb
02dd2a00fc5ce0430ffcfcf005c520d7
e839d2e748e10fde0a06fcebf4d015f6
f3d4e13303c30d4b15f7daf9f6c0ea24
f8c0f8d623fdfd260705db1424fdc827
0c3cf031c84905c814f31bfe2ed81029
231b25120dd806053610301ef205cdff
e900fb18260935e8130d1d2609f6e30e
e6f0b3ef0cd3e71df1e8d3e815e8e500
c339fa07dfdbd2301bdae6fd06c40820
ed2907371ead08c9dffb172f0ddf42f1
d50127f1d4f90b1d08fc1630de02db06
14f3f5125397da030dd7172ff3fead14
361f230221caf9142701f50c0be3d513
e023b4fbf7e30b1515142602471d4706
e8fb0f0a0a17fac4d92fe812bfd4cdf2
96021a32b4f30101e8e2d6e5fedb5b2d
d7061efdfcdae43411eeda134e0211ef
e7fc09f6ea03dee8f0dbe920de0811cf
15f4eafe071603ea2411ef0aa00e20ad
0c03ecfb1bfa1d17bfddeeef07fa1df3
1107bafcc1f5801d0efa5e02dceaeb07
111a1117dfe30bed0723e6e301190be6
0adf030009000fcffd161411800d2bd3
3216ffe22903ef053a3d19efa02e1eea
d8f910fa28f0250b062800f1e3f5d9dc
22ed0b0b43d0d7f100fafd03f1cdddf1
e3f87fcbffc11ea327250dc7d3f1ffc4
1400290c0318fb1dd613de5fc20f14e7
2f164500c1010c0139fb07b88f3bf2eb
8f051f311110fae5e0eb1bffe30cc911
2d312f11da96e1c2071e1de4c91122ed
050516fd01f9eec809cc031508fe00db
1ed3f0274bdd02110bd90a3a1729ce29
1902efeef4dcfd10f9d8f738210ff9d0
3de71202f9fee1e3270f07001aac341e
ea230c3de0de0f1136f7f4e1efcefd1d
0f1e19435f1116d62df305bad3fd0cf4
04fec814faf1e0070bff33d905e20e0d
c4f8e22cd6dff3e9f9061fe638d63112
3aee1522a523b5c9f2d5e11b1ef2224b
c4d807cb24e2b4e41ce20d83dad03ab5
29d00d300ececcba39e8150cdb03e0d6
c490e7f608cf8eea5d0ef3ef09a60a0f
0a297f9ea43bf6d955e6e4e1fb380622
26bdc756f2b9f3db35051e270fc21516
0621faca1d10f817faf23bf0121ff7ca
ead5d7c6fbc79f06fd0df701f8b1df0b
9cb8daf3c30c15f9e0c6c422f40afddb
ffebfef5050504f4ebf9f20f17dd10eb
f108e1f6ae3741f5d71cb1e4d0f3ee1d
e2a9e6ea39c2fb0d3d10164527d6a83b
f818bfea1d1b3e1afff19ad5da0bdadc
ed1a0214fbfb071e00b3e21a11f6beef
26e1c9b0c8c41be8ee00d0f95acddf15
f2f00cc4fbf7fbf0bcc6fd2cf7f8d237
0bdaf1ec1413d8090425bff907061a2f
2605dea5ea1d3312bc0ebe55df091acb
04bcf9091eba0ff30efc3309ec0bfdd7
1a0e2bb51a0311c10df6c7f9190c02e5
eb1e10deeaffefe50fdffdfd13dc0d11
1de9e115b7e1e315def5c01efbe7e6d8
1556f3f3f4fa09dde0201af1c602e413
220202abdb0f0afd0dd4a5110325d609
08edfb0510f8f7f7da21150c190609d3
ff18d2f8fa06f819f31de80b0615f811
152215f42fefe5f8ebf32b13f9f9051a
2032434c12ba9fc5b804fa1026f1b9f2
05d5d234ff1ff4232d14d4f1f73cf7bd
07d92bea2716eec3f1fbfe1ff64a00e8
d90f22f55212cdb6d8e7f2e5dc0fe3d7
fb020805f2bce4e2daf9ecfe0e130a13
e850caf6042da9ca05dee0e312fa20f2
e9b0b722ff15e317dbfbeac0eef50fb2
f7d2d6cbeb0d04ec04e41a14044bf5cd
27de0f1308060af41815160cfc2bd4da
d114f4d9150d0e12e11df3f7e5ee26ed
db081ce6e4e20333f1efe9defe1afef7
162aadbd2626ec15ded907f318f9f80f
0ef8cce30a0d22d1f7fa0818075001c2
fce21af7f312f921e90006f10fbccbce
efec00de20eafdf015fb031617e41324
e7d53615ecbaed0d1d2b06dbfdff1fe7
69fee3dcc9051fe6c930a76ebf9f4317
a600012326ef223b35a9e5ef9c0802d8
211c211adb0d1002f3fb18fdd3001e05
4fde1ce6d208fbeec50e0746dc190f1b
6a09fdf608deec0afe091a03e0080a3e
e701a8e9fa3ba20310f212f41ce6f7ee
860cc4c2bcd3e92305e6ce8bf9e2fed5
cf1bb6fd1501fa6680ea3c4820f61247
0308fa13e92005bbf5ea21ced73508e8
252207fbca0100fde1e717e6e007f517
d4faedede0e9071228fc110509b0dffd
f004f1fa3cd8c40d1b02035be91c3d09
0ef81c0507f2dbd8f50ae08dd3ecf3c5
ecd316e9fed6e5e81acf1d0af9ef1b17
e11c0a0910fd05ffe4f8e6da23e4f80c
0aa8d00207f6b42911e9ece735e6ffed
103c0ae4cd3f5b65132abbb717da70fb
cfbf0e12db90ccfd05adea01f1ea47df
e5deba2ea1f2f60104ee1e36e536fe13
140f0efcf02219dee400cb02dee4d7e3
eaecf1c8ba2bebda04e40d2ffce5ea4c
3f1c1f4413e31708de23ee03f028b8d2
fdc8bddd25f0de00180f0e0ea9a8d5ee
cf2530b8ef25eda8f50715d3c5cec35c
0edff325ff0811f0fbeb1a1a0eb719e9
1dcdf5ffed05f201f7e2f816e50ecacd
daedc9d3fddec8f801d1e113f70406f6
fdef22ded6e6e00125c6d208f8073407
0be9d511f4adc1f511c934d823bcfcfb
80cad9cad7cdecdff6bb02c9dae9f626
3f0dc040da0709dc2206e5dde1010af4
2efb37332fe0223d0af3090efd30e309
fcf702fb24f0fba703434e1cb0f7fd43
d91afff608c7e316d3dfc400c5eb17df
0bfc0d12e6cdf80afe215912260039f1
12e3dc0f02e7e820d91007002cd809ee
31e516081afbf9f2271f090beb041303
19dedd2ef8cfe80728fa1b42d9f12cd6
1a12e410d8efe2411a0edd0231d8f517
05cce41beda7e8f0f0fc34dd0e031bbf
eafbee02f4e633dccaf7dcbffc341c16
d0e91f01eef0d305eb008f3d37f8ec27
d9dafe272bf2e22ff5db35d417e8ed44
d31bd4c1cd16c0dce9f4130c11cf030d
2007effb241422e90a25232b05e70909
f421c226d3c1dcfdc22a10cd0f02b7fc
e1e3f2adf232da28e8e6cfe9083536cb
14dbe432d90a083df0d5f34ac32bd1d0
f4eaf3e200e4f207ef0c01f51910c136
0b052c2305fd0f1fedf8f8d796d408d2
e0cde7f3c9220d22ef320fe3f514e038
d7e8121bf5dc080f05e3e8ece61ae818
d2e3ee21fc2c5ada02f247d239fc0df5
fbe7ff1deb5344dddf0ff9f0dddff001
fd2f0e1b28f926ec0e340904eed20132
01f5cb2df5d2001afbcbdae4fb37c4fa
c89e32de04dbfdc8ea10edf8d82fd9fd
00d51f0002e8d9b4d5161b2a0e04b600
04073e5013ceb088d905fd1ce32c21c5
0108fc1213df1707e5011bfffe03ebc0
d70d03089b31efccef0afdfbf8ddf413
cef707fc0e19d513c6fef9f33c0f410d
0001cc3ed116d937b00430da2017cb1f
c5e2450a47f3deeff123f42a2ed3063e
40e1c4e3e8091828c2e1115e8e1c1511
e953ea01b4f1e100ced2eeea260fdecd
0b06b7f9b2002529d6fb3104f20ee016
d8e20c02c2d61912cb0818f7e2e5ddf8
091c2a2d1cfceed2ece208ca12050cf2
f9e9220ef0f81f0c281639180dec0de5
0fc9001506ef2d1616c9ea2e1002f502
0ae6c805d30d2e54cdf4153dfcf0ee1d
f1d6fdefdee905fae5e4f7dd0ee1bcc7
f20e200cf5034accd121c9d5c1ec1edb
26da1905c51feb32f326e20be1e7d442
2c290503f01cecfb13eed8d8d8ff07d2
1d2c33d4c9ec05cb34011b11dac738af
dbfc0a0bf41bffebc6dc0f192108c421
391916361dfc0b33ecdef7e2d62cd303
c1d8dbd9f8c002f367e81ee12ef83b4a
e9f807f7b905192816dff53ffdcbda2e
0e8fe8efdbe4ee01d8eccc28a71edd0b
ccec0ab5f018f315dcf11202f5f6faa2
e5f8da17ff07f81cebfa011a1406dffe
ace4171021deb8801ae91a1c2401e711
02b25b1928ee2bd3edf6bef30de6f2e1
c1074cd329f83605e100182bd0164880
d2f1cde0f81617e4edef09e192d8e31c
b8ec062fe1dcee0a02a8f4d8f7ab1add
11ff01160af6e3e7e2192be9eaf80de7
bb0905eaeaff49f836c6e008ee2939e3
20dce52105eb1c0505f51623cbdae4d3
d5e10e0908e301190027fed01ee204f2
09072627f10e07f91cf74348e660c1fe
0203e61012dc01340a16111ffdf13102
db4bd9dfbb2147d28530140f0fd7f0f4
0dfde8f6f6f937ffc1e6ef46f51616a4
0b0307100cd63fdcfc4cec1df7fb04e3
31e9d77f59fe1f251227350106e7e916
0b0612e30efc0ee9131bf4f5ec40cc0e
e6ebeebc02c7d7f4e6d892251facec11
11202144ea431ef6e154d8d74cd2fe37
b2e9b3f814fc08fd1711cde6ecdc01ec
f7f5dfb5c1e8d0f7a3f6f1dbce1adede
f911d33d26e53302f4fc0e1d1c07f5e0
fce62bc6e3411bfff7ef1311f1332ddf
1df1d7f2f2171345df202b6203020609
16ec06c8e50bfdededf0e2fbd4e2140c
c1b602c34c01e10f1be30418054d3719
d5452ddbc90411f3d92b00e122df3f24
c326e4edc97fd9ecf82bfbdef9f82112
210f90e03ac9ef1c2151f1f00b270704
fcadf2b528e3f523f0f1f731e4efb1f2
f11bfaeccc2bfcc0ccf0421eedac310d
0ff115351428fcf0e1d615d3e8150917
ebc1fcfdd5dcf4de140523f7260225d4
e1250d09eee8b1d3c0b2f21dfce4ebf7
2d312e220996090beaf811260e842534
faf123b8303de31f0bd1ddceb7dac111
eefbb1de2fd7d0efc530ae07371ec681
ddccfdfadc110214f101f1f6f206f501
63fca15610450ee43f7427fa12f0d1dd
e916962604f0b5cccff5b3db1bf43ceb
f3013af33bdfd71df9fc11fde721ea00
e0f512030624df22fff4fd08eb19f3d4
2c0c0af6e5e3b610b90ee814efe32823
f305d2e6c514df0938cd20f422e10500
15df8ddb45e72bcffcabc4289616ed06
e73d07af1da71e45010fe2f208e9372b
e14ecaff0325d0fffa48073af7c34116
fce0e9e303fe19f204051c1d01d80c04
e8e207072512ecdf2220cade23192e29
2d1b01ce04eef430de1c0c4ff9d802fc
5deb10da4e20b3fee829be20f102530b
f5f312c7bbdbf82b07e7f421f5d0f7d9
ef50d3e320e4e7e7c1c520e8fd16fd1e
03e1150006e922e62a22f023d8e504e9
c3f9b149ed08330ec5cac4bee142cee2
21f2f3f20306ce061df50a1dece5e926
2bb821e8def60e1708f4f21408f5f2f8
a32c180608d9111533d2f9abf5ef2624
2499b0f5e10faccd2ca3013ce220de22
f40220cd303aed22c309fddfe305e5ab
ac19f9dd41f61916cce1e552cfec67f5
ebd8d7ea0b03e7ef35fc17f8130ed80c
1803ecd1e5d9231516241c911313ef2f
e2df2ff7fb20211b4eedf8a90e1f2afd
1615e1f9d105b6d5f4f7e258e6f9f80e
f469f4b9d3ef11134842c82cf4f2f736
0821251b17fa1afd713236e16dfa5924
bc14f2f0072eba1a2b0dccfc01de0b28
2dfe017ddfd70b4cf6c8d0eb89281357
80d921e7163de3fb0d16e50706bd1bf2
01ebd43922b6d8e335a022cff8cf1ed8
d31a0f3dcd44541ab8e31fe4a2ec2ea9
fe1012f61609fff0c80c1c10dffcdcd6
eb032f0cfcc8ec030de91135d2ffd8d9
d3dc1fcdfa56e638dff5c819d402f081
01f6281036f966ebf4f3c511d21ff7ed
1b0114f10c2cf0cdf6ece816eaf6d0fc
2007101a16eff1b0121d0b1c28dc0109
f5e61beee434e1d30112baebecf0b708
321af8d71419d5e0ce453201e5ca2232
3b071d19dcb603060218121220050ef2
16e90727201d36cf11424215f005dd14
db1f163517bbcae3240cf62609f6aa55
44d7f2062ceefd01f807152a28d80501
ae3408e3f322cd13c5eea2ffffb30ad6
32f6d8113cd7fe20fbfd21032db0f9de
03d8dbf718162e09171a27421ddd1d45
3228f4fa43d9e5c5060c30fd1adb3ae7
03cd00a7f3150b0bcc22fdee01ff1938
103f1c2af8d41fe003f2133cdbf6d72b
340bbeffe10b18e1c803f72b279d01ef
0df8e7482f1623c5d8f7f33e222dd9b2
e87fdcf30e26faccdfee084325e2fbf4
10e90311192721e8fdfb18faf8cee421
e7cbf6e22dbff4063de20cf906b4ff1c
cf2bdd050c5ef8d2e717010341031239
13fa1438e4e227f02c0030eae0e3f91f
0ae3e00626f50cd7fc1432f71ad2f808
21e31c3323d6e3e1acabf5f3ff2e2704
e7fe2c22ae2c14d9d902ed22cface82c
2a18fb0fe6b114ea0416e8deefd215cf
baca130edf4e06c0c3fd11ffc3b6f82b
fe27dee718a9e3fae4f207fa35391439
1505f3ebe4342e1200fcebfdfb2d2205
0c0e08ceb030112311031c120e11261b
fa02dcedf918f982dff9fff5eced0007
c41039c1fb03e3c392cfadd1dec5e050
112124cbf5dc323213fb16db0d351110
0afcfcf2eaecc70f19142f050af5fbdc
f52e23111916eedd12e6f8229e0f15ca
dcd03fda28ebf3e71a0be5ead826bbb5
2301f2d7b012b31af8d530fd0ed1dcec
2209fa211ee1251a0b0a09e5ea3504e4
fe05d2131a2f09dbbaf40832da212ada
03251f0f2c0305a2bb4bd627cb1a32b4
050dfdf7f3b4d4060c2e51dfdaaccbb7
59cb05f62f0df6f44927b7e3f8e9c4d4
f3d926efc8bdeaf15e282ecabaae27b2
1309c80d09481afee911186fc0e4df3d
b7d42314341ef8f95e8e4a18c5db25ec
91e32724d8aeedbe04ece3e038f6f20c
4c2de80dcdc8d3bea519021bd2fd3ce4
09ff91930ae40b27fa3d0f3bfacfbce6
f0ec0a26d9d6e5ec26cb2c04ddcc0d40
e90d1cf40af4e614e406e729f822e7c7
11dcfef5e20903020fcafc0913e601f0
fe2d162310d8fad41200f90c15d30fc2
ed58213727221501eae2edbcd8fbec18
ecf42011ebf213ee1afd26d53fd8d111
d8f53f20f9e51f1321e621d2fdf92adc
61e249118ebdcff86dbc155dc9303c44
b7dd1ae83cad1005ce3bedb821f8e8de
f408cc3903c0f3bd18da26fac70226bd
a1b427e6f7c10ae31515e5b10e87fb05
f3194c898629041b3fe3d1f0021922bd
df2110e3efd0eaea27fb17e209d7abfe
030900ef2b07cbf5f10cfff90c41d8c0
cfa826dbc516e4fb38bceeff00dceef0
be0014d7190a1f0ed908f7d0f1da388c
05ef19ee0d250df114dffe13eff505e0
ed182e2af73123fdf103370b3ad70add
c9a9d7deebc2eadd15fe0a4c331ceb2e
3ad7f6507f26dfd4fdf01830470100bb
111bfe291901fa3deba3c805e02bd2ff
eaead9b6e4f10517fdc0a403bac2fbc4
fc1ffce307c1fcf8ebdbd209f3e5e53d
2a03e8b9de14f6ebf117de1bedf82412
000bdde9e6030658f21505f9e30d2f19
f4c8ef1aedc8382cc31f0ce0cecef327
3efa27042216d905fec6f34521f9f3a6
e709e2ddb2d9adfef6f1e7fa05d600fb
ebc1020b18030f06f7050ee1f7fae9e6
214af8042d130ddfea08f2fb2ce7c837
16fe0322ccfce62b08f2dc161d15e4f8
279fee27530cca07fdd1d11bddd9e2ed
f5feeae5f105f007ed1cf2fffb05041b
f7331221f20c0bd2fa3efb3edbb6fa53
5615461f34a6e707f92af0df1521e71b
dff9eb3afb1d02520bd6dee8e61ee426
05f23f2e18c412ebfa10150bd11ff0ed
c7172133dbbac4fd03e5da00d000189f
02f2010609a2f208c333ef3df0f8060e
dd75fde0dc04b2cd0ad2d803031038f8
f2df1b22fc34cefcf9eaf60438dcfef1
0ee00302fbbfed14f3cd11031211f5f6
36f41b0cd6ef381d1e091b0dd2130dce
e31b0afc0706daf5e007f91c061842cb
d309fe2517df10cbf4c50b21dcc50c06
ed22bb2c3436dce1cce2d4e956da4115
10e5282adecffbe400f51317d1d7d117
06f6f810f6362bf3fae6e5fffd04e803
eff8fcea00e3f01616fdfb15fce51dfd
152234d4f6cb03b01d3d2ad4b230ebe2
21f6d0db4a591237b22c3b6fe8ea3f02
d5e456cf19111d23280a08c08e1bff0d
28f943e715e305d32130ddccf30813f1
15ca270210f60ac9ff51800d13e02cfe
7ff3fe04070fe9edcb0b1533f7031613
eff7adfebb48a60bb6fe16f92ce0db3e
bd42c4f4fab8de2935db06c73b0d030b
fceacf0e0bfb07fab1c3e62cfaf6fe19
cbeeff1f00fa11cd1103feb7e4180fbf
201bf0eeb9f3f907d116fde6f3f0afce
d9060dee03cde5ef1617dbf3e3dfeea2
1b28c5d8fe2ff8cafb0b073dd6eee7e4
4e200716f0e1eccfe8fdfabfdafefed1
d11241d9e5c3f020130337f5eae60df9
cd1401d3ff1cf402feefde0f16e80623
dcb71e340ebf281beae52af323ac2dd1
e73a0433072239414d5403c846f47f00
bfd4ea03e1c522c4120b17e621da0e2f
e8b9e11bc1eee2f957d72df7f1011b04
3720ee25f00698173a05fe321d29bee2
060521d2a80ed3f33de2ef1cfefb0b46
490844190ed4191ce8b8f4e3ca4197fd
0e0fbaca311af712f2ec0317f51da7fc
e5edeebefd161f1316e9c421f60cdf2f
c6eaee11edca03f8f91633ec27ebb12b
06f8e70b0fcceddc160c0f0bd8f1e4cb
0ddcefb931cabbcce7f7fc0108e4e916
0b1f1b21d1fd2217e012d429d01228f7
c1bc2b23edbebfc0fef70fdf59dfdc0a
c2f0e0eef3e5d9b2111ffc04f2eebb4c
131e19bba105dec99b18cd22b1effcee
1bdf156740e7361f092a072409e5d3ea
d9f5ce37f9f80809310d33f5fdfaeb48
d40ddddcecacad12d0dad1f706dbfaf5
d3f6eadfd9dae225f6172f2e22b6f9cf
0a03f2f50ae6fb06d3052616eed8ff08
260df35ce1fefcf3fa3bfb1dd9c5fdfc
06b3e8482ff606eb22e53b2412071515
b4e1fccffcdeca1ac5e4d01f48ad14d8
fe06e2ecefd0201e9cddb3db0fc730e7
002de71fcbe4f6fbd6d9e32dc5e104d5
fc0903b29b0308bff3e2a810f70a0a15
eefce442f90a3210eaf80dc2ec13c113
3af7f2e1e7fabff8b5b8e0134af20ba6
22f502ff1ef801ff1c2d212e14090404
f9fb12d8acd402e5f4fdc503d9d911f1
ff2212c813b0dd2fe6ede2fc162ce9ab
30f3221e34374d0ce6ec014835ffe0d3
d305fbe9d7d9ea1dd8d31f0a2a7f10ea
fde8fb05da1121dfd6f1be03f2e818b9
cfe70be40412cb01e1ddf4073014f610
ffc81306f6b7f3bff52a34f5fd09ff25
d306f71419f824f6f2dc05edf701f22f
e8df0a2c0266099cf71dd2edd2181dfd
ecf90c2bb6030dd50608d6eff2e641f7
fad9002109e7f457d8f6dde22126d501
01cc32e4179cef1e05f105fae230cef4
00f700ea2dc10cb0ff00f50e0734d9f8
04d20e303edd0003cbc7f14af7df08e5
e8e2fb27fd030612f3db080e1afdf4c3
e82de01b1551f6a8d81ae7f80afb2610
f631f4ae20ee1cecf2f227052ee2f81a
d6070d00dbe6d8e2d0e0e3e50126e123
070e54de10a0f31ad4f8dfe61bf05cfc
3ce2bf2ce5f5070de7e41b54b4efc93c
39ebd8219ddb1043d0d0211c0ee20a19
1640bfba80d8f934f3fa09f40fc9b11f
17dbe8fed4c8fb34d62403e8f801d41f
13e9ef1cf6e81f21f609f04706cd0dc4
01fef636c1012cee2e0408e010f010f4
2ae8cfda0f12072c58f3052b06f4e221
c3ffc8f730aa3f1adc80bc4d01cf1514
e8e0e702fcf3f0f81a1cece7d335bad7
1df9f2dfe9bad401d529f6e4fad60142
2bec1ad92aebfb41f4230528f0fff930
f5fc0006e1e6f8f0ebd017d700ebe9fd
ee28d503f414bf32f10b0cfff4cc12ba
c9b9030ee2fefed8beddfa0e27f709fe
4aefe0f208edbad50c1f0728c722d6f2
032c35f9fafe22bb3b2ef2e821e5fb68
a2344426ff5a17063ff9ee29cfe612df
fe37f2f9f40425c4f0c8eadd80f5c205
cefdcfcc03d93c1bfddf0505d005e810
e4140af7fc20d8f79d0e0604181cb4c1
dc0150fa0528f5b60d04fa082925b4f8
97d353181d160c14e616f51ad9a2d1ca
b5f8e6e14b0a0afabc1efe98cbc351dc
cee4c292ffcbf4140000041113ffd214
b8be0111cfd4e819b4f7f823f9f33ed5
091ff6db10d02406d73107ffe2fee4c8
c41d1f1afffd2ad708d5f802060dee1a
e00eee0b2798f5e3f00c18fdece4cbe2
e6fb5a4710f83c05051f02f1f7fef705
27fbb115dc0401d4c204126df73ecc04
87167ec105b1149106e923bd068cf2d9
85792ca605b655ef058922a18751215f
8c07925907e2fab106fae60e05d82857
06969ab007aedae58c6a376c05903822
06a47e4106de636906b5aecb8716495f
07a13ddb07c65618865832e106cde3ea
89686f5b05c8cd4207e3062f05822ff3
06eb10dd05a2b66d855c5c84068f3c2c
06bf38560bf978c207a7a77707aaa14b
0ac9a07606e6583b06b4de7607e76473
06ff5ea607f188670596e5680582dcf2
059296ef06f35fce078e71a2059ae754
0594002706ad56e007e691c106a40719
0a80598207ad4dee07be8b0e05b1abe2
06a7cf84058a54fe058fd05187052000
06d12b44069efae905a6c44f05ba3f37
86c73486adbe32d98ca9e12cc77fe94e
983baf11acf3054c80b6323cdd7d94b4
e407fbedf77aa22ead8178b692893e23
a43999258bcbf0afc92280c1a43f444a
a2ce2e2fa4fca6b8dabe2f3590388854
bda8bf9bb9158ba8e5723a0ae8038f80
a322b97e8869ab8690eb2f04c16de82e
c1f742beafafbaf9e772d673b4274372
ecce01a38cd3b7eca014b001a2c0cae2
80547075e1ef8616a02157b8c75a0c20
dbd8af5cd58ac9a498f9093c93d2cbfa
bf68d817b9d47cda84c9fe3688da7953
9feb90b68c51a8638a1ac45fefa89efd
ad7df487dde8c1fac959da12d9aed4fa
c7d0aad39f09f063ba9310d8ba5821a6
9366c7fbc21074acefe1f984958037f0
00000008000000080000000800000008
00000008000000080000000800000008
0000000a000000080000000800000008
00000008000000080000000800000009
00000008000000080000000800000008
00000008000000090000000900000009
00000008000000080000000800000008
00000009000000080000000900000008
00000009000000080000000800000007
00000008000000080000000800000009
000000080000000a0000000800000008
00000008000000090000000800000008
00000008000000080000000800000009
00000008000000080000000800000008
00000009000000080000000800000008
00000008000000080000000900000008
