32055ffdb2aa0002b11835a2e99101f8
ad026ae8deb42ccc160210c71780e8d5
8c1bf3080cec3efc3cfd22d933e5df20
caf6e0f50f021be918f731013305fdf5
cbdcff25110c23111f2906250be8100e
16babdd5164f3cc92063c01ecc55f564
0008dde8e9d2a5cbeed8c2a70711a804
22e2e2e4fa19ea04f606fb1bfd0d0efd
6cdd0e0f039aa914cab6eae0bbee101e
0a3244cfff9bce0df9dcad3df6f751f6
080017190504bc1cecdffef4d9ff16e6
c902e4fdfbe71df621ea2b2022edf4eb
281313d105bfad4313c211ff14e2000d
0937fd0912fab92e13fa06ea2002edf6
3bf11cf4e3faed2bf6ee95e3d9f9bce7
c4d21c22f616730c6fe4f0ca035ae147
16e10ed702d9ccef3c331bf4cd38ff04
fd9f01deac01f310c0222ecbb334f543
da32f0312c281931199cdcf02317dcfb
00e41a01f02f2a2afde7fdfd17f20de2
10d3083e0bfa0913e2d5f9e12007e4f4
1b086f27fec60dbabc1923bdbbfbd424
daa9cdd802a7edd5cfd1ed011adf0705
e30617f6df17fb08f4f802f817ff0702
0229e0d83edafcf875fcf315e42bfbd8
07e92c07e41aedec23cbf2e2d23ff790
a5f4aad6d8ede40bfdf4d4e1dce9fbcf
0af014f30c2a03fcebef030910e5f6fa
e8eba2effc10c63803c5d9e1040c28e2
b8eb93cae041d517dce5f8d018e224e9
f709b5819f0bbd140807cd86eef033bc
c80f4aef1c301ff5cf19e4b72231d8f5
b5ebd9d23de6fdd111a141050ad0f4d4
b5d914fde1e031e70fe401ad28c2cecb
0225e6f4d81147e817b4e3d029effb10
d40621f3efe415e4070308c143f61000
08ea0816deec201229fb11defe33ebf3
ca2403e139b1fe01df3df417202eefe7
a4c5e0f5d90fe4cdb121cbce2cf1ba1a
ebf30bf8ec0c1902020b14131505faea
2c2bfffe1bdf14c908f42134e9eeefc3
c8f0497fc1ab0861b99dc207c31f1ed7
1dd0f809f017eeedfa10f734d9041100
020d26e903d011ea0f01f8dd1efd0803
2a071b0be6cff0eb30c44a09f01af0cc
25ab0433f338f21fcce5f02ae0102018
20bcfdffd0cac70fa708ec38e3df18c3
14252b27dae321ed0108c5f803f4fcfd
04d70acc19d4c90d4bccf5cbc128acc8
c2020e0e2be4ad0f31afb2979c1eb633
be03effbb5d725131014ede1d5070e33
d10bea0cffedf9f2eafad3d8f9f10739
fee3e706ddfd09040b0110fe0a2a040e
d6d4225d475dd937fc1cf513e53a527f
f015c3b2efe2f3edc7d6d710df9ee5c8
0ed2ffddf61b2ff90cfc0e031ff9fd1a
2a11c6f11e073e1815fa27fefbdcd8f7
22e6f994e0a929fa59d12ed30b59d021
1702c6bacefe13fd0711ea20f20ed6b9
d5fff31a03f6f9fbf203e4f00fe31e31
dd1ef9af0bc621eb15ff2f2b220cd4f2
2cef81d5cff023fa0dceecf4fcc4f4c9
28c704c7e831eb13670808f6f0100eae
0ccdfb290d2ee03200542cfa11272052
0858fbfd3924caef0fed49cb16e4140f
0d21e6fff819aef8fd093ce5a020e9fe
b23ddb01e3e944bd27dbed170c4b3409
e0f9ec3cf1fbd4f00fd3eb27fd2ed9f2
e4e928190ef505e21517cc2df6211606
414eb4dd30ed994ce36f440dbc11582e
32efebcec9edea7fd310e8dbd3cee513
db0301250fed1918040a15fb10fbf8ea
1cdd57e33912290edd02ccc438bdfbf5
e7f2faffeb0ee009b633172c252f34f9
05d92ef80edcf214d9a29de000ece5ac
ddf70022f5fafbf61ddd0b20ea21f001
e2cc7ffb0a28140a01ae951d37f306d8
f4abf426efe21bcfbd81abf52f0adbd3
fdee19b82cf416c2c799c2e6055816c3
d03ce74dddb299dc3718325de431e0e1
25d3f71e0e18a00fd175b3a61f07fae4
da0923000d0a07fe1611151d28dbdae0
e2fc2203040dfd3d78d54915e7fadc04
edf813eae5fb2c403fe9351e10e3f6e8
e104fa2dd6eb360538e52318ffd92b2a
dd06be9d1027d101f993e2ff4af002c1
e2b8cae11dccbdc7e8f3acdad685f99d
0bfff4fbf61206fe09f1fe21071119ff
3dcabd283ddcc2d7b137aa9d0550f119
e8f8ce17b9f408060fed1d2df0cb487d
1ddcdd2e0207f1e8e5fce908cd42180b
f4f21afef713211521f727311af600f6
13bce30a33f5f4c0fd3c0f02f5350015
13e4fb3de718fd1011f50b11f40a232b
030eef2c0d36edcdb9c7d5e9e03dee36
010f1cdef05043295dba1730042addfa
2f07f7f7e5dfd90ee643b41a477fb0ff
3d01e1dbc3f6f8202a220fec476198cc
ddfbe5e9f728f8f03cf20cdf0ff913ab
ea06fae3ff200d0020dd37e2e614f6c2
e507d9f9f92d09f505ca352519f33ee8
280c0fadb1184724b3f6d8ff1a1d1a2f
02d7d72aecaccdf601b7c3b1c3f7ac2b
ed10f1ff071df3ff28f5f4eee6f6f410
c427e823ffbbc72eff07d7300d07d916
be33bfe51203e81128d442c81b0564ae
cee6eff806e7e8e8e6f2111ef8da031a
0efffde4090af5e448fb0de3ff0a00ec
c5f3e03a18e3e6fd03eaf158f9f9f501
bc0114215cfcc0eb38e9fbefe7da3f07
bb39274331d2db2fdb2bbb11d5cb061e
00bd58a7ad5744be16ea34cde5f229d7
0bbaf726ee06111b4ac61b19f80d2417
ddf41612acb0eac4551cd4d70903d108
f90d37e80101cad1bf32ecea1b0d04de
f90035bff80cefd9f03dd5e803efd509
01e9e4d90431e1151323ea36020204f7
ea11a42d1d4d0914f3f2e3f36743fef3
c00ef77e19acd9fedde003ececeec6d9
ed12fc2ff124fd2803f9f9f20b0f26fe
40e6f02e2d005f42f3af1bebd9d1f51b
28ccf318132f2a3f0219fde4091b1b11
f8edee29f3f218fc24e10ce680b224fe
fdee14cf03f9c9d6e82e0c0817cbd7f0
bced134a12f713f4e00041d7a1cf16d9
32f90c0efee92fd4d9f1e5e1d1b1f112
02ccfc3fbbb038ebb7d2edb1bb09230d
bc15f9fa152b11ebfa320ce45024fb09
c6c1e5fae0d4bd43d3b23430100e5137
fc22d3d0ad2b10e9fad0f11848f045c7
5d5707a7ef1719cabe2ccde0f50bb10e
2039f5f302210ce50a33f817f80704f3
4e16f1fce77f41c4f91ecfc10e0cd603
b9e4e9b41bef2707b5b3edf9f7de2502
e20f55b3cfade9059adf4d00fdd85402
d7fc21110ecee8f008e611f1f9130a1f
b1ac14ff1cb7faede5e51b32c0242c06
1d1d0af4f51f2db526c12fed0c0a13e3
dee5e630aac887053adcf5f8f846e5dc
253b00f7f90e28eae614fc0afde90207
fb00f10608e8dffcefd7f1ecd307ebe2
09f60136c9ecbedd6fe91de5510eb1eb
eefd320fc4d4affa2bdc0cc406f428bd
0b07e2cf32286012ec07eced10382bf8
d6f3cbeaffead0ec1ec6ddf2e9c7ea34
181111ecf1d62b230d230cfe22ef0d08
ec1846d8d5e322fbf568334b5624df1e
f5ec2ef1e20205fde75d27326222050f
e8d326f0d723b031da370dfd1abaf8e9
2b0cea09dc1a00db0be0db0efbf9f141
d028dbe73a081420e9d9e113efe2db01
23d9f90afc150bea17f903f2022c1604
26e8bad2f5f9d6f12fbdb5cccd03ec04
2102130b37fc16fbc0122804ef170a03
f8e9e513f6eb099931f7e8f8e5e6280b
f4fc2807dbeb01e1ea68292f3c1406f5
c70517f6dd09d8f8e7f60aeffa0503fa
0ffbf9601eff288f1703fe2201fb5213
1118c16a211d362d47c1df06bb2a1a40
3d9620ffd3264dd604150a0ef2faea7f
27051bea160aafd0faddb93cf2dff3e4
10d60a03c2ddca4b02ea25cba11fe602
dceeddf817c8fa684ed65995e00bdda0
e3e4eaf3f6dc0245fc066cdd0317f3dd
e50b170fd33de146d2f728a5e62e3118
3f40dd08e0d40ade19f1efe20f14070b
000a16ec982d41f8e50edffc61cc01d7
e3f5f901e2e9fa0423f5fd2817ef06f3
e3043d12ee29efe001fd877028e92c0f
ef2e2a1fe4debce4ec5ef1ff112c4a23
e10d4e1f0032b8d429f6bd3ce2e2d909
e6d5e6f900e7264bfaef7fd0fd15f0da
fb0bdfdf0914ef06dff9fd25d1ef09df
dd421a571ec8dfe9234ddd11b20edc1f
4b283c553514afb53fd3c74c2cd81718
c629c53bfa0cef23edf74710f0fb270a
1dcb040fe5df110e16f3e410d9bfddd2
f5f5e7060cf1b40a13eae308060b1bf7
0e46ec39ffffccac40dcee642950ed39
ee44fb05ece114df02eb0857373c0803
d332db30d4c10effdd9c26293f3d1e1f
e8ea012c07ac10aa3e13e61d40c807e5
3fd10df9f42fe71dee0fcfedbbd7f096
1d08d40e1d0b05d10709ffe8f7d915fc
50af2eed1c2cee21d00add84eaeed518
ea1921061f43f90fd4bc06f0441f11e0
34ea15f10eb4003207dadece951612f7
f45af702dbef06dc13e6e533413c0709
0e22f6cefcd1de0aefd9d3ecdc0cdd34
21022de516e2effb21f1c4b3ec1e04f7
e6ba261e7e58d801f5192de7dff7f72a
1f38a32601effdc916dcbb15323c2d0b
f720f130d11fe4fbfef92f2bfa062015
1407e9c611bcd1e217fae749d5c8fda0
2ce1a6c6470222ddf4f6a6e5f3ccd7a9
f2fbecde36db0af91900e5fee4e1edd9
13f3dcdfe22f122e0ff8fe02ef12e5b6
1627fffcddc19ac4f022c90c96b5ea0c
bd19ebc9c5f30e59d3f817ee972af5d2
0a0ef909f809d4d719f41831eb0218fb
b4ef4850ebf12604ddd5220822104f7f
05dffee209040c3de1f9c9022423cd96
210f4820111905e61b911b061c2423f8
0ef0e3f047f0f6eb0d0df801ead9c6e6
e2eb03da1f0a1638f9be14db193df1ef
020162f147f3fefa34bbf11a27e7eeac
05f2392224ebe0eb361aee42b9eb530b
01fe06ef1e2adefadafcd5310709d7bb
c5d832bbf41db7bae9d4f116b2f4c709
2cbe04200d2218edc00325ac06e303d5
3911b521510b3beff934e0c8350641f2
0514ee3e33ed5ff9e00702f51fee54eb
e100c128fed93f12eee8fccdfe1e19fa
f4e51fdaf811021d52eeb6f1e41ff7f1
01d110f2f42f041105e2b8460a02e0f7
fef9eb0af90c0021eeebe1ddeb0000f4
8a2d4c9ab7c0bb17c7e90ff39df1bf13
18fcbb2d290134fe59cee2b44bf900bf
de1fecc8d5ddccfb13d30dcaf4fee4e0
1200d0413f0f6303e9ff00f518f630f3
0ff8f51ef2d700db05f206f405fff1e6
2de6cd1800f1fde12ed918ef020413f9
0e0322dbcac7c70030f614f8d6e0e4db
1916e8211cc52c13f5faf0c351681fec
05c707bdf6cf2311e115ef051001f88a
180f1d1af81a273df108dc06cfce1224
f97c103ef460fbd1ee1f181c0017e875
f1394d34fb3ae9ec0401fffafadfe74e
ef111a671b3ae3c8e4e903d5f444fb35
ff2232d04f05d6f71cd3a4de9093d910
ecf8d7d488c15615f103321a303b25bd
f204fef8f422edd82dfb08f7ffbcfc07
2e97d0a5c2932c0ef9f7db223abe1bb7
ea462efae21024c5fee7e8cef8f1c524
15dcbde600acfee7b437d8faf20032ce
f5443b300e29e4fefefafbe5f2e80042
eef90ef6cd0ae7d8b3f40cea0837ed07
ed0cf817f7d40ae9ab289aedf2f40302
1cebe613d09e312bc05efdda0ad716f3
2d4c0a003b3480950aebd4d0cec6f30a
e318f1c906f53219cbf91ae6ad152ce6
3ff5f52027b2ccfa29110cd7f1f21b0a
2aa4de7ffed184b236f40adc16b9e940
f2dc027fefe8d7fc38e4e40f2bf5eb39
391ff020ee1ffecb23f0db1fee1fe720
a5fd2fcc461bd610f446073a43e221bb
28fd41df39d23bfdfcf6e1c7e0f716c5
810e14ff210c1414f817de0c0fe925ff
cc26f68807e837f7e115e0e3dc11f69c
1728eaf1f012fcc71a21fa05001cf7f7
f817e5c81fa21df2edc6290e83f9f6dd
15dd0666ebf7eefd46ebf3f024f3d54b
b62fd30dd8bd11cadf09fde694eae3f6
05e3f0f5f69af0de00fd3201a2f4f805
24ead2be4d941a73eaf50e19bf1934f0
af36522013f9d5fa0f5403f50b020a32
baf1e0f40200eedce6c8ffe10f18270c
0aedf8d7e8f203edfdd307350dfa0b14
c9e7d111f4d926e52dd5f3f413cf1ddb
dcedd4fdede4ffee0f0bfce3fb17e8eb
17190fc21eface17d8091bdc0a1ef0f0
f9f4f31b101aeb080f11eeeb141f2223
ca33feaa2d48e713d0d7ead8152621fb
02f50dfe15f005fe0215e700ffe30c11
ee27e9e907f5c302fcf02ea823fe0ac6
03ce01e6d7f90c13f30f080406eaef03
0fe701d4e3090c27e5f9020a0303f5ed
e7fc0bf006e9fee40104fef5f9f8021f
24221132040cdd09f50c1b2e1909fd17
1aebe7d70a46f90114c63c25fff7e0f7
fa09eff4f0f1ec2f2dc738062848062a
ec14db2020e1041e28efe81317fce629
2118e7dfe9dce0e710160450bceb0cd7
ed0200fa03e3e52c2d1bf3fa07011a02
1cad05ca1db71c03feef2bfcea25f211
01e1010c12f510f4f807f3fff402fee4
d703dc0a0e021e09e5ff03f40b0108df
ee2e2eed1d0901dbfa1509feddf915fd
36d7e709efed114914cf1ef0ba083e44
fc0a080c07f60bf51102fc1615f7f3fc
16efdaccd9cae8020617ebf38ed3ebdc
f700ff100007f1fe1bf717f62fdd02f1
fd060a030eeedcf20013fafd04dffbee
f9ee0cf916fa0af5f904060dd82c03f9
1200f32511fcfb19260cf61f0cfc04e2
e1fadc0226eafffb2e0ad3ff11f4eaf3
19ff09f2ece1e907da030104ebd9ccf1
f7200c232f031c05e206f50618f0f406
1409fe040513f41d0dfed320e838f8d2
ef0d2922f82efb0fe51d1e0fea26111f
f2a80145e4e91ad2f9d337282d0bf41b
0002f709eed2fedde7f3071309f412fa
e2e70ff6ece01f25e4e001ecf1fb0704
2fd60613f2e7211b20fa040af3f7ff1c
f3e11542ee140207d4c7572fdf07fce1
f70f050df4f704080e0bfb1118e1f706
01fddcd2c63f02f818e30ee3e5f1f4db
f70e11f8f406eb2c1df311f4ec161afa
06f6bcfbf7f9fc0a2bfbe7e7fe1805f2
02ee07fbfdf5ff0e0df4f1eb19fc0e13
fa0019010606f4ee06efdd221624ec0e
071d07f8040d022beb0ff1e5161fd3ea
eef0ef08d8f6f8cd1d082033fa28e5c0
263a2f16f0f405150e02f00dfe27021f
f72df3170a1fe91002beed24c20cfadb
17f8ed0a05f9ff1f1cff00121505ed3a
b60822050704e30a35e901d8dce9edb8
15001307f4f818f60a0c0715fbfe0de6
3b04f80009f22713e8f7320927e1faf2
09f0ec1cf816e6e3f61a08ffedf2f928
cffb17dd1ef7353f20cfb62a15efe0e5
1805fef31e1110fdfe14040d051bea07
b403cdfa15fe29102b06f100d5d3ebd8
040beb2ce402f0eef2d520f618e8f2f7
28e2071803040714d4f621f61bfde420
13f200f9fd0902f3000f04fffb0104fa
13faf4f2f80b170df9082d17ecf2130b
0c13ddf7e80f0efa0b0803ec052bf9f6
f6dcddc8140918ed18eeec05e905e5d6
2234ea04fe2c12fc131bdc02ff320be7
110610e7ee0f05150e16f302f2de0201
fc25024305d82a0f0613dc0a27ef140b
cee6ecbee5fec61e1e21fee9f4d90307
f6fb00e8f5f6f70e0108fb0002060018
0e0df4e6d3d31008f80ef222cc32f9e2
05fd2c3d1c10364b0ae6f8190903ebf6
1c3a169de804d5ce0bfe020df6e9eee3
14e50c17fc02ee01ed0612ef25f4e9f6
12cef6d2d9081806f6d671eaedcb010f
2ef2e5f8e70b13f3c110f1160bff0316
ffeb030fe7f51df9fbd610fc03f109ee
040c0cdbfa0601090305080613eafbf9
fde6edff110e04fc1f1111f520f5d1f5
0ae7f91313f8f610ec0eeff305f900dc
f5fc04df0adef50e1df3e3efebd81113
f0f127140cd1201be50e11fb071a1cf2
080ef80de703f813cded070c03dd10e6
13ee0f2ff02df5f2fee002fcf10fe307
060c22cee0db25d5e913122becc527ec
e903f701f4e0fbf0141010f2fff613fc
fe0300e8f1e0f313f20ffedadf230303
1afeef0b20f7200e0cf104f707ede317
1c24d9ecd627f40eb0ba1f1aee4cf5c5
fcfff826f9ff0b10fb0a0be918f008f7
5001f201b1050f2e11d212e33920fbd3
0800f2fefe0e14031be3f3effd30fadb
fb07e60425000e25f704f1e32a1def07
ed02f70405ef17fb1feb1100f5e11405
0525071b0cf80d1c071bf90e1aee1003
09ee00080e19ec0712f8dbf61300df1b
f2fd12f7ec05fd34d8f00302f4fde2f3
d1eb16141d272522fa12e4101ed4165d
def80ef734d603f7e60419ee0600d019
d812f4f219f81d07dd04d51d14dd20f6
e12bea0440afef34ba18b32933321805
0def1b10fee31afb06f3f6fb050413de
1b112b09f0130afd041634f5f1cfecdf
150dfc0905e8fbb625edefeee5031f28
29ed0ffa020cf032031e20060bd2031b
07fd05fb04e4efeff9fbf412f1020208
4febc1c6ede5b6c90af114e52bd4ccd7
19212f10ec11faf3f7f0fff5f9e5f8e1
f804fdcf1ceff3d60af410d3e7ffeae3
ecfc091802fd16faea0bdf09f6fdf2f7
fedcf4fcdb27eee7111807ffee02f2f2
01f9f7dae3f91cc7ff02f300f8f8e4eb
f9ff13f3f3281783fc271a28f1e8da17
1a20ec15f70a2409201503121014efde
fafe08bd0ff811e8ebea0febec2ffaf5
0426060add17e71fffdbef20010f220e
f5200529ff200f890408dbe80fe1be2e
fdebf9f71df015e703fad82ff302d8ed
ff0bf90c0fb41de1e9f2dd1df50121fe
24210d04f646ece50ef1fce919e5ecf6
e4e8042209daecc13efdeaf520f4d5f5
0ae819ff190a0c0a0ff60c1a030bef18
190912ef08e920d908f2dda5e7f852f1
fc0edcfbccf5da05110bfc0b16140005
ebfaed11f707f0f207fa02f40906190e
120004ffe6eafbf00afff91608f0ecf0
dce00bfa0220120ff8f8fff5180736ff
f9eff6e3eded0a021ae30212dae801fe
46f902e2fc13fbc0cb110d47e80a3606
1fee2307fd2607151ee1f60622eb2101
f5af36f9f0ed02f310fce8043c0501f0
26071aeaeaf3f83614081deffee719ea
f80be9f0efca165e10f81c01e0d5f23f
f4f0fdd0faf00e0cfe0ae719fe03f8ff
edc0f60500070fe90ef4ea30e300e8d8
1cdd45dc061b08f404f4121e0533fb20
f3f50d491ff9f83405db0a20e6ec100b
f0fc13f8fa0f240905fcff0313f3fd0b
ebe4eb04d4f8f7ea4ae122d750fd2101
d6efed0718e414ea07101813f7f2f6f4
fae4f20903fe0df70bf7151811011517
fb1eff050df9fbfdfaf0ef0ceae1e702
15faf1060be1fe1e0105fe29e6132e01
cb1cdbe3fb15dc142103d4080d0ee4d9
05d2fe15e720d4e72e051b200025f9fa
06180d07f41ff7d81bfa230b09092508
fb0b00f3050ac4080be1211cf306cfe3
e904eff805ea211cfef222022c10dd17
0d07f917063b2ca7beec39da2817f439
0efd06100a0e15e6f00003fffe0d101c
15f1e40ff9f011e5300c01fa07db041f
07ff00efe221d7100be7df2b08d202f6
1620dcf6ee02040317140622e708edf9
0af10006171604100104ef021012fa0a
f4e2f00fe9e5d9f426d4fe26c6dbe9cb
f0e9e912e7fd02e8f246021714eff8f3
e8d301fc09f2e60dfb04ebe904ecf1f7
010900f5020113e114e307ff03f5f018
fdfb1f20ff07131612e5e60a052703fe
0bf8f0e0fcf6f60bfaf21c00ccf902ee
f9e40af5c123e8f222fbe250f9fa06fe
46d41aeffe0b10100e0efde1f905e319
04efe6e2ebff14e81e1cf9f80511c7fa
de1805ee0ede00ec0213e7fd0517f015
1a250813ffebf6063938e507efcfc3f6
feec0cdfe601e8041bf605f208f607f7
250a11e3e116f30b200cfee810bff4fb
fbf801110e0509dffaf600cefd11eb33
34093814ea1478e4321eeaef2ddae9ec
0003ea02fbe8fb0cf9f8fc0bee12fd0f
4c300419fd4203ec0f05cdbdd02ecf01
f1e406e9f2efc7fce7f7cb09f5f8f6f6
df0fc60ef6f6d40902f7e3e7e7ffe4f7
0aeb03f7f8f1f404100f0f03f117dafb
f6ee11e804e7fbe6ffc4240ff307fbfc
14f100ec1b15f10be6efee190906e606
eabf22f0d40bf4da0dfed90ad2d802f1
f22004fcf2edf027f3212fe0ee1ecde5
feef0f073cee3af403f102f4f9f50c0d
f3ecf01cf003151b161e2a160fe431ec
1307bbd820dded0759ffe4dbb528c9d2
05fc0b071cf4fc150c09fdeae5f8e31d
05e0150900cf1af10d21b30b18f5ef15
db18d10207062cf111cedfea25fb3af6
293d180d13f6ee0c1322e4aec612d2fe
0b08170de3fcfffef7e849ff161301f9
0af93f295edbc6e4ecf2170a050d12f9
f5ff0206dfe8dfbcf0f9e5fa03e7e4fd
f01b0726061e0010eb0413fa05f306fb
e1f712e0ff0bf90ffd09fcfefb19d71c
14f31e06fe461206fb26192301231b19
2af9f127e611100713fa1021fc1603e1
fef8f42a2c0fec16f70416252a0b031b
f4faf7f928e007f71fe130ec38ef13e2
27e9f8cdf209e9af14d7e6eb0c1a0e20
e236f3f2e6250f27ee172dfa131e020b
181b00b5ffd80fe059b3d1f60f1e111d
effee5f406ef1ef821f3e800fcf2fcfb
f7ecf706f2d5f90c08111329e9dae204
1f232c15f9f914e3eaf3c9db18e3fa07
44db1ae2efeb24ef203e2d0de404c402
f304f9f4feebfc17f613fafa090d03fa
f9fc09e1efeb2ee1f5cf0b1b18e4f9f5
da0a0bfae8fdda10fd1521f104d401fe
0401fcfd05fd070ee6fee3fe0c03e1e2
e9fbf0e6f8f006041b05050dfa020a03
ecd2efdafee810e106f4f3f9001c0303
02e91108dd040d000d1cef06e9fa060f
02f9f7d80ef716f8fff62ffa18e5cf0c
321cefe3ff0de43b171812ec0ee5fb21
30020de5f8ebe4d30ff30f1903e9e227
07e3d60eff0e1ce7f8e8dd18181af931
25e3f9252009ddd02015691924d1e6ee
02eaf5ecf30c070003f0f40410f10201
0d16f90c04f4d9e90a15040e00e3ee08
18f3fdf4dc07060b18e4f10904fffdf2
2d01fc1e1decfded2d19f70cd3b9181d
04d816ff010efe191b100ff7eb27ffe0
42dc11f013efa8e1410411f2dbdf1e2c
f0fcf7000e00f7f9020109e7d5f9e520
e9e402ecd5fa11f5fd1a01ffe8ff1a11
f4f5f20beb0dfcebfe03000d090dff0b
0c15f2fcedde101cdd0400fd16171f10
f110f325de0be700e3e30a0902202be8
d8ea1d14f702a5ddd007fecb1ec91c13
fbfb1421eedffd12f8fffd10051420ed
f5fa11dacef51702e02c340cdfeefb03
1737e0fdfb1e17f10900eefe2217f2ec
d5cdf9c6ff01f81b120408b7e6db02f0
dbfa03f90418f9f0f3ea0debe70afae8
0bf8150706d7efecebed35231b161008
10fe2111ebe6ff0b19110100e2e613f7
0c000627111cd50815ef0bfa00180bf4
f52209f8fc072e0f03140f0de4c105fd
1012ef1fafca011aeafd0bebca1f1bdd
01fafce1fae4f5f8f70409eff5def20f
0b10f91b04f0fcf02032cde9f8f7f907
f2ecfc0b03000cfc0ef7f6d6fa0d0408
24240f12f50e09f3cae80613272d1017
fc1721fae21b20dc02d6fb1cfbebf007
25eff8300bafe6fe250df5c6ec470913
d808f6e834ff25171c1b09131f03db18
b4fce6dd2d22fb0f2c1f28eaf9f1f309
dc211d0021130010ef0003e810071dff
e2d82c1c2af5dd11f2e900fd44cc06fa
f50fdc0001ed20e4f7daf62216f8fff8
26cbf7e5f8e02103fdf515f0e8120df3
f9fa0ff20320d0e62313d4f4dedff6ff
f9f9ed1937e316252716010b2a1d24f8
091dfbf71212ccf3fe12f11905fdece6
c5eab7de50de18323b27d847dfea01fe
0f0febeef601f0f6e6ffebeb2a28541c
f50de2e8fdf5e0f3ff0ae706080606ee
01f0fcf701e6120af5da1017ebfb01f6
100810f5031a161e0d360bf71b100927
07120403faea3005fa14f326023504d6
fe01f8c50f1e23ed12061e4d091340d8
f1042a1b03edd8010cd8f0250306fcff
19c0e4ef0747df10c8d804c2eb3bdfc8
ebe8f1e1c8161dfe12eae5d60a050003
d2235910f28cde02eee1f1dcf9dcef15
0fcb1cddf5f993d9efe8a4ffe0d44d10
ee3a264010e733e3ed276bf0f5f9e8c7
b9c2d2dae7263e111424eef0ff1301fb
f51641dffcc7bc0a08ff02141bf204bf
02d8d40be339300354b41bf60e30f77b
92b32b36d91231ec34ff7fc33f11e5c4
e88e4106b9d516092407399fee2ad4ec
230cdab425e807de0903ee1e38ef1b14
aef7eb0609ea08f60ad3151c1ecae0d6
0248ddf84bc3a1efc803b711c7d769e7
19c2119f10eef270e4d585fedef719fa
a814ef0719e7091ecae2d31613add800
ea4c14e34bf016f5000a0ff5f2d70cd6
e5fcbdf3d6ffe300d7fdaaf714f9c9c1
fe150fe2d40dd1f4e1fb18f2fadbf8ef
20be21d30bdffd0739d4ef172a4f4d04
1510d82df1aaa4dae023d2d80311240a
6ab6d7161ae133e444154a06c6032313
ec060ed9c8f110189c160fccea2bed4e
d7c3b6fada11e5d3fcf4dc80f1292c18
ed4117d2f00dd704c5cec1d4f231dfec
bb1bd7e8d2f6e916b1c9f42108b3ebbf
b8fffc98b90ba5eae3c8dbf4e6fed502
0b0012021bebc6db15e9b682a519e3d5
07f71e03092d203fe0e3daf619e0fee7
35a5cd6c51d420f30ddde8f7290910a9
c10611cfebc7ed030b4df1aac5e5f714
d5d4f7ebf91dd6101ddbcfeb2504e8f0
1de6191d4aba12e25703fad8daf819e3
3bf3c8d00a1df3dd033f3d0fb8ef0219
f9c5fcf5e5f9f6e6ed230f23010011f9
fb00f01a03d5d9bb2ebe0a0639b9f31b
edd82d2bccc8c40cce45fb14b556def9
f04bede43814fdd8f7fac3da07b5bc06
f011f7e9f2ef16ca0a411cf9f90d0b2f
24d52b13ba021dec0ae40c57090919eb
3dfef8f9c4f11317cce3ec06ef0a340f
05c917d3f53a01f71210fdc7fbb42a51
49d30210c0082d1bf446f434edc15e54
8ed02e23ecd84c0d05f9f6300112f181
0a0f2dfb02d658e320fffec121e7f604
b5130ce1fec4ab24b9cb0a193d03c3bf
23d211f026f9ea06ad23e6500000d0da
04200b00d9e62410f7fd37ace5e20fe7
d109dbdf7f8db7cbb1eca7fa39f2bf10
0ff1e7f6f225fbd200f6e12de2c20ae3
fcfa3407e31df0fc36e8e8fad60fe9be
1b3f00f532ddf2244c950eeee117d4f7
2dc12cdbf2e832e36625d020eb43ecdf
e11b1f38ea29c0493bf6d7ade945e8fd
ff03fc5a497ffe1bf502041601091bfa
262fddd5e61308150acbf4f31909dcf1
07c200e5190ce741161b2b0b1d14fb10
e1f6fdce91bf9a20c2f99001d4311329
33c6b5e6e1f5b3f82df1aefac6d8a0fb
fb1bf7e9eff421ed48ec16e40513de02
c3e0cc10efcddf0e040bd1f9fd010b29
2fddcafff68c4ec04df844f30e14e801
3cc8ee03e91905e96ef1fae23a220824
d5e7df0bc8e00fd6ec12ebbe07bef310
17b2e123ffc7f2aa31d1efb41002abfc
bde11ac401f52c010cc0abe9edecbcac
ec45f20ff11313f8f5f8efefcb23e1fe
1ff925001175ed7f191ad5001ad032fa
fcd50ec8e0070a0cd0e2edea0f0455eb
ff31f3002007ecd806fa30e3f0072a2f
1839e8efded607e2211f2706e8f3e1e9
05d01f1fda1029ea08a5c3e80dfeeee3
eaec24e7b9d3e231e02e0f3b0d24330b
e209e62dc1a700ecefb4f012da2eb20e
292df50dd6ac060dc40313d6fd08afde
edffe5103e21cd34f71ae0ea10fc0bf5
9c13f314caf90fcd2912e31ef715f110
d98501fe3820cce110fae10c25fd42dc
26d80e06ef192202b80705bb082a28cf
d80b1af6b20dfcc508cbd91d120ddee9
322115e542248c0fd9f4f0e011ee37ee
3e040fd4e5f6cef1c6f7d0ec112afcdc
230df6f8e01cfc03f4f5ef09f115df12
b6ad1ff4f1ecdeeff923f3f83227fe01
ff00b509f8e1d1edcbdeb5ccef00e630
e3ff0813fb08fc270938233035dee6d4
28130fe5f35c01f6ffa806ddebc7f8dd
05dcd60ff633ece0273c15f7d8e837f9
f6da1517ed21e63af4d8171a1646f3f8
45f157e5db1c156c37441820e50196f4
4df945ec2a58de29f5f9e8fbd63aeaf2
eae9f4ebfc0520d814f2251e1a0a1021
cded2a06eb1c2a1827f44002f51b062b
93bac71a36b5f1eaee10d3c6f1033ce4
ef01c01c2815f5f9cce0fd00021503ea
1efbd416e2f103fbddf013d80ce3fe14
f8c510ef3f220c26fb19ed17fee025b3
cded0a1ee6e2c8e70bede157c3b3c87f
07f024dfee02c702f705f6460bd8f13c
bf48d8f8ffcdff32d715eaf5fb29c308
e1ff05d00ee0fa0fc7ee051ff8ed42fc
1d370be10548f447f543dbbb6a70cb1b
37e818f7cb050df3f718ebf50f06efe2
d316e4fa16ebd0e81dfb1dd8ef0be924
ddd928a8e726f9f707c0cac501fb28d4
d7b768d6f40cc1c73dc0e8c5a5b4f7c2
d7cd31d0f3d780e3100bdce6e803d716
052b04a126ddc21e4acdf3e0cbffecfa
d8ea17c6ff35fd0b4cf2440c1305dcdb
e83ad6cb2309f42affdd12f5e404159d
ffefcdce08f0f6dc1a14f8f2fa1006fb
efeeebfaf3d2d1fe0fd312e40c141ee8
20409cafe50008fa0b1722fb4a3de305
f21117f8c1e031f6fdd4ef20d118000a
da22090afcc10beb2126cdebf93802fe
e6bbf524fbe32f18bd01220a1f29042c
d9a0f055532334490bdce90db1f734eb
1922e10b0d0136dd2504d51f08fabb05
e43ce8ebd016cefceafaeee51c3105d6
04f6fa14f9df23f9dd04e9b6a1cadc03
cbe9f73402ec58e0bdf222d9231118e9
bb1c5ecbf6d11bb6e123e1f5c5fe9c1b
d417ed2aabcd22e72315c7d0c52df9fe
0aebdd1d02110e13cd24c1b8e8052015
fbdc1bdc0114d0cd104af9ef23efcf0c
2e80f42e64421350fadb2dfcd7dd44ea
e9fad23a16ce4948b7f9e2b6bceb42dd
ecd5fcdae2ffe8c2fde81b28eff4eb01
47c816fae500240bea0e1f300f2d1e5c
cee93e2af0dbce090dd8022cabed351d
e61a41d309ebd5feb700fde5d1fb0408
f0daf8a927edd510b30f3815def00b1f
f82dec260ae118d2d39badf70808e5fd
38150d09121e035d0ac905f61202f21b
16f2d8f7e4f12202d6cdfcec00fb35b8
e4dc1716b9f5d2e110ea17cbcb321f20
0b06bdff0e0e4ff0f1d9cec63a36f6eb
08460cd82de827d9bd0fe9daf00fe22a
caeefecbc9b3fe2ad6e7beff353afed6
b4fc2a0adab3ebf214ef04ffd0f9550e
3350cfcddc272cd7f30813e2091df804
fcceedd22f0b18e8e1b9dd311816d2d4
e8372be229def015faccab23ede410f5
5724e7e9ee523fe7f7e9dbc8cfe5e81f
d61ccde7e401eb17b7db030cdbfc3efe
e7ff05e6e52a11463cbfd7ebe20217cf
f2f4e99c0d26c960fbdff1ebdfebcfe8
1c1b26a2111b0d36081df3d6f1bb9c12
f4cdd106fc18b728dfd9b19ee688f0f7
17173f05ee2a12ef60f0f92b52cc1b18
0c02f703fe091d10f9e718feea160d3d
f315ef132832f80a0ff6191c0917fc30
34c0f0020e0b2feed2fae6e518c3033b
eae225beea04d9e0ff1233db252800d8
1bcfe8b71fe51ce5d9b6dfa9cfbdfe4e
27db01d33e0efa270ff1def7e51cf3f3
4bcc33fdc3e00af5f04c33322c171be1
10340310f7c4ebdaf7e5ebb8fff1f202
2e340f028123c5f11404d0f6f8191ff0
eede13b1e3edec0ad236094021ffd4fa
90c4040df507c5e409e5e0ea071ce9e7
32df0e24d6ea12cf24e1e50b1fea1603
1ec20fb6c4f5dbf42407fc042ff4eef6
b93e0cdc17381604ecf8f2152fcffdef
4a123d03022b95a8f50f021502e84456
1710e0f125e4f21c14c30f19080fe6d2
320eedf5fa131e1ae8f20016d4e014e0
c5f92205290bce09132b1064cee3fde0
d0f700f5f6f5ff0404e70b02d40033f5
d01dd99cc5f5024c32ec4ca91803c225
f5d8082b0212eadf2cfbe203cce215eb
27b30505dee1edf6ddfa142c0bd353e8
dbcbe6e1f3c3f504fae17fb5e00bfec3
492b1019f103b8ede9f9f2f417dd3038
1f5d0016f958c3c62fc0d62137e71935
88d0cfae0aaddb0422dc23c7ec01c7a5
4415fbe0ee2ecbef0ff9f0ead7c90eea
15d4242a31182510ff0d3e0bafe6f5de
fb01f11e2820e80f0ce13910beeae0c5
5ff1d8f2ede5d9f0fef8b8bb0b359c15
eadafd13eddd3612c7e45b04c8ab1ade
6001270dec29e2d935f9f70b090617fe
eaeaf713efc5cf02082daddd21f3e6f0
6f16f3ed0c1ac1faf8f1cbf2d21d05fd
1c02b1330285dc81f9d6d3012bf51cd6
cf00edf1d212022f1c01d41731462404
27e0c42831dfd9f033f4c0c516e1dad2
2c0d9b1919f8099eccd2fc0ceccc08a8
0b54f11ce2f607e912d5e57a3e2aeb12
f2ef4dfb0ec704f62bbb07dc10e3081c
1de354e346c3ee64530c581c25433536
0bfbc60ed6f2dfd20fd3f8041b36fcf6
d5eff3eafbe3f1e0fe19fce111f9dc02
0f0f0424db0f00e30435f4290709332a
2107b7f1e5e10308f934341bd7ec2702
fc0df938a247ed2ef6e2de1b064a274b
1f1b0b0ef6f1042117222ee446d1331e
1b14fc2e0808ecb75f121c3de5e23231
04daededfad9fa24fa0110f5d9ea1af1
ce162c1d2114f65be0df08313a5808f3
351c21e90bbcfe42d209c52f220f19d3
f307aad73b550be7f4200ec2d605f5b2
273f032be128c9ed330cdf3a082562f9
f50bff2810f1d305c8e7f142d7183b31
23f3c2f04cf201dc0105b7eff2f1d7b7
13352919f2c5180cfcefc81bfe03f9f9
ec02e56fe42be6e01107f5e710194342
07fea8a3360e07d52b1cb2e5fa06a1a0
d8dd0b5ed3f1e003ebf72208c317fe35
acd905d7d4f6de0bd301ef2bcfd7f3d8
c6e603eaf915f40de1e6befd14f4fce5
d925630419fdd81405e49f20bbecff44
cb2c22ebb7e2c3050feceef7dceededb
01151fec233528f3edef0a1ce91a1165
2d0c0c12fee5e5e8fe140df7e11c20ed
f440e823efe30ec7effe08c1fe072210
fed2f0fef0b80e0111c5f6ec1923020c
fb13af26150e4c22f9cced0a350b5dd4
cbd913bad0db11f0f0f0eaec0ad7ee08
dacf16fe0110e7f6cf02d3020ccefeec
1c08b06238064019e90afdbf36061efa
d9441af00505c94727fd390ee702d504
04222bbf04e5183313c1d10ccfb7f0eb
4901ba2626ea1ae8c9dd189b4650ecd0
c6043c040de916e709f3d0e80cebe9e9
d392f8e3e4f248fa1109f935fb172bb9
d4dffb011d002d00020f110702f10818
fef2fcdcd8e9f330d101551065e70704
c1c9eaf020ccd7f70cffb0e21245fbe1
0dd60eec162a053ae62abe7f17f237d6
3b14f4e207e1f8e8f5f6f30ae1fea912
ebf6fde1e1fb09d18f19ff191b08ed11
ef513eef1d0fadcf1be8cfe0c905f91b
475d3534e334f2f245e32c2635e8d83f
23f4dee3daea03271f18f337cfb90cdf
ce0801bbe502e407f6e9ddf2d1cdf526
f7684225024ce7bdd5edf0fc28cae762
d5ec0907ecde19fc080db3c3d41515e1
4418f8fc08cd19f4fc31ffcae7c4dfec
0c0d2b42dd21c5a2ddb31bef3adfe631
121810e9d3dd0e46f40306c9fab13af9
0e0be6dd3bd61647e5a90b52f9de32e0
f3f80a0520fd1c2ef280e435fd1035dd
e4311a032bfe0b09cef0f7d1ecfa39ff
2dddf4f01a0237dccbe1fc5dddf8eec1
de2d12fd29031e125005161313db2b17
f1ee33eaefcffafbfe34fee4cfc718e1
af23fd03f2ae6c01061fe8ccb9fa1720
be103efe032d03bce333c2dd39fab8f8
16161f46e307ab221d322cce4328933b
fe33efe017f8ee0ad731eee721dcf0f7
d3ed5f0f2209f439ee1b922a0ef1340e
f7ea0a6710d0d0e534e0f2d019ccb054
3349c6d5f4001508e2fef84efc2305b6
a942c2da1f1ef543da175a3243c2fdeb
e90f0936abeabf81141d0eaff3b41f1c
e03be20ce9fa1615e0f6ff0cd6df2cef
0ee7032be70402fcfe1210ec0cf80aee
1a1a0003ef02eae004ec2203e7120ff6
fafdeae9dee20f0c0cf5260b111f1c32
f2c9f7cff4f5e1df2c1822f9e8373b00
f723090e1c1afd4526f32905df0f2f0c
1709ef12f70e111702fb051a0f091203
e8150b00e7ed13e9122114e81613f314
f101f0d8101a18e7f408f60af50f01e2
2e1a02b1f0d1c4c917e9d0250f0cef00
0922e3090d0b0f05feed450dec02fae9
04e3efebd10fe9dffe21f9d20f20f112
f016e8101eebe2dd10e1f3da18dd0cf5
ce11e2dfe1fbeefe04de1fcde4fb26e3
0eedf204f6cee22422d557052a501be4
e6e6e90311e2f3eeede0f7101b1a22b8
e8fbe3022117e4072ad21ef11c162aed
d2290feedc00e9050ef2fefdeb0700dd
0a1cf5e9f6090c070309f329f5f1ddf7
08f00b242feed4ebe4efefc3cbeee7e5
2a3befd9dbf9e917fc00023efcf205f9
d60e0212231f2ce206d3f9fb36060f13
f00bf00ff60cf40d17050321e9faf42c
04efee1b160e160d08fe09e620e7f1e0
090ce7021516f21715130a07ebf3bed1
0dc0f50321b8fe0a3005cc20f6d7e5e2
fb0eebf2efddff0d0c1a000a11b9210b
ddd9d81ce512f1160823f009ff00e8e5
e8effd1c3cc222e8fb09ffe8fa0ddf13
080b2acee2fcd312ebec1023d0df02e8
0e0cfee2c222dcef08f30a1cefe31bc2
fefad10404f8f4160bde16e6d4eddd0f
ef0707e91ee62a3b24161d1b112402fc
310407f80e0efa051bd6f404e6ff15f4
131d16ee02f9231026fefc0c01ee170c
cbf9dabf2ffee0fcebf9c60328ea11ec
0de0fe09d0034208670ae7ededf9f7c1
e10516201e10e8fae4e5ebf90f0c0117
1714ebe5122b17110c0a130bee0df6ef
fe0f1903f7e9f6e50e22021116151101
0603f5cc09df01282508f3e6f21228d9
e6f7dec7ebd2ed021ed412d00c0ac22e
22fbe7d0e6c538271413ef24d93223c9
fc0f08f0f1f9f01e1f0ee6ce16f5e9f3
d7ee1318e8d206f4ecf925283e20fb1e
20cad4ffde0b17f7490debea040de9ae
3011d7dbc60c1856f8eb0506f0ffd8f2
2cd51c0dc9010dc70ffe0bf1f4edf1fe
ff31d2f6e216f2cd1a0b1d2127e20101
08e9f9fcf4fbe003ec0af2d30bf6241b
fa0de318f70d161311f64005e406edf3
f2fe2609e4f2eed9dfc5f10d1713f4f5
fa00dc173928de06f8b62bf4f5f8f2fb
fff225f906eee7f3e701e907313f0d12
f6e6ed13181e1beb1802db150200e3ec
210feef7f8f1130af6f8f30f20fb1ef4
0cf8fa01e4200b15fcd71902f11111ee
2cf5f9c8e1ed140febf7f809fd0804e7
0ffeeb0e36162ccbf3cc3d30f524f3f1
400abc20dcf10de7df01ede7e8fae6ed
062315e9edc1ff02f2f6071b06d614fc
d5ddfe0bd9080cfd11051715f5dcfdfa
cde41e0b33e8f0fffde0eb2be9ed0d08
ebf70ae4ffc515e1eeecc83409d5f8c3
fdecf80dfe15f8e2064df809edeee3e5
e4f6d4ebf6ee21ede6ecdb14e2f7fd04
e6e51a29101c011c181a17ed060108e8
e5fccbd90dcb0df5eadac4f30ecd0f1a
11f0c83fbff8e812eed7f92ef4f2fbfa
0118fcf7410c0dfafe09f5f3391cd715
f802041f0ae8f30e27fef1f82ef70cfd
18dae1110f19dff317100ddf43f002fc
fd04f41ae9051be3f9fb071d20ed15d1
f7f53f25dd02cfc40dfe01cf0f0100fd
19011227f6ee04e148fbfacd303a39f4
dee80e0018ed02d11ef902ee23f6e005
f60e07f4eef1fee816f7fdd42009ffee
1c0bfd0ac0c416f1fcc90136e705201c
1d00153900001d15dae1e7b8ca0d11f2
e60ae3d8f213d5fa17f729f520b8cbd3
1517ef08d303fb20011e112222d11113
fbd602f92016dfffbff1002f1ed0f915
fb080afc14f8f018f80411f3e1f6f3f1
cddbe80fe719bc0416e2371415cef1de
1cd63ee82a04cf2605b9dbe5403ed810
13def410ff13e0d8efedf615fae7fa0e
09ea19030c060911e2060b061e080ffc
ec16081cf2fa25101910301300ff15ed
ff06ef27011f1424020bda0417f80d03
18f3fb1bfcd1040413e8ddf1bfdcfbd5
1e13200df2cf161611fd0dccf7cee6c7
03fd05f7f415111d0b071bca3809e70a
f1031617c6c9e509fa0a26f801b64812
20f8139d1a09f002b91dca1d24290e0d
ff08f3f918380d1ce5dee427f70fbd00
e5211f1ab501ec000218e100fbd52afc
211af2fefa0b1c00ee07f40a30240ada
dae313170938c6e51dddf60af61c1700
0ff9e1fbf60500b60e12fe14ec020305
cceafcef0746113cecaf17f7d91cdde3
ee0afc08131aec80f5d80ffed6e908ff
0c090609df0d11fecd33dd060015d210
1ef5f41a0b0b11fafeec060821dfe4f3
fe080d0f100c3fe3cb0bf6080400eef6
000404f2edeef0dd28f93ef8ffed07db
d2fcd9faf0d9f8cb29fa39191deae5f0
eef0e0d91bc204aadd2f39ffd7e90cf5
eff2110ed8010fc812dc1810c4dff1da
e919082bfbfa2ceedafbde05f704df01
eb0dd6cdec26db1b11c5f9f40631fd2a
bcf610a71a3ed1ac0cce0acbe0ebdd30
f913f2f408f804e8c3d2031ef415eb2b
040beb16420209fad9e3dbd9f5e2cefd
17fdec22ec12fbf302dd21e5f4e93116
0bfff20d11f901e7fefff507f7051c05
c705d5ccf4e9ef24351702f7da1134d1
1b23d82fdb01def6d9f00ec51412163b
0c0e2c03e1f6073c01092126dbfdf2ee
0d0b130005360dec0105fb1f1aeb2cf7
d80cf811060724ea1bfd2ff0e724eff4
f30f0704d8e119fc20fbfdfe19df09f2
d815c60fe305f715e94cfef4e91a2bdd
011219e0d913fdeae908fe02fef90c18
000913fc09eb0ee604eb02f6e82a040f
0e0b1bfee411f8edf6f8ee2af4e1cd09
e7f6e4f1eaf709bcfb3027ed10d51f0f
e7cec704eff9e6e5193efee70cba7024
e5e011f9e2debf1bed02cbd608eb07d3
f20703020318eed0fa120824cfcd36f6
eef0fb0500e506101ee6e809113a08f0
e7f002030f140d091df8e9f4ff08e405
2518f90df0ebede819fdf021da042df4
f7d23cf61a3ce6fb34fb3705283d0e03
d9f8e40c26f119050d09e045fe0fd3de
f2011600f702280c26000ef5111af71c
f300e21923f908212c1b043c020d1a12
eb0e03e6150613f105fd11f5160a2220
ecf2bbf5e9ef05e430fbd312f6e4f2ed
0ce602e7e71313fe4debee1f1d170519
e2f31bf1f0faf3051bf4e220041107f3
11ddd7eb03e30d1904200b2ce3ef0006
19e61bdedbe5fbfb13dfef053205fe04
0ff20de6ac0bd2effec3fa180f4704fa
21ea030ef4fcda1e1bfce022f5f00101
f5dbf724ea1913f0011006061a1c09fe
fe0c05dfe0ff2c180205cbfceee2f6ed
0e0a240d0d02cc11ddddf60d170e0f01
bf1bfdd00ec9fd0d0011e2d7e9a6c31a
c894c6062304c73414faca12fcdc05f2
0911f7c80c0123f50ce3dffbee06e11e
0a1108fa0719f32402e7f6f80b1202fb
3c02fc12190e1fed06f0f62c140ee02a
08e0030b14e8cce119e5d302e9dff413
081ef13207f9ff0206ca2712f3f6f810
fb2a2835fc1f92f808bc3549fe1ce2e7
16151ded0309ed1132ffeff60c05f509
11110515e1024af8e6d625eb2610f63c
f0e8f2ffee15c8122fe7f6290a05e7d7
dd070dece222ee1313c3e719d0fc14b2
0a0be5dfc31c0211f3f1fc0beb051002
d5eae414eff9fe21ddf40f09f2de2106
d2eeec00fcf403bf100513082ff6f31c
eff5f4022613e205e6f9e5030305f2f9
e301041ed80cfde63306f8090119fdfd
0c13fc224edbf9f3fc0fe3dbf3e7e42e
00ef09d9e500050805000619231616dd
18f81e16181f13f0f6170ffb0a21fe21
150e11f8fcfb202f09cefd0e1016fa22
18ea120a0fef071923f2fbe5fb12eaeb
29e23703f2fb15d6faf6d5ecfb100bb6
1ddadb103927100affd3dd0eeed9da1c
09fd14eef913f3f419cef2d5e50ef4ef
072e1708eef51a1b0afce8240c07f1fe
f3e1fe2b10e034bee2cff50adfcbc70a
e2de4ee41cd919d0d1f921ec17f0c80b
05f7fe0c01210c0341f714e8dcebd6fc
1814f91121e31b0ce80807f5e01ec810
f7030426e9eb120fea0c0afefafd0507
19050d0dee1f080901eb042afe0a0ef5
d9d4f8eccc00e6db0706191128e2e4f6
f62ad65deee8370c1c0de42922c14005
fd02ecc2f102d8f8fd150b4532e600ef
2313213514ea28160d002cfb05fc1400
3102051403120dfb01fa07dcea00f906
19e3f821f802152c01ef1b1b30d20e10
f2fdfa340b13393bf6f615020c0be434
fa1c190e2c09183217e5fef8fe170c07
0bf411f2d5030002f9ee1d1911062d0e
17f814e02b17ef0e0fd3e506ff06e4ef
06ffc03becf9120dedfec501e5db07fb
f80ace27cf3d18170b18eb2a171741cd
06fef3f61413f1f43bfd24e0f708cf24
f730eb2fecd90312420102211cf252ea
fcedfaeee70dcbf3f61616f9fb33dfcc
e7042efa0b070dfbf6fcfd25e001000b
e1ef06c5b216d224040dfff1c4f200e2
e3260e12f8ff17d7e5efe30d11f4e1ec
ebe4fefaf8240a0fff14e4cf060b2f02
e71bfde40eef19ddfddbe4f61ffdf0ff
16040f01fb0218f608ef0aebea150e21
fc183ed5d80d19102d490c0efc0ae3ed
fdcfd72a09f62f280c10ad0fe5f9dfd4
f427efdc3dc5661f070400131df9e112
e4f4f1e0080108fb151ded260606f00c
eff6f1dbe4f111f0200dfbf501f601f9
06f9f5e01216fccadae8feec04f8d4df
00e910dc2c3d1a00ad04b6fb34e8c2d9
f111cfef12df0be30af103131333cc13
f2f0f3eb16ece8ec0ec9eb1d090e10e4
12f309f2c60c0e0d011cebf1beeeffef
e9eff01708181d2311d804f3f203f100
f0021cecf3dbda13c1dad802dbee2503
ede1d01a4707e3e31bd3fb06f1e2eb1f
fc440c15eaf6ee12fe110ad5fbfe170a
16041f2010000f14210ef9ed1df6fa0e
2b0e0201fff1cf3711ecf82a15180ff4
f0ea1e0514e2f6301302ff0ef8e43d44
fcd121faf9f2f9ddede818ef0326dce0
f02c3af1fce0fe0decd30e0108200821
e9eb2fe6e607e814df01e9fedc050418
01e8f701d200d6d7ebe70c210df2ddf7
21f3f60815f5eb09240e0d2de6a8aefc
e60222043319f8f2e0f305efe0e9243b
e7eee8f403f1efd13afd00cf2edb1f27
0de0f717f21503f438200b11e1d1d61f
0e04ef063be7db111c11db04f3f300cd
02e502ddde0424fa040a0ffd0210f214
4213fffbee01071ece01dc0c0b260afc
01031a121eb3ebe04e3014ca13e8f1e5
eff3e20519f231dad4f818f8ee04e80b
1e0a001703fe131b3003fd1a1019f100
06111cfbde071cdbe7291c0e1042f60f
f224ecbfebf709c5170be92001dbf5f4
0fdfef1be7de0bfc05ccf416fa4ce321
ef061ae3e5ce18da081e0f0ae1022902
28121a21d3e7f4eae325de0fef11f9e6
ebb3e615030b1a15e31321d40122fff5
efcf14f0f6d6be040e0a0dca2106f90d
4713e21a47f1ee0c2c33ef1e3517fcff
0ced0605f8f60903f50200ec120e0bf7
38e322f0070b0ce20cfd0a3aeffcf7f0
0fefee08fa1b21d4e02edbeceb1202f6
080d03de0c1609210d0d11fa0800ebf2
f91af822e3ea2210e92a01cee4011bfc
fde5cdf52414e5fcd852f305c02410d5
0908ed041dfffafbf116e108060219f1
f10f1608fb0925111c001502daec0d30
16201def10fe0f260410f6f108c5eb01
2c0ee4141e0fe70ae7f1faeab715220a
d50ef3c501c6032cf8d9f217ed2d12a8
e32415b5142e1e0d1a0b1d34db0cd8d5
1b37fffef100051ede080bec042326f0
ddfc06ddfbf608fb0ccc25e902e6e4e4
fdbb080c030523e5f41b07ebf201dd12
bbf802063c1660fdf511b8eef224f73a
f5fbfef418121a1fe5ed4606feba08dd
12f304ffff07f92401132c1df808ff08
0a2ef4f0271609ddf2072f01f3dc15d7
0a1e060a04fe01ebfb02fae7e902f4f8
01bfb2f9e9582b1902ebd1cbed33cf3e
cbedf7020e04270221051e1935f4eadf
df0819140319f82b0d08f60e20fd05f6
221e1dd6fcfaf2022199121e16e5eef8
f8ec09fe00270d1606e8f4fff702ff11
fff802dc1e1125e60d01e63122f9020e
fadcf1f4fd37051ff005e8dcbb3be625
c5c0fe18914d35e62ee535ee3e27c00a
c601edf30de81d0928eb00043fcde6e7
a0bbe9f62a2b37e01edd272620b2dde7
e7f9090df7e2cfe2ee02fcf6da084ef1
ff2edec803f4e11e04da150b1ffbe9c9
c106160a04eb1afb1efc222332f1e6ee
e3f03b19c2e1de1a40f9e8d7130dfffd
6524ee293f0623ec5906f4eafed12daa
20f4fff6f30ee1f40c0711eac52626f2
db3ff0dfb310fd2e8044fa141feb09dc
04f00c14171c0b1df5f7fb110cfcfbff
dde6fdf008021228cf160418eaebda14
51daecfd2c1a48304b1cc20ee8063004
e9e0e70224fdfc08d71e1a05fbebfd1e
f11117161828fe1dd10ce91ef327da29
f724f9e1b8f3b90dbd0539f5f2f3e3e7
bf1b09d006f32850baaf0d463bccb3f8
13d601e91424ff1bd8e6f0081a0204f9
151d2508185f1d0d00ecd0eefd1895dc
eefff83329f00513e5e201dec9ee17d3
c528edd9ea2adbdd25aff200fc0af206
05f1f82003f71511e2e8e70011f0fc1a
bbfde6badff9ea48dfd2dedee44709b5
051ff0fa54e6daf3e2edf606ec0bd7fc
0e21fe070f12f0f4e916e92d01f70a03
1cff1608a124dc420335e9080ec87924
e6f60ee108e31c0017f5fec41df9f604
01022c07e0fe00efff0c1adf17ecf408
e723fbb97c02f5c715eafc1cfcddf63a
1de811f2180cfd0a0e0a180ff713000e
09dd2dfafa191ce5f53cf315092a1f25
05f0fdfeead4f20aeb003615be0d43e8
1ad00ac4222f1610181fe10a0dd40039
dd0612dfcfe6fafd16e511c200cd1d00
06d8492de405345005dde4b728f029f7
17ceeafaf6eed953d5e9e11fce2df4e0
130d0223b6171afc1badfdea04f823b5
c4f8320deef622f111f6f7c20cf6fd10
57fa0710a52bfc09e60af73ae6da071e
f413d9e786ecfebd1d09e8d9f5dceef9
091b31fcde05f01342f91be5e41b14cf
f3c534191545da043b521b2bb71e16c9
e501f909f4f8fbf2f6f3f7eee8e50818
17fdf3f020f6fc050d0f1709110ef915
1328e637980de903440cf44726100f05
04dc111ae6120b030e14fcf30c21fdee
ee121534f33e171927101b20f300fe00
08da070611232c130c1222300de525cd
ead509dade17d3ddf426f713e503fd28
ade3f3fefedf1005dfddf0d201e5db1e
f5f92ed6dbe8f80fd2d81dedf9c3cb44
17b70dcddcaf0ff551e418d5d843d805
d56400c9ecfafbded6c80de919ec1df3
cd00e3faf7e1f305d811f2ede1e307eb
1cd5e9ddf208b83013f9f3edfe4fedfb
fef50f0f52fef3c3f406bffb24dbe902
2608e8fa043118ead3e200d6f00fe1fa
d438ed26d5dc2bc626fee0f5de54e6d1
ca10fe24f1f0e6e22eeff533f524dd03
c2e9053b05130cc81ee4f91d1021ecfd
12c45f222e0e0225f6e5a72f471435f7
f81e11f907f3fcd207f006150e19ff16
eb1efd36ed050ed114ddb908006b15e1
1834f6acf1dc371c161930022cd4faef
c2e71014d9d6fc9c0307024bc127e808
c5170131cef3e4ee2edaf01ed81fedff
c852d040dad900f716061328e732d1c2
d2dde2fe0022faf3e5de1d161229410e
f3dac8deee092cc2faf3e6cf15f1f8d7
e81cfb19d1e8f5f309e80f12f025d8fb
039e1df1f2170af6f2e3d518d8241cd7
e1d3c10c1afd04edf815d2010bfc10d2
030ed81e0705e0cee30ce4d2e317e614
2e2b06dae01640dbefdd0d3f3e24aa57
03f3f1e5fc0d170c26f53f1defe0eee1
fceffe17e8002a282b1b310f1a1713ee
09c61710160a0e0502312f1dd130f0af
06f5142bfad90626070407141dfa03e9
041bc400cb352a0620f2293413ece10a
6704f9eff346dceea8dce1b0001f16f8
481137f9da04121e350f10fc060dd1fc
ebed09f00efa1f103ff92b1e03bef2e3
2c3618b6af164003312d1d3be0fa0b3b
ea03b70f15f402f0cd09e3eac20bea31
041a0b1e324ceba6f61febe780d517f6
dbf013f0e6f834fb1df3321328eff2ee
34f94145ee2921163df2223acd3bf129
d553c7002116d30336023015291acf15
0c21090915d9cd0100f6e025f40ce147
26cd63070b0716d4e4e9cd46ffdb1f1c
02f701ecf922f4053afa33f60304f9f2
09fcfa20091b2ee21de520000ff7d4e3
d527dc24372ac51a0cd6e508f1c8c9ec
1a0702062316f005f81bf3032a02f101
14f305ea06fd07fa30f2210efce91127
15dd473dedea0903d517ea1715b309e7
e4d51f06d22146f50718def1e3e5ecfb
e2f9e5dc0025fbf24ae21b0a1af70dd1
ebed00cdd62be2be26c12304d8db2ef2
c710f6cc1bd2f319fd040efee71258f5
4bc7b6130e02cec2220e21c6cb4b1318
f6fdeee80b1a0df122fb1800f305fee5
a21327cdfa0f07d716b826d8f4b42821
60c602e00d132420f2f63726e2d5ef7f
1305e5f6f4cb0c010ad9fe14ee1013f2
e927ebdadccbc6dc2c04ec2be2020be8
fdf032efdcf1cdd0ec2def081de1dc0d
d6ea0af0fce822ebff2809150de1f010
3bbf371f282f4047cd093c310ada5748
0710102305141df01b02130918f719f7
da0afee3fd1013eff14ebdfe1c0746ff
013c20f60b4101051cae07f7e41a0e1b
cc2832f419e5fbc3c123d31b1f1b10e5
f5d214cf0611bfaa002aef0df7e8e220
a6002986ccce880a3d3dd5d71b20eed0
02d6da13451b2b2511deeb06d70218f4
1738fae7eefb29fb1c25ecc7e2e61c02
f6ec0dd709edc3e7e71b01f116fce2fd
ee250735eeab51b91e04ed9ae50411d2
e3eee5d51402ebf8ffc925fbd4fd150f
d4fa3021f9dabbff2ff20c0feb0e2c02
0a392133e2fb01ca4ddff5b934ba04f6
2d4500faf8041cd8012702fa00eefe08
22fceafc353528c50cdebaf4e80ea61b
f2f93be60ed9fc42d3d8fc35e40b1d36
23ef0a0e1421f33504e3c8020a27d610
7f2c2806081913e5ed10a9e5fc0d1b11
81c8d510e88dcc1707c83ef208105dfe
0b381b9e7f0e3d03c3210d11bbfca559
4c52d8edfd2743fcd01ee7eefce11bfc
2c4d0afad52bfbdee5fd38c2c4d93ef9
ebffe0090426f9cb03d9aae32415cfe8
0efdde0ed30cfc1e13e04f0b00282fe8
35381e02fe2234f1f611f6edebe50614
5104c409f33e4cad0fe2c5a61e33b6e0
dfecf5ec02efdbf5f92218e00bf8e2da
d90cc2fc191fd84804efebf7f5f306cc
1b35fd5339323f27c602f41600171c1b
e8e95a03f009fbefed593d222f12ffff
f7fc3a23b491ec9ee92814fffc2b1dee
37111e10b73e231564f80fe617ffcf33
f80d0022e0eb14131701f5e50cfe272f
acc218e7e521df3bea35ff2533eeebe6
361db92624222ae81fbddeed9850f924
cf2e15b1891cb4182255362526ecbfbe
d7f43cedd3e7eb14034d4c313bf1f0e1
d3fe50db46180613dd372024091ddbd2
efcce0260f19cd22cff0f290cf802bec
fff41de41100fdf02df2e728e43ce311
e6fb33eef617f3fde4773327220f0ef8
c4042f22d00df2ead2331908148b0a11
4b020a08153feecafce618001d0120ef
31f417e3f5e9dfb72409f0160a14ff0f
d5072a47f0f3ffd5175109d1223d0916
ecf0fddceee3103304ed4ac914fae1eb
e655041ef4100a190fd725e7fb02dc13
f51bebe15c222c1d38b9030338cd61f5
ee2113141405d81937c1f10cee18eee7
2dca23f2e7f1eb1f07d959c9f3430fe1
19c205eeee1202bb0d11a71304d81501
b1faf9abafc12c0649d613bc263f96eb
cdbfd1f0fab8e628f2d6789ff80dbecb
dadcccd0cbacd00cde2631ab2b2bfdf7
2e1a291fd418d9effa31e9081303fb27
0ed6e8edf3f2e518cf36ed160d020cf9
e0f5dfededdf0d27f4e57fc5ed1cf0e7
cd581d4ad125ba0501e8f81ccc1b1121
e6fd15d900ff32fbfa07e7f001edc9bb
2ef20a1d214f0112e4f52a0580e3f5e9
981225423f09de33ed033014c5f86303
0d460019dcee10d70509094e294305f2
1a245b80e6c7f0242821c81725482d61
66113544f81e29eb3d3dd0081e1ae604
30080b2704d3f2ef3401ef0b05071e2f
f544ac48daff38bafddd41583409140e
01b40b164cf8fefa0b15f302bc8f14cd
053a220bb5e2ed074efdef72392f49ec
fa6fe6fddcf0eff1ed0d067a0c41fc0a
b630d3091a2ce6fbc1d41c571b26e8d3
ccd305faf6e81bfa14d547e4fbeb2203
12ffdfbdf608eef9bd2202dc0107dbfd
0754e4180300fdff00e307512c37fd0b
3243321ed6ede9351ef3f61157781745
ec252352e1fcffece8e6211eed132041
081b0a19e60b0bfe021d270221fa2b20
32c61cbf1fec1ce71c54381af0dae9d0
ebe004ff310cfafdf51601eddce7e6e0
bdfaceeb304a20ad2fe408d5040d1fdd
f33d0f34e0fa1bea14291c2bfb067f3b
382808f3fc0c29c87ff80c07f3d514fb
3dd4b5dd2df455f1012afff5eed0d8cb
161324e9e6afcff5d7150743c1da3f20
382ea2d00cf5eec5092c2cacdec000f3
24eeabb970fe0ecc1eedefe4e9cdc7c7
d9d8d1990df6ee1fc61220100acfd19f
2bfefff006f8221bf12cd81f4607eac8
e0be013603eed9eac2def205e20e0410
0edeebb621e9f7e8fae3f1f9e8f8daca
1e0e0eeb18761c243309d2d3682f24bc
e2fa1d2101e7fcfbf8eada55d2df0e05
e0fe0ccbf1edc611defd032604d7def4
38a8c302fff6fdd31cf75bf102f2019d
16f5e53513fb3a04deef0ffd1afc3fef
3c0ec31519ec1b38300f13f0f7131ae0
d92c07011401143722cbf66cd311f852
0d37fef7fde90d11ed0a29f3d01c1c1f
f1f1cb1e36cc2fd18b1427e11fff28e7
cad139b9a811b2f2282813d8f3e4c3d1
2607d90522132d360bbae2fbf32e3ee8
2af2cc553d013519daeb19e6353965fa
dfbe9b4e40ee28d5daf2e7a85dfe2bcb
dcebd4ede1e5ee09f4b51bcedd01efca
1624170824f4e6a71f1dd0ce09160c2a
252aeb4a330d5402ebfbe7ef16fc3906
192aa8340fe02a0d06a8f9d51f0f42c1
d32604ea1505ef26cf172efbdbe50313
deb9fac3fefa27f3ef122f1923021fc6
070e010b2e0e5dc7dc1123c71c18d212
e42f342e0937f9f7f8ebe7f2e6ea014c
262a0518af12ebcf300bfe0a26ebe827
3e2d09f00531e80afd02654517f834eb
1802f2fd04eef6f70630d91504fa2df1
e00d070e143cfaf4e1dc03122618f40a
12009ea90fc0f4f5390521f80bbaf6ed
1a3c0cc4154c0ba061e108fe3adece35
da7f754b0e38f2c8e3b1f80c13ea056d
95103925f82111801dd53d8d05f7cc1d
cdd1e24d23f6f7bfeee9fac8fc19eee5
cdf306f0c304df11ebeddc07e0042114
ef1b2c0f0440f5e2f6dbfff415ebfe4f
2832f8451234ee84eb10c7ed332ed125
ed11ff11ebf01b3ceb0ee817f0d30f14
0a0f06d51bc7232708a7f51b02f205c7
41a2091eebcf1109fbddf5f52440e40f
0cdf0a7f01efede84ee6f3f818f1013c
ec1daa33c90ce7cb18fc52cb27f7bf0e
d80e3c1051df0022f23f1cccedbf2820
15f6e70329d71ef409ff13f9e9e9f2fe
62c30127c3fe0cf72da5ff222507cb4b
8ec640bf42201e05d420d635f00539b7
eadcb51c1a5eab051fb1011a74eefb01
d2cafe7ce7d3cac24affe5d933f3f750
28082f59d8ffcfb0368fba0d2b21da2c
22dff5fdfb11eff9cce8fa1e00edf4d0
c503161bdae3fd2dfa3befb3d1162516
fde71f6b01e9f5d738e4e3e916d4054b
5a2fb6feec0f20cddaf721cdebf7b11b
f617e11501f0efee13de140ffbfe08fd
f3e5f8e109f603f2081301eb0708eee9
f8f4e5e2e2f431ef24f60929e71d3aeb
0b11ef0ce2f00df411f2e60a13fd00fe
1808b9f1e0f3d000df121ffe0e3cd8fe
b413e8e610f41d292af548bc05251704
f3fc11e800fd17fceb070c0ff400f303
0b07f7f4fed9e41f19e8123def0105e1
0efc01edf9f5081730f004fffa052ddb
43f91516001009f60f06f520f7e3e81f
f5ebdefa16ee08130deef413f4e20706
0419e107f8df1808fa0db9f2dbfbe50b
06d6e8b300e600e80f1e0ceffb19eec4
e2efa60716dd091819190cad1cc8f602
03fbed0412ecf111f50af5faf80bedf9
1d06f6ee2af9cefefaf02c18e01b0808
00fafa02212321fdea08f709eefe00ec
e6222201ffe8e01b0bf501160a050701
2235efbbb6fec713140928faf0cb0806
e7ec040616f41fff030a23fbf00205e1
ebe0ea28eef21ad402ffeafafbe8c9f8
3be6361900f53900e51c46c7d8f91501
fc08dcf3001902e20b16ebe710edf1eb
042febec20fd1014efdd2203e8e5d528
0d132905de0ce50c020c08f6d3040609
e4f5e30e36ed1c2df8dcd95c173800f8
de0b0215171c010cffe4190bd6301002
03e3f8e803101317f137e1ff0c05edf4
fdf600fffc23e4140cfafc22eee2fbd7
03fd0c05eb12f6ef03e72bc7d41626fa
e6eae92803fa26fbfbfdddfafcfdf9fc
f405f5fcfbedfaf90ff2f247cb06f515
240008eb10fe17de13e50ffe1bf601fa
0d0905fa00faf8160503f8fcd8f50df9
2d15bb2bf6dafcf60b25e519e61015f8
eeffefef06ffeb0705f30cf41312180f
e6dff1c7d7fb0610f5e6eacf031cf9e0
2cfdece4140df6d9d3c30cd801150f0a
ecfef5e5020bfc150810e5f2fceffd06
3805dee2dae10cf30cf4d0e7f40716ef
3cfed2f503e70e0d0f26fd10eed619ad
e8ee3bfc09b90c03d915de102e2a0632
e3f1090ee5acfd09f4f9f120100f2efe
23040b320612ebe4c902fce0f5f5e7f3
fa00c6ea0aeb19351afa03dcea050ddf
29f5f2fe1af700e6df0309dbfdf620ca
f70515feeaf90ee0f7f5f8010bff0616
3d08e804d80a28b12addfd08ff16d512
0e011e0efcfded16eae3ecfecbdb0cf9
fd06080a04f9f2f8e1f7ee12e903fcee
fbd2f4032c10cdf814d1f5ebf7e8d0f1
11fb0806fede01000706ebf8f8f513e9
e3fdf9dde2e12af2d30de80307fafff1
d7f3170a151906ea0b0cb92b1af328f9
0a1a081bf119ebe7feed0611e6181e13
07ed11fd24e607eece27d6071b1a00e9
e419f41018051c12f732dc251927f8f1
2136f1100c2e303e02f5fc141f0e2425
22190af005eb050b08fef0030604fbf4
e4292a00f6eaece2160f1714fd04f3eb
ef04ef00d227e5d8fcf726f5fc09fefd
0316f4182705e9b2f528b1f81e1328b4
06130e00ffe70100fb01f92b10fd10e8
d3faf8ee12f82fff2c131216e3edefd9
0c233410f9fa2116ebf7f730f0e1f909
f603e5fb01e6fd14f0e2da15ff2e100c
e80ff417fae51522ebd2060308de422e
f80b10e70ff702fafff402020bf80503
e421e516f5dcf1b12405e8b5edf131f5
ea570d240f053141fe10290ae81feb3d
01fd021e2cf50d09ff10fe0212ff0de3
d30b1505e8e61e26ff030b140beef009
2303e02cf7102928e8de160e0e15140f
2e2108fb0cf7e1fe2cfd00ee22e9ff17
e0e5f0c6f507f2de0afb11e806edf9f5
f7f50220fdd70c1cf91ebf1515131204
f7f1df2bfbb321e1c7c6f22d021e26e7
fa1be1f6f8f200f8e8e1081ce31adf17
d8f1f8da070bfc0403e7fbe509f4e2e6
ffcf2bf9fb362efe1b0e0c0f01e21df7
f80af5fde00cef27f402ec1920f81229
05e2fcfe02fce504e6f9ea041711f807
1b050ded1e0a0534cdc1cce4faeadbfb
ed160bfcffea07f611edfff302efef1a
ece6e1e6faf0f93302df0b06e8e8ff0e
08c8f8f4ea3603f0e0d82736dff93919
f2f100050306fbfbfd02fd06f9ccf1fd
0febebfff9f2180fd7f00a160204182e
30fe10e6020702060323081e2f08e40d
1d27e0ea01160bf92c12e61cc9d3e8fe
eef6f505dd04fdf8020ecfedf0e916fb
de12fd2d03160906dcfb0de60cdef3e3
efdafeee2416d31b020af00ff457f2ff
ffe20f1ae31a34cdd3ec21070cfd01f3
fa0eea10dae80df225ef09f6f7df1b0e
27ef04e80fde1702e6ee24ebd2fc97f4
de2cf449e7130b1eeb18cbdc141fe40f
d9dcf7f5f401d91214e601f3e7ececfa
1aef15ef02b4108939d3fc02f5fbf326
fa030431fdf106f300fafd0bf708f3fd
e110f709e30f14f718080f0dd8d0d8df
fd24481a21391c22ec2ddcd11040bc2e
04f7f5fd0b0b10eff6f005ef08f50000
fdf70aeb122121ef021de51fd7ece923
e6eb20140add0712db0915dfb427f5fb
24f2ffef0bf638de1d21fc07f918e0f7
e314f90d0e03160ed3f8ed16e604eeff
d8d052fac7010036f4230efa1d0ddce0
f604f9c8f80aeac8ffe121ebc60bf7f1
0a0237eaf824fa19ecf60710ee1adc0b
01ec000ef1f30403f2eff100eefbf5fa
43f8ec04f80012801612f808f9dc0103
06181c0511ed01e70ce808f0ed1506ff
1600e5f9f506f2fc0f251aeb00f918f4
0242edfae218da121802111429ddeb21
f90409f7eafdf4fd13eef00b0ef2eedc
ddf1c8e0f0df2c22f9eaf2f7a1f24deb
3c34ec0222e33ae01a0e331e06da200f
faf7ef020bea072202fafd23eef40201
1fdfedff00e030f4e011e825f4e11fe7
f7d8dd021d00f6fb0f1302f10a111119
0b0323eb0dfa5f081e05f016d23740ef
f9ec00d1ebf0050e08ead90614e5e3ee
ea180ee3f0c4010edd36f1e8e603e9ec
15e2ecf2d8f802eff018f2e5efff0af2
04e2fe001dc712cc3211f10f09d1c5fc
f6fa0d02fc090becfcf2e610f306ed03
ce250a070d050deac8c4a5020519520e
eb0b1304160b1a2b1cfbc716093ff81c
111006f8fd0fe8f10cf10107fafc1be7
25ec06fb0308c3002a0e11f00906ef1a
14f805f70307080efbf3f80ae4e6f7fb
04d4cbe7ffe9ff03ed101d41db0dfcdd
2b032217dcd61c1817f3180b202be404
e6090d01030513ee000d03f7fe0d0ffa
ddf2f656efe214f81415ef1b121101f5
ed0d1af0dd14ebdf21e8f2e90d1306f9
0316fcd7def02b122817f204270cefd4
09eaeaf9180ef204efffdf14e8ee13ff
0302f601ca0203ebe5e1dc26e602f7e1
dbfdebd9030febcc15f4efff0e18f4f3
2315131cdefcf8e4d4cb2825e2ec1306
01f20400ea0b101b0216e918e4e5fb05
02c9e926f7131b090cf704f70b0d02f7
fa0f06f3000f251e15f70c15f3e6e041
c9f5f30e03fcda190efce908e6fdfaf5
c9d7eac003fbe416fd40f229f428ecc4
080ffd03f20efaeaf6e90bf015fa0718
26e01df71bbe06f437e50113eae4ed17
f703eafcc743161143f5113502dbf60c
1308fd0b06f1f50bf1e8fb0205ed1600
0f06e8f2e7110e1e22f5fe08eafdf4fe
d2de0a06e809e5160003e6e4f9f2e7e4
1b24470810f9e3eedce026ff19f82516
092ff2ebe9f317ed00ec262513181a05
37dcfed5f10af9fb18fc07d805dfe12f
feb8d7071ce3d7d6101cd509d8e3fed7
fab8d8f5d2fb1cf831ffd005f0eaede4
f808f203f5f60b01fef1fcef0ef30a2b
38e910fe193adee2eb0ce5f6effdcf06
0ce4f608dc01352d14fcfbf71411fc1b
03f4ef09f6cff3f50005f9e9eae6f7f0
daf9df1b3af538cef8e9dc18c4eeff0c
040c03f2f71ee71e050e00f8dffdf805
05dc37c2f205001405ceedd8eeffebdd
f7e9192bd41c3311f00409eaf4f5f70d
e30cf00205f6fd0e08fee301120e0606
faacfde7f6102d01e44135f604fc03e9
0d04dffb00f00bcefe2efe01e016f01e
41e7f70b293224f2d923f1daf4e409db
e7f007f2f60e14171f1e1406eaecf304
f1e2dafb07e9fe1bf20fe5e2e5e21b08
07fe080400e2feb707e8e5eefcf40202
eaf919fcf8fa0febef1107f212dde8f1
020d11eaf40603122c18fcf4dbd8eee5
4202e303042cfef720e0eaf6f9eabbec
19f4f11b08070f0909ebdd430af724d6
eb28f40300f80509d905fa10e6df0c03
f114ca201cecff2affe5ebe118f202d8
12030af3fbf1f8010404eb07f0fdf8ec
fcc1fe0f120c0cfbf23ff51ffdece90a
1307fa15e7f0c4fa3d201a1c01d7f121
02f0060a02f8fe01f7f217120fecfdf2
0e2601fa3c26e0ff100b08150414da24
cb13ed0efee9081ddada17ef080a0ff9
f4081b02e851df0edff915f82007e4f9
0bfff7ef35eaf7fbfcf3f1ea0906bb0f
f0fcfff0dd090dba06ed300514edf02d
e6f4e524d60318ea011fe80e2003ec03
f22701e20fb5b8d20607f4c232ed1e21
df04ffe808edfef506fb0705e7f6e707
20113b09eb3300d72aebe93326f71a0e
23e4ecfdfbfcf5d717c9d3173d070d05
10fc0d1c0502f905da0ecffa03f9f200
e8162a101c14220ffee2faec2904e6f1
faf4eef2e904feed0e0317f7e4f6fa02
fda3edeef0de0607eae7e6e4c9e5f9f3
1231ff120614072a1ee7f5fff5ebeb00
01f419f9ff1c031312fce2f4eafdfcf4
dfedf4fb0300e820e3ccdd0b01f8d7fb
091217f402190406de20f0f81e0307f2
f0fe052b0210321a2f25381fe6063400
da0113e8feedfee4ffe807ffe413e120
effc06d9f5040a16f826feeae6faeae1
1c1b0502dffe1010de2118ece5d7d5c7
fa0028d70818cf210932cbfc06ebec14
fdf4ff08f1f9fbfa19e8fd06da0e2e0b
161bee0634dc0cec01e0d8242912e518
0ae5e407f0ee09ea0b12e1f8f9d1da13
f4fb21eaf8090ef20afdeb02ffe3f0f8
0a1a12010c420cd1c91e19e5ea03f6f8
f2fded17e7f403fde7f8fbf614e5eed8
0d130df5d1f90bfc04fff5dfeaeaf2f2
19f00e1f08fbdff0221b23fce2f1f829
020319e7fbf1060ee6ebe6edf90d130f
3c2be424011111df0f170e0017edd102
1dee1ccf160a180431e42308c80416d6
2b1aececf70725f5f70a13e2fc151d04
1cfbf7f9fce4f6ea0ae10cf912f5f3f8
f0111de8d71ff008dcbe05e5cef20fe4
15ff22ede7d21bfa1ced0eebdb07090e
0415eee5e42ed11405f614dcc2b7331a
0f01cff5f406f6e71b01fc040500f710
32f8e70afe0c40e91a04fe2035e3cc22
1fd514edf3de230bed2222fa00092806
f603f4160206f407111c09fe0903f0e5
e60edc15f604e50ff408ef0dd40f02fb
f001f80aea1204080d0808f6eef709f5
24d11118fdddf3cad8bcf9f3f43a10f3
1504162224ece124f81ffadc2a0c1d04
030a15db0f011be600ff0f0d13f9f91c
0af7130c1ed30a0f2be21c0efc1504f3
f7fe13fd2317ea251e09def100d70406
1d2a2302fa2b240c080120f7f2f42ffc
f2ee1beaf819dff9fbe51800f813f91e
fefb09dad91818d5e7e92305fb17c633
f50bf5f301d0e0fb0c1dd9f2efeefa01
da130b2b2903eaf950e80cda0614fff3
ecddfdf2fe050003f4f2fddf09f5f7eb
2f2403f7efe1d70008fd203b2ceb09f1
08dfedf91f120612f1120cdeed2af324
0cfd00e9020fe1ec010ae0fcf70512fe
e1edf7fa252fef02ee080ed312200822
0705f6fb030705f4f2e714f3fbf6fafb
f7d4fdf0e6eb2909def00828df1602de
f9020c23fe090c33e42f23160bf41e21
ef0dec0605e10a04fb050013f2ddf308
fc1305fee3120b100eec0423c80f03dd
ecf8f909ed00f403f721fd131bfef30a
d4050c0c0cd2d308eee30c0022db0b03
ec160bfd0910ef19f4d505f0e3c3fcfa
2f3e1326c8d1ed0703dc12d4ff230a11
02f8e5dd18fe0c09001eecd2dd0f0af8
07eef20dab28f1e81419db14f2f71d37
0af401ebf6fdf60fefe2150908fce6e3
d80308bf20e30b3520defb1cf117d4c6
220049f7ff1eb9f0e40721f79bfe09e9
ffd44401e0ddedf8fe2812e2eed7d2ec
f90d3ee1fb03b24fe307ddfcdb20090a
27f833ca07e4a121a1cf0421050009d0
d10318eefdede92cb8f8eec9cad9eff6
60e2ffccd7f6a516bbe8c1abd6360e0a
10b7d0cbf016f028fcf2e71112faf318
ede419fef6fdf912f3ec06f7ecf6010e
e912e80a322de51dfc10f21af8c404f5
ec15160ddfed94ece522cae4cefb04e1
2adfe7e80401080e02ec252d1c07f3d8
fce2f10ee92d13f605f7f91ee41822fe
2b56020f24e597f8cbfdda06b40529df
f542780923eec1dfdd2b18b4c804fcc8
f1f2e7e8fc2e1bea1df7faec09fc1104
f7d1d8f62ef3161f14e8ff3a491c03f6
5707d11b01a20bf4dd3a19f5e6bf2efd
d0d0dad0aaf20702cb1329e9eec8fa1b
bb1404a9ebddc3c90c03eab4962f2bd0
aa0e170d9c1f96f63806d6b7abfc16f2
17eafa02e3aa05dce12ed9ee0743f930
ef12dc03b2b7bfe9fe05eb9cc9ec221b
e91033e2e9dce1220211fce81befa333
250c311624d6f5dedde4eb16ea1302e1
1910dd262c05fcf7dd0ad802e7eb0d07
3e09aee7f6c4a5af05341ce9a70f2feb
b5d209e39f21250018dffe08defdfeef
fe121801d603f4f1d802fef0f7ddd612
01dfe60a00ebdf0ae912c6a1b9bd51cf
2bffee150bf9e5f7417f3915d7432db6
010ef204dd02d702d907e7d303efe02b
e5e106fcd439ea21eedffe2b6508fad5
120cc5cd5810cfebfc042a05ad03d2ea
9bd1f2cffec811fc02451102ddc9f3d3
2ee90107d0ebcbf2e215ef3f1c06dbd6
17a32303b2f903eff61e115fe0fefeba
0c04e4df3f21e5d1450b1c05dae1fb0b
f9ade7d8d20ae5d50d142b7fab3ef2e5
180edbdafde9f5b6191b38ff3008f0c6
0fee04ff0012e415d0f7e3f7f70bf826
1dee07d87fdcfeeb0f26f3e4c7eada1e
0f1fd9f70b0eb806c0ecda081ef403ef
f720432bc0d943fc1bfee1ff1f161304
efb61ff412330b13e82a0f16cf0ae54e
fff1c11e14c0ceefc70fcd2deffefeec
0250e4e610fed2eef8dad82ffbd9d6fb
f7bb06dd130c010e11430e21c9f800fe
d6f92926c2121fe824e94ec021f5d8af
fd270612f71be2122a15db0ef423fba1
e39c1ef21302f5e0f9d6daebccfbe4e7
33e4b9ede52b1704ecd912f81a47240f
3733e6a5ef2f44f817dc14062c1fc9dd
05d5f40e3c012f0929e7fd3a0f17eff0
ec0df4d1da35d9d046a9faf31211cce4
2f1ef318520b181cfc2a42102ff71d3e
13e614d5e5e8e21b28fd00f8df59e005
f9dbcc40e10118eb3b0fbc4018de00dd
f80dfa01f821c6f02febfdbb1111e5de
fdf4bfddbde908fe06c1180dfaffb917
dbef37f5f0ecf10233e30109dc2f04e8
2bd5bb0bf6e61ce160ddf4d8f12f9eed
e533fe14cf0ade0907cadae6ed1300bf
f0e1130d0b31ed121a210429f6161be2
ca2ae8bd28ce06e2ed051c0f12ea1923
38feeabc510dfd4014d3eae7d6f3270f
593be7fbec2b0a40f0ee7dd7dad1e9fe
ddd40bda24450f43e401f81203c101cd
16d81ed517f5111e0519d6d2f2b7dfb5
2b12fecb4033fd4ffe121bcf17b905f6
3cd80aeb0ff0fc57b00605dd0c9bf7d3
d20054f51b06e7f70f2dfc131adefa11
f5e7f2dbf9f7e3f6dd2623f9bafe3f03
0ce5f9252dea0ce7dfd0d601e01a1207
2effc7d5250cf206c7fcdcd1f7ef2704
fff3cc2fc611ffa816de30142e40ded3
181a2505072d2524f7e74114c14e1bf6
2684dea81901e12da804f60605e149ee
2c25efbb34e4e216f6f1ffabd7b517e8
fd0903f9050927fc03e50802f32dfaea
d0fb141eee0c02ee27f5f43d1c35e20e
e5dde9f706fcd2c4d4f6afa724e413ac
331506c207f40520051a03ec0f02c9e1
c9c8f625d91ccd10c12cd0fd06263a07
d4dcd11bf51bd8b3f3eec80fe1ea3332
f79700a6fa1ac8f5adfce0db09f73ce9
04bfd025c7f9ebefead0e5eee909ebeb
0fb8e30f2c01ffe507f8e1e6373eefc5
1804f4d9fbebfa04f9e9e4f5e403fc0b
06f8f50cf7de17e109b70b0e22f02fca
a7ffe30fe51eebfad106d6bf0ce50305
0a0b14fdf12b192a08d40a04d0c92004
54321602f80b11fed208110408fee80c
e7e4c027fcc3c2d6d8b5d6d2ecf9f3ec
aad9b004fe18fbccda06dbe8fbc20fe3
03fb1602f1f61af3efed001d0106f8f9
17df2ce0f4ed09fb292f220f1a150621
ef3bf5120dd6ed47dc16fe0235bbd143
27f30bcee4f2f128e860f3194e7fa9e9
e01dcabde2cee600f1d4d3c906e1f0eb
ddf8cec504bfb2f730cc10e7f7d2e31b
c623d5d415df0c0cbf22f0290deaa500
0417d908dceab2f0a4deb541d6d3cd1f
0eb0f5070d044dccee190c2b10f2fd0f
be0518d6b0f6381ecce6f4eafad701f5
a151d4f61702eb232f1218120fb3dbee
014feccb0de5e2140922eb10232dcc3b
f0cee9d82a15ebe5571022c2e90fe802
ec122101d804051ffc11e318fae5f000
ea62d7cc35cbd547f6d4f2d6fdaeec18
0416c4f0c9f7eff6d76ef352473cc548
c3f81b06040cf2f40b0df33efad4e01c
21feda3af20a05e91ade18171018dbba
2b05c9fcddfe42143ec10542d7c6104e
cc0fe3fceec013ef31dce6e51903cdc7
10ed961300f7452ac9bf14c515051bc8
c3e7f5231ce1562dd6edfcc4c6154229
fc04eb19050617eb23e7111fca06597a
d6168f2b0504610b1bece5d2b6111fd6
010806401517f00db90f43e0fef917f1
dd04e611010608020ff5f2eaea180be9
2ff2071edd0f2efee50cea62d7e61669
3ef99bf6b0fb2d0a14c60238cdef111b
cd1235ccc9efe0f82515f5f4ff22072f
d155102af3eb0ff3e3ffe818f546140e
3efb0c53ddf85f36dbcad8f7c8142514
f4ebb7dbced331ff5fe0ff3ff7c84b20
f5ff1223f8e6f6f60105c21df51502ee
80d00eef0febcb01da0e4d07f5f3d300
f1de2b0beedca84efeffe62619023223
f8e7d5d9effdfefae3c1160df7ed23fb
dac42ee130c0af0f01c93ae2dd17fc10
a8c0426aed90c72e06b80ff4a51938fb
a29a1739e1a29a2219351227deda51f8
8dd11111f3a4d2e436e2e0eca601fafc
efdbdf0419021f2bd5d9db1bdcdee80f
f8e8e1b01eed14039ddeecf6f20ae7f5
11ff28ee0e03eff4fafbe7fbeae22f04
dce42407c4d4dcf00ce5e9f6fecb58db
eb14cc18d7f606e9ff2b260d00f906ff
03203aa942eff5faacf2dfeca4badb6f
b6f61deb12d6bf12d681f327150201e4
98be1004addcc3ec16b21b08ef0740e3
0e0845f609faba0af6e6e4dfa7d02810
2a1d1822fa15faeaf9de0305e5f52119
fc1ae50ce710142b7eacbbc8edd8260b
a41cc90c0ce4d3efe8f1dd2c01fee9e4
fc0bade7e8eff1db3af6e29a80f0ff11
e902c0244615ef2013a2d50ba621ef08
09fa16fff202df1e51bbc5aeb4cdf5f2
18efbde60737db360bf4fdcdda1bcd16
f9effe069c0bd6d917dfefd91923d723
1afbf180fcffe719deeadedfe7c7b3e8
01d9f4fadc20f7300d2f04ec19f7c4df
c90bd20f21f5d83424b0e629ebff2e14
d40907d230baeccc1c1b1a34133be722
0500f8b21d2db919f2d7e7dbdee0a3aa
0ef8d830350f09f73ecae0dff6f121ff
cd0adef924e8e40bd7cc181d0ccf00f5
e2fbead50132b9731ef10b020ccbc8cb
dfc717fcc6f8c500e62343ff3b0cf0ff
3d140c025ff310e811ce9f191ef9f9cd
4be91308cf2ccad50020dbd3ce0af70f
182432220523d5b70becbf450796291b
00d85eee1226c88ff82ed05bf9c74e0a
19fd20e11cf1f7eade08bdee12ae15ff
081a1316fcf2d2e11118ea3f27811a12
042cd803104412dc0698c7fdf4e12df1
0ef4e8ded71b10e5ea0bf5120ffb020c
17a9f5c804fe23f10109050b12e511ea
330c0e15d8ffa3f119efc81106db2229
26e3e9e104eb0427b63122d1f3dbfa04
00e4f281a20f17b50cfefae67df6ce06
5504351b1aebd6c6240cd7250cf62634
181af525e825d8eef118c60fddf21cfa
23c82bbfe915ffdd1509f6f11d1cf200
bc16ef0cf929de2ef8e627ccd137fcdf
15ab0c1711f713f7282821ddaca7111a
04fa3df2fbe6cf09f2fc1aecdfeef6f3
76e6fb25fb03a7ecebe2dcc0dce7d616
4ee8fae92226d3fdc5cbe6b2c5cccff1
2ea3dd231728ecd908294bb9caa7aee5
d7ece8db1cf50ed2dfdd20cdc4ddcbbd
24e22bfd0d9d0a00131dd1eefc04fa7f
ebeb0bfdc3ee2a2207e60e1fffe3f5f6
0d0ad702fc26fcd5e924fee9fa19e1bd
f8c40d022602cbe701ea1fb0afabfbf3
e33206cd1d05f508d40d210dd90ff3e0
1014131bc51d001b42171d21061818de
19a23b1145132c9bf5f1f1e0d280cda0
04ff18e1f5f9eb0ab6edecdfbbd4ed1f
01f6ff43081cebfc0be157fbd6fee2ea
f3353313ea08e1f3e3ee06102e2d0414
392d251ac7da10eceffe420f08d55550
d8d81311eb27e80d15ef1bd9e916fadf
ce332042a342f31411fef3061f4d4737
0a045838200af0180cf11f50fe0a1013
f6faf811ade20d25bc04302b081a1c73
05f74327c5e6b7ebfce42f410b0d0930
d1fcfc0af835fcfa20b7c5dcdd064633
041cc403b923d921e743f6f4f10f0802
18f90710eb0315f9f1051414e5fb0b1a
d7060925e423feea2bf9131f03100a2b
a4b4ff15f8d7c7f6edd7101cfc12cac6
0027d6e5e802f7efc95916c3dfd51df6
3726483c09b1fd0111c80954fff40d15
00ee101ae904eb1902fd2f0cfb0ae536
080fcff0dae7fe03d21aeae7fa0603e4
c8d1e6e9fa4f130ef0d2fcd5d72909da
c908188ad1f3c7faf90033438011bf33
eaf403da1616ecdce41b1ee6e009c1dd
9e1c30bbeb9ee41916d0eaf4e512ce00
b70c41fbd0adb7ce3ae4e7e6e9b8fd09
93d87fc0e107e0d9ef29fc4a9df9ec2a
b6bf0bfaf0d8b8de0bdbbee2bc9ff8b1
ff292ef5f2fa0e3af504021af2f4e503
b411fcf3e30ef0210fcbcb20ef04fc08
f2ec08f60c0822e9cc08cd44dee01123
db0d2397e1f0d2cde7e7ede2bc92bc16
29fa0223f32434d5161acd080b002eee
a30bf2dee323ea43f6b5c2120700d810
efe938aadde6cd0009cbf3eed68ab1f4
06ef53e0d019bfdd2b2cf73a00f2ddf8
e50602ed14fcfd0dec03d3f514fe0ade
0c0fef261d0525ece510f9d72b153d0a
08e8abdd28a4183bc8f72d28fce815af
f8f0d20105d02509ec21dbfc2508e8de
23fef6c608d6d4ed151ff31246fe2fe9
e5bcf9a6bfed22e6f900defbfacd23f2
08aac0b6e1902259f519234e27cb3295
c7d7dea1c3d2df0927fbfce2f1cbe8f5
6319dddeeefbe1fcf712f6fcfcdbdf03
d8e41ef22b09ee1341d817ec0b17f0ea
d10be61c090aff21ec2f460f04ff1719
07dcc4cafca02920dc0eebe128c50095
d00efa02de11fad606b8fb05dfebf616
1403f8f13e19fdf358025bfd0b1ed0fc
aafdf5eb25941e2ffa1ae501f6c32bcc
fdcaf7d3d0b81e15c5fe11e50ee517da
e9f50c1a2a1423fe0a0b0725193023f2
17fd1d15e223d2e3bedede0212fee714
f2b90aa64cd94655fcf0e72fedc15ed6
fce7bbf209f03443fec30400d1ec31f2
9d3f0cd461f71f14e034f8e2ed0d21f1
8100eba623e7211ddbecc6329ee647af
19153ae30c06fb10ba07cc0b9cc342f2
aaf718db1ff1fdf6b8ffed2dd9e42cf2
b15ebcffecf01be5c0f111dc11d20eba
fe0aecec1966fe03f3f30c291329eae3
0ee81a131aeb162c27fabfffe6cd420d
f1e216c406cb113a01e80a2a80081e02
1bf4202edcf1fa041b21bedd242ee538
ee0df8eb08322133eeb511153716e6e2
edb6e7bc380f503e060ec8760aee44ba
24e810cd04b2310bdfd700f0950e240d
35020d0b0c010a1f1080eb2404f607ed
fb4be436e7c416c835fef1e5fe10eb08
f2ede6fde0f6012247edfafff30219f2
f6d52618ecd7fc00ff0ef913df3114f1
0cfce30b020eec3324dc2cfd083cf80b
0f1d13ebe3e0ca05081bf0ee02421cf1
1be3ae0be5fd0b21fcf53df31f2901ca
3bf433dde6b4f10aed44090309030f12
fcffe3ec1de3ca051d032bfb370814e4
0bfbf6ee03f00cfa05d50c19fd1307e2
f926e117eee7db0310ef16e926080a07
e5e60925cf170001ff1528d50cf6dff5
b514f00f0abc3d4747c921c2f3033aff
26f404e90506110bf80c211712f5d5e4
0fdddfdbcad5d93328ff19f8192b27fa
0dd9ee1404240a0cffde08cb20080012
0a120406ff18ec0604060be1ff21081b
0d45270e10f6d8f9f3d3fbe217de070e
f21d0deb11e2d4181fea11e008fe0000
ea01f80ef1211be3181ff7fedce02dfa
2ef7d8e4dffe131c100410f9c9deecee
231abf0fe4f9ee0c1106e620e7e8d3ac
f71221dbdd159e0cd70d1a03dedff7f0
e4361f15f40c04042dfff936fff7f9c1
00e0000ee5121fd9ff1fde00fedd0aee
fc11e2e70d1ee200080ff81e04f1eafd
0e1e10230fee1b05fff120fb06da07fa
ed0513f6df04f327e8de1d0d08e8e6d5
060934d6f4d0f0efc70e39fe80172220
eb080607e9fefafd1afb01ee0bf0eaf5
0f0ffc1ed90b0203091ee02829d908e5
e5f828ede5f0edfddf07210714290b0f
ea0fef0506fb2009f7f70c1c02f902fd
f9d90d112ee406ffe8fa1f0ffc041de0
1205ede00016fef1f213bef8dcd605b1
08f6f8e2fc37e61a3121ee0820021302
1f092228b41904032c180625f017cee3
1e11fadfc9ef09fc28fc9914f912d6c6
2426e809f9f010fb1506d2e9e1d718ca
0724f2f5fd5506060d1c0bf8d5eaf60d
081de2040e3801302923dff707091625
0109e0e1fffaf32a16ff08efeb1dfdee
0c2433f8f406fbe11aeaf84035ec0626
0c12fb15f50df3fb01e9e9e5dafeeac8
47bd15e403e823bf080d1a0503d1091d
fafcfb080defe613f6030af712fc01de
3adff2e5bdf9f7382cea1cfee90fd4eb
0ed2f50b080c07d3d5fe04ede4101feb
1905f105ee0409fe030e0cf6151400f3
1cc321d1e6d6f7ddf3030d08080cf90d
0af4f512f906e7e71304d6d21d180af1
19dd050504f71518fdfa0e0ce8f60413
f004e9090c3aeb0aee02f14ce6cdf6f8
e6d1d8e2ee0001ee00f648eef9e41a19
c0eaea162729060af6fc98e821feefe8
3cd1d1e9f0fbeaf009ee0e08f6fb0716
1c0bef261af60afef403e326e313fddd
0110e40efd2119edecf40a01ff251b0d
fdedfff5f40a08ff0605d304191304f7
13eaf7fd0aed000c09efe9ec2511d502
e4ec433b3710f50621fcc905171eec9c
1c1804d72013fff6e00cff0df80bfc10
0fd6010d141fe207fcc52304e5e8131a
e40d0506fc1f0616f3f2d2e9f5f5e9db
e2f5f0f9eb051107e4faf3fdfb0722ff
eaffdd2f0e00ff1011f11f0adce51e1f
de24cc1715db1be30dcdfb09080d1e11
e711ff02d6ec0bff090b0f18f6f002e8
1df6d2e7ffe615fd1d0f0c1806ec180a
f2dec814eadef10c2dd620e839020800
18fcd30d04030510d89b1518f2d71403
06ebf1fb13d2fc0202f7ee0347d3f419
e5020b1cf0f10e100f1518e80aff180f
0308052305f10b0b290c100304fc23e2
fd061b06100724e612061602f1eefb20
051fd1f7f8f0f70bf2ef0804f7f5f0fc
26060f0fc7d41a3cc5f30a22b520110a
00f61d0d0febf0f40efddcef0a02facc
ffdf040af50f050ce2dcf81af4200bff
13e6faf6e5f7020ed2bdfb100910f920
f8061920e60e02e3ff16ecf7d6feeef1
f7e62defe319ebdeec1b0d16f1fb0e24
07e314fe2918e301caffe31e0fdbdc0a
e0d1f7fb080afd061805082f1100ce26
01fe0bffca1ae8d6f81b3412212406f7
e0da11100ade051efce5f4ccff00e9df
fe18f70d1827f9e89ce6f5193e18fb43
f6dee31b1b100cdffbfee6fc191c2f02
12f51515e32f14dff9e012e42ec9f915
12ff0a190dfdf509f0e4010700fef808
102d180ada1003fcc90def0f1c080a0a
fffcdd130e09f406eaf7f01b041fd812
1219619412ff13f694dd180a0fec0327
17e6ccf2cbe4edfe2c2913fee9fef11e
f6f6160008f7f85324df021a512608de
06f5d6e6f20ae20900d8f1081fe7ff09
f6060fd40eede1ff030efd060cf00a0c
021ef81afaf51e2507fd13f6df1417f3
e2fefe0a0e1dde2202ecfeefc21f0bf2
d2f0f8da0f2c06f2e8051febf0dee605
f9e505dcf7f5109bf8fcf5d8dd2ae512
c302dffdcb2c0bb8be0ae303c4fccce3
deec2511f9f3d8230202fdefe100ed13
f61fedf222150be1f6c31610c9eecfd0
14e503f0fa2a14f81719ffdcf42e03e5
fefaf1f8ffec08d20efe07e905eb0513
fc01f104ee0431000cf5d0ee093ce110
f1ebfc27f026f011f8fdcd16d3030009
352209263de80b29dc25e41c1343f044
f90000e319ea23e4180b3d0805cfe8f1
08f128cd0728eaba04ba15fcee24f118
df11ef0706faff2912ffeee301110009
12e2f907ff3f0e0225f90c03f0e506df
fc081314f91216163704dd1d030ef208
fedcf80ffef3f4ef0af80916eefe04f1
121ce608ed01e7e62411201ff7091d14
2aed1a2711fd1be0f5102aef05f24113
e8e7eddce1000ddce1fdfd3bfd222f0c
08eff32ced03e7c9f4091af2efc25afc
fe0af4e7f82e0cf5f1e1f52108482418
0b12eff2f8f10fe6f2013aca0aee180a
f60ffd0007ff06f6f813f40008f1fcf7
0bf023f71603f9fce601ff1f0ae62a0a
08fbf711fefeeefaf4f9f60a16f2fd07
21111a21ff1711c50e3021bff8a4e52e
04faf2ec0dd10b2508fee504f1021500
02f0f1f3b92811cde2f41ef1061f09ff
22e8e70c0dee0305d9e9f8d718e702e4
1b0016eb0b0ffce9f51404fe15ff1b10
ba140c1216f8e5e8f3fadfef211efe01
012b1cfdebf9dbe41fc8faf80128fff8
f3dbfae81a0ceb031813e8001e0610ee
0fbc07fdb70308231ceef728f3070008
ec101df31abe0f133be4e863fd3de6ec
121702f0e7f3e3d01fba061c03312af9
e9ec312407e7ed3039eae42dfc2ff9fc
fe0aed17bcfbeffa1cfaf33f071e0e12
02fc020cf70d101603fe09f00c2303fe
0d040b03fa0b211a04feed0104311409
d9bef9fb06e6d0d2e8e2e7000c4409f4
3f0e07fbd90a100012bb34e5fe12fc2e
d1f7f10ff8e7e2f013fef00bf2dcd6d4
c7ce27fbfe06f42423d1ec331d2ae11a
0b0a04e312faea0a1bdb0ce10c0afb06
08ec03030d10f80b13001204071512d9
23f8f70cffe1eff91001f709e2b92224
deefe5f8f6e30e0808f40005d7eb12fc
ff08e3d20f19d91f0eeaf3f7f303230b
f1f2ef04d62ee9ff15ffb2590bdde7fc
1603f4300d2dd72f42d1f60f04000912
e603fbf7010d12050913befdf8e022e5
190da7dbf5f6e82920e4d60b1818e316
fbfafd171e10d71912dfd8280c03f9fe
f903fb0018fdf40aebfff9fb0afafbf7
03f113f9d709370c13dd22e006e61032
d1d9d8eaeaf01d00051adafde7eb03e2
dbed0be8f408290647de0e01191d2ffc
140af4ff08e80a02f4e1e80c0ce9ece9
d9dfeae0f329f1233efad527ecd4fad7
d5f7f7f11412c316031a11f8d8e73c10
fbfb04fdf50a10ee2c00f8edf2f90a0d
21060e01de0b21e1ec2a0dff0ef50219
b7f718df11c702cecae21ae31102ff08
d81f34f01cdf10dbf5f1f1161519e71b
f4d3140bff3af6f1e4e924061ee5b40b
0915170f0df4d7ddfee2f2e2de0bfc31
e12a11fb10fff4cc01eafadef4ead61d
eb0df703f7ef0b07ff00eeda0e1fe104
02eb0b0b0f061dce02e7f7ee0822e40f
f601f11410070efcf7eded08defe0717
06ccf121e2093c25feeaf01a0a1be706
ed1815fcfcf11003f11531cef9f4e20e
def8f845fd1834f9ea2f230c0689d91c
0a0214ee1d14fcdee2f5ebfaf31115f6
25fc071022f920f6141716e5f4151433
ba25e40a021308f2050df2f8e7f50ce2
06ef27e8ff05f81c00010410f3f6fbee
e1fb2c0f09fc1815dee1e01ee9dffcf0
fdfdcf19f60dfd03e722f82737e71e1a
efd3e80de3fb12e50e1d2b0f09ff140f
e82b1d2803310508feedf724ff002e03
d2130d23e72a13d5eae4fa0840fa2909
f717de1dede2e405ea19f612f8041406
f9d60d24c70123eef80a28073a0435e4
f90bf30e1128e9feff0a29093de4f3f2
020a090bef2519090a03ef0e0bf404ee
18ebe62d0b11e60024edfb19100d21e3
bef80102d9e9fafb0f0dfc0f33eb3c27
1752041ff9d6ebf2351eba1403f7ec0e
ed050af93202d81cde0e201c0f0bfc11
dcf5d914e5151d011e04162b17f5211d
f901ed0df7f2eef9f2fc0909d8162ded
fef0f307091cf00e021cd91109053805
f40a13fd110be50311f0e3cdd209c43f
0a0223e8021dd60ddc11d6d920d4e2e9
1a22191d0f3211f2f909ea0516f809d0
041e0ad644020dcffbfc230a2111c9ec
e8e6f8e713ddf4e201f1d612ff15f803
f61b21d7fff9daf307af120e27cec4f4
00e2d8e908f0fbe900e5daff1df9c706
020e0df2fd0f381107faf60f1ff103ec
11ff02f329061212f5f20409eb09fbf0
e1f6f50c1807fbb602070a0f1c131a02
f2e3eff82bf1eae1ebdb01102305e9d6
3a3413c10af71312f206000c1de0011a
eef9f70b160df901e8fcfe1725dd0c1b
0b0ed1e1e8f6ea1df5efcdf01321ff06
1906ccede83af304edf2eefbeae0fa04
f3f80c0100fde80608e511fc12f51100
f1c6d1eae9dffbe607f5faff02040827
e80820e0e4ffe3f802f617f4e3f2d80e
df203df5ee23f912f914cf2cfe1f2201
16ebea240de8f6f6f50bf7ffe7d7fa0d
e40afafbecd8f2f6bbb7d3b8fef7e1fc
fafd08e7ebf9eee500e714f6e6a9e012
fc001cffe6fae00df5fd04d6d5f22f14
10e20305f912f72c2813f50bece00636
04e8fef407150e0607fd0cf8ff0111fe
19fcda03f21bff10f4f71aff03e80e1b
d135cceef60009df1005eef6faddfbff
3aeffc19fc58de011328402a17a9d616
1cee0c2df1011b060813f9f1eaff03ee
07ef2cf6070eecf9ffd6072ae5fce420
dee4fff6170707060acf1709e1eaecf8
f60708f1f6f516e3f201030f07f2f70e
33e2c105eddef6e41103f51209f1030c
ebf2ff1519f5e80616edd9e31803d4e3
28fee9f2fc0b29e0061d0027f72a1adf
3e0ff81efcedd60af4131a081115092c
400cf527c8c70bf5e225f2d7db0aed0b
2ce7b60e23faf2f3151fcdee020bdac3
4c21f906031236e32903121aeeff07fa
190f172305d4ec121a0a0f04e91807e9
19fcf1edfff3f1f50c29fe05ff010de0
f4d81bf3251df310f7de1af81a101ef3
0ff4e9fdfded0dfbec10e1cb13fcf5f3
e50208fb2de2be362132fbaaefeff5e6
e42609f2fa110f001904010af4fff1f9
07dd00feeeea06f9ce3040eef3dce8f1
2306fae41524f62c22ef28ee06fd0afb
0ee921180ef4f50421030ff70c0c040b
f1eb07f0ebe120f5d1f40ee8180ffb19
010dec31eb14fdd3f91aededeced2419
e72f05f8f6ff17c9ee18fde1fe03060b
d8001ff0333d0f0a111114040e0ef6b3
f60911c7e517f714ef49382bcfffe6cb
f3edda0afb1a01021731e1ffd61a23d6
303b09fadb13fbe4e835f6f1f22c11fd
000a07011b0d10f30a26070df3170629
fdeaff0e1700f506040ef408f704ed03
0af30a08252e1904d20c03d9fb0eee23
35f9ee0ddc00f2d9db12ee0d240220f3
e8a41bffd93bce062916f737e9e545ff
13ff101b1bf527110bfade0103eb05ed
2ef6fbec242122e8f92d0c22070803d4
fef22521f807fe0116e7f0051619f513
ead10c0b17f6110b051d140408040502
e8f91acdfe08fefa1fe602eb1a0622de
e3f4edf3f205fffd54a7f3e132350034
1b0aed0214e11f1301ca062a04db0d16
ffbad3d3d33e5e235bd808fe350de271
14f4f3c80ef6e7300bdbe31c30051ae1
8003caf7f9b9220b120c09294a01e5cc
2a070018e43edabddfed4edbdb19fde3
2a2ef5ae160ae164fed921cfde22fe0d
09abd5b7d10cc725eef7da8cdb07ab32
3129dfe5ebdaa0f0f109eec5f640bcb6
06222b1e30a7c52cd6d392f613ac18d8
c4eedad0c82d76e61fe8fcc40b16d101
fbd7dcfc26c5eceaf0bed12bfdf74122
1c1b0af03dc598d4e2f0ba29d3f22fde
1fe22cb4e90aec3e06c5ca01fff4f1ff
1800f1db07e60e04e7d1422ce7d42f12
ddddf2c2e1cce42df81eda1a23d1faba
c006f9e2e6f7ed22cbefb1d15c0de8dd
f4e42e02e5560e10ea9becd5eb46f2cf
ce012ae5c544163cca3ce20c4cf380f8
d9efeeebc61d0c1df5eacd2f2bfea5d8
f1ca0cfbf021f00efaf0d2fa2c18e322
f515c1e8d5e9c116fd22ddd2f5e60ae7
df2913c5edfad6f403e304d2bd2f00c9
9514a488e4e8dcd1dd13c614fce4ac3f
022cc8c0e9bec9fa26b92cefbfbcdec3
b9e318ffbc3c8fe2f9b9dfd2c27ff008
bbfc2ee2e5f2fe0deb1bf21ce411d026
0e15131ecd39c81df4edd8b20c1afbcd
e3b8eaf6d620d7e1e8ccde80f5fe428c
e40229aefee3edd20c10dc9da7220124
1020102d3805040f26c0b117efedf594
dbb0f9e3e3daf608eae4dec821bdc742
1f0ae3fd8cd3f8e1e8f437c8f40613ed
e0b53171cee7243ef8b3e9e8f40a11ed
13094804a7df38084d063cd9111037db
e5fc3e022ddd1a1f10082d48f8f91bfa
cbf613e7dae651ee0ffd11bcfcf00bf9
0a1ae4cbfd2ad30316102a4bb408ff11
180b1908fa1df50c0dbcf84b10f11dd8
decbc3b9002222a8ee2a311deabc294e
4527f2c7cceac4b925c7004200e9d580
f4a74c61b8ea5bfedfe5faced41035eb
091d1715c4c327be0e1215ba24e80501
c2bdfc46da814d07ffd413f6071722d2
d6b12048f7980d1ed2e5fb03c9192aa4
bad907302dfacafca91d032ee3f83c15
fcff2dfa4bb6eb32f1ad020efd30e8d1
bec102d6050411ddf316170940f4edde
eed3f5eb2e1ee81b133d02fef6e01f08
0bd202a5e0c90cea38fb1e01e8ebde03
e9c154fb1a0ee9ecf5430d2cf3e42012
f516f1011ef40bec12d4131718f517e0
95f8e2dcd1000b0ad7edf6f32ae7de28
c5e7200adf110adb64d8cf2cda0e09d1
326711dbc5e41a1c43f340e31125dcff
08efede3493f1206beedb42cebdacd80
ea47bef1ed02f0bbe7cbbabd0edde6be
1e0e00a9e2c11a0512ca34d71221b2ff
da0b20073639e921e628fa3713066735
15fdf2c3edd212fcf91b18251fe81b27
0ccd05bac0bb19ec50cf19e7f4f4ddc5
36ddeefaff203e0c16f132133a10e6f2
23dac4de92d80dd345f439ee1ed5fb13
e7fef1f831e9ffb6f2dc090be5f1a3f3
d2ea2237eecff2c3fbead4570b35ffeb
e931da2ac117fb11ee1c111006611d05
b4431016fcf817b253122b371e6ac2e8
0909302e180f050b05d2d8012d13e2d0
a409e408cbdcf5be08d7f3f8fc16da1e
f5baffe9ed4014f3f080e7d515280be1
f3392cf6fde6f40cd51515d524fe1bd7
1524fdc5e0f0051112bde5e5ddb6ab05
689cf2fb20ecf15ce406e3edefe904ef
e4151ee4d406f71abe0915ccf91536bc
bd3ac736ea0c11044229d725cd12dcdf
fee3fe1ad2f30a2ee104d1f933130ae0
dfb505c70ff0e7f6bb13ecec2af90100
0b04fefaf1f2b229ad350dc6f3002aab
aef82af22fcdd79421eecb2d7a3c22ea
201b0fc3d10209e2fa0afbf3ff01bb00
068ffeeed0f1260f3bb81c21f364c0ff
0c32f807c81c0e1e2ab61a07d3eb2a7f
32ef37e8ad2f30fb1cd61cee3d390b3c
ece816fe172337edfbe417350b2717e9
fa1b14cfaa1f16072de1031beecf0710
1ce0f90221ddf1fee30a0906231ef6e7
3ce7000dfb38e7cdd514baf9da0a24fc
211143ea4513e8daafd9b5a0f50ee7c6
d0b4bd35f3e2dedb0519f9faa705bece
1109dfc4ce4706c90dd0f601c2943617
c6d4fbbfc72826fb1dc21b2f3b0ef4d9
c715ffedbe1814f625d11401c2d13b2f
f10daa04cdcfe7e1c8f3d3cc09de172a
f61424d31138eae613cab0d3e9b9150f
b1d7f5002a130ed63f0728f6cf08edec
1609ef0442f309e500c8fcecc8e70900
e9eb4d04f14543c812d7f247f6ef3d01
d5dbddec141011ec239d2fe5e7af3bd4
0bd24000f01c0ce303ab1534d5e62629
f8dece17000fe2f4300c306ad49a0526
d4c3fad9e231e80758030fe41cf0e9c8
da4d37220303d438e314be50ecafc535
f00ef8171aeca6daf702f124abc1181a
13bf081c03b40009c8efa903e5abc308
1fcb0a36d8f0e9f2ed15e01e8c01ad53
b111d1e704d6ffdc4af820bb0a0d42c1
24de1eebcc2216d513e0f6e915d2f5de
d104d5d71cfcd6fa27b734ddbfba0dd7
c21bc9e515d2ab16fcfc0606f9f81ceb
dc14d6c5c1fecc0aee13dcfcfc1a0f03
b9090b242727e4ea37cb27060e0d1fa0
f429d315cbf4e0f4f9e40be7df1eb3d2
c5cf0103fa01eae0e10c25d046e1ffea
f7d503eff421fa38312dd8d9260e1307
bddc3c99ebeed3c8ed133405421f01dc
e80c1d2523e5060ce93015e7ebf80f34
f6cd26cc04cdbebed20ae6ffdc22eddb
071bda3701d358efce00baf3adfb162f
431d0d1f000745190cc1f917ea214eff
ae131b05deb1c8ede7cfb7ddc4d7e908
f56acb189eef75e4e2dbed049ab8e601
e5e9d5f9dde905f31801fde303312c11
fceff480e3efcdc2032ff30a37d4f6e9
e79b18080608ef2aaad0e0b422f1e019
0494e6def515011102d2fceec4292536
fff6d03bc8171235d7e9eb03f70478cc
28a13bf641f2fdebee1c114f08e84a2d
edfafc5aef06ff052c080aba07d7f5dc
2c0ee016355c299cfc18d0ae170ce3fd
2d34f313d41d28b210f11ec2f4e01be7
14482340d4ff00f32fed06e4edd7170f
2ae85707de05d80df636001db21e6710
563d17f9f0424fd3df2006d7cfef0515
f0f81808fbb5b20b04fcdce9aed01d3b
b7f74ef315dace17e9e84ee3f61e1ee5
dce01d12dcabb4fa07fefd3008d63f00
f5e3f1dbe8c6d6eee8c71824a6fa1bb6
14c2eff50e17fcc516ee37d6ed051fdb
3d18f43ef23648db0016eaf902d6e41a
fd07eefce803fcb628db25a2f3025fd3
eec93821b0f1dfce1cd7fac10ffc20c7
ec27fcc906b5bf02f2a11b2fdfe2eaf8
4d2c07dafc7237f701fed5031e56c9d9
f701150fbeeb0913f6c8ebfa2fd7391c
1fd5152ff5d00ac5be270e2226ec18e6
0f0e120b5c0714fecb3f0c361d0c01fa
cef71d2314140320dd3a0912292f0b22
e2bdf2e71c4adf59fa160bef0e04eef2
dee92ddabc1131fbeb7055353a0afbc7
e8f1dbadb919f35f04bcecb8bfe1deae
08eac2fc4010141c0fd0d4f5c50e1b37
d02db32d0007dd0c1bd7c3f4ad67371f
ebe9b9d20908020d30c6d5e7c0cca612
e7e8f2d73cf5e3feda00fdf8d8d915e8
dfef3647feebf5eff33636314106f937
1ab4f60535213fd7d31a20db0400d932
eddcbb366c120303facdf4ca09f509ff
fd5ccac6031317cd53ddf41dbcfcdffd
801b43f4984711c41435241915d40937
f327e9f804d7efe3d40ef3fbf9000b00
b33ce63bd403c644efff26c2a9f42f03
f608031ee2cfd10700541aec07430a1f
d6dff1f8f6bae620141c31d12c32050b
fdf807faef13d8f6070f200512f62ce3
cfbad4d2e1d0f06bd8ed5ea0e021b8cb
2fba3ccede0e06ca0edfdeec052220f6
db2703fef81c14cef8f7cc4327c11f1c
3a090d0d021829f8eecfda0803cc1cec
4d18f0f0e92ed6d5e527d6ede7d410f2
8fd104f3f103e0fecc180d46fff73412
eef1e64803130c25e2fd3ecac9f9e0b9
21ebde14e1019b22c91b2124dfd34501
28fa2228e31ebebafc31d01ee4dd3621
2e031e09fd45dae315dcf12f17e9ff25
bafed700fa00f73325ba1ec7f250c401
200cfffdd109f60516d52bf1f205affd
b73c08c0eb80370917e8deeb113a020f
db12fe0b0504fe26e2d2301a283010d7
ea130e511e00153119ea103fe5112209
2ffed153ff40f8fbf8ce340dd80ec204
1c79b604d9fbfceff3e403741939db0e
05bd090bf9f115be06ef1c0e91c220c1
4def0222141ce9c7f2ebeed20ce7e809
0fb01ef2f521c60af74de4c396d3f5df
dade2dfadcf6d40fcde225a1edeeda2d
1b38c2edf122eb2180ccc9e6ef14d9d1
fc46faf7f5cdfb041a0fd93627370d21
d613c60c0608a9bba2beebd209f2ced3
fb0bc7143617ccd3b8e521dcd7d4f9ec
53c708f132d8c303dee916ee21d900e7
fb24d608e8c817dddfe6df2a241ef925
0cf93ae9151be916b4040f0e0214f004
dbc6d4f72f463120319ce5e9f42ecc8a
fee40eaa28efeb13def6161706ffbaaf
07b5f2b220f142dd3c303009c7defc84
06001607fa241cf3de221b25ff161720
15b5e5b1361509040408fbdfdff5b9c6
1b21f60dcad8ecfcd925fb09eeec1e5a
11111113f609fdf71dd42c11e7155c1f
e5d40012b30e0011c6edf1f7c2e84041
ebf72e26ad09bb23ddcefafbb32bfc01
d7bf30fef035f975d106030a255dff05
07bae8af08292ff02ccaf2c817f600cd
ebc719f2f5f7f94cb1e4f6410617d40b
1a0627f515feff54edf6f1341a1fe2f5
d1052932d518a0ec0109e41ff80c2e7f
412edaccff043ee146c9e7cf05cfde0f
02fbdefff23607ae038ef012c8ec29f3
5c13e12416af42f21acc2ea4084e40ed
13ccb31e13ec14fb2ae4f9d25df318d2
fdccdf3c1ef644e4fd1129da292f0ade
fc1aef2e1cf615e8e201e90e26170c15
55f2ad576e0162e5d20d11ca2d21640d
c5d41dccd609fc12d40ac12fc6d6d31d
e8182b03abe5ea1afddef8d8f3e8e107
ffe927b4b615ab1616321255acf4d206
a9f92acad7dce7ce00f0eb01de07ebd4
f4fdc83efab4ecb5dfdbd1ca67e31a9e
59e6fd45380d38db1cfa36be162924dc
ffc2ef2e0ca408b7daccca98401c1bb8
ffded607d8addebef8da04e600b8cec2
c015f9d006d3d30365f1db1ccf85f409
1517e91a26e7182e1ccd0a1a2d422a0c
ebdb20f00427fe0af62e07b7dfe2f903
f4431418e34ee4bfe4e1cbc6120de430
da101c1e050908c210e702aa0904d815
2104fb0f001ce3ee12e243ec2d1bf910
d2e0121ae4090f0de1e6361f420b1ff0
df65772af83fffa7c0e90e0412fcf755
c0d4f6c92abd061e120f1d0ee110e2c6
17edf1ebd7eadff209102529f6c4e2df
1ec8abbbd7b7193c14102934f4ec0dc3
34d605cce9da20f9d5f3cfc22b0eedfd
bffef11fa3efd9dfe7e920e2f218bb24
27392f2f0f43cef5e5ffcff43d28ec33
c0ff17110a02df9318e3ded2effddf03
a9e7d4d8e7e717c8031af1c717e7d6d0
0df7e1d1dfef0d292956d2f4a7a617f5
fc0b1f4f10249bb607ef00e1ed1c2f37
0c070ff904fb310b95ffdae903d80aec
0423062de310e29e041b01c4f606a41f
18e9011bddfbece3061d100a1b54f90b
07db0029d7f012d226dd040b29e7e725
3a7f191f34a8192b02aad118e10b1220
0102dc49e9e0c7eb2d02f4e40bc7ef40
2ff1e5e03df7094f08b2d60bfcf838ca
810d5ff737e40f1cef10d01d09e417ce
020a24c615dc0235cbef08e9f1d303e3
0a0f0cafc7f40f42f5041123cbf1d0ea
cc2b4ef3b9fae6ded125d5b7ce021a0d
ddf51e3ac4d2f4a3200dec9016f4e538
bdde5c03e8f21ff5e420adf8efdf2817
07ef30edf3da121cdbf4f61ed9e309ed
c736efed1ff70e4f27e6183d21010ee6
db16bc0301e9eaac07060808e1ccdafd
1117ff0a01d7e23614ea0007d8ed1c15
2afd0923c9eee9de09d2db4df401fe0a
daf7f4f2f818fcfbfa02ced6d3c9f2f9
070ee706ef19faebfae8eb0810f8f00d
f119dffcd70b03d9cff0f0f40d39f1ec
f331c72e1ae6f5e6ddebf2e31400e502
1acbebce0adc1a0ef80d3e18e1f107e1
160206f701fa0115fd01eddbf7f417f0
e811b7f900d016ddea29f6d1f622fce1
abd1e8edee21f7e6e80fc2c904130be6
f012d6eff8d401465a09e1d51a1410f3
1cfee22d0ba7070c11f0ff360f152103
f10ef4c2f9d6fef2cc0ae6eef4fdfbf3
11def7f7fc00f0f21e2301d5d4ed02bf
e5e8d5ef02d6db0e07267db80f4b08ff
d418fae31bf5d9dbe4bff6f80f17f710
d501acf2fdfa1522d9b816c30b0e060c
12dddf04f1fcdedbe7f82232cfe8eaec
eef8120522eb2705f7cd17ec1df2f3e9
cfe60225f0df000b1bef100106e9f7f3
e5f5ee1922f40d21f71b0319f908ff07
ffe2fe2a06cd0eeddf08f3dc002bef1a
002a1e091bc9f6f30dfcc600fd1e06ce
0b120012ffd01408e0ea0e04d9cde2f7
ddfecd15c5d3e1f7f7f8e8fefaf61af2
1ddd0a03d425db0106090cf6bcee1010
e2fe2b0beb29edb801f32fb6d6eeeee4
1bfe0705f1091be9ff1408fdf6e2f6dc
e9b3e22fed0c1fcb11f61103fcfd19ed
f3f6f200f91cf91bfe2ffae4ffd6e6bf
43302305e6ffdb1ef9fd0917ecd60dba
1dacce16ebf005f4d117f301fbf22501
25fffcd5e8c2f708bfe81bf0d5d21a0d
120f19ff1afe04fed7f7f6d60fe7eafd
0ef20f0d1dd5fdebfce401f816e91d1e
040f02ea11e1fef2f106e413fb3015f9
11f408f30d10fd0e3410f5140f230410
f2f2efd8d5d614c605f622f335f4072d
0ddaccd2e8fffee10b2feefef3f00fc9
08f6f900edfe0309fa0fd0e31809ece2
e6c1cbc7f315de36e2f624e0d3db01f3
06e9fe2121decf1ee3f63becfbc829e1
0cfff9eb111ffa16e812d5e3cff423ba
1008eee506d4fdd30802d1fb0c2ae42a
ca02faef0b24e002f510ed03d8d3fcf6
1612e3d9eb07020ff6def1f6e0f7cdcc
0c19fd1ab5fefe3f130ae62ccddef7fa
e0121110022405e007ec18001210f7fd
feeff91eead3fc0f0302fefbf235ec05
e1e9fa01b3fafd0c011afbf3f8eaf112
20ddeb10fa09f90e07ffec0807f5e611
1124f4e3f5f3d6023904f20deb06f4f0
ee01f327f52005faecc3f6f7fafa02ed
fd1310fbe1da27fff3e4e701060902ef
0b0cfd070a0aece9060b18e51ffa06f4
fc06eaf40ed90408ef0ffcf3030bf7da
d50ce0fad6ed3bef0c1597252b0202e2
e2090411dff011f90d02d2c9311f0af8
fc02191dea12269dfb06e8102e2415ff
0a12ee0cecf6fdf000f4d900f8eefce5
271b06edfcda0106f915e90513fd1df0
0bede2030bf40ad7fe0b08e4e115daeb
bfdedcea0019f1e3e9f6fb0f23f82d3f
09d90b1b06d3eaf215ccf628ecd63411
c2dc280005f31df80fdae22518e7f5d6
e7bdd6f6eec424efe427d70ceacc0ec6
06d60214ee122103e90b2403f807e30d
ed080edaf90a08d70e0ad6e018f4ea10
fee0faefee0f1be4ef16fd02daf90eff
f5db15bd16ebd9062c2926bbeff10109
16f7f4cdf1d2f3e4ffcaf4ec142d21f8
eee300fee6faf3fbe6defaea0701e209
e4f6f5eafa140ae414e8f8dfdd0f22f5
fd0cc3d9ef1005d4d1d4130900f4e4f9
ebfccc1417df150734c3f1ff3010b9f5
f6e2ef1214fb1bf71b110c0bf8ec1dff
0fdbe6ee13f0f7e1e80e070d1524d30d
f9c3de23f9ec17f8e6cad40c04fbec1a
1d1ae517f9df0b12e8fd120ae20f1af2
2709080f17ff01b7fd3111e706031305
221410fc91e8d644250520f58df0150a
ecf1edf40fdf140609fe17e8fb09020c
142127f01007ed080cfafdcb0b261814
df07e333fbf31811f011f9e70fc31818
ee09191d0d14e12408f3f1f6180115ea
05f719eacceded280d06f5f6dbfb0602
01a9f7fa0cfaceeedb29f5380a0ed41b
f12d070fd6fcee12112504d3fceb3efd
0e04ceba06ffc2e6d224fc4a052507d4
e71d0832e914d01bca25f50bd23a391d
f8e3eb1dfe2bd4bbfaf021f1ec11161f
da04f522f6160cffe2e9fc170dba1312
e8fd0b0efe25fbe9100e0507221d15dd
bfdedef7071bf326f50bd2d6034ef9fe
12be13ecd70cf405ca1dcf1e202dc300
12f7120ced14fa1524d011052d3620c4
fa091c97e8daf722a601090e0ef4f1ec
d4fbeef6e0ef21ccf328e510e7e316e8
0d0b0316fac0fa0b05080fedf8f7f9f3
010fffecec34fd280745f1f6032afa1d
d6f80f0715fa07edfc16f7021ef502e7
1212130105f70c03f5f0f03c15140adb
eff40913e52d04081be303eae20b12ef
23fe0b0ae8ebfb07f5de05e2d1fbd7fc
01e817e506340609f9f5ef12f5bdf3fa
03122e17061ed7130be313f2d5f2feed
eada34f6ef121916d3ed18b4e914efd8
df02d613d60efd2cf4f6db18010405f7
17f30d13ea0eedde07da23f7f4e103dc
01f41feae00dfabef4d800f3ccf1e7e0
e8ed2af5db43d0eb07f33519dbdcd511
e336ff1dea1511dff41c000c13edf03d
2c06f71145de06c0f701fbf50cebf1f6
c9e8c80a0b0bf7ffdfe3d500f40b35fb
0019f3ddf707f6e5fcd0ddf319e3e3fd
da04eff2120721e3e6e2e901e1280e0e
0816f1dfef021a0002f3fbfe0a1113e4
120fe61cf40b03ddf7dce21609e3f7f1
02dfb711f804150c031a31dd09e6430d
f0e4f3e905ebf40fe0e600f7ec12f4e0
03e6f2cc0f0bfc0bf330ecd1d2d80210
f1d2e52cfce623f00ee1e90418e29de2
0604d4e9e1f3221000272213cdd4dee8
3e17d5f11b1bf216f8d21930eae00f13
d8f7f7f3f2d021e7f3fbd70de91bd2f4
0bf4e3fdc5eecc12dfede4f9010428eb
18e4ddfecb1a0ae3ea2934da16dd6013
1802f42c0c13f8f6f317d0e2d421dbff
13eeef301ad72ab5ec37f8c822acf3da
dcf4b90f03dbd0faf3210effcf0313f3
fcedeefdf9fcec00fb0f0fcef8d5eff7
1309020015f617efde071cf30100411e
3b13ddfa0afbf4121716f111ebf7132e
2301df08ffebf7e00fda08efced70216
18c9f6f8ed0cd3f20ee1fafbf13d18f2
e307ea0a10de13020f01ce1efcfad0ef
eaee242df200f1e322cf310b0af6fec1
1516ee0606e9fd19be000ce9e8eefb31
fc00e703d9d0d5ca24d5e728efe201c7
06f3faf2e7de010411dc0412fa143bfa
d6131af30ae52a191d1cd24500df011b
c203e0dce500e2f723e1d0082911e7f1
abaafdfd03c9dfcc10e905100d52cd07
06e6f70e030f0f21100e060b08e4f223
ebe1e512e7fa150a33fc21c204dbfdfc
1f2b1efd1613e1e1e21422d904f20f31
16fafbe209fef6e4e52efde80206f408
fa1400e807f6fbe8ff15ff1afd07f11d
e4f004f70de7fc0bf809e30216fcea1b
19f0f8eedb0839e6f7e10e011c08fe23
c7f3ff020101040ef4cf0eed06fb11e6
010efdf2f2020cf3081c0404f7f5e707
f8f0de15e808261f38e20812e3d702f3
000102051bcdedcf174da315cee2ffed
0203dce7e9ebf90253dacef3cef20911
1e1b01e8fc301af7ecda1b0604fafc28
19100601deedfd143dfdf1eeea00f743
d5ddeacee611c9f631f8d402e8d90abe
f4aff8d8ef3f262b2ce5e119fc0d3002
3018f0e70ef51413e8e4f40a0407b61a
21d9f6fce015f0f21f031a23ec121214
f52cd4f214eb01231806e4d5d81308f2
0d23dc0fef11ee0b1be4fb0c00fe1203
e4f90ff4f9e803071b0de30deff9f204
0feff10c092c090924e8f82df7eff6fc
f1f81af3fbfbf0184121f21101ddc9f9
de022af521fd19c9fc18fad906faf21c
10e7fdebf01fd2f21a020011ddf7e4e8
d2c72ae5bde821c1ffe8defc10e3b701
d90e1800b6043111fa0e16e30813f501
f7eedad90feefa14f5e410bff0e3efe3
e9e224e6ec0e15e2e8defbf0081ee825
01e6fbc1ca09f2301eefefec05efeeed
00c200fc06dde3e6eae3eadee23008fd
e4ea45fb11eae7ccc0f942f239f8a627
f7081d271116faf727d1e4ea11150ce3
3b110e06031a2726dff91dfaf2e0ca20
0203040b1f10fbf309d31330f702d8f4
dd16fbea04eee70be8d11fef060dd500
0b060be91af2f2eaf7f0fedd07fbf8f9
02e10005def62102ebf6f6fefa110cf8
f8de0b150af8c8f52805dbdce2f4eafe
dcf6fc3707200b45d814e324d7e52c38
eb00f619f903fceb0d12e606fb0b0915
c414244906f6fdf70b40ed0e15d5133c
bcd4e3ffd3ccf1cc0c050ec107fef02c
fc09f6f9e5d4ddf40e1c07002dccd23a
1613fe16140530000ee0031621f3cce3
18c913dde8fb0ad00e111efe19faf922
e0fdd920dd170cfafef7ff0f30f7f611
eeeff030b92a23110843b658231c4338
f506220c00062a0b24ed3505d92e03f7
1035312c19f10c1b0924af0315f00a01
fdd3a82bd4ecd4f11abef2e0d2ef08f2
ee161ffd1209050cf31a1cf803f70dfa
eb1a0fefd00e050b1b4009d40b0a09e1
f7fe00ff05171e0f210dd6d2fc312208
e5fc01f90ed507eb24f304ec240bf7fb
f71908eef613f1d808efddf8e2c3f1e4
e1ed07df0207f2f7f70515e9f52a09f1
e60bece3f8d73dc7ecf7d21ae608f3fc
16e00afef60ec001bf252737c606e301
e3e1fffa082ae3371828d007eddfce0a
f3f520dbfff70cfb1f190c10121603e1
bede42d6cf02ebf213f7f603e81a190a
cafbd50ae812fb23ecfde1d5deefeec5
e9fe1dcd4ce6e7d2dafae10e09f3ee05
0cf610df0dd21ed1fcf5ec17de0de618
063ff0ee1ed428ccf6e70f1e0acbf507
01e7ec04def109f1f5f8f40f261c0806
06020cf8110ff51dfc03ed03ee0e110c
24030e1ff4ee10151406122e1dfc2606
17fe0ef8f5fdf90dd701d7e313f00401
f5ecec120018e10b0afde7ec13ffba1f
e6222d1af1f40d02d9d30c0314efe0ee
feefea0404cbe7f7f6d7ecfafb01e8f3
3935001c0f04fb07e6f1f8f9fee4e510
112fc1f123f4defd030e1e0603c6f627
11fe1809f7ece304f4e910fdd107f70d
fc08fd10d6111125ecd706f0f91cec09
05cffe00e6e9f81310f7e4c713e73210
e8e710f8d50be3fb04afe0f6faf30be4
f231f42b002ae905d3081aff0cd4d50a
161304fc0d05030a1439ff06281ff2ec
2e070a242efbe0dd360f1a16248eaf07
f9d3d9e0d207f101efd5e3f810f5f408
c00324f7e006f51b0cf4170ddbdd06fc
ea090adcf8fd131ed7fe31f9e23007fd
f604f0e3f9030218e7e90a07fc0d0c12
ffd1edf000dff00dd60201e81331f2f0
1cf40c0d19f0e0e105fb03e91a37f201
fff4ff080ae3dedf11ecdf041511090c
12d5fa2a0bf9b6eaf53102de131d0cf0
e2f8e2420c2200faed11c5192ced0b14
e30bf2131bfaf1c314fceb062726fb08
03e8fa290efe2d2106fffc0eea39f7de
01fe32e713f11efddfd5210ef01ddf02
1632cefcf6ecfef22224dc00eafa13dd
3e17cb2b39c9d70efb030a10364404d5
eadd37012010eb00c3d803033d16fb0a
ecf8060b1801beeb0c1b0ed2e81e0917
ecf70ef6e60610e612ee1be10804e9da
15eef11e0ae2d2e8e2cde9ea1bfe0c09
2420280bf71f131208c118d7fc08e40f
11ed12f00512e20117ec3bca01f90308
00c0eff8f507f10102ee38def7e516eb
e6deef1607150f06f810f5d713fff0de
0c08e70a0cf6f6e509eff312f9e11cd0
d8c0f1f7e2ed2903060609d8f4190dea
2af6eb1c0ce5f0de2015f9e02af202ff
0c00e513e1c010cdfa000a06c50e4810
f50b0609ec01f5f8f7f20412010ae8da
1b37f8f1ced2e3fdf70f08f4d30c16f8
0007edf60a1406d8c309e6ebe02030f7
180515df132c43ed035ee3faef081bff
0d2b04e009e709e7340c0fffddebfaf5
b98123e9f9ef11190f110af019eb02cc
fa10fdcf1198f5d8dad9030dd1c003ed
cf03070409f5e036e316d84519ea3cec
d3f1f9d524081a0126c1100604d8ec02
1b40e6e5fc2c8c04faefbfe6f4f006c2
f723f410f82e1af1edde11dbfbf5bef7
22f319bbad4c322521c1c1ccf936ba59
2421091a2ff3f107edd63911d82249f0
1fe301f9181cdb0dce11bf0eed1222fc
b2f2dcebdb2030ea51f4d8f52c3de80b
22f816e7deea0a0d18ac38ea34392206
e109d3da322ef325222320142c0c28fa
0cbfc106f51b161818f814e12b2cda2d
e1080e55e7f91a201c00f1142cf1f9df
ccc9f7fff3d53f1216e405210d8010d8
3fc61beb16d7a01590ebd2eb00fdfff7
08f520fbaefa0b18d5ebdf91d615b9c7
26e3241dffefd5cee615c1be9f0ddbcd
24e7f03314f7073ac8e1272140d809c7
2b150cfe2749392508d698102e0bba03
f31903facccba7daed1e25dace2ff919
07dc0bef0fd3f1f21b1d132ffef7173d
ab41cf8d8b32c40ebcffc40ee9390e02
19eaea394ee72a00ef11e809e4e328ed
f7e2f630d8fee719c82beff738d20afd
dbdd05d3040ef9f0bf37eed61d1eee1d
e704140b33f50c0524fbaeebf0c1e7e9
2021145b32075f0ffee0041c1cc5e4f3
de3ffa0dc01ee9fecddfc70ce0fa03c9
ced3fe022838f7ebe3cbf2ed2918f603
e1ef2200064211f3dbdac5c2c039dbca
8bc7d1c9b724d51e03f4edcff6c502fa
bfffe5a401e6cee91cd8d8f6db132143
12e01901f3c2e80cf2dc4513dd19b3db
eae91c09eacb1c2dd8c94218023fcfc9
d9fcf4051e0c16eeeb1bf6af27df08db
0703ef29d420facc28fd1e48cb0b48e2
2118e6b2ff14e5aa16f9dc2612b6d914
41ebf7191dfe0b2ddd35cee3e8a26b2e
f7ef06e922e9ba28e9081441ea0dcce9
def131e3cdd80b2124296d50d42dd1c1
fb430de69dc122ed4a14f0ba39e1f1d7
2a0af5c3184ce9c01f0cea2907ecbdd9
f8ff19130bafd91d172f06410032d7ed
29edff15ef16f635df1bef1602df7f39
3103441219f63c14fc1df0e93be223fb
f2e9334fc606220417d4cdad1efc1601
23bc1521d7b82ad9ea197f60c70602a6
44e3dbdf3144facac41f0d06f6801924
debe2dfafaa90fec41960894ce768007
02d9d5ced3cb05f4c8222d1bf41d1109
facbf711d90f0ff42bf0e82e11f2f514
2f19f1fce32afce402b8ffecdb0010da
df32092a500fc817041ec20ef3e13a08
06bc1ef2cb69e7455f44fb17be0e3aab
ebe021c8d7ebf1d76c0218f9eb27dafe
01f813e6262013acff07020304f320c2
f2f6fc31212dd11f1e3009f722f7573b
28f0dcf0f800f9fde73a03122e31cdfe
0fddd5e90d1635ae0910db020f0fe013
e0a211e4de2508091a0f0b24e7dceee3
04e7b70be9f4170930dbfcbcf204ef14
f2c71eab03ca1a06d5bf07e7e0fdbb19
18ec1cbb26300602f2dcdc1238fec5bb
3637e1031607ec4203f6cb2f1812e0e2
f4f1cdcf1b4df5f8cb286ed0d6d83000
e8e84f150a18f80405ebe54b0920fc26
e3542330f8233eec1f0f051c0858da15
1ada08e213e6022c07df1abfe78b1dbd
121116e6f509f3450709f5f9f5e9d4ed
d348a437e3f116f2beecd0fbfa3afea3
1cb517b0273933d4dfd41cfd141e1419
f4ea1f0a472111082ccf291e0ceeec0f
de0b2847cbf3f22c2506c97fe6fe1ec9
d7c634222af1f0eee601b10d33e505ea
cbd436190ce401800bddff23143a0705
bc28d3dfcfd408c7dc03f5ed1117f417
caf3dc1ad5c505cb10d2a30e1027ea0e
b309b420a3fb19df120f12d60216efeb
1aef36d8382931f6fabae0081bcbfdef
30f234dce22e2110d1f8e49deef9d308
deddf5fddeb0f802f9ffe600f1db2a26
c9f9f034c7aa050c2aef12fd16e13a1b
2ffdf9b7340c201929cc0922d0fbdc22
01e9d12fe811d6b8d507f5a4e1efe0ff
1c0bf5070c16e103e61402df0df8b5ba
5ff60910f844d6043ee72804c833b529
e7eb10354bb9db1afe17d1d5271c2502
e80aee26b6aae5e1e3f9edd956ea28ec
b6d8ddf2bc0a245812a92e2f3b19c1dd
149be4533ca9fa1416ff1d09ac3106d7
adf9f71313d030e801e62b261dbc2a19
62120e13b820e4feed00f40b101bce4a
f8e30f1bf7fa48685bde252a05f1e80a
d442edf9a3410a084309372de5d91927
4ae4d73ae201d316d422f0e7163d27ed
001e132f152adefbc4c1e0dcd013dcd8
0b02e581d7dbf125d802e2a40501f0bb
dcf5c90c031226ea19dc2d3245df4c11
d90ed40f0712affe18cd100ee1bceeda
13eef30ceeacbf0de8e8cc14dadee846
331aeee4d6081f18cbfca0d6112db72f
f8c25dd014e7b6f4e8e1d4c9daea2b2e
022a19f225c9ed300f08fffffb12fee8
0e14c41541e001122207ec660cf1d9f5
0ced32f0de4131b318f8f217f418defc
bff01924fd2b03e4e6fde2fbd6f7080a
d3ecdcfc2234fdf22a0c2d4b3add19dc
e6ce34b101ede80917f518cdebc22dee
d8e8ffc42c41d7b12af715f1203413f3
d5f1d0b3f01ff2d7e1b53abeee0934ce
fecedd43e8dfd7030420de3c13c7fb02
05061fece9eddceddbf4b6e5cff7bc19
bce98e62d7e32f3d0714cad9101221fa
edb5f70e3e2ad90d05f12e26f4ef04fa
2ecf21c31ce2c302102efbf90d11ee02
073a9523ec082afed8b6e1e7be1d60f3
01250dfbfbfb24f2cbe10613efeb05e5
ca0700f9c3bc1ddbf010b1060f212d1e
35facf57260b30342df00beadaf527f5
dcf603402906121cefe91be8e205351d
bdb0e2e1f921fccaea103de23bc8f1a8
24ed0431520e542517eb36bff81c3ab9
f6bd0b083c2fe2f60b1500eaf0f32840
12fb0eccd0d501fbdaf0cb0e06161327
cbdfef9016c911b10c45d7def4ef371c
ac02f6bffbf0bf013638acf5262df01c
c9f3cc28d0f61d2db0f12dbad4f11bfe
1239f10edddf43f508dcf30ce10ae80c
e403e8b4e0e308fa9dd1c3c6c910d11c
36ebcd1d11452eb40ee8aee42d0cc0e5
2c7f2fdef52bfff8d5311cdfa2e61e2b
deb207fd0bdee5dcf9d41dbbaa1fd211
f90428c8201b0651e2caf6141405ef1d
fc2e32e1ecc7e0bfeedb3b9f2adf72fd
edeaddd31cf6dc4014e4b908fa412818
cb031e3ebbbdccd91bbe0c20cfdf18f2
3f1fc01af32a0ed2e82be7d419dbedfa
02f3171c1bd40e2ffb04e14ded70d81f
0826f3f51642e3ec0dde98fbf91ed100
fa12f10c01e20bb21cec11da0aecfeed
4c14cee3e02c2ab9f00edef138f0eed0
271ada12e517f5b8e3f63ba8eb0505ee
b0e916f3f9aac7d1f9ecf9058f3ac4df
f0f6430330e1db5405f4f01dfe181e25
1001dec4ccedc527fbf3ecf5ddc6ead3
aec126efba169e21a45e04d11ebf12f8
c70d2bbd14d0d930eb132418ff15c3d3
08e3c6041432e9dc17ecd4d1ca0d081f
210d0af6b1200dee650205f9ef0cfd29
5058c35546334b19e5fbf10be506082c
1ff72aeef034e5fc3be1fbe2ef95181b
1310ce181408fc050ad8d906fe38071a
b2c83432ddcd06eadb3851352d18eb03
10fe2014ad0fc0ff5708fcbd0be70715
b70b4716c725ab22f91143f215ddf8d3
35ecf000200c3a07d1050bf3ef08f920
06de44dbedf2ebe0e567133746c80016
fff90ad822dcfeddb4e80932fd02d8e7
36f6a7001b09e1212c990fbbd93cfaf8
462afce7ef2c34324dcfefebd4f3fe30
73e24aace113cfc51115eff9fbf5f3e6
1f1b0904e741dd1befd118abeaf502fd
dad4c4af000e2919ffff23fa4832bcfa
ee0c0d09f0fbc2b2f1dbd52d26adee07
f0f6eff2fef835e91d80dd16f5ebe3dd
06050012a0ff05d5153a16f5540c2709
1af225074d1109d03cd3f13b02f6e515
fb05101ddedde0de2ef4f036241ed9fb
dc2ddd1a0e32f837d9f134939a013906
da2e252e590ee6fd42c71b0bd6dc25ef
1322130bfb3e0a1f22ec12dfff18e6e7
e90bfa1fd6e700fbf369f7fbf420081b
f9e802001801eb56f5dc64bdc667fbe8
d9dddaf3e802bc4af60827e800110a03
0f262520030cf6d15df0f879ecb419db
fd2deef30a032eae21b5cf0f1ae64612
dbf310ccf5d605da1efd2ff20bb4e2de
b23feb1fe0ad0f290a971e0bfe41031a
353ad50efe4b391fc0190c36022a180b
fdd1e8f7c91222caebc3089ccfcea3dd
4fccf8080bd80bfc2b34f00603f0fc26
c3d61c546326c9f4f033222cf6e01001
3ab21737fecb33cc5de01affe0dc1321
fcf0e81a39f90310eada1812809d1002
f15915e5f1b9020feaffb7125061e404
6f10170f01ce21163904f322f32a0275
c80411f2ded33805fffa2020ec090007
b1f5e23a38f0eeece1fc10fbfbb33cc3
d16c0907f1d20cdb0caa1c302d7f22de
c42702bbeb22db1dc3e5153a0e3d06b9
2fcbe21410f200f2f2faf8c0a5cae61c
75c1fffc28fdf1df440b15f418f32f1a
f802e5efbfd1ec06f2fd10c71e061d07
31d9d6be0e2511051fd101c40146cfa1
b010c3f33efb1ddeda2d0ee0ccb80a04
0d1814289adcc008effc2ff9cb1bbd04
1018c40de300fccc08060405bde44e29
121421cd2adbdfac01420946f3c3fce1
657f1503070efba41727120620e55a31
fefa2005261900ca0edf5737d4fde017
c5a3f2da32503e3024b5f1d0dd45e4ab
230e433d154b2ab63ce017ef0bf86c14
510726200ff522d605f20fceebd0f40a
1cf504db13daf602f136ec3300bfd1d3
09d6f291272119ddebc4a1d740f4c0a9
def6e8a8111af819d30c0ffa0e0cb2a2
072f20fef035fd01eafc2bea15092e41
061ce81ad42719e31212eb471d0a3c1a
a034f7d9c80deb26fecdcef5f0e7f4f4
0c04ba1f12c70121d3e52bd4fb2d0dbc
00e61d1929041b1d0500c73a5413342a
aa1a11dbc680e7f307c0dde3d5dbd0da
ef240c060b13f00cfbead616bd1ae122
31d5dcf2f20621256280c3261ad61ebc
c15d22afd6ffcc23f3f41f2aaef7c832
e617fcc40bf8e006f2f34df1e7e2e3c3
38cee01336cb49e80e1729c8072340d9
f17f032716b21f2af2fa4d2efd1c1037
1205d8fe091c3730daf6200ef02010f8
ffa5e908000bff0b09cfe6fc0ecbe294
2ad2957a31c756da16ef0fdaff302ff8
1ddbbe2109e03c061df1ecd4521b15ad
e5331ad6f3b1eb14d3eb10e6b7dcfceb
c83d19cdd019ed0524d5ee29e108c034
efd6fac91cf7fa062607e60aca25fdd1
0f0d0230fd19cfd106d4cb81bf3cc31d
f9191a03e701f3e7eede59094e183b20
13adf0d1e2cdcbea06f71ce116e3e4ea
28ebf1fdf1daf30a30f115380fd706f9
2a21d520e3ef3aea18194ae80bfda407
05e6e2fc38dcef2b0632d70100ee39d2
caf1cfc715dd35f82619f8f612febdcd
322df71c9c22fde7e7d6dce7ee25f843
14e9e9f9feede805d817e8fa000f7c0f
efdd0a03472f00fc01f511b5f545fde9
f6ecd5fe2decd8b5100ffec0ded3df03
ef55485f016cfccbfffed6fe0909c870
e85315310224d7a713bc08e7e5ffcb3b
e2b6f2a9ffe50617a514d91619e2f8d2
1bf2f4f722fc042d151cf33a1dce35b2
e8b7e31a191a1003f0ad042afa0624c3
221eac19f432e2c317b61209e515d921
fef9143cd4c2ee114bce12db2b1cf60d
ce0bf1fc3cef3a26cd19ec159afa03da
ca0d0bc650fb070aff1af9cdfda431ee
0fc25f0300030b36fd1821010e09f7f1
e502df08641d3834dbd60d5613d1f3d0
cae017fa29eb4923fddb034c1e0ff5c8
23400174d7e3c3ab09d22d931c06da21
0f1ec71b27ee0707e7f02a0a0cedd9fd
1ad4d738fe0015f10d88ef4c1cd8f519
03c0130eed06d60f0bf5f932300cd1e8
02021978e3e8d4e848f0fad92ef7df6c
e9f1eb56e70ef1e42b0ae7c3f857d21a
bd160dc948cd73f1deb80535a60a1fcc
ff2d3aac2e11e929f22f1c2606da47b7
e9fd05f2ffe5f6f0f9dc0a04131106f9
060318e1ce11d102f837fc0117f4e5dd
182fd404e014d4d927c4f40b18f0e40f
1410ec05f638c409cc1d29eeee2b4c12
e90fefe92511f12c26ca230809f6250b
f923fbfaee48dfe813e20e21dbdae9d9
f5ebdd08ead9fbe909da46da05471bfd
11f0fc02fdefd529f8fa2b01dfda0cd2
151d120700d9cdea050ae90cf600e101
05eef6e8cb06d92a1a0b1ced1b2b2400
1c0811fdd8f0d419220c2bf5df222416
f607d917b9dcfeea08f3f0daf04c32f6
fa32e00c03dcf206eed408e827f2ef20
ce24bcee0ee80f1a23260dc029fa30e3
f020e2fcfa04f511292301d7f74210c7
04dcf1fbebe9152919d72a151e240fc5
1430cffc20e200270627defe1aec2ad2
f314f4e106d803ebeb11bc1ee7e6d9ad
19d7e0f65f9a0affadedeee2d8e0fce4
1c02dbfb30fe025b3730153fdae2f6cb
120d0ae5f2e01ff7dd0c26f3ca1904f5
d5eefe1de801313620dd27ffe8bcfae7
0e2addd7f6cd02e216fd0c22f4d5fbfd
1a34070000fe051608fa2efcf808eef8
da03f00925fc07e62916ec1b0203d5ea
3107020c12f4ebf20e400b120dda2705
0d1ffa1be31df6ec3ffc1c040e16e0ce
07fc0803eb1bd2f40734072e03f708fd
0bf2f2442bfbf7bcef05f3f5b71113fd
f7e41a1401000eccfff018dee91017d9
fc120102d22007101603ed19c7f4f7f0
112202eacd26bbd3f91dfa06dcee301e
fbf5fd38f707f3200cf92f0fdaead20b
13d0f3c5d217ee3ef8fb04f3161cffe1
f7963f32e0c30ddddfb00a0b022bd326
f82b3219ce4d0ff1260511160a16e4f6
24ecf809e3d316ee28fe1f16ff16ef10
f23d0d24fee80fb3efd816012143edf4
f22bf4d7012d132006e9fafa20f9ff00
200cf7eee034000f2b15e5d4ed02fbcc
fd0009dfdbf2d5ef1203cef2f406dbe0
1814ff38f030222f1fde03fbf502e8f9
0220ed08fa2c03163c2409f40e1609ff
2429fb1810f316243634f8fdf1f6fae1
f10015fdcbd71b16fa03190b1f15f137
160ef7f6060700bbe5ee21fefcec1513
1200fd03e518e40b5b1fc25a0b3cd1d5
1710e2c0e806fb4fe8fceedeec021a05
12d819f617f9ff2c2d122eec09dfecf6
24d9e801093417f0ff013909f6b11119
d5ff1ad6c2ddfa1100f2d40a300909c2
17c7dbe410f458ebfadff356c09d1e01
f801f6d41f1302ee11fed41a0cf904f7
fb0000d614070a2cfc07f61ae0ddddf1
0ae8110d3128b8c2eae200d6e916f2e5
06f0ec30e514bdecfeeb12d21c11030a
09e4fa32250c12fde1eff2fa1b012005
1334f70d0f1eefe40319de110c3cffe6
26e9ec260c1606fa11f032fdf2edee02
01fd1219280ae3e10acfebdde319e5e4
2dff19ed10f7f9f607043104f0f434da
ed301b14060fe6f1e01bf51612fe07e1
05d2e903f6280a03cc144b0eefba0d04
d7fb1c2cef06e9f803fbf7fdfe12f7f8
05f00c1ee1dd0100e91313f70afb0507
210d2519a7f80de4ee03102ac80822d8
f30a13caedf6ded7222e0904b3031018
2ae31fe71a36c2f20e1d3dfb17cdc3f4
faf80a21e808e4252b242bd1ecd3ff23
f5e438c2004b080f0aea0cedf5e5e213
f430dc4625d0ef0f51e6140e06fe1bff
fa101b03e7053511dfdde80e2dcff22e
cdc3143bfa1618d8e904f6f528f931f8
f30c090d1a141c3f1d05154312f73d0e
11121f0d08cc2c302d09ff2e1e23edfc
f8d9c8051ce917d400fe03f616fa4a27
ff03d8c6ec1acad5fa370cdb10fcf7f0
e5eef002d2fa421400fe0916f0f6d434
e9bc08e91f02f72c0c0207ed2ef6e30c
1118070ed1d1ef041cc9ee0cddfd2b1e
fb030b13ee27f8f300feff060a4eeefe
e9edf8e832a9e41a090ffb06ff3908ef
d7faffc6b5da1c0b14e7d82aeefc1cf9
2041091dde033122fa3e39cf002935b2
272fe0e9cae6f4f1f9fa0cf30e1c0cfd
26ff0219b1032b2c01144ae7ea06fe16
01cdfbecfd10e2e4f1d6d62748efc80a
efe905192ff6ef0ef5ffdbf927250d19
d4f3f61920bde0fefeeef0e6e701ee22
17f222ed4221060ff1ed100513c7fb27
071cfc2e2507f60af8f1f9f713281836
10d71814ff1b080de7fbdc0017ebef18
ca363213c3f706ea03ea04e6e7fb4df1
20f6ffe6ec1421d5d2fdf4ff0a00f609
06201618f0fe12440e14f3e4132029eb
09f60cee1efef40bd6c1ff2617e1c410
e20c11ecf23c01d8d4030b1301df12fc
e70cf20dee0902b90dd6faede9aa0fe0
001505f9fced0a03d419d3f93515e40f
ed05f4e6f24e3cd40548e63613e9052c
e511f315131106caefee0be91a110740
0004e70af0ff41b81006c207ede72414
c4eec904ed3803c5f6fb12df15f7e800
e2d8e5f0f8fcfdebfaf4edd2c217130c
efd7e90190da30fc58cee008131404f5
1f05fe06140908d2251cf1ffeffded02
0afff7f5d61d13e3051e0f0017f621fb
f8f4e9ddfadae3cd1cbe1ecc081bf7ec
ce00f412320209f7d91eee20220eeadf
211d30251efde023e7dff1310206cc1f
05eed201d91722aecb091bc9d3e0e42a
cbe5eeef273b04eae70129fd0af30724
2223f508f50c1204e6e1fafc14191010
c7f3080913d83000e1ebcfee092a1f09
d80f2cdaf1f449b2f721df16ec0bc214
06083918350f04dc01bdf4f93500321a
24ff24051125fceac60ff9fc1fc7d6f7
b8f1452f3d1002d6d5fbba0c2415030a
2a2309efdaf2fb0dd9fa25edded81e04
1bf8ead1de28e1dd1cf30ad513fa2511
0fe50de8fd0ce1e9d9cbc6f6b42327ed
270f0debf920040ce00b311230f41d31
49ec120b0de8190101fe1c0900fd1323
2b00d6ffc321cd0a0302020517e1140d
f41702d0def8e8f0f636ebfef3e8def8
002bfb13fef8fce705fcf1f10603e725
3612ff131d10f1cdebfe091224151b1b
22ffdd06e900dbe20e2f21f1f4d50818
12edd8e228f5eff93b1ded230b28e9f4
f5d8b90606dc0d0e0a1927eef21c03fa
1deed626fff43428f6d5dd08cd960c1b
15a4013f2af11024212a302411fded0e
fecf0a02e807f20f1a0c0b0affdce731
ef0aeb2204e60303ea38120ac2fbebfd
dcef30520f1ef6cc33efdbef450ce50e
c3fe01ffe60cc9f9fd13f9201835fb07
14fbe4e642fafffde2f70af7d9fd15fb
0dfe360e0121150e12f63cfd21352313
ce04fc22fd0831022c011518102feff2
e2130febed2bf7d80cf0ffec143b2f1b
11e3e4311a08ec2101e11033f7b4fc10
39fa110ff8eed6e013d80b0f30f2d306
f9e622f4ca1ee51b3f06012f0f4a0fe3
2f02240c2529c10333ed06fe233ef900
fcf5ea1ff90c05f5f2fbe6f81518f7fd
e5d617063402fef017f9ff10d0e4040c
1e18110ccef15acd0bfe6a0e2305f82b
1740163adb360d0a0fc9cae23e1c4d14
eb01fef2e604ff01fe0ef138f7102604
f0f82e3505f9e8e725fd0516e612f808
0adef1f3fd080131ecc70540ec061cde
14fc0de2df24df3300d8f1d9d6ca03f5
10320a0602061e050ff90bedffe81421
f7e4e70cfc33f42529fc1b0d04060006
ede5de0f0928283d17f02c09111411f4
cbfacfdd241cd3143bff1beaee34fff1
18fbff02d7dc42f836e92f182de6f076
02f3fcecfd121dfb3105e7f3f908e4ea
0f2c0200f510f41d15e1ed162dea0f07
b7cee2e2f1feb2060609f417e6e7fee5
0c27130ff4f7ed16eee5fc092016091c
f0fe0ff72119df2ef6dfca1622d4d8da
ebd61909e724063438031321d1b2fcf3
fce615fbed18012ef4c90d083625a1e8
fccef90808093bede5e10f3ffbe1df0f
20fb0b1ff7162de410c4e54c04e9d2fc
fb0813fe12ec21df0504eb120c1e0a07
14dafd050fc6e3ef230e0000ca0ffa1a
e4f2eeef1223dff907e6f629350226cd
e5e80f093a2217dfcde0ff0febefeb47
0bf611fc22f8ffffe60fe5060b2aedfc
fe06f71a10d51de30911e3ebe1261318
f917ddf9d5103b1123f6eefad801d101
f80af4edc8f81a05f7f8fded0cff02fc
13bdd7fb030cede611dcfe16d80bc220
ebf003ed32f007d3f40ffbd3ed11211f
32ef025bc5defcf21b3116510ef3fa16
f9ac082bf42a1f3be019b6e7e4e52125
2adc10ef1514e8051015e1eec311c717
ece84a16ff1cf12dff024837003f2e00
292ef81e3f09fb3111ec021319f7fcf7
22e438de1fffd20e0b0814e7ff1ca6dc
1937ce67fc0c18cce2ff272c40d324cd
ee1ffa41f60b342808db1ff631d01df9
0c0509211a2d28da02f0e3101601f510
ff30f263e4292c0df8ed0042150432c5
ef1b0933efd41cfa051f163b0403220e
c734dd14dfeb27ecf4ffe01336e037f9
2df9f5f7e4e40b040e13f8f60e03f143
132406dffae8d3ea14ec15fb04fce200
fd03144cfa201f0604d6f61b26f04e1f
f525f615f4200f07fa18f8fc01c514ea
db04d9ee05e028edf5fa240118101442
d4ffdd2ef0e1b9ccebe7fce7e0e5fcfe
f0f2dde90fef1cee3ef309f3031d320d
ec02eeda3eddefaaf18e270e3a232243
f0ff0ffe11cee1f001dd21ff1e1d130e
23fbb6e449f4630f30f31d1c18231afe
08fc3fe9c2f304f8e4eac1cef0ebc8ce
09150903f5ee3506d9eb00f9f62002e3
e10fdf06cee0ebde04e1f6eff8101cdf
282825e63b0719f5eff8e80a3bfaee2c
fefd031e10f73bf71afeedfd1e03e2fc
df4003b500130529e40c07f70ee806e3
170deee724aeeeeb442118f8f9fcd10e
0a1a27ef06facf18044119090af502d5
e1f7f4db14d604fef8d507ed2907eb01
18142affd3080402e40cd80d17debbe8
12250d2d21f1170003e3e5fafc02eb34
f10fcde7f1f21df517dfe5dff0e2b809
213709fa3bf1098edb12f1f939e2acdb
0f12ef35ec04e4f5d7fd4cedfb060715
e8f9ff03f505e6fc26e5080908f9e609
2bf000ef03191c0503f5080127eb2ff7
