1bff20edd50a07d9ee00dadad9e8dc08
040d160dd21ee91d0cfe132d0b2a270c
17fedb31e02805c92716f7f513e818e4
fe1a17f1f4db03f5090dedc4a4f219ec
f1bfd130f43dc1fb280808f3111e010e
26253b110cc8391305e11a030e0dfcb7
1b3e39112addee261d1bf07fcb301a38
380ff131d2dfd92a10ecf6380fbfc1f8
f0f4faf9ed2d11f30929d3a301010514
193102d813fe2c16df0efc0dfeea1ef7
dacce5effdefee0923dc0615fa00e7e7
d81712d7c709e1f3200114d2d3de04e7
f3293a15e8d2d41d152a05dced0bebfc
2bf0d0ce27e020eb011ccc04eaabd9e6
f1fd0aeb1f0058e8cdb9e0330aaec7f4
3a2e0deff4fe0f101643440411f31018
e8cde8d1d7d3171a19f2efebf4df12e4
01051905f122fe18c60444021d1a2202
02dc090eddd9114c1cd1f7be28dcc203
f3fcc9bd28ec2c2103f0cbe7fdf7d9f1
cef50f00d5f8ece20c05e6cff0e619e4
1df1cadc15f406f7fa18e3f4f321e8e5
2e65d7f1f80d2cfb0e430c340843323d
1403fa2b461e00e6e417f00310162516
152806ff1d03d5fe07f8f9cb15cfaeed
0234f30f28f91913e5fcea5ef14bf5fe
effe2007e0051bec361102ddfdb70efc
12f2ffc7e2e9fb3604fe2b0210001d0d
21f3fdddff25deaddcf93112e93322e6
d705f6dbf6d313e42a3307fcb70332fd
d810f44f0ccb0ef03d37c638cef0f3fa
b828f42548d831f9ffc611331f42194d
fdc501ecceecf9b9d6161c1506f205db
fa29f315d4f6e7512ee7f9dbf911fd17
13e4dd27122506bfe00ef9d60abe1a03
00e5e2f1d911c7f2f102e510fd15efe8
27f62f2de70c02f0e5160ee0251aed04
023008e2fc3a3a0f2ad0de20e10dc9fb
283541a6ec2e1e1a71dce418504df7cd
e01800e711fb1f1627de10f70f1dea08
2fd6e40f122be4d2c8551cf0e5ee19fd
ee2c2ad11e11fa0816e62729f722f3ed
0aeafcf924f60d00f826e5eb2d13fcfd
e9330306d4f0cf3332eac4ff00f20bcf
210709f1f432dcfd120b142919f71c06
02d836ce05022608ee073413202dd9df
d4e51beefff320e532e73805e6050e09
182ffe0d2a2831f8ee0bf8400b060a24
de0dffdeedf9eae4e0eef7801f1cebcb
0a09fcea15392a38fa0bd7110314e817
050907f742fee2ecc7334b1555e3db1d
b3f4fd2107ef12fd040b0be91701ffe7
f01dec0911e2c9ed03df09e4d8e9d7f6
0be0c811c3e00432f815b8faf42edd31
1fd312240cff04313c3cf1e01b1367e9
4cedfdfcd00a1ee421d7fcefec153d0c
97f623f621d7fae7d9d206071cfabeea
24ce1213d9e606ebfa2ed733000235da
ff0afdf60af71013ed19befce6c6df01
d536e702f84812f8d11f17c3c9f6e5ec
cd40071f23e2f2e1e90cead1dc3620dc
d207b20ed4021c0dffe1e9df063207f0
2818fd4ed3faf5671bf1db13101af50e
3b04e2050cf31c0cee1f100714070912
f2c1b6f4f3f3e0df1cdac8fad4e5d806
2a28fd1ae6f148f1e843e70a5209c12c
f005fe0d1c03e611ffe2e22e0fdc09ee
db0000f527f5cae21bb9d5ee07de0cde
17e3f4281824eed2e4e7280d22c32110
e5fb0df005f6001b24d9f101c7f2deef
25322bec390f1f302a152ae517f9ff11
d5061b06d5ce4febf843ffbcf62cf609
0207defe1b2ef81708dced402adad02f
0cd40f150f101a102921f4d9ef2413ac
f2ecf700cff0071bd6dc1ff802cbeaff
e70333e712e404dce6ef170d130ddec1
06075d10ded326e9dfea47e0171cf7f2
f2f0eeccdf352709213002c1d80911ef
0ae0d8e8260bef1dee2709c0e2020b06
1602e743241c16ed2347eb0902131118
1409f2d8d7d0e9d10cffe5e0e6c5b201
ffe33cf01c0eecebfd0e3f12db1f34d6
be0509f7e7cf00d1c4fdc0021cfe1928
ddbaecec0dd3e000fee5ddf1fad38df5
28fb17f8f2e6fbdeea252ae206fb10f8
0f1bf50d0adcddf4180b0ff5fcefc6d7
f30413be487e102a3bc813ccf20ff9c0
111ee7f70b01f13007003322020a07f0
edc1dff5dbec18fab600f4ed33e8f241
d502fee20f231b1af0e107e906f5e413
fe213121e2d708fedc120e0cdf07e7ff
dae60380ff24f2230bcbc3ccefdcdadb
b8e516cff0ed15ee33f4e8b009dcfbfa
e622bdf6f907f227f5092617ee04f20b
f61212190a302ce10dfdff13d61a212a
df1c1504191e191dff0efd15e703f426
1335eae800020be5ec1bd71bf3061315
f4e501f603ebd0fbf2d215e9102004fa
d5e20704d1e01921d424e70324d1eaf8
0bb61ffa0110021a0ce908f31b19060e
3e4debecfe011abad3d0fdeeee0b0ed4
02f922ebd807e3271803e4fd12f6032f
bc150e023f260f0c32d438eaedda060a
e61502d21c03e719e00717000d0fe334
f5e33e3df00d0428e0e8113537050f17
0cf4bfdd2f1a275949130305271df623
fd2605ee0d251e05e7fbef02351822de
fcedd0bc0b03e2ed25b101d5d60b4e09
f046eed8df19fcdd06d2f4481d156efe
1c02ddd521171a0f1e24ceec181409f5
0cfafc04f0e314db4332d71726e4fd34
ed1a251ffcfcb91c0c0eebf2d0ea0d1e
ccf2ea1c21d20418f2f7ccf8e6f10f16
0c1c141cf3fed819d2c9e730ea0d173b
c7d661de2bd300d4fbfee4d843c00eed
fdde1a3c00fe00f73adb07e521f11a06
03e21af62a3d080627f3c1e736df0110
eb149dfddfe1192302f8fdf203f80525
4c2cf142d6e8e637e3fff8f8132fc71f
e533050303e108e7f8fb5311c635fb0a
c2f95c2b1fe70cdc03f8f19aebe60933
ec02ee37facf0ade0b0df304bfcd0f0a
f4f1fe0dfbecfc1104e6f62611dd3209
06f1e3fc0ad3daf6d4fbbed3f61dea1f
db02c8fdf6ea07b0c9e6ecdfe819ede4
f4ace4f3d3aeeae52c2305acf6e30419
2926d80fe7061ff41b062f08d3fc16bf
f3edd80f07d9defa0431f1162b090b08
fd0633f0ffe6b417fefaf9e5020b05df
225231e6ea17f0f3390f060ccf0547f8
c607f33208e303d10b0307e335261f2e
daece3fbb3f513f8cfd8d6b4edd9e7e3
fbd7d5fff30430d70aecddacce180c09
00f91adce7d9ec1b1af52602e6d0edee
df0017d6e313f90a07c916df02e60304
ec11413ce3f70e29f1aee8d0ebdaf715
23c70619f81d11111115d7122d12ed1d
0ff41010d80fe604e52eddec01ea3f0a
facf240ce5de19c4280b12f7fc0d500e
f9e0b5fdd81802c9cf03ef09fe0c3b32
fb2dfbf1db0403e006e81c3dd3d3f9d6
13c9d2fab31c21bf0713eada181d3057
efdbee2fece9e9dec30e351dd04e3d23
0b0700ef0419f6f2dcdfecfa0310f2ed
06e204f93e023925ee01092d06071a01
ebd3eaeffd13e7fbf9cee509e22b03f5
3a251f1e24050a331f20ee2ee5163ef7
d6f9d5e82ade50fafbfdb6c30dc6d1d8
deeef1dadbd6f801f20adae20dbcf5ce
eb08c2f0d703fde23ce604d1fec9fbda
d130f90c08ce06f7fa0fcabc17f308d6
260bf11ceb09fef4f3d42be2de2ddf12
f91cc05d1e042eedca0ca92ae41f2d06
193122c51fec221ff6090ad62ad0e608
2d0904dcfbe9f83821c203b010ebdf22
1a370701151a014900471ab41aaa3ee5
df1eea0113e64e30f811cc0904ba1800
26012ad70500feeaebc6c5ac01e2fddb
28fbfcf6f2ecec52face0ec410e6d2d9
0dfb19200215eb05fb1821e004e81ffc
230ff0e4f90cd4131a1e1a1c562127db
e40600f6051d01230222f636d0fdf835
1e24241ace003bff32dfff312a61ec01
18dc31c1dcf8c8d8c9e80acef6cfe6f1
e4be05ecadf0f1d8e900fff0e3fc23cc
fc1c32d3e10af303fe27c7f8f3dcd202
f1b23fc9d2ed01d406dd081312f62204
1224e51a0bfd111834f3fdd2f5f6f703
f15324d5250d57f517c9b5f6162f0f64
6006cf1dfae1be0dd6f6012dff00e7f4
0b25e00605ddef161bf1e1b5ffccd034
50d83f44e7fad3a9140f0e2b2ceae9e5
12df199d10f4df03c3ec13ece23a23f1
13d01f47e1d7c3e3f3e0f6c526e205f6
20c82132f8dffcdcc637031a19ffe3f4
e0fef4ddd7f9ff2be1f506ec20fb280b
25f6f602d21305405bfef2d22c12f91c
16ff2a052feef6d8c9330aec09180fd7
35fc2017e0f1fb0574eaf0ab05ec0013
e300de0b0cf1e4fed817cfba02d1c8ef
e302ffdafbe3f7f8efc2f4bb01f4d402
f616fc28e2ddf0dddd01ea13eb1109e2
cfd7ff0bf01d162644d0f6e8f8eae3f5
18d1151711d2eb05ee13f0171ceaee12
1522fc08d901fa0127bd1e12e0340a0a
be5d0deecad1e5f7d6f137f8440c11dc
281edffce30bfbf0bf1ef53b390b0700
e2dce1ec3aa40a0d00fe43ef19fcde01
d4feecd3db2007d50bf907fb04f51305
cc0ee5e139b7fb23ecef3ae527c6a9e6
3cf22a1b5a010413d9de7ff73ed2cb22
02de03e4ee190cf5e6fa23c80f04f505
cf3b0647fdf12bdb23ddb21e1b3ef924
1ab2f7f80cde02f0eb1506cb0efe16ea
fe1ffa3a2f2719b41b12f1312ad12000
c2bbabda1be3a3bffdd6a1f7d4b51822
e0dee7f8dfe7dac2f1f2aff0f8dc1de0
e5e80205052aee27faf4eed9b8ede8e6
fae2e42120d4edeffff6dbe4e0da3506
f312410834eef0060633022f131b0505
3d240cb807451c6143185702c40321fd
e3e12f1d2e0d00e534d322191928f124
1eb1c3f01e06d820e1fbeb2e0537f7fa
f5bccd331fdbfbfc2ea5e03c16c12317
dd0e01fd0cdbf61438dcf7d7d1ffcef9
dafbdc2ad50edb1ebfcce0352ac4fce6
02e6e01121f4bedad00cef4030e1ff27
27e80ccb230a2211f9df27ecde13dee2
26fc0f5a0c0af4fe04f703230df9e903
f63818d2e5dcfcf42204fd14dbe7defd
160209334b0635f30e3ef231d4e8bedc
24dadd27bbd9ed07fc04f8dacdb7bed1
f9d3f2fbd3ae03f714fddddfe9f0cde5
effcd2fd03fce40e2e18efe1d5dada01
13e2eafd23e4edf6e7fc0837130ecf06
eff61fea3147dd220bdbbfecf3170232
f72de51cdf3a0f010010c401f8122eef
f2e407eaf403ece311f710f320cfe4ea
e8c42af1f605d4fc0eb9c5ed12edf412
f52401260ac708d2dc300d1810d7e7ff
04ddf1d2d4dd00181c3ceffefa0af80b
ebfb0801d2b619fc16f6f4c9fd070101
fb0b1e12fce8e7d8931d0afd15fc2002
dbf40c0dd30316ff130ad4d9fd2f1ae3
fd0041f74800191416d610d2eef2e711
da341dffe8fad8f3f6161122f50ddf1f
e40808e055f237bf18003ff712bff5ee
12c9191a082bf434e7e9cdecf9070a00
2df9f50203ed16d9e010e403ff1eece7
fb17e0f80d43faf32a01190ef506220d
def1e8071b1325ffed0a084dee282221
e7210e4aeb17104d24f022e60620241d
d477fa07d41fee200f361b23e0ff2927
2ee31a133711fefeebca21e3e6fb1525
db06150bf0efc44c1bfbee13e400362c
3ddc031427453816e420eae5f305d1f6
f0e0f90e03f40732b9cad2d5111fff26
f1fc0f05ef05e4dbdb17f63f1a1f1ddc
fbdf4e0718b2fbf817f2f5eff7169bc6
2a3cf8ffeccefa17c6fb0bde22b3e705
07350a1cf5f0f1e624df342b3ded120e
feb1ece41be0002cf1f9bc060004e501
302d081c012af8084ae71a3838f24245
fdf1f0f5e21edfd612fbe7d5c9ef03e8
e6fa07e8f40e1106080aebeeedcff4f0
facfa716efe1e430f2f7eff3e9f406df
071b0401ed0a060e10fbf9f5e40e30ee
250a083d180d03e50af42a0c1f2a0f19
0d08e325e61f9f3bc628c01ff21930dc
dee105381013eb0ffe18fed908d6defe
fbd601ec153befe601c809fd23f02621
06fd4e2b1048fa0f26eef0cd4104ee28
bd0eea4fcf0fe5080bf20af408ef0e39
e40f112606d4eff803f6eec4322e0023
06072f21330bdaf2fcd0030b37ff0f11
06e524fc4a032104e5fc402337201a17
1e14efdff44ce7c21d1d022f003e1d26
dfe8dfedbee60ef3f1ffd142120311fc
f7d5e4ea00f301fabbe0eb06fcee4eee
140cebc836412ad6fc3ed83b003b1d10
f914c615161ec708c5e70ce0e013e5db
03e6ecfe141802052926e915e720111d
0bf7260416c220b5b7c5fb7bd8e3da38
b9dcb634f843f0f7d90fbcebdc703e19
03c8c5d2d3c40e0deecfe5e43fcdfd26
d91327141e2d281ad912171709e83242
26e70deab10322f73e06ffc90def14e2
1eec340444d213e527f2ab0f05f2bee7
cee6dbcf0710f9f32c1dff0e08011206
36f4fbd4c8f926cce4d2d32e39c5d8f4
3ae119cb13ed11e12f32d008f6dfe2da
d8e7fdf21e16e0f416e4e4a40ee4e907
09bd27fb0fda0631eacd07f712ec2c22
dd20090324eb2b1d60fcd5e402bad8e2
fed3de020f04c7102cfc2adb240fe6c4
f3dc000818de10550a0ac8e1ee03f4de
fb01028d2ed2320ee2340627efbad0c2
0e0afdf1dd0ad7fae21c04020be72f0a
d83810067db330305f56e0f9e9e83a11
f7f955c706f9ff28d5dba72d26be04db
1ef71311afe8babfe72505c2dac4e507
2bfc19ff0b4eebf9ef1a341735482a22
f680f2d9f4f2220c06bc24f12ff80cf9
0b2cc2f42ecb41ed4a1fbbfdf4c12831
0eee23d5ce14041ef1ccf2e806ebffc6
e6e3ca0bc5b944effe16d30412e0c0e4
dcdbe80ab9dd24e412f92806ee08f025
1de41aefd924f7f3f505092beaf837c1
1ad7d738f3ffec1804101efc05f73f3c
42bc141bec0202b4daf036f8f6042cf4
0c3e14f10ef70f050ee9daf1efa01004
f8de472031221f13ec1b4332161b3f17
e3f72cd7c90fc7fcc622dd46e30bfbdf
14eb022d27050decfddf420b7f17fde3
07f461252d28fe2ad6db2e172edf1fad
38b6f3601c29eda12323f9a95bd73ae9
fef043f20bbd0ba3ece610ad22e4f50b
53460836d728002c34f520e029172410
e0e0d6051fee1815b7e724ced4ca2bd7
fa004a9decf0dcd6131812f0e9661d03
dafbea25f3f6d12110f8f5d7e40ffdfc
e6b652d2cd1a06f9dcde0ff4e309dc03
cb05e3cd3e041036f8fc05f1fcf7dc02
34f5b106e2b8deef140912f20dfef5e1
341c030b3916f8e4ce043ffb3bfad7dd
20fb313bebf5daf9022934122af4a70f
36f102431b0b0b031ae3c8eef2b1161e
c42ce0f24ef0ff0ef42130003a1cbbfc
e1b4161fe81ff808e6fbf6d21119d6ff
f8e8eddb3cf5eb21040e11060dee0611
02cce94da3ead645211a24e21952f1c2
f7dbf31432eac4d3f3a452fe2da7d3dd
f50ff1ffe8d1e9e634fab81bf5e8dd06
14f13f045cf8470a52423be42b1d452e
ec6802d4fab7dda4d8fccca11216fd88
09c103e5a2d4d8210d29ef25143f32d2
f71913421cf7f70de006fe24ed1de114
3908ebea01191206f9e7e213efd413f9
1834eae6bc24eae9ea0be427290429e5
def0fc18e7dfe7f704e7e8a9f623e12e
41e80ce7f5ff22ebea20277234e30603
f7efd206eec8ddf009f4e41211f925cd
cf02141a060601f7d8eaff2a06b92ced
fae3002739f725042307f40867220018
c90e223e19e3b8d51aeda80dd9d20d53
eff7dc08f10a01fde20c103412ee1b31
c7de0b093c8141e84cfbde1dd8eff1e7
cff2ca33f40e96ecdadb055113b0c7f1
d9cfd81115f1e90180e9cc0ac0c2133e
103b53233ae061ee17ec27fc3453272a
eef4f6cef7e82af6d018ead00ffdbfaa
0ae3e6ba011a031153cbcde8992b1cbe
00dd0802ed29f6fdf6ed2a1538dad617
e0f6ce0c0304eef30ae1c9c6c8a809e4
39f2fad8e92af717ed31fde5f51701d5
cad30e0ed0f6d6c800c8ecf511ddeafc
ca1f3801c8d9fddab41cdcd42dfd0411
f73add0c19d80fe5d2e2cfffdaf6e314
2311ee08e3f3edbce1062544140031d7
27041d06e6e434a4c7070c0517061014
edda20e309de22cdd81c32bc1ddacf0f
2df002ef0dfdf108ff0d37fef600f011
5258dbdc3c38fa5017e51b2df5e8deec
e72e24e9cabe21fcb219dc1d40edeb1d
2616fa4514c1fd14da082338d023e5cd
f7f81b121c562fdee5e81838384d1fe7
cf410cfbbfb6c310fde0b2d0ea960919
0513add73fe3e038383606f0b217ebeb
cac419e2de0d05f010e5d7c2cfec13fd
1611d713b3bcdfbf05e6d20acdbd08f6
f1110cfff003c1fee6e3e5ebdbec0922
f5aee92102ea2f2206e125d8dee2b3c6
034303ebd9d011fdf8060afd02f7f2f3
04f204ef1904fde2b301eae12afb0205
39f3d6f609ef07d0ec26ececfcddd4dd
4b08f32c04d1ff0bddf8e4f34104bcf0
08cafd2825d72a1e10c1f6f5d3f8cfd9
08f0fe0c31111804e825f6ea112219f4
aae2410e607a543135df0526f120e14a
15e1f8f9e4e0f6e014f7db124837f0e8
0c1eede616f3f1dbf72bb8f2dff012dd
201225221aec0824122b29b1388d1604
e226b6cfbab1f8dedf09031c2df11732
03e2d3f00d4c2a241215cbf8ea21fc67
f042d4e1f6ddbd070eec01050f141510
f618ee1bfbcae31bd82edeeb05edecf0
d823ecc9d3f2f1e8f4f30439e5edf50f
e93af31cef143305e3e00408d8fd0ce5
d8fb53e418e9f4eff6e5e4c634fc0804
ccf4fe0b0203f705f40302ebe5a01dcf
032924eaf60b0110150b38f2e302fc05
cfa74d0934eb0cdcf130ffe908e8cc0d
2fe2432f1b382001f01cf1df1a1df6c6
00de1afc080fd8ed1b00f4e62d02fd06
0c31237ad005fb1551e035fafee41e15
fcf92b072ef60d0efed8f9bd5bd114f6
ed0b01d6d93efae6530907d8f3060fe0
2d431e5c312d33bf25d121271050f135
aed0b0e2fe02d2b5ac01d99fcac7f4b9
43f6d220e8c6fc40283ec2edebd9fa1a
eed811f316f20333f7e2e9e61504f4fe
f90ceee0d7cf082403023df0feddf9dd
e6c4c0cafabee107c93cf2eff5f5fbe2
f9e810252004cb00cbdcfbf90ef1270e
4c17350ad1e14344f9bfef3826d9fd97
0006ba56b936dde7142c2124d1fa251c
d7ded3fe2113c304cbf608f1e2ebce0b
1bd1d31021eb24dd04d1befa2610f910
3a0e36caeecd0919283be2ef25f230fd
b6d1e4f8ebe7d2bd18d619e5eaf604e3
ef296cda1003ff22e60bddf9e2ff2eec
d9ce0afaccffeef1fec217e7c2f115f3
0c38f4a3eefd23f920df2de0e72d06c9
2d4246cbe81d0f59f9d03defecf2f8e1
da2f07a508defa0bc9e71ad519c1b0c1
aed7fb86c7d224f7d795e012d48fc2b6
12eaed08f65495de281214dee5252e41
f7f607bfdd0d1104e7e0ffe5ead3d90a
11fd10010b0b31e2f9bd12cb03c0e1e2
e901db6021f240c1c0f78ffd17ede6ad
daf09f0606c4e80b28f8f90811cfbe0a
fcf525e9dd28d854fce91efbfeb8e3aa
d7e0e3cc0bf90c16f6d9f426efd5eecc
d4cb284013e6df1f101ec703f4c3b4cc
234f091642ee3619d5dc3628fa3bfc16
fa2df1d2ffcef71e111efafd0ef30ad9
e20dcac846da2f0c03edfc1ef63d2118
3021fcdf19f5e52bd5dafcdcc0fce000
ed1a23dc1fd31a3befc924fc2506c6ed
dfe90da3443be3d3e504383e14031908
ec1cd7e6f2fddc95e017c4f2efe9fbdf
95f191d82cf9e60915e8f4cfe9f40cb1
26a011e5fefaf65318d825cd07121ce9
1147b8defeecf013df091b36dfdef4f2
df28c40204fd02f33f4245dd11e80703
f01bcc59d0cf4ff15014dd00e3e109da
d6de03941ac02b170a050e09fee21005
f0c5f25b16c50ccfc30bf0e231ea120e
4df834f304fae1e7efff27fc180cdbb5
f29ed3e8221d40cb0de4d5d5211b29eb
3f4220e3fe202bfe49d80d251e0a053c
1ce331e5360efff9ee05d6180d020402
e312f9a9ec3bbc1509cdca312213bee4
f001e9f920ead800f1191cfdf1e111f8
c0e3ba2ac8fcf413f4ffddd504aa2ae5
b867e604e2ffe62dffe9c51b92f63e86
bf1911c51e0229fb1a1217d4d7f702da
e6e2348fc3e0010e00d0e6fff31af921
2a15ea56ec1fd6270d0a23f919d6e4fe
2e0e739ec1df25d208cf10f9f641f4f1
fc0141c4fe2315ec11121fee080511d4
06ff3bb3156940f4ff43f7da2bfcd9f0
29dbdf2ab9b119f60cf6261fc81746eb
142931e958181eedd4ec3afe19a99624
bfc6d1f1edf1fad115fee81906fcd3f6
18f3eddd12e49cf22f0a1315d808adf2
1ded21e9062deaf2021019ed0d1e080b
ab21d91405180bdfdbfa003ad2ecf6f6
c9f1262ea86d1818dff7eede024936c4
cd0d1608d90ef5fba7fd190cfb0006f2
2c1e0dc63df4fcf0b026fafa1affd5c2
ecb705d6dc0c2bd8c608ec0de85e37d5
d2d904d1d6fffaf411f69718e01a1eb7
d30fbbfff3f706fff3d0f621e9cafae2
ce06fbfa4e1738e1d12433eb67dfc50e
d0e30229f1f8232b00b8bc9ae9101dcc
0d16d527d7141104020ff31be6e803cb
32f58e25deffc52641e8c947bef9dd13
fee7f2b21bbb19060460e08de63100c8
e9f8a72d082928aed0bee232f5f2ec1e
c206dc04fbdfe3f8c8b5d4e2efdce03f
f4df9702efe1fb05d923b2040fca3f1f
22eb1f1b24062d092cf3edf90b5ff406
fce2db12e11dd918ee0a44f4f9bfe208
17dc17d231ea0ceb770234d1fe44bfca
022f20f71fdd13e700e0181c08eed1df
fde3f700f6dbd6ffec0ae235f806f4ea
e3e757f104c50f0c450cf102d31fc0d1
f91828cbb4febf160ffbfaa5cdf21001
fc09d996f212f500f7292cd4d3c31ed6
df001719f70628eafa192133210bd5ee
dcea1a0f0704fdf831e9fcc4f11223b1
fcfff9c01d0d1d0a0d0af3e3b6fc10d8
e936dbf71a3c2724d81f1d8adfff4fe3
f92bc42708ea0646edeeee52be04210e
00f0f401b8c6edd3cdf117e002e5f41b
0dd72df7fbbd1ee3fd1c3effa1ded0f7
03f41141c8b507cecb19230bebd70624
05fdc2ec0e1a3d050b08eeed3b02012b
21dcebd6fced2312cd11f1df15240df3
d0c21dd1c9fa06fc40dc05b0d4e0c7d2
beb7ebd4d7df02f7f11909a2e7be0fd2
b2f211ceafe525ec11c0ceb415f0fef3
c305e8b6f8f76d4f38f00acd15c3f1f6
feecb5c806141225250e1106e7e6f2ee
fc0bc3caeeeee40aeef90804ee1eece6
ce152db0c8fef6dfa3cd11d236dbff37
1af1d9ce3901cb141407c007b5fef2d6
ff0d07061dfce417d622c40efbe1ef18
200df548e8f516e9b5c8042ce1fbfe10
faebe611d610f02a402bf00212cffe37
392c14f517e2d104a310e7df39d5d295
3af51cf540e62edfdcf618f50028d705
11cf050f0cca56f2fa70b1e1e1e4e803
2219fe291c14ef2c64e23d2d13e40e2e
f4f0de091530f1edd4cab81aef0e14d7
d50606af0b28f839fba8e43cb60f1a62
11e338e918fbce1de7e31e0f26dbf906
d6eccab1ddec070df9d31105ee030bfa
17fb98c7bf09dc1a71e83d0af32ddf2e
eaeae2fc1733f202213be81d26471d14
c536efd50140e30e2a10c0e32e03f6d5
012ffbe4fbe8e9efb0c60af50ad403dc
d40406213d13f4181a120cd7e2fe1c44
08dfe4e2fd2cf83efbfdc4001815f90a
f5c50dea2e0330e0b96ab03f000533d8
f30cd700f0dee2190ff01003ba0634d1
ade713ec222a02f707f9d7fd32e0e22d
05040513f0fbccfd25f7fae4e80af8f9
221905e3130b2f0129fc30dd46bb09e4
0632fb3cd202e00cf32509051d01e61f
ecdff0e0dd19151cf9fbc304f2ca11f1
cb040541f2eae434d1b7a60ceddd0def
15e3e115e73701acf3fffbecdff61912
cbc5e3eef6da27fa049404ee1fd2e4e0
00daf819f7ee1de5e6cffdfec523dad7
1209c2dacbe4b2080f4017e0a613efc9
1cf1eb0f19c4cb063a26bdecd0e1cede
c0c937163e07eecbeae6b5333f270736
421ccf28ec3821380cff1351e7f90823
0903d2fdf0f4171927f93028f3dbdc0b
0b30f7fac90dc42e221f2946d1051d4b
4b0ff8f3cce8032d1dbe323602aed5dd
d71ac210003de4cddfe5ee1c17f6f4fe
244c0d0f1001fc162a554c1028ec2edf
dae4e0050553cbdeee3cf82f04424b45
efde14d8e8dcf5d705f324f2eeace1a5
d6fce501f9ca1ef32c30ba06ecd003df
e2f5e5d8ca1003e3fce1e2f8f9f41df4
111b01d22de9042a2a27092815ddfdff
08f7be0df22aadae0223e847fb04f90b
1302d80a3c1732e60f1591fc2ad9d411
1105fc96de06d429e807e931c607ddc5
d213081ae7e5f225e51dfbee20fc003a
badcfcb1f4eae72d17d1111e0bf6a4e9
df0416ec00e8e2ef17f024d10b1820fc
ef251cbfdae4aa2e180521bbfb0d1de0
0812fce2c5d1a3e5001b0100ccebb6c0
f8eef7f3ea1b08bff2a41d15e1331936
a8053606f9e72122f12ef6e65cac0494
1be90a00061bf91709d5251742d4c801
2ef329e5fbf6f854e0dd13ca21daf5ff
bbcedc0f08d91b06ee1610fb07d8f501
f029dfef3f06f7c7042ee90bf21cf7e2
eee2bae61cde631c0725cfff05c4cdfe
c624fd23f9db16fe032c151205553634
000c0d0cebc8f830f1e4fad8e91e1f0a
a7f3133af8d81db85a1af605eaf4e607
e4f90dd63b041a3acbb01537323b042c
08f0221535200417cbd60803eb2814fd
f525e8041607dbfcfdbe3eebf7fc2b0f
e4c40aeef7ee361831f839aff901f11f
200300c2d61eedf4c0133ade05b8f0e9
f6edfab81f14e0f8360acefb09def9f0
aefd1bbbe9051128fde2dc1ad10fd1f1
0bdd09161a07c4bdf12015d7190d27ee
cbe7f31ae007fe000eff281ebadb3b06
3ff2f94fe5f4dc1803fd0bfe27f4eff7
c1ef0bb5bae2f4e5e8fcff1dd4120808
e2f026e0f1182bfee2bff11ff50a09fc
1cf10ff0f1031cd9aefbfb0c01ebf7f9
0629d0ed1936201e0eb35f31fd0a0f19
21e2dcfce6f4fc08fbf5efe9fd36fa2c
f219f0d13d192bfcfef7231a57373709
c7fe13c9aaf2f6133cc4f53fb10d0adf
2a22f05dda11f1010ce8e2251f1004ff
eefc09cc0f00f53c05f1faf1f31e0217
ca0405153419f61bd84bdecce506d8f5
01fbe7010e139e150ecde1f5e4e8f2a7
04c127dd3701eb17bc491d00ee11efb9
fc0bbc06f6fa051e0205bed4f11e4216
c82393093ce2dbfaec09341b1bbdd620
121bffe8001f05dce615ff05e836fafc
070f1d1061e9e62aff0d60e645c4cdf4
0119ea0ab30e09f3d936eae7eedaf4c3
0ae9edff050cf71036f7f5f6dcf520f0
af06fdd30fcff3c32430e9c80b23db05
361eeaeaf420f602e4d9e1eaee492ae2
dd16de3f17cc1221eb0934311ac1eb10
48ebfacc10d927146e1cfdf50a04e40f
ce01eb0bcd21ce09db13e900390d02c6
0fcf1bfc04021d0a29db0a1c141c0df2
1d07ebeedef6201aeb06d40cdc302af0
da45fecd03f91dc6a7f8f80e38bf10fe
c31c05c11fd4100bf21bf1e100fc22db
27251e05e7d0f504d708e0dedfb615b4
f9e70ad5cd1516fddb1abdc4d13ee0e0
d4d6bae5ff45021a00ccd3ec47b0fd03
0a102edf0c231ce7c4e5ffbdf50b0bf8
e613e73d250f1bfdefdbe64462c2bc03
fcdae5a1f406e0f2f1f4e2d901bb0fb2
0adfaeec06f5f40225f90ae1d7d6e8d5
d409eef711def7d33792dbcddff0240a
0ee6e5f7e50451fdf7201ec9fd61ff09
05e9e633fc37140bc3320cf1f2a6031f
ebf0ae28e21026dbe835d0e00404253e
fce3d7f30f1227d50a02b7cdee0adfdd
0f521603e71dffe40ef9fc3413f9d23f
402e2ed721071dfffbfe1aedc2092bef
201aefdaf82fe233fbec03fcfadcfcd8
e522110b05f9f803d5fb2b490be3c5c0
08212af7ec16ec04bcf421ceef09dbf7
f613e708f4ebcffcc2160cecdf1419e4
210bf6200fe508e8bb2d272010100015
0de7f310f2f533f4012400f319fc020f
fef3fff6e8cef59d80fcece615ed0319
ec0ccbf603fd1b36fa04b9c80bbb17e1
3ae8f1d30be2f8fc16e40bf90af1f7e8
eee3011c00acc7f0e5f7acf4ecd6b4da
171dffeefef310f005eaeefff619dbf9
ff1e1bffed20f6b58d3b1be335f7ff0f
2e4a1456faf71ce6e24f117f11240712
1122f1c90a36fbfe04fec689cdf2f6fe
e9de0b1c0019f80011eb1623c602fbe6
ddeff2e8211bf40b00e912d2e137edc4
d0f84ed5b1d5ef170512e7b2fcdad80c
f1ebe794cf2820f54ec3e4cae9bdeab6
cb0ddfb7c9f606fe2a061ec5f3f5d615
edf302e7e3f2c1f04c120a0405edeb26
2fe6e4dd14e7ec15f322c4f919f6bac2
f90bf7cce2d329f1e6f31c0715ad1ef8
e70af706df0104d6d9bc06e30cccb5ec
fdfcb59fc40ef8fd1105c7ffece91ac4
feedf5e5041e07ae401af6f7000e1f07
1ef5f9081e00f926f8fddef4c6f8d3df
e92cd1e4fdd70f0816be3426f1df2dfc
fd241e0dd01ff51edcecd7e609e9ebd0
00e60bef2cbc27b30a3ec91809fbd325
dc01e7dedbebebfb1edb2cccf409e6f9
e4ef5f15e2e5f6bffb051bee0b1ee90b
dfe023030d25db1b0dd91dee00301b1e
e603f02100f5ceef0bc62d04e1ededbe
b4e9fc10ee3ec9e20ec5fbde022e512b
f50cafc83346ec29efdefe4f132a11e6
05eebdd4d4c1e6e0c01927fae82b25d1
e5e0e2def5fd1b10314de3c94bdbe966
d419cf0558e8271ec3f4360fe321fc98
eff3381a29ff0a17eec7ddd54cf5f329
dcb8bbbfeca5db1205dc16d9b4d7e69c
2717f0000d1cf81de4121008ddfe08d4
d6dd172bdbed1f041afafaed24db0512
f2f4fef011b41604e816fa050a29cc05
06fb1e12ec0602eb00d4f4e61e2a2f15
bbfbf4f2080efe093afd30dbffc1172f
d8e3e4edf3eee61ad50e3d2de8e6c7f5
110027d50b00eacc20d3154df90bec2c
1c32b30fdcfffad60d12f904f11c35f1
c7e103defcd205f3c7f71be00002e212
12ff13381de2ffd7d90ebbf0e7f2c728
d8bedf3af5a630c5c645c0cdd4cd15f0
ff21fd0ae914fe19f5e803d7d5cd189c
0207e008dcfff7f120f4fb02e7080d1e
dff2ffff301fc0243aeb3f32082a1142
001ae52adf22f5f1caf7a3d3dffd04dc
4e1bed9904d5f2fb0ef1f92eb7f7d4a6
ed0e10af36e000eee411e1f8e7c6a8ab
c5fd2bf4d42ceeeafe5c981bf0392c08
f60203ffafc6e4d60309fb0ddc05410e
e9240001c52dfaf81124f7fed5255f03
04e6e5fae614d716f3221fdce12e2055
0cecf7bace1cfcbcfdc92bd1f6bbdcbc
07fd11eadfca22e8c0d50b02f7b616ae
09f6da1813d7cf06efe0c933121409ff
e21df8d1e60634e90303e4bbcf052002
03fbeadce13a17e8e2f3e4de950502c0
e5efeaeeed0ec307e6f32b06b70328d9
0a1befe420d008080917efeefaa5e617
2302f3c0f72f1d2fdbf7f929fe2d03fd
f5f74bede60ceb0a101aea1014373106
f30ed0c8dc1b01faede9f9a7e89ae8e1
ce1cdeee06fc1db208ecf221dd14ffe7
a902c0d9f6ef18c0133bf52f06f6e403
2ef4edf8f00c0e0700c6bdfbd8a6ecee
181da3e8021efe0b08f72600330c23e3
35e338d9f31f4a160cd623d426f10b01
2f202de1d73e1b212c0419fafb0a12ec
e11a01ebfbd7d80f02f618fa01d4ddea
0638eadcf3fe36ff01f410e71ae119dd
d7320701ec0de1e912101650d8233821
f6b503c3dc2fc20902ea1ac02ab2e3f3
0fe7f8f60201f00a43fc36d928d2cde4
0fd816f41cf4d434ec140bd3ed0e13cc
f6d0dbb0130da5bc00161e2de91d12cb
2ef5041317f4de081013f9f538fce1d2
16130405d7d6e51207f9f4f12de3ddd4
d200edafe132e3f7bcecb82927ebd9d2
a5cc4be421f430dd07d0ec08bae3e9fc
c0e148a7d52034e3ec03f52bd33900eb
ebe2e00cea0914a6ff2024f402ed1d0b
2a554f0ede05cf13f4eef3e916eb1bd2
2645d54bf925da43c61d18f8f706730c
1928f5521b18f4f10ee60004fa01e11f
d1f2e314d4e609cdb0ebf1f5ceac25fa
1da702e113d0aec6cb351510c8ed21ef
17223bd7250a271c38e31c15653ab312
dfd4e2f126e6f5edbf2007e316c801db
e0d2335ab2bde1caf0dc2eee1c0d34fa
d0ffe3ede6f4c9e80643fdddf9c3eb08
9a253ce1e0e1f1bfe2f5ffe5cbf71ab6
00d53c141ffe1a21d3cd33f618f909e8
141c18f3414ed40e13043de714f50e10
af07400eeed3e8e80903e4dc05fff4d4
f7ffeb21f6fe0bf4b00ced2bcd2224b6
b5f5cb12e13be11238d6c0c1dd32f8bc
f900e9da2c0ac6d3e5ee3e03fbd0cce8
c92ffb4419e6fa15d5fe32ddccfff9e9
e6340de075ccd3cd9f5337d74b15fc19
160d04eb17492a4ddef9150fefd90d1d
0e1001e30c1dd8edee1ceddc02f0bb0d
b1e1d8d8ecbee4f21312f5240ce4dfdb
f8f5da1a17f7eb4e48f0d629eefa1bf9
d52d0fc42610f301e305133d07c5e320
e71202d232d80dccd7fc1fe60f1680c3
a6ed29f7211325b9f2bd3f2015ee0ffc
c6c9f6d43e0209de29e5d005f405cab0
e0380f3b4bbbfe08f9eefa0efdf5ee35
1233142edd2b1bcfe1fdff0245ecf407
c4a1e10c4a13ac0121c5d3080315b4ff
febff1b2d21702180005ceb4faff0bc2
c9caf0e6dd0408f92fff08c38cd715de
17e7cde8c847d61c09dcef2121e7dec3
ef0e22ee202f4bc3e2c6f5371017d30b
07303a15250f0eba6f0f422e1e55ecf6
1350f91d3115cbf2f2f3f7330501dd10
cebbe7f8ec07bb03e1dbf6d6f6c2f8c8
a81418f909a2db07e0e2e600ceeefbc9
1116f218001230fe1cfe090ae5120b36
f3e400e0c9f9effeb9f1f70f1ac00ae7
c48ed2e8dad6d5d5f8e591161f2100ff
3a3b1501e90ac302e2f01b0ef9ebf1e1
e100c5c60edc3b21c9f3c3c306c204fc
0df2e1c326e8d9e6fb162ad60bc5d80d
ff297919def2cae8e72d18e004d7fb03
e8fdf1f928cee215edfafc9d0b95cbdb
0efcc4b1cad5141dfe0affe6e4f7d115
30dcc6d4e31cf9022802d7e70518e7f9
d50df9d9b3b123c0fcd9a9b714deee00
15f8e7bae709d7ae03d8d3dbe115e7cd
b9d30efecf44d111f0eeb9bb4fc1d40d
f8fb04cd0e0219fee3d412eaf0fef2ec
e602f9d1a3cd2bfeccabdca827cbfae6
edfcb6bcfcdf15160de348fc09cdf1d7
3553e9eb2e16034de706172dca470fed
e0e822f6b0d81be9f2ebcaf422f42514
e8eee6f0d6ad1fd6e512f8071ae7f405
dcedfdcae1e620060ef2f8e3f2fec71e
f1d8b1d9d1f81a02ebd9b5c7ebce2524
d0fc01160121b5cee4dd1cce11f00ef9
154e33f5ecbbd29cf8dff2f7e611f4db
e5c7d6e1c73af1eff5f115c9fee8fdfe
baf503d0b7e4abfd1d0edb23d4260e1a
02e5fcef0be5f8c00c2fb441d119180d
0129eedfc3e1c4b91f34f1460934d50e
0421ebfbed1cf0cddbb84924dfe01acb
f731dcdbe7120361f00043f11ec42cfe
dbdd5d34fcfbd0ec20ba23e2e3ffcdd9
d1fdd1dbc2f0f0f0bdf2e4490b102ed0
dedbdb18dbf8ea1527f21024dd0ffef2
19f510e932140bd628c420fbf6fdfffe
f7fff4e6cde3e1ecc032f52ae5280dff
05cbdee5e1aef422ea09e1091ce1d90b
0b09f0ebfafa0eef020e2b07d3fb2c06
1bbe16ff11ea0ef40a0cbccae3d8e2c0
14041155f70bfee80bf30bf93617e830
cd0716e70c1b10c9fbc8002810fd2713
f4e208fad2f6dec80ad2cbc90cd112fd
a6e8e5acdddd2241d144da19f4c9f1ac
b307cdece6f82a46e21fd4aecdeb0cff
c700fabafcfae924b2f812c30eeadfd1
17ea1f230d0818eeccd920e43818cc25
cdcf530d2beafddcf696ddee2e13b10f
0c100f12083ddf12ff09fd1de0291f05
db96e6c8fac603eef320e5daeba3c0d2
0be1e90a03c703f6f32b15d2e011bbe4
4029feffe402fc1428e2112a4fe9e91d
fbf00fe30a230e04f614cfe205dee8e3
c6c43eec0d0206ec05182ca7d4edd2e4
09cd14be150005e00be70eeae80dfaf8
beebfc33fffbfcb708ec1bddc8e4fdc7
130c09d4f0e10de5cda6c3dbf808dee7
f5eddcf9e507aed406eaec1bfa19edfe
19d105e5cb1714fb0ee804f6f3c622d1
0cd90bf1373acaf421f7f52a10d4be2e
1f29e6cefae6f6fc0713faf6ffdcd000
bce0d5f5ef27e501efb5fdefdc04050a
eced0a8d11c7d9dffde818e307cc09d2
b1beb9111bfadcedb50d00f9f406ecc8
b90a0c15bd4eefbe1fe7c4f4070bfd42
dcea2432db2a0f23c1cf4b09bd12230a
162f242e0fef054df00f342438fc1720
260ef5c913e5d4d0fd0f0deedaef11fb
ed0413240d31e2e7164d070cfe6a4b3b
f52efd0211ff28f3eafadde414ed0ff8
f0e14df0c93381fffb08241bc04846f5
daedf60413e729e0351c4aef0ebdb5e1
d0c816d022d7f4ecd7e2cfe7f4a312bc
e3f3150fad17e018dd14d6eb04ca41e0
d81305f923cf0906462c13be130aeaee
e202ca02c4eacae11bf729ead8c84cff
e4f9cadc0fec21ddf8d5e00aec18123d
04e312dc2f3ed009fdc5049bd2ddb9e8
df07cbd7f9faf0eefef1e11405f51ffa
e10e3adfe8fcbc08fd09d0f4f7bce2eb
fcd6f33cfcff171a00c1e5b30ac5e612
08f41abe1613fc1e2b0112ebf50cf0d8
3b232135db36edfa100c4205e2715806
f4f5e7c522e1e1e818150b0ed31d3e13
22f73d060e04f13ef3ed11e311040b21
28cb02adf6031b0f3c15f7ede8f9c9e6
35c644a027452a7d9ca50afb2ade3537
d8e50ed4d2e9ddc9c5432531140bece5
f7e51be7f00bc2d8d8c7fa19fee72bee
03041431deba0ef3e3d7d9ebfe13ff1d
f6e2fbcf1ad2ea0bd72713fcaece430e
f3370013373f13dbf5050e0c49e612ec
d31b02d21f0806f34f040727d8012ae0
ffc6c5f013e9e3d8d1ffeee8dbeced03
fc0314e2fb10d1f9fb0ffee7c7170409
ffb22bccf2f000d9c5f4f319e723d1ab
01f6ba150ded1adaeff419a0f7c12257
1f08fe01b2e1d60cf419fb0816ed0bcc
215113f3fb16da4a6901ec1a0516f913
dcf3331901ffc2261d2405fc1ae815bc
21d9e72d0163f802f3f121e52c1810de
130bd8cdf4f2f8fcdc321d0d15f80ad4
2a21e34cd7efcf48f2d717ed26e1d8ed
0109bbd8f809f5f5f223a204f60ad9ee
bc08e0e8ecc1d00ce6f8c919d307e6e8
2d10340626dd220518c740f21ab9f513
ecfafaffe90319ddf8e3ebf2f4d712f7
e0efbf0bcae40a2437d5da27fef82c0a
d21be341cdb9e709f31a25c710efe3e5
b4f317d4dc0111f39bf92013f8e40fe4
c80be52804f3f8fcef17c9dbdb0705e0
cae02542e30304dd26d302ec14fcf322
242ff1e73d18de2ee7e90a20eec0d326
b6de08f81fe4f9ead8fbf4e6004a0016
180d20f7031df0251e0700fcfb332840
d118e9ef062021dd0313d7faeffabff7
131404ee640d11edeb1556ef2509bc1a
f912fb9cf7f1c6d0e22314f0374a0bf4
c6d3471c3a46eff692fd05f5312231e3
ddaec7f1330ba8141bd6e4d3d60315f7
bddaedf714d1bbfc12e8dbbcc6c4caf1
ed4cc02f1f42e5cc080115faf7eb2207
2ef9f8e6e229f20c04f926f40ccae3f6
1c262204c5561125ea4d27b6ceea6c62
0fedfdd9fa3205f1e40c06c3e837eae8
cbd40615110cd5fad793f00204d8dc14
f7fe28f8e7f6d70abeee08e5eb0ed3d1
cbea0a050321ccda10d9f3cf16ecce63
2f0bc9ffc86ccb21d7120f1319d6fa26
f80b22f336e7d6f52ddbf91bf4eadd04
252860ee05df41ea0906111e1527101e
f3b93103de041b0fe80eef1801eed5f3
0a13eb11280e16f7fcf218663efb1227
ebf02514f9f3ebe726aef2ed1915e5ec
ea38080be1ffd7f1b810363b3010a9f0
d3e3d413f2accf0bc73ee12a03e4e20e
f9bfe304cad8371cf7e1fbccf2c0a5d1
1c2030271820e8f3d3113e020042d4f9
02051ae0d5f9f709d5ede3caffc82809
0909e7270123151dc2447609f72c25ff
e811f7dd42d707e6f4f3f9f202ede819
cfb7fcedb5d51e2417f00f9d00f8e6cd
eee9e3c0ddffe00e06ede0f915f0f0e7
2b8c0ad3c40ccef5bd0f07d7fbb5d2d1
c22e3b34aa0f14fac9ebe3e4c52c462c
fdf1170f26fc1cfbffe7d5ebfaebf3ff
16ff3518702626401cd52633fb4505ed
ecf7d5cf0ff51cfbd6fc0bddc2d4b7e7
edfc2d06d41bfaa580f8e7ee17fcfe1a
f6e1f507dea8bcfc0ee2ebec0fe3e3e7
d8e529a7d415e80815dae4a742f1ba89
4617f6c60ef4c1352b09c9ebc2f2e6f9
edda05d1e54df8fa0c13defcf507020c
e82e3d1d16e2b8d8dd1b46bb28fab6dd
09f2deebfd0fe027041a03fe09f0e5ff
3206071bf3f6fdfc00230e0be92a0ffb
d0f3f6f2c815e014430abd0005191a0a
12d212ebecfed826f0e70fe3001ddefb
eeefe3fd07f9b3d0d3e30716e5160bf4
22c809fd160deeea35dde115fdf4dde4
fe11e40dd0eece0b0f2cec2811151f0f
1ce8def2f015072018fb1eef11f5d52b
e128383bfb0b0e0d2cd92c10d518fb35
4a01e707263707410be3e9d80be13d1b
fa131e041fd81fe6b6d6f7e31ef3dfd0
292ad80c11151916fd301bf8dbe41817
1b410b0ce9d0d6d9ffa52be4fc570aec
fef429ee1524372f10fce4d401bd16bb
e5ff080ce9d7f6dcf8f6dd11bde1fbd1
0c294d2a1502013ffbfeef3401fb1d0d
ecbeecfcfdd9def4ff2ef3f9f615fffa
03f5ca1b1be0dbea1405fa0d29240745
26be031c2a15ecf0b525c6eaeb0fe414
d7e00408f504fc1efedee3f2e6e234eb
dccdcef1f1b8e9e9ca04b7c8cd16e900
b3e5f91ce9e9f0efda0ad3e803f6e515
f9c627d33d3721220efbf9d415be28fd
e5e2100c050b1934e6bf092bf9fde802
2d7ffc1f04f1290232f14d5bed2e290e
cbca00ea07f3c20611fcd8eb195bc00f
cac93e282502f40bd7e2f0fb64151c48
e3d509fddce3ebec0628e2e9d6e21637
bcd31cf423dfeb01b1d40f297e3aef25
25dc12d1eceff7161be9de1ddb061ed0
11160172071bf9190c1c150c05271b3b
3a09ccfa14fed5160c25d32d1bff02f5
03f3010d1ef01c1013cdfc3ff4d0e90d
0aed3403ef2f05f219f5f4f1dfb7e9f1
1b141de817f90b1612e2ecd6ecf106cf
f60ddae7f50b0bf1b612b0dae4e2de1e
f50c1d14f4edc1d233f7cde8e1f2cc24
def1ee48c93be2e3071acb042034110b
e8f6f6382d090ae51c0d0700fe00c9f4
02ff0d15dd4bfffaff17e9da06274c1a
34dc01ebafc6dce60ae80adde6c5d7fd
2aecd7c6e4ee3925f6d31a1bfddaf9e6
0af0eaf70be12e1005d1ed03def408c4
a000139fe9e5203e02d8e9dcbfbe11d3
e4effad6f9cdf1e3c3ddf5ec0ae0fcdb
e310d6a32df33d33f30cfcdc42fd16fd
2eda3e061505e913eaf420f9300d030f
f1fdef2bdd262ba90bf0291dee2eff21
1039f9fde6d7360ef6f10f0a06f00b04
c6dec2e206f9e61aebd103c403eec3e7
f419dbe31de81b0a2306f317f6fdc930
37ec37f53806ff2ed5e6ffb416c2ebcb
ddf2212cfce7f4eada15e5080ee60afe
f7ee0d0ed1fae407edd509c3f7e708f1
bce5f516fe00d7bde515ff0904d8f90c
11f514f9a4060626dccbfde419e7eef3
a3d8d71f0ce1cab1ec11fcf501dcf1d8
07cfff12e6ffd0d3f60fdad5d9f0e2ff
f409eb0ffffeebe00d0124f8da230702
18fffdb7270d3c0ae719e5f5020828f9
e6ff0afd20eb1df5d001ebcbd9e60b13
22f507f2fee3f308e2022e04faf927bc
0f01e832030eec3a24c60c1c431df1d1
d715ff230d104d311bedf0f70817ef13
12fd09ff2706131f3315fe131d2d2922
f3ccf3190c15f9c736eff31df0d907d4
daf0e7e3d916f8de1df548f5e7e107f7
0ef14117c9cff802c3f2f201f3f52be2
0cff0fc9faf648e4f8e802ffdadef607
0c02f02002f2e00bd8e102d80105f6e1
edf81bf72120370b19d6fad0ea2afdf8
2af5cc2c0c01d9eafa042ae514f90ff8
cace38edc3faf8e0a730130412eee311
e0000bfd15f31ac72cf5aee8c9b7011f
e8f6f8d910d8f0ef0fee10f2b8ddf306
e3001dd5d434b12114e324fdd91c0abd
090c3502f0dfd2e3fbd5c8290c15ddb9
f30507e82edd19f0d20f19c232fcf0bb
18d41dd31ee2e8f7130110e53633f901
454ee4d103ece01fdcf1c811ff01ef21
213ed810dbff1cfc4a180d0d09ed1a0d
f5fb1caf24f005add2000b31f4d3fced
f80407ccdbb2eeb309380f2c0e2a06b2
ebbc2ccce7e12df90bf701d218e9a625
0df5f80df1e7dd0a05e3f4e90cdfd820
e1dc39da3aee2405000f182c02dfecf7
101bebe8f20c17261cf3ed19ecf3d6fa
081210073ddfeae9d83b480411ddd92a
b8fbd8221302f7d1bc27e4fff1dfefff
0de6e4dc310e0eddedc6fc19d3adf7f0
3315ccf4d2f42c11f81bfd0ff11422ec
cae3fc1ac1edf7ffdff7fadeef285cea
04c7e6d2f4f3e51a2712f1e1ebf4cc18
d4dee8203ad32111210afb0af5f3e5d2
00181616e6df46d1e840126a3504f334
22fc0af6fcec43ebea03f5cff70a1024
211bf50705331ed713390d00df100517
28f3f2e5c7ebeb21d928da0919e0f8f4
ffc915f819f8230a63220af6c93104aa
ccc2cb09070feeddf6d4ea4dd5d7e320
1ebcad0ce6fdeee6d2f113dbe6d40cfd
f237f329fe0cf6f0b8ddd3471304fc1f
f30ee4fcbf07f8f3d307f5f6ec0df31e
0dfaee06121eff06d7dfeb7f4bfae51a
efed96ead5ffc8b9afa7abe3e2dce7c3
fdca9cf7dc09f4d8a338b3a8b9df12ed
0b0517b911fed71f0b3417daca1632ea
e7fde9f535011bf024dedff7f50ae9c9
c3e00e0204cbd9eee6d3e2e40bf12b46
f6edfde500d7f8fe33e2f4d2e3b6c9e1
fb1234f6f213efdbf404253fea120acd
f832e7f2104bebf72fe4db0de3251fe2
1442112d1af9050de9f22af5e049390d
f0d1c1fe1e120ff8fc12f3d51ff70c29
cdeae80adef51d5226e4ea02eedfc511
34daf9f3f2a603fde760ffd7d7de0f07
03201211ecedf1f0192715ef0214b7cf
f9d30f39b5e80eecf32613051ce50a08
2f12f5f815f8f9c9e8011b4bdf190d00
f3f43ce5fce908e6de05ddf022051d11
faeec4e5d6c4dfcbfb0cd1bf03e3f41d
fc21260dd7f106f9be0bd8dd2d25e049
f230dbf4fd15f00d0aedff0efa083ff4
21ef06aa1e00f23013cedbdcdc08b5c6
090ed2f0faacf6e104c91426051bdbc5
eff2bf063e0d282e0efee3f9d2fd1d1f
2be600e604cf0ff3e52a18ef19e6eee7
e13a09c9ebf000112419e1fce6190a21
fd00400a263c063403311913fff0e802
25f6f9ffdcf5dfdf1303d6083d2aeb9d
da15c4cad03d225146ff020ffec31c3a
3cfe243edddf31f5fd0cddd80bdbfdde
06e22a17f8ced1d8f1ecde2912c7f1df
1af50fec0bf205dcd3e4fefb1f0509f9
1df917dff5fae0e30c40030522dafdf7
f3fdfa21f0c7f2e4f7eee2d52ae6c9fb
e08fc914fba1f2f1dedcaf0a1601fac3
0dd6dc03e2e0f0f104fc8beee3eb2dcd
e4fffbf8bf0de119420c13fdde2613fa
fbd0f7ea124df6f753c30ed91a2a1c1f
f4c3fb2f3029e8f20df0de1e041dfbcf
aec0162c0df3de00fff701f614d7c001
f62b47e9f6160bcc08ff190d17e0f615
120ece1cffe2dbf4ef290916ea011cfa
0efff1eddeccfbd71b0f040ee628081b
05ba0ab60f0cff0519fae4f5e3e618e7
dde2e312eac912040e07d1a6f2d91cfe
e0ea21d0113123ea0ff9041f21e1fdec
1039edfc03fd01370427f61acefaf30e
e90228f75314dffb2bc9100a37c70b14
0c2903d1f00f4328ec0d1afb0a182405
01eb46042012ec00edec21e51d1808f1
df00ecd9d71911e9d1fe05bb15b2e2e4
0795ded622db22091806cdcd071401ec
112cd00ae6e9f40ce612f836bbfd58d4
08ec0d2407ef2325d3b9d1f6eff71012
17220af3e913ef1a1f04e4f7f5f3ed2b
12100bd2ceac0df301e1e3e3afc8ea0e
f8eaf7fc34001431d9fff4eff81256d7
261bf018efe9f90500f13a0ff1e4d6f1
e6d50ce2060fffeef9fae9cdd104f9e5
d5e5f9de1628e6ece94525b4db0f1b16
232142d1ec0de7dd31f01d0eede209b1
1230471017e839070e11d7180ce51c10
063a41060cebfb0110280ec31fca1d16
1210d3e8251b13ee0f0510092711160a
03fa1df83105dee6b3fecee6c50d00f8
f9d1e5eb0cd51becfefa1016f1e4be48
e2ecf90f181a15def112eafc01fa17e5
f806df0b1a2d12d411f010d1fcf03102
f9d5eb110bdff208ef1e0f022500a839
c7c2e1e0ef102711cecfead602c2f01c
fb190a26220638adb649aed7f00e230c
ec09fcebeaff010bff1f09ef07da04d2
221af7fafb1913f706fa53ca15f9c407
0cef0c14e9ecdd08fd0b0a11df0b1412
daecfddc4c2107060ef8e3c50db7f9a7
0cda14b5fe17d4fa08f314f715181ad9
d91de1e02ee311112bff0e292dd7a8dc
174aff02220b302cf1fac72d04277919
15e4e2e304f4c2e3eef10bc6f8f0cc07
f5092cfeefee0f100c16001cff0a330b
f2ed16ea23c54d282916d8011a231ad8
c3240f1305e2d6d20d0c0df8fbec4ff5
d5ebf2010a00083705f804ca23ec1509
e1d7faf52c04300d5cf0dff534cf23ea
c1f11af0f605eece1103c332b1e4050d
d700eaee50f525e9fde804c0e1d6dcd3
f014c9fb05e018131cf20208f9b2bdd3
f5d332ced1dce6efe6e10b0deaed09fe
2a2c01fa162803dc17dffe220407fbd1
cef52a00e60012fbf404f5f3f1d6080d
e6def603f6e9dbd5b9092fddfed905c8
fe0f0c29dbe7df18e91128e61cf00d04
1fb2ddcebe07f4ecb605d23ed1eef9e0
66463aec1036fa1c58f736142745fa04
f30d11111e18e506dccf0b19fdd512e3
54f3042410ed1ad7cb050f022406edc7
1bedeef4dde9fed3e81517392335f8cf
0d111ff7feea1b34ee071a121905db05
d5122508d1c20d03cf1cfe08db0ee0cb
f0f4f81d0e1732ecce19ffed27040710
05e32e48191100e807d6b1081e0be2f1
11f411f6dac8fda1ef26f6d0ffeaf9e5
4fb445f7e230c7d3bc28f01f1cd429e2
ebf70aeb0c1c02f6eb0beac8ebf6fce3
f8d929ef1106efd8d804f4f0052338f3
0a18e807fe0020f2ff0221f303f00719
cc1506f5ece3f706fbfbfce2f0ec0ae6
2fef00ef2ced0adbf3f52ff1fcf2f6f5
07f8dacfedf1bbddbf0320e2f3f1bfc7
ffbfda2a0d3ed24b311fd217f21d24f2
e3e924dde2eef119d130f525dc21f5f2
eefffc190c020d0b18ea24da0d1af212
d2eee1feffcaf4ed090811f720e31ee0
e503ba22d010e82c4510cf09cf16ec0b
05f0e0ebf717ffdb0af333e41ae9edb2
0c2617da3009d6eb000304ea22f806f2
18d7e50cfcf7ff5f2ee1cbbad700e740
fcec08dbffe60b2c099aeafaf02708f8
18c2f2e6f911d8ddd4e20ee7ef06c0d5
eb04ddd0eadaf3f0f0a30619dad9efe2
02e423ef13e1fde119ce1e2cfa52cfdd
0b12d0f4f6200917db27e1e6e4f011e1
e2c8d8150006d50305aff9e417ea1508
cd132f19e2ee20dadaee04183bd51cfa
e6c5ed081222e3193efecdf3fd020ad4
0e792f2e04cbd9094f13fcf713294dfd
16fd12fb0f25eeed35ef00ee0af721e1
a7d4fb373927ec0119f7d44124f51535
d908de3e1fd1f90a3cd21b3cc644f301
f9340f14b43a3503012923cae5dc1132
d1e9e1efe9faf0efde2c16e2d10515ee
bdeff0000108ddfd10f9dbe1031a20ed
d809ce2aeceb1303f0dbbf13fff31129
c9deee060817b60ae5edbfecd9bf123c
bbe2ea4b1618c21503baf5d4dd1130e3
1bd7faf4aceff9ff25d8ece5edb599d8
efeb04f62001121c2104000802f402ee
1f2c28eff3210ee9e6f01d241c1b212e
f5d8f2f2b3b8e0f9d7f6d1f7beb6b6e7
010a25f3def5e90804191fcc26d5cda9
c7f8e8e7d9e410fc1cbfe01afbeacfee
1c141ded4b7dce1b1d0c14030812c9f2
f5d0e213cf021c1033f407f412e11aeb
fddd0eebf2e6eb07bf26210517130f07
0c1cd0e8341625ede500fa3407e697fa
15f8ff042507e5e7d61508230fed0be3
10d7fa130eec17e8e8071cf3d2d50214
ed083be9f8d318f9ee072512e603fb30
4e31ed25ecfe15dec71f7b47c90f03f1
15c6d12501c50a02d1093409e2f10e01
d8e7d008d8d005cee9283df828ded905
fbdee0eadf0c03f6e7fafad5e819feed
f5c601f7f9f4eb26280b0ee3f3404947
fc1312dcd9f1132006ebdf1d15f4dd16
e0cf03f4f41734fcf6f9d4e9f201e2d6
1a2223ddfd0ecce0d0eb0aef04ef1dc9
fddac8e2dcea10161bdea42b2df1e624
1a35354813241c1b40421457d31c4a3e
0c2608c4dd0dedcefafd12f72b171101
08f3112837d228f0081ff5cb2de9d600
0dea09e539371d35f410cb04ecf5f538
0430e90d13fe21c4e6f2041ae3e235d9
08d209e4f1fceed223e3dce706050a23
040eecf300f618f7a8f5e6261dfb15f8
39b36d4c11fdc2dffe0d02f6d504d1cc
3de1d819180325152c0af9f712dde6f2
09b7f4e4eb2d2801053ef5230b1a09fc
f902d5e91cf9e60c13120400ff0dfdfc
070f2ff82cddf0f307dbecf912f50f0c
b008fbdb16e81607fd03021ffafa0ade
e40f09f3dffef9da1ef1d8ee11e2dd08
fd0b1ee50debdcfde5ddf217f31dde18
d2d3fbeee9ce0324220a08eaccb514fb
1f1f0d6adb1f0cab41f91b5b2fe42313
e4e6f80b0e051b0a2308d1e1e107d9f6
19ed374dc50c10eed8460e032b0be323
07f91a38facb25e51d1e22f004e90428
131eed14d4c4fade24dc082f1335fa33
dfdb17200799f1ebc3e91fd7e216fc0a
cb04e8f41ee0f2ed11d3f1db12d503fd
ea43d0f7c25c10100b3625360d080ee6
0bedf4f4101823c5fc0e021028ee0bf5
c9a2d2083612054a113f0cb503e3ded1
2c321f31edb9fffafcecc0ff481e362b
02e9f1fee434df022611b3bce5141a0d
bbc938cce0f2f0dbdd06d1d6040b130d
0403df00bee7d4cacdf6f514b007eafd
f8f4f6b4deeb18f8efd8c9bed7fbe200
e0e3e8fe0ddbeee221d1f020ef200af4
a2fa29f6ebcbfee6d900fce00d59f71d
d53c1b001139fdf402502dc00d715e3a
52dbbcede2e8d4bf2e15c915fbf5dae2
19e5eedc1e07c71402fb5bfdc7d2d8f9
edf4111ab9f2efdaf228f615cc393c08
14dbdc42f4f7ffe600180920f64a285b
1b04c4fc210f0bc8f305e646cadcd411
ee0ae920254603f7f60d00e9c0410f52
ee0ff02fdce91a1008ea22ca29301811
e2290b22150c26030cfe1be51a000a0c
3053bd2a38bf201222f3c7211fbce2c4
f1c50adc0928164202f5eca1e4b9fce5
1d5a0cfe2811dffebf06f9091e0b3fe3
fce6f0b41fea0627d2f713a7f0c613db
f7dee9b90f0908f3fae0f4e3e3e305d0
13dffc03160c00fa14cc34d9f6e3de0e
03dce1f418031d14ebf9e7de10b0dfb7
489738e8fb05377f15d721db570b0e10
f2dde91afcb901fdc517c321fffbfd28
e4e2f4c6fcfc2e0108e635e4eb172eb5
ec9a1321e320171118ad2ebd2af20df4
d1ef50f8dd07c52be30bc1f6e70e40ed
fa240beef8fef8faf7121c3800af0605
eba143dad2feee46eacff6db08ec00ea
21f611f6fc18fd49eaef29f701462cfe
20f6fe222b0c0a2f2c20ecff0926f5f2
181009c0dcf9e5a73e171cfd442f22db
27e613fa02f3e0d8e72b09ebf7d0e3fc
2f4018fadcedf8054cc1f6f2193a1d08
08ed2402c9c5d9e8e4ecc5ccd7b2e7de
0bee0af8a8d1ded5e3fd110e00fa08d3
d6f7ecea27e90f2caa21e7f0e0d2c002
25c20318e9cff4dbbbe7db10fadadbaf
ef1bc974013ee7f1f03322fc10c019d6
19b402d0fdfd271815dfe33420f50f31
151623e5ece0d55eb3edf01aedfa14f5
fdd2e126640d4411e71995d416bff81a
39012e1c04db0f050af91f13e23be318
12db2af2fddcf910fae0fcb44a29f1b5
050d227ff4020705f506f7eb36d6fff2
fe1302320aca011af722cde81bfcfa09
19f3efe00e0d08f0f01612fffb1a130a
23f0060a11bfb7284907fdd65324032d
0b2334e301e5e2e5d708fcee201ff3e8
09dc4226c319f35f13f931e40d0f1f36
c5fa20f519df050efceee4cbe7e3f6fe
e7eb0516d70e1226fb080480fa13ebdb
0b0f0c080c342e01e5e6e41401e2ee1f
e5d010d01af6f7fb2a2104c61b14ed24
bafc29f058d9d2efb141610544edab05
fd5c2e0bb508f700d6b015e8e8e80c09
fa36131d10141ed7f3fbf1eb29f44c01
301e29017900edacafec45161fc4dae4
17f9f31c43fd07283bbd01e3e0f5e01e
e6fce3d1e20bfb3e3fecd60cedfac9f5
e6eae9f5513704fdecfd321442e9cc13
060cf22920172c0a12ec14073cc1f8fc
1e39210514191914f33617fe3a06dbe6
cfe6d14b6d01cff43fd5ae1de1e54022
d0ecd40d1502eecaf2f01e2f2c17f120
e00c143911eddccffac0fed50505fd02
c9ba04e3fedffcd8fdefc1f20df514ec
d9d4d70dfe11daca0608e4eae40e1dfb
140805fe2333f01df0f6f8effcd9e702
fef0fb2742eae1c4eab3e3152e0403ca
ff2a210d02d3edfc1bb81e5364dbc026
08dbb6f8203c05e519fbefebe6daf5b1
f40f1af709e503f2dec5fb040dd0c4ef
091010101144ec11c81813291c04dc09
04f9f9ff012308ded92d07290700013c
df49db1217e9071816e8ef0ffcf6081a
0dea1affe214dfe1b61c024126ccd51e
1e23201fcf171a0d1b1135f815f7f0fe
01d6eaf4030a20e2ff02dc1121f910e4
78fde0382b0cf4101b09032fea07190b
e0d70e03e2efc5c9e937dfe20caceff4
1b19f4105f1b2e3729f7da1dfe03ea03
07060211dde1cad91500dcbffaa7c1d3
20e1021ceec91fee1001d30402d4aed9
f1f80f39d509eacaef0e01cfe20c1ef0
03d10305dce704e4e0e5f0ee09d9f518
d6bb2cd8060befbbb4cefedd4abd0d25
035a1ee9ee04f3e9ced3edd3c301e513
e8d32fe5fdfb1c190ffad9e111d80416
aff22be4f209b7ea12efe5c4fbe70c04
3b1417f3ef01efcec44c092e102006d2
000c28f9f9e40b0cda33320af835010d
1bf61be2c611e30fac2505c20e07f1f5
0cd8021aea22fc33edd4e9100a1ff5f2
242b0e1d0d1d10f921f00cff2a1f3504
ebb533192f1e2e34011ccc230e1ff91c
fd3efdf5f213d0e7dae5131a06d4ccf5
cc003e460f4cfe2d41ee23f9faf40709
1fc7aeed0bf6df08f4bde8d2c223000b
2be9e5f7191102e11404ead601f6de07
fa15240dcbeed9e2c7e6f5ddfb0bf3ed
fcd3ed0eed0a0a11cecde202f4fdcfdf
e5e71a0402b30516e1c6f2d900eec3e5
0011ee2d113dcd1fe108e8efd010dbeb
f1f3e0e708c1f7ddb6d55af51ce510eb
d4231617e0f0e7b9f701e50007f5440a
42fc1554202c07fe0a1b03d2f9ec2bde
28f7002d1b0029e9d2160c060be503f5
32d53f0305cdf1c6d4d80ae80feafda3
f610030807170ed7160815df08fb161b
0607dddd1cfd1ff2d917041b0eb9df08
21371439eb31481a492c050a33c0e116
d1dc3bd82f1035f9f80df2e825cfe5c5
4b31e77f0e54ea012631011ef1052412
23f7d016e11819feee08e8fb04d7d7e1
1416faeedafcda0efaf9de0d040c10e7
e4e60deafc2008f9b406fa3806202bf9
02f53cf10322171bfff3fab738cafa03
cca535ea502016d8bce2d3c86110b74b
f9fcfb2328feeb3ac71cf5edeceb1424
e7df0d34fdf830c4ebe9f4ecec2ad7db
cfaafdd9180a1ae8ccea34b9700ce5dd
f7e60114f1ec07010bf4101d2a141efb
e6f9f513ddfdfee10ee3faf838f2ef0f
150549d20df007c6d90515253d19ec3c
112624dafe10e8da2acd370f152f2110
f5fe142428181fdd132850fb44e1eef8
23f6f5fc07130ceafff127eaf3fbd9f3
0410efafd627fbe5c8d60fd5bbfb07f5
e8f8ec09f7f72d00d50de8101e123130
ee0c0ce3fec98063ee123bf3072df4f7
283728cf06060ff21207e1fecb232dcd
32f6f112e6e9c7fe1e0bf72afb1cf421
e0273634f1c6050bd9e9f23d33d3e5f7
1615d8fa354cf6ddd1d033e6df3d50fc
50d3e11af8ef2ec94a0d2a40211df971
3035031a16f7eb2e3df52cff0b1a4a03
27e306f404ec0cb01afff8cde0ca1200
f9e5e4e71ad26d0c12d6e21ed7bccc02
edfdf411e131e0e3f83532cbef19122f
f8fb0ce9b1f6ead002e818f7e0f5c2e7
031716ce0ecee2d8e6ee17f4e2fcdae6
30f3e2be25d613d9c2f6b922bde3df0d
e6bc0af8b8e0d6dcfbf5cc03dcf7f6ec
0c0aeee451d83026fb440c0c2aeddec2
dce4fb244bf02d2210dafdc92ff306fb
31eae88a1948fbfef7de35ecf44e30f8
e04404ef611f4e1a37f2eac9440b1460
001533ede813cf08ecf3091cfa18280b
18fc0525a10cb889f1f860ce0b242326
e4e827e5f1de1043eabcf5ee0d170d09
b2c2132d2fe3fceef007c9f0f2fe2011
2f0ce9232835f002dd02d1d704604140
e4f1cae608b31c0e4d0fcc0a05c6f91b
ea3feef5f1bb04ed4d2bb8f4cc1e3b2b
03c53dd8eb22f83a00c927bff0ebf8f0
04d2fbca00e4feaf05f7ced4e0062f1b
cddbc9cee3ca0ce41ffaf1120ce4f7e8
03081de90a18f0eed0f50455001414e0
c2eff4fffe050f0ff71ad8f5f7ea0b29
33d859ecbce8bceac22616e6e3161cb5
1d1af5fd0a220fc9f60ee315ed070610
fd4bfd28bc2cf437fef1cefab920d101
2625f6eaf8efef010024e42813d2f2c8
2ef7314df7ebec0d22dbebde2f27e7d1
e25df8021ceff0221bf3f2ec2fbf0ee9
de0a0112d31de3fee3e429dc0bef3d09
09ca1e3a1c1e4ee7c6f936ec0f25fd60
160fec0e032cf90c1e2104e8ffd54441
f5ca05de080c1fd3e70bf60fec5cf9d3
0dfd2bcf2cd712fdfef5ea07e61fea0e
f4e4e133eaeffe15c91e0ae7fbc9eef9
cffc23a7d8f4df17bad7f1fdceb80221
d0eb25b8182f05dcf200f4fa0203e3d4
06b91c11c717d71903c21c0ff9fd3d04
1a1b9ade05fc120d0cf8f216b6f2ecef
c1d40d25f20612fffd0d08a410f7f521
0ceee11525f7ed0021081e2e210b0d1c
f8fb202d2a123316d5072902fd270824
e70709f201d10706d33d0eac25fa14d1
08d9f82d040d19201ff5dde9f7f01d3e
07c3d0ccaf40ea131607d025e11afa2c
fafafcf4663d23e1d7c82304ffee00dd
3c23eae91afec632e1ce1d060dc7c8fb
3c41fde34f1709161a4f411f06ff3e3b
4d18f3c1e2e0efc7f2d6e1e905fbe9db
4c0ba01cd8ed092a59cdf20cd72e0512
eb1619dd56f5eaf7cb5138fd4bc8e3f8
faf6171de7ec30fab000f0bdc0e7ecfc
80f9ea10d2daf5c0cafbd5ebdd1903b6
4f252007401eceed01c90cf10858e11f
0a04aff8bf27d302c42821f2e5f80817
c0e9c71822d9f9c5fefca01a06bdc1ac
18bedefffe0c0efe1602f012023501de
20205529110255e8e8fa0d071931be07
3bf2ff1f4c0fee133fde010e0057d8d2
e63c0518f90615b8e50ce21122f4f12b
162c1807c1e15baada2541be1d34270c
170b57c5ddb627cce2e5310803c7f0f0
04fbe00808570827bb69171bd5d92f4a
522c2def40cc1ad8140d5414246f09f3
9eeaf303c9e3fc1d071be402eee02b0d
f9fcc91f1123f8fcef62e79ddb4402ef
e1d111fbfd0607dfe903d82754ebdf11
25faead108090bdae8fe37d0e9d2fee2
d1e2e3ece0ffe31504ed01d10af5ffcf
b2f8052d0acdc2cc41e0dc0731311cfe
1919e0d9d6ee0be5eb0a08fd100a1c2e
0fef11caf4eef9edf013c8e61ad8ca07
130d310db802ea070118dee63d13270b
edf301e8332df312f9ad0bba16161ba7
e8150af41c381f05fd26f9050ac9b8ff
270b15072eef0613d7fb0e11ea141dcc
04f605fb0c1f0f271ef945539e061be4
d2f2f6ddec04f704e511e1d91bf3eabd
106ff420dad40bf2ea10fa0d0d31322b
10f044201c5b180b271ce826650013f6
e6072921d3c6ea0a0302f626f7cf312d
343aeaf002080a1e141b130bc43207fe
bfe92e01ccf0efdfff17faae2dee2108
df05e9dba9cfe3eb03f1dc85d5caf4e2
f3f7d8c4e20efc1c0bf303c4e9d3ec2b
c52e200009c8003a222d0d39d3febac8
1d1315121defd6f1c10ec7000b331ef3
22f4deed0cfa04bfff00fa020a09d3bb
ea24e7ffefda0406d8fb080621f80e2c
b736283803fbfaf8ecd669dde7030ced
f041c1ebfe5136281de4f7220fb60d7a
fde94f291f03b6e8f9071bef00eef7eb
ff21cccbf00a0fe02a153bf214df3c18
e219f7cbf4eef12d10ea5e172bfb1a03
1533141719e5f424d939d01dd3dc19fa
f243fb0f1cd03902f10d3e0f53c21cf8
fdcaf3f90de932fac933c61915f8d40f
cfec040fe814e63f2b4ae7e7de10f33d
12d911f8bcd2bbfdf3f804ec1d28effb
dbf2f0f5cf10f1f310e40811f1e9efed
fddfbccf19f2dceffce2fb3ae0172209
ebbc1c0afc151f071e390027b5050311
0005b3d3ca01e0f9e20ff0e9ed01110c
f9e84514cfe9e70708f0e50222f915f7
e3c647082107361ffcdd03f40cf51206
1a0e913a04181ae4c5afdc1b021e0514
f4eb267b280c30ed2fe0f0ec0ed6e802
0526f90bf02ffbf5ea28fe300f2bed15
2120d5c9f00015e10cea3411103011c8
dbde08d51fc0ed22fef800e82a22fe14
effee4c70ff4fc0e0b04f5fa33f90a1f
300ce9fb46e433c437ea1b423425fe1a
c7c4f3e81c06e1f0f10714ca3afffad1
0347b2069cce051255e24c13e2ef3fdc
c8c732dd2c11dde1e6f2ffd71f170cff
cee9f3ea02f70022ceeec5e4db121fd5
aabee71012d1f61acd2400ca0cf7f5fd
dde800f10e07fcc7416be710de13f3ed
28051adae9da1afa08fdf04af9eb18e6
1afcdb29daf02c041225c600f22a0742
02dde10907e4f6ecf6fee2d6e1e3cd19
0fcbbae6c3dfe10a5102f21f0ff4e613
fe38e6250529d5f1c8e111f012511f27
57d800cb09f739f1e8c4d1f6dccebed6
08023dcff1e13d24f5f8fdf5ed1eeeef
721c0aecf00f061cec18eb01ef012bd6
fc1915c68b341fec040446cfe15d4cde
1afcdac22919052a083debfbc4e3daae
d4ed10f51ab85ff8bdc9d3eff09ca4e5
d1c5de33b304fb420bf80dd3513f5bf3
2413f62e2e2cf60d0b0b11cbe7e40c12
9bb1ceffebe624d88be1f809d1f1df38
e8e0e6400c2503232ef7f413332b6113
feccfe3de2e1f0c31ce001d018292862
0a06bdfc06cafa12f4fbf10306271734
0ed62b2fd10d09f933ebffe9fa0f12f9
fbce13fc06063514e6f2f6d20afadfdd
b40df1efdd110710f105d7fdf6332bf6
3c0dfaeffbf45f3b03d8031cf1da01b7
c1ece9f01084e4d40608e5faf7d0ccff
0610e30528f50fce06f3e23c2cf2dd0b
512401c91d2b0e34f027e645f52cd90f
25d836dceeeff73c05b53fd516f4dad5
e717cff7310ad0c5eb010df6ed060de9
b921c90afab2abc3331ab821a7d2ba15
3723e82cc811fcfefdc2ee9ae91432f0
dfca01f001c7e4e60e0cefd7eff9a3f5
034c13ca0bf01bf3220bee04f0073827
fec31525d3eae10618e7c6c0fbeaf7bf
42fb02109c35e0fcc9fa09bb1bef04eb
0c0202fa44e703e3f3edd4fdc3fdfd20
04151269ee05361106ebf0c4491bab12
2409f1f3eaccecdcb7ece13200e305b9
130ae41bdfe00d2cfbffd8e1d2320c48
14dc101b22f705debe0e2231050cddde
27bd24c20bae08c3eefc171511dce01a
243a25dfde2808331cb6d134eb07ef38
e2ebf82804f62a240d001a18f3d917e9
f90cbd2ad1e0e8f7ed0fbdb7fdb20c02
a025f7c6c932e20810020c42ed030f07
f2cb3dc820fa1ddc190bfbe216130bd7
ea2aed0413191717db0ff2db1c14ff16
e4e1eaccf412f5e0d9190d41dfe303d6
3ae250e4a4cedae92ff52cc0fd4ee4d8
25e5f3060c3078b6d824b2dad5f7e32b
18ed001be910dce105d695f41607ee3b
2414de0416e5dee4e7152d4e1b0112f9
0ddffa3129f4ee3a47b21afb17e6e749
e9d8fd24edb8e9e405c3f908f8ffc8fa
1c27d0ea1f2616dfcee5e710f2f2071e
e0ec090611e4e1dfec07572a40d8e6ca
f801e2b2e9080fc40b0e1117da13fadf
46eecef2a9dfb5e80cf90fd20b3047fa
e31b30efe0d9d6eaec201229f6f348df
0e0724214bf505e3e42a30b428fdb609
ccf50ff7dde508eb2aeef1c2f81a27c0
d9d8aa01add1e42b1ec7b112b90812dc
3fcd2f1f3af020ff1e1824e0e20136f3
be13e6caec19ffc8f5e3de011112c8d8
c3deff28120521424aebffaf05f8ff1a
f62efb2422bce809341ecb1b17a9e73b
02e2f9ec381e080351bae2e40dd0e33b
4d13fbe92a0bf04d282c27f1af2ddfbb
e6eed337cde421f2bb0bce170febec06
d7f9112334f0f6c306db082104da04f2
23fd0bf2070d2cf1ea16f0f7f2efd7b6
d6dedc0525a3e70447bbf229feb4fbf9
04c0ddf9bfe4e42dfb1ce8f5f9eb192e
f6d332fceb1a00e4512b18e1f63b2cfa
fb2f2cfd36d6fefc27f4f12127191dfe
13e81a15df16dde5f500c33b4925e1f4
eb291bddfbd0e0d839e0f4b9cddf08cb
d90de5eed1e8eaf7171ae0aaa4fd3a19
e315f146f019ddf5a40e1518da160f24
06c60109f304dde1e7e50cf4d8e3e4fc
f50db331eafaedf80fefbf03cfe8fdd1
270fb1291033ce55e6e3f50102f6db2f
19710135dc2ba5eb09c0221d0eea3f2e
da56dfece82acd3324d1bbe9ce07f723
fe29172209f1dde89af62c260c454009
11f7e416eaa7ec14e4152b050af6ecee
150b09060b11f11911e4daec23f916d4
fbf0fb0fe8b731e30bdc0212e5ddcb1d
081ce612eff7fff914191413f8f8f539
241018da07e8020752dec5f2dffbb2db
0f06f5fd141cea52210411ffedff0a42
f5bf0bb1f1ef0118c6f5eb000ac9e207
f411dffadde4230f2717f4eefaf0f43b
11fe9704efe9154c030a2f1ece2208e7
0911d81ec319f3dad02efb15e5022a1c
e1f216170dd4260e2328160418d1fc20
19031705243de7f4c60ffb20ff1ae8a4
38d0ef3d01f5e1c3830bf547242c3406
09db0947fa10f208221417de0017cfaf
e55cf1e4081ce47f1c22c101db161137
04325918d3010000ee5100dee300dffd
56c9f743ff03eaffd6ee15f6e42ff7da
d14cff25faeff0090d0d1125edda15f8
0bd707ff1dea0319d0f3f4cd13d5f509
fef0cfd9f80b0f272d50b2fa25f70825
e631f3cbc8112b241608030af71c5a51
f5b42ee9fb21f83f37502e0e1bf41e1f
e4ff0ffdb8d4da08fbe40d08f90ad901
0ab9f4e4ef19e70c2f0ff51438e004db
30c400080e252d0d3d37adfdea30ff28
e4ef1241e81be3d51703100812f1dbbc
f30be0e6ead9f9ebec22e52ae5e50fff
270613165d5108f1170233acfc0ffe21
ff13070effaceed7a201d3f4cbe3d3f5
4805381b10ff180deef438d7edf217d7
f5f7fed4f8eefe22d92e0be6e006ff03
2321f8121af609da0ff237112bf61802
f8cd0cf3e24327f50403efe13d26de1c
05d2d00218d636e6de0dfdece84714e2
f7ce44fd1b0d0905183211b82703192f
03f8f3c4d6e0dbc445e038de12cd001f
ef36e74abd191033ea120ffcf6bff7e7
0ef3212ed3e6fc13263c2115dff406ec
deea57061c050e0414e2110128321dd3
1a0cda00f7c91ce90a3e2d21d2240cae
000c8715dedcfb23453af9e2d4de2306
f4251d100e050ceafae1f92c1e542613
fdeaf6f745130c07ee14eddfedec1dd5
161ac852f215e3fa36f51ef71925f95a
0b39ff00071622f419c3051027082856
1858eac41726f038372727fbfa091006
c2e6111635e1180de823d1d9f4f80bcf
01f2c31623ff1ce4ace7e23e37f8e205
264f1fda4125fc10014e24b9df0611b2
050600eefaeec3eb15273028f11b0119
1d0b3fc2e7c0140dee0d2bfcfde510e6
06dbed0ce8f5c8f5f5f1dee8f6f4d3eb
f6001fd2d8da0fd7e9d5c1f2ade4b521
4f2604ce0500eb231554ee2931e5f9ff
1c1010ec222af205187a09cddcf6e9c1
f5cad91f2cd9f2060ce8ed081be8cedc
16e921d0d517de35ee09c1d3ce2222b5
df1a30fddd022a04fde4b0d2f2fd0b0f
e0103bdb06f62f28f2c915f8f206fdfb
0e21532f060a2cdde845398acbf026f9
a7e4f20e001cfce01e0d3ef829d90b15
ee2e3ec112e1b1b5f9d142c2d4eecab8
0a02d5f0fdfff5f11bf3f1e8ecfec809
e50ce026e2c6d30afe36e52dbd0b490d
0fd9120e080d091004d2081c4cf3ec27
f8e426eaeefbd40106de33edee182bf8
12defd06fd0ff7f7fbd12dd4031f17dc
1734c20019351fe00f2efe0c000a0701
ff25faf417f717d00508ceeaf0120cf0
020fee16f21ed6c1f43d27481022de10
f5cbe3dac6d9e51713e11b2cfc10120f
e3381b36f7030ef716681635dafee7c0
ed1f03c24ae12f45f6daebe70af727fa
1415ea1927f7f1e2f3cd13e12ff10efa
2a10f3f0f7e710f0f7f4bee8d512ea39
31d403350605fdfa00bd34e8f6b6d6eb
05efc7fdd2f8f435ebc804cf32dc06f7
c8e3d8dde522de2424fee0da0ff5ffde
cbc3f9c71b5d1f00e71cf65bf70a0de9
2df91bda0b0922123d0f23192d2cfe11
c337cce5c52a53f5fbea3a23dfde1d36
0813f80a03f7db38f5f1fd050bc0f220
b30a1013fbdcee14db1dfddba7d1e118
dcfb2c91f1c2f1181dcbf605d92905fd
1faa2f04a8f9eef8dba917ff06f3c7e2
0119dcdbed20222031a7ee240bf52b18
fcf0b11a0e3fff30e00efb1ee2db0ecc
31d8390eee0f301225f3f3074e00fdf9
e2d018ebac06c4f3d035ec1ac8d307a3
fd06e5f9f7eaf0dbe5eefcfee4c9dad7
ef0ef6ecffeb08071bf4ddb7cddcdb06
e3ddbce0192afdcbb01e0f0504e0edef
cdd812e81befd210e3d8cbd2e4f41010
cff80dcdb5ffe3f2d93eee14fe2916e8
e1e81bfc100de5e6c028eb071025e9e7
1ecfc936dd1813734fee0ad1cf201010
031a22f9f92037c5c01cefe6ef3e09a5
031bea09120612feee04ef0210fcf107
18f814f9f8111411e1040fe10df1dbf7
e3040f30d402edee100105e20ee32300
cf00e623cde6fd16f7f7e8c5ddf60c32
132600b8e51908fe1f0203eaec4bd7dc
e3ffe8f0f02103d3e9ced31902250a06
44eaf43416240b3678f9dc0ceefd0c1b
a500d30ffb0fdbdac20128d643f508a8
e0d048d2110d20cec90527dfe20012e7
e2b6df16e1d00d0efd1bcb140720f312
ec351f0be8eae8acd14a1d0cd93ab8d1
d12c121c0ef40dbc2210f6fd04c3e1d5
bdfce3f0cbd7e4c7de0d021ec6d1efe9
e2f1e4c91825e8292cc3fbf5dcf4ef10
d540c810d8e73ddc1b290dbcee03270c
ecbf1fbfece941b20df528adf11233a3
0bff2df0e7e646f3e024f80cf5facc02
0b1918d9fe3006eac4e513eeee22f7f7
08e7d2eb5600dfec1cf0de9cc3f7eaca
abebe70121eee9e808d7cff0fbfd0af7
1ef132f0a9e11f00f40b21cc0a22fb09
db0028ecb2e409f0ebfb3f09fd04c3fb
dbfe0a0fe824020919bab2e8d7e25118
eeecefd3fce8fb0102e318e50ee996ec
eefd1001fbecffc21cf0ebfc0fffcae7
05ed10c8ddfedc05283513dcf819f1df
18e3da0add2b123febeef10bfbe0ecee
b633eee403ffea0edcf516fa3094008e
123720d3d822a0f6f9fa2ff8d2daae1d
e2ee10dfd1f621d4133425f614d1362a
3833071e3630f208edc83e37df4123d4
c3f6100c0cf91634030bc6d301cdda02
0fe11edc1d05fd1d111214dd1b00faf6
f1eee6d5eaf0f30d23d7ae0539e41517
d618e6e93507e302e90af2e9e60bffd1
f9f9dd2af3ffd00e0c1f07f2cfebc1d1
f629f2fae116070c0cec08fe191313fa
dfdb0a05e9e409151bd812f100ea0e07
6121dc1a4f05fb020218430a051f31e6
d0f841a1e4f829e9dc35e99311f51612
d1dce9fadfeee3054ce8ccd6070000e3
e2fbe3e5082ce82708efdeffdee8e5f3
efeb0725c1e255e7ff070aff0020eb3a
f4e727d5ddeab3d012bf02e624e80304
fbe0d88308e51e1a0b0d26b605efffc8
ffe50de8d7bf0fc2e7fad92c2b206013
f7fc1c19402712e0fe0ffcf610f202d9
2c34bbd6bb24132a12192c484a09235e
fa2b11fdfae2e703f7fd0304f8e41def
c4eb1915b701dff31a12161909330d05
e104ea19fe38be1610dceb3be11806e0
09050e25291bf814cc09f902dd14ca18
22f0e3cf12d901d70340fbf122ec0f1e
0629e7f8f0010ce0eff6fb08ecec6012
37d8322f29f4fa11ff0b0b13fcfece03
09eac103d72cc21c14b9dd0c19dffce4
cafedaceed0ebe02ee010ae6e202fd4e
d8d9080fd00ee5422bf0061a0a031f2c
f50fb6b626ec2ca9e5e5091a16f32b04
d7fbe3dad0f703b3b6f500f834fb29bf
b313faca1a2708e813be0123e5ecf314
ce00dcc01bf6ff57a452dcd09fd2f6e6
3715e713f7090a3d122f2e1efe5d2107
e4e6091f08effd31e52ee909bfdfe0a6
d2fe07dbf4e302fbd9fadd0d1f29d910
f2e5ede4fcdcfefede0cfce90d29060c
2d05edfedce3dbf80717d7fee5d720fd
17ffdd22181005222e2de70e36e90b33
e5d926df0dbafff90e26f4e3f814ccdb
ceabeea21cc0f812fbc129caec1509b2
250fe726d42eef3a3d2b253a0202030b
cfb5192a1dde2f0edbf3eecf0a04f6ed
fef518ff31e8f7ded4aad1cd0cf2d510
fde8f50de9eff82de6b5f400c93b39f7
d2d3fbbcf5d6f60ef900dfb200e2f5a6
c7010bde20d4fcfec4d708dbfce2eecf
fc13c6d80cbe17de09d9dd16affe0eea
411bc102e2e65bee3bddf831e9ccd0e2
04ff00f2da221ee20114dc11eb154c1b
f1e630c04cfb35d3ed1f0ad6bed7e8c9
a01ad44718f9f10621182b084d67fb50
461af8ebe4d2e3d900ddfc2fb7e8fea8
e2ebf7e012eb0ef4d1b8c3caf203b418
f6f9ad070c0fc8eef7db28fa1c13f3ee
c3fb1b2cda21e6de044a05071e00110c
1a1d171f1c1900cff5febf1615f40f1a
ee0939141f0d25ef023d1901def822e5
2cc035e50af659c902f0efe9fb070a10
caeee90bec32dfd4fa0a39fbc5012be4
07e5330c12cffff80b0d0b192b300615
e3ef9d1213f7f202d1f3100e00facdf1
0ecdaddee6f1110de6eef0e9231d0b20
dfd502d7fff910b818feeb213fe8e938
cdc6e14716bef80703e7cfec07e9dd27
4733ff0531114243ed13f91117f9260c
f914ecef21e021cb29f8cf0401f215ff
1cec1dd10247360c3fedf6dc00e80ae8
b405ce08d6d408f02af9a7edf4e8ebfe
de23fefb1bebeea31c4be010b80717c8
eecf26c50ffb1b05c4b3dce318df10df
0dcc0ce2e3dbd55313eae8fd0ef3380a
f4fe082b0617381c09fa060bd3e4b8f4
39e419f9030f182b04cf19d51ae3cb0a
debd120ef0d1c70e17fdfbd612c3ebee
0c1ae7fc34f0fa3112ef07163eded5f3
2938e80af2d4f6d2fd17fb0fb0324b4a
f016ee11d607e6110a091922d3efe6f5
00f605031f08db10dec60303f0fbe2f1
010b12f7ebf70cf6ca460ae4d506dafb
e6ecff0f17fb52dfc606edf2f2efed11
11e5f74631e7f1e203f6edca39f6c1f8
eaf522b8df1fefef01050c52253405df
f9e51b39e3cb1d0b9d03db3bec15bf28
d1ce1ac51fdbf215e0002007cec2fcfb
37e741cbf9bc2ac519edffe2f95bc9e7
e1c51f2ea707bbf0c41305f618070dfb
d8fde73beb4e0505cdf2d3ece81ed6fa
10e113efe5eff9cafbe2e603ec1ae702
0f0328162d072fe9e608181d08fa04f5
04d308160af7e9b8e2ff230ffe111c00
27ed11fe0ed6dfedbc25d905fb13f8c4
0b4e05001d27291a4ff405fa2b18dc07
01eb2ff5150af30cff07ffff1d06edc2
e0ef3012c4ccddfe13efe2b0ffda05e5
19f32df3352905ed1aebdee81908e415
f61bec07e9f807e3c003ff2612abf014
dfdd45f529d5b20e23083932470aeb25
cb030acff000f7c61a0dfafdea510fd1
fef73efb3716dae3f304ebed03d3d3f8
f4170aefe422d1f9c80ddb15eef209aa
f0f5e12ffed50f2142b8b103e203f419
bbfbd0fc03fe2a0f9ddf1fdc0da9a0e5
f02ecfe6420d0bf6d00033f01a06b0e7
3e3bf6fd13000f290348f7e7f8a9cf19
23f020f733e700e2db3d0e32f3f700f5
47c80f0432d3d8e6350f0c321401a2de
9b04fa080410f1c20b20490629e39b05
1724fe05d8fcf71b4bf6fd240e121b32
e4f4090ef6ecfe142cadee07c901242b
08f5114d03e20e200ee624080f190c50
26edbf290005043737e2f7f5f21aea7e
0d21b3d6061fcce3ca0d0510d207ff1a
ecf2fe4e43e6e14bfbeaf74ff9140a13
dcdd10eff2e2f80b22f2d9b5ec02ec0b
e8da2cd7233313f8e6e2cf4238c9e1e6
00fafd240ef40242e5fffedde9edf0a5
dc0fe40a0ddbc5cf44cde80ed104070b
e523e137fb50f2eeebd6ce2837c8e303
e7f2d4e10b6d0b3ad9cffa763bdabfd9
1322e2ee081b1b2944cccd16ccd1e712
ec212afe00f5e2f8e6011d0c23f5efd8
cef01516caf1ddfadf10ff03d52f01fc
d3d0f31c430cd4390cdf2b0f27afeaf2
1f2842410de848ef291c47f7f63b111c
da3df529eae8fb33c9fb81fcdeed1763
0de0a1060b07f1cfc9d5cbee0cfcf2f2
e008f81ef91912f803fcd614dae74444
1511f30ce1e0dbfbcd270d17f5393153
f413150c20f0fb011aeefeedfe15f3e7
f629e9f51320fc031607f716cdf4e50c
07d023ffdfe2e0b803ee488f29c9f7db
f41cf5e9dbf1292cc2dfd4c6dbd20125
55ec013622f008da0d195748f50df607
e3d153cbf5a9d8dfcef3ebd043c3f9f5
fbd621e4d3eaf0a2e10ef0f813da003a
184f0c0e2cfa2af3dd48ec40e51126c1
ccfb05befef5101529d8d6b50fd21706
f51de6eae5d20b00db2c1a19ec221123
0dbbfcf6dcc5e2e4e0ee09beedcaa9fb
2a3ae129244afa0d3ef5f017ca281509
1529d92037ee2c07ea0e21171eef1be0
24f6202521d507dbcc01e72202f918c6
2ff4170d0fffdfcfec0b4c06dee6160b
f200f1e908c7f062e65ddb1d1acad310
140f122435ec0517e10d15d6f400e32d
1aeee3d6f92d51063e0ad7011b204155
210913060df7fec6dec31e0b16e9f1d7
0f0dddc80e05f5350bf5ca03e82d1c2c
e9e42129343cfa071229e4d9f5091f1a
27f4e400f9d4ced6fbc213f01213ac94
fe0a0700f1d2f10bcddfe8e217c711cc
06db431312eef20df2ed0ed1ffd0dede
d3e2e5edeeffea1516222c17363e3f2f
00eafaf5fecc05f0f905b5da2ff4e207
01bdf00e0bde07b0eefe05dd0ddcf0ee
fd42e11849410611501a2beeef26303c
e7e1191b0506f3defb4ff2cefb19caf7
14c929420ac9dfe41bf614ce15efcfe6
0fae4e3d3b14e6d53319f0dee10ff6da
c8f214e8f3d2fbdeef2b13ed0df7edfe
f60c074e081609e805d0dee653f7b842
e9fcfcf00af2e6234d0b04e5e4fcd4dc
c50b2ed0f91ad1f9adb1cc1742b61c0e
be96cbe7ead70ff50845bcedacf209ee
2c1ebb30ca55d1e62ce93217f106f3f8
f1fb4101e9ee1e04c428c504fefd27f2
d3cd26f914e50a06bad2ffd73dd8014f
f14b2d17fb36f937d00b373700c82008
b6c526fa0be0f90b0bf60ef018c70ef8
dddc06cc01faf913eee44deb100417fd
01c235021d2409cccffbb5f505f6e5e3
2a431c33df06121f29f61a27322c084a
180cc1f8a4f00b1c05e910050df70f0f
f524ec22204a09fec0ee1901fdfc14d7
20343135e142fc2518f1e14732d82430
0df3ed23ebcfbfeae723c9e0280ade10
ed0ee2e94e06f6fce1d80200e7fafaf9
14131dcd2fe56711ee09c6efc5e02193
ecee08151be543ecfb20cefa0c05bfe2
1df7132ff5fff6e00626fdf44d4c0a40
4e4512d6ccec28f6c2f2b11207f41dd3
e410071a0a12f10e9fdedff905fe09de
e3191bde21f023eceef5fbd10dd5dea3
aaf305fbcccc210d05d818aedd05ecf0
25fb112f49fdfae817c9080fdfd4de23
d3e104f90cfb0eede315edd1f91308f0
d41f0f2337d4fce4eaeaedeb0ae702e8
eb09ed49590f13dcfc10d10cfdfc0b03
fb05f020fa2fb7f6000a431bf83e2115
2e0decddefe32003dbd1fed4d6f2cfde
0b2affd22fe5001d1cda3ffc06ecf20d
2de0250cd1450cebdfed10e01ae798de
ee0901040b0cd7dc09ffe312f1d6e0b3
ece3fca21ae017c0ef3c350ff1fc0a13
aad3f503bacf07db140c0903d5a5c6e5
13243f31fe35e6e5d4110affe8b0f3cc
09d6dfd807de0af813f2d11fe5171615
f806d10325e3c2eb251dfddbcec3e7ed
f4ddd0f60fe2efc2280cdd04e7daf5f5
23b4029f1227fc12fef64a8010ebfefd
d61ae5ef42ff27302a52e1eebdd42920
e7d801070ce0eeb4f3ea03f0fc01fb01
1722f41e2b070f1047e9e021e5eddf06
e0e00233e7d0d319ebf2ebd3f4ebb09a
fee533c4f2effd21f3de181b0f002df6
ddfcd6d8dff41ef7e616cd17f0de05e0
b511f5f5ddf6fd12fb1cfb6d095c2e1c
03b9da15f75bf0d78720ced900f2f1f2
05f72d05ea19f9d6cee61339ff0ff3e6
bff6249eb917f3f403fbe2170adafbfb
cbecd8d9f03c21e4dce018070605df07
505df750103216dffddaf1fc52e6f1ea
b7f8d3db1c290dfcf8061d2d0df5f210
02d8f9cc1d00ecbc091914052d1a09cd
f6c306e5170fdffcd00d180ae7e7ffd6
c526ece6baddcaf0c834d7ccbbcbde09
26b80d3a040307edfdec21181cf209d0
b1fdf3c90820fcf7cce7050dccfb0c04
ef38e6d9f325ecb20021d120c71bf6dd
05f7d83400f90cf6d629040b2fdd05ee
1cef0e4b0cf9f21a1f0dfa1804e1dbf2
f6e409b8fbf626e8d1020311020a1802
cd12242a4c130931ffd4eb330b22d2d5
e80cdb052ac61d06f310e91e24e1b439
ec1005f1e22205f6f6002509090be32a
a7f5e0f2cc01ddf8daf903f2d83211cb
03dbb8d01cfe27d2f0f9dc0dde1fe7fb
ebfddac516f9af0c12d92317dafdc91d
1b37d931cce70ae1e127dbfe011cd4d7
2908efeafa0cded60f05e6f1fc19e6d9
e4efe421ddfff903da0edc2ee10801d4
bbdbe948d0fa27dcc8fbd31bfc13e3ec
cee1df15f915ecea220610df1ae9e60b
10df09f3fd00e8e7e80efe0dd01e08e4
f6f2ce1dfaec0515f01bfd082c120622
fff5feaffcfbc8e20c11380313f2ec16
e31f15f02f051cdfecf02d0528fd0011
c1cfc9f7e0d5082220f6f0fd15ebe30c
fcbaed20df315d18ed0df62af1315bd7
00fcad1e1d40bf13d3b7e534fad70f67
e0ef0dec0300ecee0fd311060ae9001c
14e519d8e8ebd50421140727fef62aaf
1aebe4b6defbe7fdf0ecf9bae7d8f70f
1e401c0dedcfee04e7fb164a0633232c
fec800da02fc1d0e390ff3c2e43108ce
adfb171ce5d31b011df1c3d712ee1101
f51408bdf6fce7080cfafacfac05e6d9
0cde1aebf70ec81444d9f8ddb8f1e81f
d606cfd521e7e60b3b0dca4fe3fed021
e6dbe6d513f0f0eb1e0bf8e7fde80ad2
f8e80d120811cb053dba0acdda1802e7
fae0e92abd1ee50eed0cd70d0cd5142d
f1f3f02103ee47dac51b032a20ece428
d7ea0c0cf509fef902ceebe9fde7f3f3
f03760fccdca4de53f56e8e6340cdee7
18dc0433f7b8c1dd2411f50aeb000bf6
f8ee0505cee70dfa140b2ae708cff8f4
f2b8c9dae10c0d421dedfd00f6adcaf3
ff17022fb1ecfd25d715ec21caf40f09
fef8261bd1d9c6fdc5203314f0143230
0035f9d8f100ffe3d40df51ff4000846
01f2d5d00dd412311b011729fcfbfaf1
d6d9cfe1e6d100013004140ffac3e415
04ba15fbf4dffa175107f5c6f104c901
21fdf8051b0c3403a60301fa23d9eede
e8e60413bde406e12a14d70df701e6d9
f5dbe90818f40b183a09eb12051a0a37
f611e349d1d02e9fd6465035e2d71a2b
ec0b0e01bff1f9feeff5f90befe707e5
14daee11f7c5eefefef313e81be6e703
d20ff0e5231a033332dcecb3010c09a8
ece6401c35dfbfe2cafcce0ee03507e3
e2fbf6070b1e1adef706fdeafc34070d
ebedf3e9cf4feec84430cbf8de324361
ece7dff3e2fa0cd4f33ec3fef429f818
1e330d26d9d5fb16e4360e03f8d7d8e4
e8130aadc4ce190fe01bed2ad10b3329
f7bdd6d7d9ef1df42e1ecffcf83004e2
da11dcf4eeed1fe4e10dc23109fc0a33
0ffc3ae22c39c1fb18c012f6f10e5237
19db2018fa241a5febf6e50925fcef05
0e31bce2eaf9ead9211dd7f4e2f6ff39
f0f80723f614f3002207ad33f339074c
5fc405e924ee19dbe448ece82e0fdcf6
26f21518fcbff3ffcfcf0b0f05de01f5
1704ed1615012002d6f6d3d9f711f5f0
b42c1cbadd1525be1fd90fdcda3807ef
0d221afae64928ecdc33f04c180c14cd
e20713f316dee806d9c4da1139e3f3f5
c7e3f59eed000f1926f6e2d8cedfeff8
ebfc00c015e3fa2ff4f920fceef220bd
241c05170202de11413cf3e1661f0253
d0e1bae411a51b140fefd4fce106fa07
d10dfaf4f2b7e4ec151f1df906d721d9
e8ebe0ec1cc5ff25fee311b4b2efeff8
16f5f1401416320dcecf0a13d50500ff
10d815d915fcedf41044ec1010e9d5f9
d8e106eee6e0f51b0f0a2613e7d5effb
1d3bee29000001074bd9da05fbf53c05
da04dbc51722f01816f725cae3ddf406
edbe3b14100ef6f9da0d03e23e3bd41c
f5f3d6fbe90c07f82818f42a09ed274d
0c0bf11b0abd24eebdc9112f0932b72e
445beae1e3ff153804090317d2171aa7
28061cf0e5d70e4eee0001e514d3e7d5
33212e05f7dbef0511260c11140f03f8
0305221926f50ee51223d0ea34ea10ed
47deb71af5053ee2e1b7d9fdedca32e0
d01222e9f2270fa6410beffaee0be2e9
f8edc300042410cb10ed072ac5fffc01
371c08e0e6fff4de19faf51af4020d1c
1af202e8dce5f304e3ee28e7bcec27e1
fefffb0fd5dbf9c8f0e3121702d6e223
14e4e208e219ca0cd5f51017f910231d
24f2fd02d6181dc908e996cae0dedc3e
3800d1fc26ea05f032fefc251d01f51d
18f6f9f10e1800011e15eaf135e002e5
ce0311c721ede4250b8ffb0ac1ddf0df
36000d810ba7cc3af2b92c1fa9d7cbd2
0a01e7d1ec1613d708e7140f273a3609
1e05e1f6e735ebe2d2fbf81c1004fdda
05c1f1e5e42115d4eca909f710170211
0a09e81a13f21af91410150418e9dd0f
d1bdfffa0db9fc1fcc16dadeede3da06
b90be3ebe99e562638f3eb0e03c6e901
48e110f90451041e14b9c3f018e7c3dc
d20d01e6f2f3340504f3dd09f8e00c03
1ec115cd361be902e91af1ed13f30df5
ee5ed8fe06bd111bee11dff7c9d00a11
11e043dfeee7f643e6ec06effc2a2003
26f8051ffed7dee944e2b8d3f4bbdbfd
b9c3ca4200cbd9371ff0e7eaec38c230
08fadde6fcf711fe171afcf2eaeef0fa
b900fe9b2e0dea180e09ff2efb064a0d
d5fae3bc0002f2edf7fabf51d42e2a0e
e1380cc5e619e40f25de212ce3ce37e9
fd24ebdcd10efe1942fde1ff06c4e914
c924ebf817200e24d3e8fb1aa3dbf824
0dd60505253d04fef1fce8f9ecc1efda
18bd37c7fee9f4e7191e2ee6001bee01
04e700fb171227d0b3ff4130ffda410e
03fae302cbec1ac0cdf54efe12ce2118
21e4f81ad2ecde02e6faf8f9c9121624
e6f4f5f4fae4ee0fdc0c17dde3f606de
46f529e2221bdfda20051cf7494104f7
28e305340ddb0100011400df0410eff0
e7cd03f20c201b80d1e1050f4effdcf5
ded0070d413e110cee0c1de300ec07fb
dff036050217fde8eff30316ecf1ea12
e7fe6b96d6d7c33df2f01100e9fcfae1
eaf7ebe0c7c3f4442dbef7ffd11f01db
ba1d1f01260a02ebba23d3d5f8fd1faf
01d916f7c700052cfcec03f4ed194c39
0afa03e4eaff33dad70f033a23f737de
fc28d2ccfcf1d4e51620024a09efeeba
e1f2f7f5f91af3e8cfe0ee0cf315ddd1
d432e2b8dad3c3e6e01118081200cfe5
bcef1bb3f0ef17e0c8fffed4d007dcf5
f510281bdb0deb0efcf3f7cf0bddfed7
c40412bf0cff0cd9d6140ff0ef16e6da
d1edf32af30dc82148dbcf1913f50511
d7f6132e1feafef4e2070bf308d0f906
0301ccd10298cfd4143407dde60bcd06
ff24c23521c9022f101a251c06c3b4f0
101dfff3f1f7cfe8e6340202f60324d8
c4f9fc1dce1af316d9e825f9181341df
cfe118fafbf32cd41b1806fc19212596
e8ee50bf0dde11d0d2ebf0bdf603f8d9
f71e36faf3d0e9d0f2cb08d7e81cea0e
37e00ddae8e0191d18e92aeedd30de03
00ebf4d4ec04082a211730e616fd18e4
fdecc6f012edfcee29fde11eeafb0e04
eae5ec1cf20a040719dd15f616fb07d1
f7a2b6fa1118f3d1f523aa2cfebef8e3
08fbcd180beb16c9e609eef004dbeaf8
dcd92c1c1c13e8edf1c0f1d911e6e91d
1d4acb372313d85a06f50efb0ad308fa
ed00fd0c2cf71309d901ff0019eee4f2
fae2c710b819d81200dcd812fa070cea
fed4e0e00d15150cfc000827f7df1b34
15f522dc290af017fcfb16fbeefd09a9
08defad10b0437d606eddedcaf1dfbd3
c8fd29f022a8071b200e02d5d62905aa
f6e309c7e4f2083635f0ba9ceec5b1ed
17d8e6fd292227577ffbde0913f1edf1
d020f0f6ddfd090335e5c5f0fee82415
f1e7e822ee0525d61df91ce1f9fe1c24
ee33cbe2efd8eed7c914f6f3eef3c81a
cb0b1109ced60f1dd006c8f0f8ac9710
dd1c2721e5dae1f0ed170ddccdfdfd11
d0e601eaebd308f0f607edbb0b05d9d5
e10cf4d2f6e00d551bfaf5ddd906d4c8
27d9ec191a15caf4eeebfd0f350005ec
040a1507f02df6fbcff707f5110ce9e9
fd4e0809dabfe9b9bfe1d92af4d8defe
10e6f715f5fd1bc1ca01fdf532171924
cc3239f0f70ac321eef6d6dee3d8132a
f309fce81e1de6f7212d09bdd21af9c3
dd06abc20a23375c0fd5ede807fbfbaf
ecfecaf3fd1ed7062020190c24142f05
c5ee1f40090fd0f857eb1e112e0d3b4b
f51ee4c3f321b333fff001fd1d0b2521
06d30f01f90810e804eef828fc273b03
1ef7c3fa0bf714210af7e306121eb51d
04eb9ad3f3f52d2f0912ac0c2ad5fa1c
07f2f30e0d113a14ea2ac8f60105f5c8
edf5d74ed10915f7d0bec7e4fdd20110
f0b8f3cee013f21004d516ef0107ff00
0c13022d1236250a0e03edb7e439f71c
fa121d23e605d01ad60d0f0211f2def1
fde4f1f035e32936e227cbfe0002c52e
21e10903ccd724f2f807d7e2febb11b5
dfe6eedaf027cd2f2f1bee2be9113515
f40202dde83602f13eb7f0dc112a0919
04d2e5d7bf39da001bed12e6c710d719
00da17100bf4fc05e7eeec17dff4d9cb
336210fe0c06f5f5dbe7f92bd61529de
dbdc1fe802dbfc1adc2cbc10ce0eeb0a
c8f8bff504f9033c21ebf7aa140d1dfa
09cbf4d8fafcca10242b04d2e5d20921
d49f1df50be83d01fa0904801292e400
aaed4caa000e083c042cd9bb27e411ec
d8c10912d7081a1b0a28c4f003f01921
ecd6370b23fa0bf40aedfdd7e1f4d7c5
2901f52c0328f6073e2cf7fb28e4d527
0ae21b03140ff913edfafd1c3413e714
01b722f4f5fe032cd9e3231141a812d5
d3d629b508e1dc03ec1ccf080bead203
e2d9cde907d0ef1810f8f2e2cb000707
f0d8cc20eab50322cbeee4dbe5f7f310
1eedbcd7dff20ce2ed19cc15d042ddd2
fa0733d4060c13f9edffecf8c3d9ece2
d0e2c71fd22e03d64e172af10e19f331
c82d18df09e5e50e270513f623d603c8
f40defcfd31befa805f6e5d8ab03e603
d5f9eb181f02da3ce2220cff1e272ce4
19e2db0b2dec28b3cbc2f6fadbf9d7d1
010128e003f6f00fff2e10e92c2ee3e9
0a23d3e3032810f61d0ae7c40bd0eacc
bafb06f807ffc51bef0c23f5f3040edd
afe4dff0fd36fed5eef51e11ea45fb3a
240ffc3addef03152e1de8df0efef022
f80a3326f203e61c211936ec09072508
e9d6e302cf3dcff20a0c3b0b1a23253e
a51517f502010c0f0224d8f90b311c09
beb6c916282808ddebc5e5acbd150304
18e201eebf11eaf504da04dfd3fedcdd
faafe2c5eed71a100e1b0bd9201ae3f5
13c602fce82d1328ebcaf2bd0d98cac4
0cefdd08090cc5c203ccef0106371f1c
db060899dfc1f60205cacbdd16f0eede
46af1d1c0a18d7f010d134d92a1308e6
d7e6f31cf5b062dc005cc30fcbdf12ba
100ee0080aed34141e171d292d2eea50
cebed40321b90d170914effce2f2f7cb
4cf533ac1244efe2dbfc19f903450b1f
fbeb0d0706cc35150613ddf8efddfefb
02eb1311d71af8e201f91f01fc02f4f9
5bca2019f13d0722ccbf21eaeb330e35
f9d754f22d1ae922dae3f3c922f1e79f
3cf1ffeceb2b0fd919c207f2fedbadbf
f5ee35ff2611f81de426f5bfe994c2a4
0ad8e60d100af9090bd211e7fa07c209
e9021deec11900d516c72922d1112bd8
ee06c90cece30debbc0e07e201d3001e
cd2bcfbc1f2bdf09ff03de01c90e020c
e4ffd210d5daeddacd28040aedcc0fef
0313da43cf2024e5e1f4e602f6e100f7
f2bbf0cdd3f8280123effb1d173bf4de
f00fe5e90d16ef3804011528f437031e
d9f8f2e208f213dcb3dc000cf6e212f8
0e4711322a13ba47fd20e007e20b09e7
c5261b0e1633deadc946db022c29140d
f72efeeedd1b181429eeccfdec08fffd
03feee4532fbec0df7e3e5c3d2c1eefc
36ebf051e6d9beecc11a02f3f6e3212f
ddfbb7fde310e2edf1fee60affbceef1
051a022ff4c3c006e2e83a0b7f0f00ac
01ffc6f803cfdfe4e31014f61dd30e0b
f4fe1c00e6e4bfde0df00590f40b03d8
cc000ae70ecddfdea7de1212e2c4f920
11160934f1f52315d61afcf4e63f3807
dfbd08ece803fd0ef110e9e30b1cd8f7
06ee14ce461b0fc70a1037fffc16df40
f4e4d11fb8ecf6f739c2e1c7f030e5f7
f7f404140b173f14e5eee30d36d02a0e
f106dafdbeea0ce5f7d2df1507f4c9e7
f9ef0c1b1dd73c4637fcceee0fe3443b
feeda40408d9ed110bf2f41c0607c02b
1108feb2ec0a2ae21f1be0f9fe06fff4
0b02230e45def9c695201bfe1df7111f
f203371552231b0fe8d7ffd143bcb9e8
bccbf91904f803efce281ae0f90a18fd
d4e225d140e4dbd805ec100b1df6c014
c52b0bd4f6f92aec8d1104fef0e5f107
d3ec0ae4f60af9c22bd6f6e6c60ddc10
0a11d81fd10ae7fcc9d64a2ce3a8f0f7
04e91ee1f5f10feef5f42dd001f9d4bf
caf2e0faf60eeadb13c1e5f629c40cfe
f5f509170bee13c1fcf01b3f1a25201e
d430bffb13050edd6d2dc2bfa3b817f9
00f0471503d02e4c16fa3bbee923b5ed
0936dfb9e0030403d61ce9bdb6e401cf
ee4115230e0c29a40bd622281703c50e
eae2c31b0f3bd719fdf42516eae02235
3fed06f1d81510e00ef9120523120a25
610428fa15c5241609fa2e072540f427
fe06f80f40fde0dbc7ed0d551dccd62d
d2f920e110dae2f4fae440fdeef0aef3
e2f2dd1b0e05bdd5eeadd94105c72637
29f102c82813100115dbfa0910169edb
db22fd12e7eafe341831fc0fdeb7b5e8
eab61ef4e2eec4d9cc090bd9220a0b01
eadfe1ea1a12021732ee1ddcfdfc31d9
e2dce3ebafbd1400fdfdefd3f0c99cfe
08e3e913d20de1d4dff806ef1514411e
0e48cbcb320b0c0a101a1a1da101e19c
ec0efcf8091de81741f2e005e3e0ee0f
dd20eb2bc7c601e52012e42dd2ffe80c
11d7c2cc2deaf40c0bce1ac909ff04b6
1b0c0915fadff4bfc646202423e6dbf5
1731ee3cf1f7e41605f0262fdc0d56ed
d8023817d80eea070219c81817f1412a
fef13dd6c0e1f2afdb1313f905fcf907
abcaf8e4f11c1efa17fdbce411d3080e
1abd1932b6b6ecc5ba07323031d8f7d3
c8daf91c9dd33721e4edf4be03e718e9
14f6d504ec00f7ebf326f5f71ff81d32
07310efcafe4b6cdbbf5cfdaf2220dcc
ee11eaf0f2e305e1e7d40eeae7f63407
33ced7f61714f8e8060309ebf30dd9e9
1702071beabdd6e6f007ffdd26f2fd00
fac0f3ec310f370c103bcedadae80629
f409150f06ecec0515bff1fc0eee314f
fbea21d6df0a1615d73bca26ecf5c4e0
00503736ebf0d90b07ae26c8d60d11ef
3cda021d58e12606d8ec96f1dcd8f205
1d19fadd1bdcedc31c1303f0eb0c0810
19dc1d13c2ead21cf5e541e1e60b212e
f123213124f2d6bae5aff91652cde9d2
dcf302f4d8e0d20a0488ece1de0b1612
54d72c10190814c4d803eea0f807b806
0927dcf5e2f1ff2403f5fe0c23eefd0f
d5c4f5ff1801e4f2f411f8ee0efadef2
e9ba18f8f216d609e1f0fb17f8ec09eb
e402ea0b12d91ffed6b7030ee8fd0616
f4eb0f092205f723f718e2f40cdbefe4
111515f31df60b11efdf18121437eaee
ee04f905e8bfd3e5f5474a00ee05ec0f
e6250d18f0e036e4bdb2eae9f7ffe91a
d6d2bcf5f8dae2de122829cbb5fcfcbe
06e406253c12d4d5c9c7041f2045033e
fb0af816cefa3305dec1c2d218c5c227
fc11f8dbdb1419154b1912fdd8f004fe
e6f8f2e61b14f2c3bccf0bdb0e1e11dc
f7fd050ff4202de2e109ed165cf9ec05
f5c6e41cc0f4f53e0eecc4aff1e41bff
eb133103ed100903310303e615e913e6
07fde4d7ef4af90dc8a5d70017ddc7c6
060b250dee08e6bcfafad9cbde2cfcf9
0a0ee51b051fced3f0ece8f51817fd09
ec0701fb0ae1252fb5e3d8d817f1ccf2
0bff01edcb02c713f2d90231bc10262c
05f1e4fbec03e523f60bfeffc2f906ee
f822df6629f8d3ed130ff5d9e52b5e2d
d2f00720a752ffd3fb32f3e6fd476406
ed180af7f21ae80e05fb37feded24114
d8dfd4fb2d0defe6e7f6dc471011cce2
0cf81f5a3b07541413f8e72c06f00e06
f0f4bf34fb10b7fcca110bd6dd043c19
f51f24fd020df12924162e0eeb180f19
eeb5f40518280e03d61f24d409151010
e31e0dc1efe0b61207e83c0ed7c50ae5
f21217f808021cbd10f497d0f0f9d2e6
351ff4ef0bf9f80616fd26002821120d
e118d5da03ef1246d3e1f635ede8201e
fac129030c2205260fdbf3d50bb8cab5
e14af02408350e16f749ef3449b7f8f8
32e10cba211403251208e933171d2132
f614fdd907e31e22e7fd02f8e3ee2200
52e115ead62ef7f017ebf0d6eab9eaed
1a070eae00e30631adcdf3c60daba5d0
07ee18dbe201f210211914ef1809fcd8
0855be1803dce6dd0027f435f4354403
fd0ccc52fbddf0e71c320e1816f7152c
39ed17edf1fbe20be9f0219cfbcbeab6
eaef0bedff21b7def1b726fedc1c44ce
2ce00e0513290ff4f5fc25ef213629e9
1609f7cdd136c0dd14fc63151f2a2ae4
b7f2b7120bb800dfed35ae07fec5a1d0
40e9fef8ec1f16162a0d310ef8191106
02d82ceffbee0cd50c17294f20150ce5
04d8dd12f1f5d2e5801206df09b40bdb
4ce94efed2dfec0145db2ddae9fe01fc
e2143404defe1b0711001f35041c0604
00f4000be6d4c6c40eff0f1910e209c3
1df8b023ed47f2ebd41ad7d23bc7faf6
16befc2ce6ba93e18ec7e6e707d210f7
0a24fb19ee259cdced3320f616fc02d8
29f42a1112eb23d242b8d224e53c014d
18de01004a01240712f43e24f71b131e
21d3f51b010abffaf4eedfc7fefbdfc1
cd450042e74005270e05d9f4f4eff219
f9ff1c20e3e8183adafdd8bb1203f7f8
c7531df6d326f7340b01cefded01bd04
12ef1bd5fc021abe1806f2f802ed0b19
eb1a0b34f034241c2721142c040b030d
eae10e120dffda17112dfde2fec8ef04
e4f024efeef7d3e4cbf2e2ee37cdc7f5
0df321facb41fe453bebfbcb15f62af8
eef2f30f1001f9fbf9510cf51119f2f8
e7e80b18fa0d0b07e81eefa9f818131d
ee2c46cb24eef2fbf22439fe31e9f712
e4f8f7f93600dbf429f448050bfed308
bc0de8fa57e3f79ccc2a2fe72507dce4
051206220f25f05d2ad6c5e7c5e917ed
54fbf5e7fdcbe8d124f3064bee1e40ce
c91ae6f53906e6eed13118cc17b4ea1f
0f270c16ff360401df211802cf24fa0d
f6f83c0d28221ad2e3e7180200f71321
fbfdec13f7e5142e10dceceece0cf20d
f4f6ba0ff2dfd318f7e8e612fcf4e5fa
140d2ee423ed31f2dd33fdf01714d41d
e8a8c4032dc0d102eaebc31df60df3e8
f50bec1f161fd515f2e801fb25ebd8ff
db17dc0b00d4f5d32cffd2d3f41c3bf8
02e0c4e32fc03ab03bb5be06fc06abb3
d7d0e40405bb1dcf1ccddbed191909ec
d8fb051f2111ecfbb6f4f55510eebe3a
ce01f02f2d09eeeacef1f43d4ec1f3d4
ec011f0fe1d7ff0007e8000823f0e7fd
04fcd6490ed354d3fb2dc3cacbce17ec
1bf8031affecf428352311191426542f
cf07052af1eadab3bbe400372894c70a
2e2238f9f0e11fdf22013b111c17c807
e1eb3024ee0102c1cbd9340c321af126
201a50d7c3e902e0cb1452d60a19a0fd
f7c0c10efa08c308fee514d4cbd61ded
f5f01a2804df33e82413f0fa463df6f4
fc1af1fe21c2f41aca1a352bd6eebbcf
dfe926c7a0cff7cafa2d07eafec3df2d
06dde4d95dfb0e1df1eb241dfc13c231
201325df17e0080bd7f9e7ffe313f1d7
dfef03efeb0f03ff0d0b0cd7e0e7b1e3
d80916e8c1e0dafd01fcfee718f1dd09
cbeb02f1db9ffbd4f3e4c8ed0ae2c402
ffd32f38f70ff300fff0ce082ddddc32
0a45def4171921ec29d837190112e99f
e7330a3e15e6dd2707242547ed1c161a
14c0fb2003f9d6be0c1918f206aff50c
0cbd0cdadc0e2eeb33dbf2d113fc25ee
f6ce18f6f3f5f128f80d2710021e0bf4
39d9e9d50616d64e4007ddf30f0037eb
1b05e02cfbe9f2fc2108daf209e1fc25
fb2efdd1f31101f41ffdef0125092ede
d8ee12010bd435f811dbdd1ce323e41c
0410e419ffcf0df7b2c9fc0b07f102c5
ba010cfce61226e73ef622ed2123fc10
03bbe127fdc803ffe7dc08fc08d0db03
04ee0b20282106101b0bfff3f607f52b
f315f5f7dfc802e5c8d114f9d9f904ef
09f4f012d50703f3fdcff4defdf300f0
f8f7d3e403020df308e71afa02b00b0d
0f2226020d21253226fcf2e0041ef6cb
18da131c10e914200d3df30c21f63d3b
f6010e0510c9d6f9dec2ecd82106f5d2
053de8f0e9f808f7fad605edea102227
3cfc0f00fad9eacbeff91ccd21db1900
bf24fbececfd06b9f1c601e913f34ae1
f7d9fc08ff100902f103ed1c132d1a18
043c0ef5efe10ef53df60a0c18aa3b03
29e34511cf2a044de217fcdf1ff3cbb9
d1d604f6202d15ecdbd8f0cbeeecd7e7
5f20c159e4f2e3f6282bfc2ef2120e08
e1cb150f080fecf5dbe4eceeeec6c2ff
f7f422ede30cf3f7f304f10eeff9e904
d4de0c29314504e0e42ae5daf801ef3d
de042bf701de07c5d0e80fe61ef5ece9
bdb80eb13397ebf11bc0f7caf51fc7e0
1b03e8f9e0ece8e724ff3412f3f6ff27
d3460f19d1f5c3232b2c0a0705f5f0f8
12bc04d631113ff0c7ea2aca14e2e5fc
05e5fdd9ecf81734f4a8c634f40ffcf1
f6d30e04f2340ca9eeb8ff1e1e00032a
05f4d7dffcd2ea2dc9dc0442fe5d14f7
3007ecf72700fc57e123c6dce0c320f1
f1e12402000d0cfae81614031024d51d
fbf0d1ec15cedb0e1af2e92520d1ccc8
4a4611fcf5ee200408efe828dbe70cc2
fef4fbc5c2f2dfd619cc1e25f7e606eb
07151ff41ffaebf9e60ce801081ff6fb
0d1c25f70c060fd72ccb01ff0126d9da
e913121222051306d31bf5d2ef20190f
1017f57206da422cd00512cd3420faf9
deeae2e92bd21022b6fda0dcf6e2f4f5
db01ccecd0fb9bed4c2c1c230728f505
1cf1ec335d3be1d0eeb107e024170131
f6c9fae7dc050f3af12309f512002d1b
42612d3012fb7bc93c27f2fa511e33f9
1ce6b124d911f2cce1200ae2fa381d36
082e04abdee5013110142b0bf2eee1e2
01f91dfdf10aded9d4d40cf1eee0bef2
f40de0f6302617b81d13db213b2f0b23
d224dc2ecfedebfff8e0d001ef310ef8
d423e705f9f91816e9ee05c81afafc03
bcf2cdf806d20c240edc06e01af7e009
031afbeef0f3e7b71de90607f2fcff07
b5d007db07a44ef631d8e8d6dcd2bae6
100006f0feeefdf401f8f0d41bdff31c
cbced229cf05dab3dbff0ae8edf6bdd4
ef4f04ffe602c7f6e93ddb1ecff513c2
ecde04fb05e9d709fade02192a1a35f4
ded01404ec0edc051b33f6f61cfbeedc
e6c9fbbcf10c23efdcd9d8e9d92c1128
e1bc0b311a0adecbe6c60cce1f2dd31d
35e4370deb28d72fd1c816f8f5e5e4e1
bfe0e3e701fe20070ef72b6fec657f40
cfadd5edf9cfcae700ebf9c30ef7f4e4
b5daec02fe1f3c1821dbf73bd2eb9ceb
fae8fbd5f8e622e9e40abbe7ba02fa48
eed12fe6b705ff1d251527fcceef1f22
f71619e427f21217dff8eee901cb1244
0dcee9b7f830f6b2da2ddb1f000602dd
adbdb2d9f30605be86100505c7bd07f4
fbe0e8f91c2be1d9cd27140525c2ecf7
12fc090f1815f539dcc11404220de2f9
36e42ad5f2fcf7071c071a2d1c2defd8
fbf01a2e2300125ff517f30a08f2001e
eab81d03281611e622193ae424d859da
f3541bf4b6bb2337ebe103e9f5ebf210
8d01b604040c1bf00d16f62dbfd51003
fbe3f87f2bc91ae4e411fee122dcf6ff
c5160bfb2c101658fdf903f70e09d829
e9e1db21fe08d5e6d02ae819f4e7e5d9
0d09cef3002921f1d1e93a123915fb00
1fd60a2bc606302506bfe5f3c3b921fc
fe05fe2cf7db32f505e90edff30a1ee3
1434c1edc3ec19e5d507ed23c8a8e2ff
c4060b0a24f401e20a1e11d1cb02ebe3
eb2207bc1eeecac9b300eafb06d6bad4
d803ffe4fe03e1e6c61732150d14fde3
2c0912990146e0f34eabc8eec94aed21
27d0ca36131be3052bda1207d105ff0e
ed1fda122b031c1ac6c82fd604c7e310
e0fa17f6382ecbe30e03fa2628010500
3ee412f0fccb1df0f20510d4e0031af7
4530d0ca1c26d6dff6490422bc08dce0
231806064c2413dcccf82dfd16d0c228
0820012ff52f3c300614f8f1fe01420d
d001d632f3d30ae2e101ebedd9e60105
0113e0c6eada04e6f409e5fb190dc626
f705e3f8f8f6fd1cdff2ffb9d00af9ed
fccacacde6fafc10e93ac7f2faf3048b
22e5d690f216f50d0602dd21de0c1afd
a7ccf0f617e7daee060202e0eb17c7ec
dcbdac07ff26da03ffaac4f7ebdae1db
04f30ffffb0ece1d08ec1100f61df7cb
11e22714cbfcc5c3c61acadfe9ea1e4c
d40be930070ccfd01b09eff0f1f62802
0ff6e0141eef13decc43262bd8e3ea44
eef7f5fcd413bdde25e447e62eec3fe3
18f93ed2f8f90701fd3b02fbec21e5f3
19e4140bbf3b1afd090d02dd192d01fe
1419021af42db316b2ebc34f0dbee71b
1622f4cf02ea4410041f21f4e5d70c23
c8120bdc05f1e0f3e5b5f6d6afe4c00d
f1e00c171f1502d95200dd1f330a3c2f
0c08b8fc16defef72ae900f1062b04f6
d60519d212e21fd81ae2950ff9fce918
0814100cb8fb19f4e01dcbbbf61b03f2
eb0cf6eae6f02e13e3f2101321f10efe
dfe343f6a1a7bff80723dad22bb0e01f
dd02f610acfa1410f92402da05d6f02a
0511235224d7fd081bf4224cec1400ee
05dff31836e04f121d2d2a0bd7ffeac0
2d07fbdab118f8cab2f4faf6083040e4
1afe6756fa0b60d4ea121d24110e3d01
09099d270808db481f28f9d2fb281be6
2840ff13c519f0e13f0fdbe8f90c16f3
1908300cdde2d5def21cfde80d153fe3
072eefd80903fb310ffc13ebf712fb31
f5d5e1c1cef509dffdf440d5dde20601
3d1c0b190105f10706231107dbeb0009
f0fa282fe41fd41228d7eef5f614e60f
dc30f2cbf318fb1f2021d40d1403220f
da13eaabdcf8b20105f70917e5e2ebd5
eec0c0d1fed90afbe916c021fcfff60b
cb02a7ab0fcaf6eea10ac0f2301b1ae8
11dce1f9f604ee25efe8e52907172a0b
25e0f81205d602ddf116e7d3d303d902
1ce32132ef2c32f540dfedfa3c680507
1a241409faedecf8bada190e03faf6a4
001c24e516d450cec319db2250c40d12
1e06ed0709ff011a093f20dfdbfbf21a
f41aeadce7c722f1e54bf8f4e927252f
190f0700daf6e1ece1ec27e4f22cddcb
d3241bfb02ee0afcdaf63815d4ceff2a
e6e4ee0708d8e3d7060fbe210d11f615
5fdae5f118c11b00da0fc4ec1ad8ec13
232dd137da15f72ef908f324831711de
16ce26e216d4fd28c1f61fd8f10533e4
d2db0ce100f71f32e4f5f1f218fae0f1
deca0afe15e42819dde51d0818f01018
9ea81ccce1cf5dfbef1eedda36baf6c7
e4e1031209dc0746ec00e9b220b60916
c2fd02bed831e5191bf22ae5f800e5b5
6213ee2ab5cce60419fb2121e307ea04
f4ea18cc481914fdd3f3f6282d15daf6
11361e1a55df230c07c722ee0fcff908
062507ecf8f1eaea02dce30605552f08
b4bdf1800bc405e919b311b5f1f62cd5
f60547d82b3be1eafbec170329030aed
eddc1403f4eff300d9ea323ae202fcec
fdfee8de03e41b1ee5e0f8dfc615d1f5
1ff829f2e91f14e4fb3003ec05fce212
08d41ac0ede008d2f5dc0d51d1c3dab2
e8df141ce113f1ecef652dc0262e693a
d6ff1b1ff3f6dae9010413e8cae9fa25
d12e19e80dfdf420fb4ce819f61021ab
0e36161c05e1e50853ea1dfb42e915e1
2ecaa1f5d9f5df2025e81c02f426d918
d1f4f6c043042f28f1e5d30207ebcbff
19ff1163e3342d0632f6e312361d1043
1b31e903b64aeba72b1811ffd53e7408
d3f3e31d52e94cfcc5bcd1dc281ca5d9
1aefe1170e0c0909c9c0c5f3f308f1eb
f4151f4e0901f6ed1f4526e0426536fc
0feffecddcf728ecfcf5d6e6ede903db
a8bed21e0b2ce820b909ede512fa4013
1e131b12f81806cf3d231c0eb3453819
ca111b34dddaede601363ae8270ae310
e1e6cfe5f2cefff4d6bff5170c1916e1
24da1eeeedf11001f5072cf42009ebd4
fd00fde61bf022ebed1dac1ec5d8ebfa
b3e50bb8fbda10461bd02fe8120a1529
1c44011313392d7201131808052b0914
0ae9f91dea0ee4f9dee6d421b807dbf9
f74486082301feeae011e322fc222a01
581b105002f3142bdf27e1d70c14cf1c
ebd522130dfc3d67ecce09cc398cf8cd
d029c3b90ee6e9c40641e4da1fc90fce
340516f133faf9f3e60fc2e404f9dc08
2bd62b18e42de1f9230ceeeadb2bd8e7
d2f8df27d9f00dd5faee07effbee97ce
0f190be12204f5191020071521231f0b
e4cb2ed22208195615da0de52dfffa0f
d9c81e1e05f1100bb704b10e3cea03a0
f1f9dfc01dcefe12b0cad5ceced9e6f4
e7f2d116e518e30c0bc413e513c419f4
06ac0918e8f8fdf3b108ff3cf7f6fabb
d5070c07053bfd0fc81961070d0032ec
e81f04dc35de10142d26170f1612e722
e0fef75d1adf0503cc0bf7e7f3b6ea25
232242c3d910cef203990739283d2006
ed00d3280d2e4b0403e21117ffe8f228
fde4e85dae04f2fab53a2ce9deda1812
06d51fb41ce02cb607fb072ffb23df9f
32f0f2100a0e05faf3eeea2000fdfcdf
a3e03258dee1e81206e9f6e304e0e746
dacfedce1c2219dbd8fd190fe0dd2a0d
24102f2bbec5d0db12cb23da3e0df1d9
08f4cf26f91693fefbe92827111ee5ec
0a233df2d4dad803ef0ce9ddf8111646
12151735d029150bbff3fa2902b62ac2
061f2df278ef2e22d2ef58f9f50ce2eb
b2ef0bfff7edee1d0705e40c28d4ebe4
211909c0100fe9daa6560301171cf8b2
f2103217d601f5a4083a2e0b5522f610
0bd30cf92d13d304ecea1d16e3c0e43b
a10ce3fd03fad5222eb2dbc2d921e1ee
21f30fbb1aecdbf330130f0def212816
ebfcedf07018ede8f5fa7fea699fe6eb
10e5c6f2dbf90bcc2c02001dbd2c18af
07c515e1e2d6c903ffd8ff26e4ede514
3cfae5ec5c23d9f9e802130dfdd6f305
d33fd8d2040600b4c3e6dd02e4dee3db
e99c21ea0d0cfd0f61f019dd3b251ee2
f0161d037f02febddd175bad211ef8c9
24e0e743ea29e22211df0dfd099bfa34
2318f9b40eda000ddd2f22e3abe6ecc0
0beb1d22bf2ecedae8d43d1527efc9f1
eae701272cefd917f5cf0b26f01fe90f
efd8c2ca05d328e30c2b020219e70bbd
13e818195ded2a1e5001201f0affc124
19edfb0a0f47d21deff1f62209f2f501
d0ead920e1df29e418dbf00dfc2cf5fb
672934f91823ee3b24331e1d125431d5
cffad1280410cef3fed6bf7c30b9080a
09ccf8e118febef649e1b710e1ec1fe0
0823fe223600d4efe6fded3e1b222920
1727053be140f9dbf505461ee501c8f7
e3c8c9bc2c45bf1506cfcae5da11200e
d6fed938bdb723cc0403d94642de3356
ee05ff2817f8fcf211cb185e5ff599cb
23fce6d50424e6dfe82a140fc7ba3628
ec1ae8d3c2eccc05cecbebbf0ad00ade
dcd91306cce3c6e5e921baff11e01614
23f9f7f408b325ef0419291811e5e51b
afcaeef7f2ddf2fd061cd6ac25f8e612
f4121d0d081b07180b0de119e0f4ff12
fa26fd2401e812e7ce31ff04fc1d25d2
1a16b7031c19e9f72d25fd17f608dac8
da12054b1a219b100e32e3530f152b09
16e00e0ce6f908a3c9e9ebf60ece221a
05f2c50c130df82f291a2e25e8e8f411
15f906102de9070ef2ea3118fb14fada
012e2834bc2305eee9f618012826273a
97f1ef16f4ea09162503d90913ea07fb
2702f6d317040300f300484de225dcba
b7e221afbafbf5d5fcdcedb730ebed17
0defe03bd70016cf03cbec050814b40a
e212ced3c41ddb09cbef2ef1d8fb0f14
f60b09c2cdc0f7bc1711d5f50a0b04eb
21e93dec26ea1ff7f7d4f2fef52ed1ee
01e6c29ff785321fe5f10901cbcde224
edea011af2123b23f0cc3cfc46c21b40
08f91f0a0320ef0b3927fcf924e6ecd8
ef08ecfd2751f7ea3101d105fc0c3e27
2df11cfe081002581b2b16e7e914083f
dafef5ffceb0cf09a3ebf1e008efbed3
1ca0d2bd1ecd49e54b34c5e8e1171310
00eb1939dde8e9230e250bf9fc34f526
08c70aebe2fbeff4de1b0c1e1a2c0e36
0a2aeb05c3dae3ee1b0ce80c04162cfa
e0c32a480720f1d700e722d1edffe9f0
e60ef1cce2c9190fe8fb24150ccd2bfb
f21a1c0640e4ec150cd32a071f0611a3
df9c04eb2acef11ec8f1d701f61116d8
a11451c309ffe221c1f201e22be8efd3
fce52816091301deee041514e7d00609
b99a29e3f1a5050cb9e9e9b61111d815
ff2d2c250301f2e4f205f9f3fe00d04c
f6e7e1eae016dd30d711be331cee0a02
1021ed25ba0d084020ebc906082ceff2
211d291bd8e1f51e741a0dbf2ef02ee8
cff361bf5014e11ed9d6e1be2de5e7f0
c9fbe408d6dae5f70e411ec8e3fe53ab
1229e747c706f7f517e500c0f5e01305
e13d3be8f9db340521f70607fe1434df
0b09e5dee3031034c860bcd9d7c202bc
15f617df1de9cd19ddbe060f43160622
e3f07be62cfafbf9d908efd62be9d2df
12f44ac735d91f3a07e7da0a12eb3704
1bed060dce1df7d7040406f6f32003db
20adf33a260427d01c28d9d334251d32
a81adfcffc3e18ed23deebc108ff1bc5
ea0f0fd9f5e9edb70cf2eff1eaf5e50a
2df3ebfde82916be3813e21ce7f522f4
f7f5d5d5efdee5c124dbf04bf0c4e902
d101eceec3d6be00fefcf41ddbedf20a
f8380ff2d3fd1e1e29350d2f173003fd
e4e9fbf8ecfd15eae2daedd805d5f8da
dce4df1a09e1f80c00b69f0d2c1c3542
f70907ef31f7ae50ebc4362633e8d4fa
19b8bdf6f9d303f7f491a433d2eb00fd
18101b20c01bd00c1058ffe907582645
f12afa15c5119a2705fafbec0ef32113
c3144be7fb2119c6f1e80bea16ef02e2
27f0112814023bd1dbece6cbfd0fe12d
0be3dee90d0cdd1dfdc5e8c2039bceb1
3d2b0b44eae5e63107d8e6e1fd08e2dd
d7ab0ce809cc03141a35e7920dc0c2f7
d4f9070cfbe903f401f2bccc11db08cb
e1e8ee1bf8eff630e8e4c7f815d4f3fe
ab13d7e91ed9e5c70d21d10400ebfe00
0cf1eabc0d2010f402d311ef1ed01ee2
fdf6e41011ffea0fdd142b0927cfe801
e1e0f906eb0bf3cbdc0ee0f0e2db8ff2
3410e931da3cd41be21ff7b9d3ed070c
02dd0de11e15b1f4bb083a3c3f133bff
2f0fb8fe2c100203eb249dfcb1f804ed
16c518dece11362f00f1ebe90bd2ddcb
27b947bbe633d5f6b6a42bbf1708f8ec
ec50d3ca0237e5f30b0504043517e908
e3df2add0fe0eac514efeff1b8dbe4f2
46d5c81b00c6f6a2b0fc05a632bcfefb
fffc03f4160c09c917ffe5f3fa12ca25
f4cefb312b211da4d6f63dc228dafdf8
08e1faf107f6f1cbe2131bf400080506
dae6c106eadf2928c508ebc2b9f2212c
d0d5f6b105b8070409ebf82bcf4b1417
06dc2af9e6d20c04b5ecc4e0e309bf07
1effc5e7eb07e012f0f0211b18f909ff
fdeed80240e7e10af50efaef0b9c1fcc
2f23f0dbf9de09f427d1fc081a270445
090d2816dae7e24a510304341938d9bb
0cf525c0de151c0334aafcfd2238b522
11e4064ecc0cd626b22df3f1fad528fe
b9fa961aeed4c635f218dcc9f6d2dcec
1deb20ebd41fdae8450c1b06ff0afc02
fbbaddfb0305f7d6b23917cd2619eec5
be1b2bef0fdbe1bcc7ec110cee980217
111604b848eff60f44e828df1ddfd31f
d40817892b03cdbb080901f41031d4df
cc0bd3f3f6e1d4d8e7e5e808c5d8cdf2
2bf9e7de1e13ceebfff72e1018ccd10e
0af6c8efbfece23c05d5a10ad1f2d4b7
eecf132af9e3f911f410eed21b0be8f1
0f171ff4fa0230faff10170df4e4f5fc
faeb079af8d0fcf7dfc0b914d6e5f5d1
31e31e01f5aae01e2a0a0802e5e9145c
ff06102a041c2b0a09f9edf8e23331fe
14cc0a21cefbf50d42bf0f17d5362512
d1030dde17fad3aec7e122153d13f915
e23c1b102f09e813bf2aeef70dc4e656
e22d0ad019f30fe30d11e8e6081beebd
00e3d4c0bfe6e10204f2e211e80191ff
cc01bcdb330ec809d6abe744eaf3d8fc
0406f23d011920f3f4f80846392e1720
abbecad3dde4f9d92fbd06def1ac1cf7
e9cbe5e2da16e42ddded27f9f2dd02e9
12e5f6020735de29d51a35e7f0c714ce
02e3d9e30a100efde018f6d4a10125e5
01efdae4e7ee10a7eed031fceffbe404
fd04e80de11f18e3dc16fef30d040bda
f005cbe9fe0dd604f1bcb40da3eb12e5
340ff1f734d609fe3803f91ef40d113b
fae3641309b243962ef2e3f42d07b613
f406cdf00f0d1bb80015e20cf9f10904
ecf803f6050ce60cc9e01b2b37edd720
f7f90a09fffa2421b7c8f522faf1c442
fde72703e7b4f2ea17d72aec0d93edf9
d7e6d62ad610cc22f6f8d30603f7145a
e80812e7e0b211da0febe4c61fe1f701
062b2b1b2cdbb50708340644154436e6
ef0241fddfe5d1f2c9f916fb0596f216
e8f6f514fe0005ea20ef02e005fa0503
d817f244db27e1e1e10ae80515153644
135302fb55d81600e2dbef16ff2b0ff4
0ff1190beb07e2e8f118f2f8e8ebc804
f8f510fee7ca40da17deef3124ec0729
f7d40a1fe8bbd8000afed2ffdefb0405
1c23ce3c420b01f62de4ca25ea1a03c8
b9cf0bbff200440e2913dcc3f8dae6b7
1840f41633e8ef28e82a2939f9230ace
ecf62207d4f5c7bfe6deccc334d2e604
dfce02dcc2e011f4fcf0b393effdfcfa
a4c421c7ece005e917c8ef05f7e7db0e
f2ddfd15aacd0ecde90e5456d4fa232d
0de5d5fbbb00bb220914fef1f1d9f8d8
4112482ee818e90a060e09e9c20708fb
20c8f5e6f6d619eae429e41e121fcef2
00eddb13040b08d9f9f6e01107202aee
f81715db010df00c0f21d91e25eeeff0
e91fd3d3fa110e0f12f717182623f0d3
081420462629e2f7cff0f0e6e1eb1fe5
e800f9e22ac405cbe903f716fbefff06
1fd1ebfad11105091f1cc1df0209ec17
1f0e1e200d6736293b0a16fed808d40d
e4e902ee0ade09a30b873bee0ceefeea
e10f0f060b1ceee83f54e9c4f0f7d2f4
ffeaf6fedebbdc06d9e9ef06f51709d7
a71a0b3fccb2c91096943604c9d7fbaf
e407e8f2f0ceedc6f9e7fe311a0301db
25ad16ed33c005da1240ea33eaf0f10e
e5d6231525ec4ee9cfec03adf1a5ed07
253cfe0d02351f3b1befcd0ce3d22a15
e1cd30d0ffe62a19f733190302baf3b5
fa011108dced0224e4f5e3f3f4e9f2eb
e7de449712d8f14bc329e4e104bf25ec
e223a2e6fcc410fcf3161e09baf0e3d2
f1e7c608fa12ee1d0eeddcdf0f22fffe
cbe321e027ef1e09ede505e8dbc3e2fe
021409d1e5094a10f846f1e6dcc6ffe2
2f1f0a0510ecc8114afae736f9fd58fa
f8db12f70f30020080befe33190cc4eb
0a031c22cc03b4f115fff5fefcf25329
d9cd37ca2c0bfb1ebaffd5d93d12c527
a10712d40705eeef99fbe2382b409d19
03de291c1a230be3ccd4c4edfdf1f6e0
e502d7f0f2d613e5fcfa0e01d6f5160f
0007dd4f36f627ff05f3dbe921360f0f
24d5151df7170c2a20271015fc0c0f03
e9f4e7e7cbd7bb0e1a08f731ffdb0523
defe3adf28efef16e61dfea8a0fafefb
32f80fd93df0fcdd030d047f21eadcde
dfd628f524d439f2c6f916f3f50bdbf7
f4dc1901d3170ff500edcf08fff6ccf9
15f2fe15b82906dc0bfc05edf4f0d4fa
f800dad8a1fee94618f057f6cffb3eec
21e8fd18e749f2c4403dc2290c23fbfa
03dd094ef82a000fd62a2dde17412720
d823e4dfe507ecedf9f540fbd6fc20c5
04ff162fcbdae30a275e2d0afc03f523
26200136d6b22441e30ae6e1421d230a
14051125e7e30ced17ebb3030cec38e4
d9facf1cf6f7cae3f12cc00f0c46072c
f92f211203f1f5082715011afee10aec
0fbf26ca0604eee0f9cd23f8e6214015
c8f11a5ce506f1c00cc307f3d51131fb
290505cdeb2d1f013802fdc628c0fff3
e7520de50904eced3833d24eff1b2305
14fdefd308f902dd1cf7122104e2ead2
d250010304f31cc0082fcf282ec604a5
f821f51acef61401fbeed1d245d4d01f
53d606eb013f1ecf0bd2eef8242b2e11
f202fefaf1c7e22deed2f7ff45cd11c5
14eff006261fce56dade0ae3f11df7e9
f80704da2b09270ef4c32ed21a0ee709
0ed11df1fe2035f5deee2b3cf00cf41e
1cee2e3c061be61eded2fbe40908b117
26fff52631f6e20ae52611e2fd0fafed
24f9fdfa300a1afb03fafcd3f40ecf19
13d5920a0926fcdc2a0d051035020929
0023f1431807ec69f10fe410f5f6dc14
f41beed5dd050e2116e2030336fd9d2b
1514ecd3da4ad7e3db38e7fe27c4ff29
3c0730e7fd0c45e713f3d11223200fff
fc1af9d0c1fcedceeadc23f20b0f00d3
e6c61bc512d73cf40b13041d223aeff8
23fb35d907b91ada0822e9082400e800
e1229c1af4f3b42bdc1cf1ee9fead212
ded02231ffccefbfd6eff5e6c1faeb1a
0214065fb0ed081316d52a0af5c9e7fc
01f7e80f12e2e703e5211ce3f5d9c1d2
de22ec4719280528f2010511fbd0170e
0017ed010722131227dee31b0df20bf1
251cf0fc05ef27ab011821e1f721f8e4
0f15c1080fe1cef8fadadff846e8b11f
303f06bd27d590f416f1240aefedfdf1
15ff09113022f304e5e73bf1320709ce
07dff0320315444204f3d3ed0af60354
ad171801152a10ef982d15ed1707dbe4
50f70819f419fb1a16fff92c0e101300
df26ef1bb71c37ffd5eed400e9310325
e220d015f318f52508ede508f3e5ff0b
ef26cbc50bebfbdcf43807f621d3d3ee
0809357f04fd28fcb8f4f2d600cd0e04
f120bcea2f2100e2d7f4292500e6d2d0
02e80f1a44e9f10eebd24b15fe0d1601
f131202ee82c080fd4dde01e1bb73ccc
030224ea17021601ebed45fd030ce4f3
f3dd23da22f2fbfaf5e8f1ebd70618e4
24defcc90616b0f83b2032233bddf9fa
b1dd2acd3c17ee1cedf226f825dfe3fb
0820eb040d28fb12f8452235212f1a00
163c0de7f8d13e12eb2439fe33faf8d3
1614e61a031126131dbd03e61104dc17
efb70bfd3dd9e20617a2d8e110ede90c
eedb2415500c550e090bdf070826fe0f
d3e80b0707be08b140c2b6ebef15f4ca
1e1e0bfa3528fcefdc0105a7d5e41818
15ffa5080c0c01eef6de09cc110be0f3
14290ce43bff0fe632f93b1709018dc9
f718e9e0cc16f70fed0a0b431c8ae7ee
0f0a1be52801ccdddcde0c693209d21d
ebe63adb11d0f7eee9fc34f7fdd7d2c5
e8ee24eef3072738f4090a394907dd11
01f1fddaf9dc04e828f9fc10e64505ee
1ad3dae1ffcaf2f826efc6f60c1e38cc
f615002ffb2630f6f60aff3e491fd613
bfec061e12e0e00dd9fdf50508140123
e4d618c20811dc1ff7f0eff8edf8fff4
2b1cffeae81217f0f20d1b11d51f46dc
bc2cfeb9f4eef90ef924ece7ebd7c516
fb48f0e9261d16d0c1181ac4ed18f50f
0e0607fa20e9ec1702e928e7f0e9eaa5
62f307fb1ccff8e5014efc49de0121e4
faf42ce91400c3e1d8ea39f70e073005
d4d8fee7190fe62b191495b00fd9f2c4
ebf30e06e9c3eae0f6daeeb92603f908
16b615f0e0150de0ea09d0081b2024f5
e5d005a6ad2504fa15da15c903e806b6
fff5cdfe1301fad6f806fff1edf217c8
051dc92f0b2707172efa1f2100ef00fc
1832e44b0913f4150031001bf62e13ff
d8ee0ebdf70be6f9ee0004dde7f7eefe
ea17fadcc1e65f1afc030a3120d724d1
c415ebeaec04f0ed0bf51ddaffe20321
1316fc3dc710bbdeff0b100acf17bcc4
f308c6f0fe221fc82cab0de7f6011014
f1ed16ff1a18fe22e3ce1e021eaedbed
dbe70425f40518e23ce026e4ff0c1126
24e701fde9100dae1924be0dff022c2a
01e427fc19ccfe09d6eab6d702eefdc4
a164f104d620e043e6ae2be5f1a52e1a
e524f6cfdd16dcf9d1dc141dfdefedd0
d00d0e0ae5e5f70401de44cf28f72af1
da1817e9f612fdbad4e01ce5cd09e0fa
0ded050fe1b1ecd2f0f3e4d2110935fa
23f1e406e3ddf30f061c1be6bd1e0533
09e304cbef2afef90637d3ff01160e15
0217ede81c01fb1affcde704fb09db15
fa102dddd4e429e7270314be2eeb2706
c2cf29d211eee3e6c7cbf61f0e17ef0e
2130ce2f0e04d5f2f408f7551236002d
12ffd70efd23f6b9e6fd1b1400fe1b24
2f19f74ad3ea0fcee0021a10051fe81e
ecfffbf0100ffc0af7d22a09f40ecbf0
f622f6f9cde4162d36280ef1c4ea29d2
c3ebfce0fa23302b1fe605d733fb0b25
3af0db200dff0be1bdced0301b3dcd02
f6d347c10906eaeaedb7faf232e1feec
fcf20ef3122b0a0813c31e0b153d14fa
00b5fd09fed41601f1fad70dfae109ef
f1d637e1f8eb0de9cbfae9d31726ca2e
fb01dbe5ef2dcde9040d23fc0f18e8d8
fe1ef9e803ebf91915e431f4eebd24f2
eafe2f10fb0800d80c15cdd82cf50f28
3cd2f1e1efccfac74cd19f2fd6edc1c4
fb3e0e13f3dfa619f7ed31cd01ff2110
f5c7cee5ceff03f90fa7f1cee7c3b3ee
550cfe26cad4fc0c192bf2fe1ae801dd
2bf2ec00a222edab1a2938122930eb13
043224b6fec9dc62ee041e3e14d11699
fd0204072809e8f3c7050cd6341a30ea
2ff6fb210eedf7f3e5b905de0ad0f7ff
8f0d03ccfcb3e343deec2ff9fd00d2e1
0bdbe12b0dcdf02a1bd8b8f92eeceafb
09eae9e00dd031e5efc0e104ecd7b3f9
d8f8dde9f7f9efdaf1bb3ce30f10ecf2
dbd5e026d5e8cafb1fd723f40c012705
05fce41b1d04ddea240bf43422ece82b
fce0beecf60c1fb51112fab3f606d200
fd38f039201efb43e63ef1d903edef35
ee449f0b10a7fbffd8fba0d1fbbba9cb
321deae0281d02f402113abbfe291011
bfe1e0d6bcccc6b6bbd0bff41297aec6
fce4c116caffd4defadac6dbd3e301e1
dab8f903b02b0a08dd22ddda1bf1f6e8
07cbdd17d61722f348dd03dbc21dd224
ca0729f10108cb10f5f2e7e5e9cf301e
03cddf0a21f0fdfb07b7f2d5e8f7dff5
0ee310ca16310e0219f35ce9b4062804
0708f02719d717fde619cdf5af2af72c
c816e8ddefd8c3c0f43ce8e3b8dc15dd
f5f0fbfc06f51b02140b3a2e1f0e1cd1
14b3ffdddc54af14d8a344fc0fe7d7ec
06fbef3bf70f020cfbd8d81d0a01eff8
0110f6bae40a12f8f705e61801e802ee
110ef922dbfafb0be118286f094a3a15
c7d134c6e3affdcad511f218b1bded4c
2a19020ff625c11c04f2042b04e8fdcd
08e6e3b4dfa11ebaccf0d6ddebc02705
dff8cafbf3f0100602d8ebd4e9e807eb
e1d6d920fbf3e80efdb6e7efdb022529
c52ee4e7e20f3141f21fcbf7c5faf5ee
cff8ab3ff517edfc3cfd1bfbf5d63adf
d5c3d4eb07f806f3e907d9ddeae40f25
b50bc1f53e120028c009cc34e1dcf2e0
061122fae5e9221e05ee092adb290c2e
3fd63d9305f1e4e002b7242c0220f3f0
e7daf6faf20e2108002002ec130dfa1f
d906a255c9f2df04ffeb1a1322a90ed6
190b04f8272b1fe8f725cf160e1bce18
faeff20b1123f1f8e41b081804ed18f7
55131a050509ea3001e4ea0e2615ded9
ede5ddb0eaebdbf9c9d6f7eaefe9bfb7
00e94bd325ecf5abfcf712f9062bf0fe
b7e9ec06b8cbd9048bc9cef8d4dbcaf8
0e1b13f9f3ece90a15c5e3ede8ec020c
f30806f2e71604ea06bf0f13f6d5dc18
1d08201abdfc16d7c949e015fdf31ff2
1b3e37ec22df0428c6fd30e3e2f61206
fffbf0f5dbb6eaedca12d917f5def8fb
f5d320f6f32517f3a81ca5ffe7e527df
31f9abedd5e2d2fc1ad2cdf2de1a061a
b4efbfeecae0e01d24f5ca0bc427f6ec
d9ecd9f4f2fd1e25d4e9daeb2ad0f201
fcf04f0025fd2acebac7411ffaceebf9
1deed62af50dfbf10700ea1ed3f4f227
a911c3d40903ff1300dcf1c9dc251213
0200f6f9e90c3e1fdefbd3c9d20e2315
f413cab70519befff8102905a9b62bcd
ea0b17170e23fded35cc0f332922db00
eebe00e5e017a7f5d4f8c7d7cdad02bc
0d0be7f8d901fc1508e8f6f4fc06e706
15fafe0dd422080fa0cd1bf6c4ad29eb
2ae930df08353df41710e3b6ed2eddda
dae1ea0e092bf507f0e1e2545201f2f3
01e5f6d0db05e8001dfe06f3e918fef9
f201359a1df2e62b18e117d9ec2ee4de
3919dbf71a33e21b070e0ed2d1394419
b8ecd719ff06f0e3f8ebcfefb7c23908
d211ecebe4ed120bf2db00e8c8cd31f0
c3f8e5e414101ff0eae2f92c1df7c9dd
03ecdfedf31110fef609f3edf2fc02fc
fd0cdf0d0f15f30feedaed0a19c3f300
04d90a3b26882dde191cddf72629d2f6
0318dbdae3abe2e9e9b9ba950fe7fc12
bcd2f8f3a904291d1d13ddd0d9a8fbe6
eeec20f4dfdd16ee35e6b6dcd7e3fff4
1120eaefd004f6ffe1e2ed102612fd0b
e42e4e2410c6f6d03ce6f0101b0dcbc5
03f705f91a09e421f2d7d3e6091c0f1a
f8cf1ac1f8d42ff2fbe7e6f3fbfa04ee
f7f9ef19d4da0d00f7f0f6fb05f205ff
dfb32fc5f5f9ee14fef8e7bfc1ecfbaa
443ef5042c15e80de40a002ad62f0eed
ea0ccd1528060aeb27ed102ddff7c4b3
e6dbfbe503eb3ed1f907dc02e212ef01
e0e92400d3fb17fbf0e7c9cd23c2e1d2
141df7050dfaf2da0811131618073609
1aedddedc8c322f1f31e05edddf3eac1
11ebfd10364b1b0620f91524f90aede4
0402cbb2c526e7c02d2dce1cea081e11
c1de20e01718fc0336ec2c19ec2b1e1f
2a0c0d09bd11d6f9f00cc2f5ee63d9cf
da1eee35edfbe6414f2b0d2ef3f6f807
f409d1ae0bc3a8d10224b20b344bef9c
bd0de440be0a0b4de6de074ad8c0e935
101003dee50737fc1b25220c2a1dffdb
f7e4f6f5dedaec10ee08ec00f0eefd25
06e6230f8428cb13f4bf34d9db2a29f3
2528163c005cf5126310e8f7a8041e07
fdf106e938292af73124d0f2f31b0202
0cdacd02e9c70ad6d0dffc29290f15ec
f2c2f6efc8d0af0ef0e70aa7faf4b6d8
05ce1bea11061b02f212f727f1f53eea
0700ff0329ea0ff5cdf8f2fed2de1700
0fc34616262f09dcd8e3162c061209f1
a90008e4eade200e1433e5c1038350b5
d2c71b0fdf132df00abfeef609d6df05
17d6e5d3ff29081bbded01eebfe3150c
0226c302150fe51b1e1a1608ccf220df
fedbe3c52c0107312b14cfdad3d62100
2debe0fad4e5e710cfe82200ff40e837
062017fbe7171ff0f50f05f1353eb808
07f2e4d0df0cf10ff91cf4e2ed09ef0a
f70ee6fcc7ea1b00cbf3e40ccbefd51c
0f4da90c03fcf51a1e17322ddc084c38
f9fce30ee9f7c8361614fcfbfbff0702
12fa0cfd0ce823da0a07ec15edf9e703
ece859d8283c06d6a3fbe414d406c6bd
230cd8fe1024ff26ebe3371ff8eaf20c
cd0af0e4e530f00113f9e5f3f6c4db2c
1dfdf7f1c80df812e8ce2e2c0d07ed00
101e46eb2a0027f52f1818dcf3d5fcbb
f2fd11e412014fdc00f317c8fbd0f7db
2d2320fde9e9f012140b0f65faeb04ef
e6f7c428da22dbc504d21802211beb01
27ccabcff2c2e31afba0ba46ecbfd4be
08f3ebe75cf217e4f7f5f230e9eaaabb
520cfee2dc01070c39b5def6f3ea03b2
340217e8f1f0192d103df444fcbf07fd
ebbdca1419e420fcd9e50ff6f5def32e
03d88e2814ea0fe5e0fe03f8160cc22f
e8150e0afdde20fc0ff9c617f7eceffb
2efecef41ceac1c10e1b0be5e513b40c
1e08f3b7eee5bf0a2c1b0f24dcdcf7cf
eeedeb45f31016dcf6f3cdf5fc10151a
d610bcf21fcf1421d4fadff8d8b5def1
551532ca0af3523b15e5db0aefaceec2
d6d9d9bef4da220222f7f10923092f13
deefdb1242e2f1120f02dcda08fa08d7
daddd83217063512e1e626e6f91bf600
f8c202ebdd05e1f810d704c1188bd1b5
c927c6eaf6feedc4d5201957ff0b2819
cf23cf13c1a234dd173d0b3bd6ff1efc
e700f3f805dbf3edeaee0adf23dde9ca
f1eaf54102cff2cc1611dc25e2272022
db07e109150ff6eaf4050ccbeaf8e9f8
f0f30c182507ebd7cf0207b0f3e8fa09
fe0fd61f03f208010107d2f900e4e515
f9db00f4fce4f7052b19f427c8de1cab
0dedf6d8f219e2ecfddd0300f44a43e4
ce0036d6dee9f208d5dfeadc0adbf713
3f1ae3e10c09bdc7f91e2f041611470e
d8f9aff821ac65ed6115b611bd23ed50
d0d7f3d60c430731df034152e3c4141e
fdd8e7ab02070ffed13c201ffad806f5
f013fb09113af03b05271624fbfafd04
e3d1def0fbefffebb50eefe9fcd30117
d3fe4cb904c40a1f25f405dfe3fbde06
52d943b909f0150af408f7273b3a05d7
f4d142dfcef0e705f5e30dfad1d03bf2
220720d206ee203008be05270842ca2c
fb130e1dfce2180bf0121f03ff2efdef
06f0011208d615fbf2d9ea07f71109f7
dbee03deff0321e2fefddeff06fffa1f
1ad415f7baef13bae5f801e81f25b324
f617d1eded23f80d00fa18fb0bd54615
19cc1c05001ad5fdc304e20914d423fe
e21753e5110808331715e8060200f9d2
f71accaafd261415fc271609fa200c18
cb10fcfa0504f6ddd14302e20f330cd4
d4e51004dd20d8d6ee29fef8201612c6
2e1e050801ea31a4d00ffd11ecd9e7f7
da21f5d8fad322c8d9d11d391a9ad31c
f7db153fcbfe28102ae59921b50f1c00
1e01d1f7cefae01c70ebfee52b0df1e5
d0d6e8d51bf321e2fd14ffe2bfea0ec4
2203cd03e8f5100458fcd303f52412e1
46d8d006eb1528ff36dde81611f2fa16
13edfbeec1cff30408dcd2190fd30013
0deedb0ce3e8ee00f8fcf525ec03eff3
c6eb05db17c0f8f124efece2fde29524
fef1f2ecc3d5f53be51e1e23b2ebeefd
ca02e6f100e1e0f905eeeb2121f508dd
c2c1f400d9fde43834ecc902daea25e7
2630e8f7b7ef13e71916c625ff4a25b6
eff20aed09d92a120d0912e6dd06cfc3
d1dc0fb9fac2ac2217ddf7caf9ee09ab
232d12bff1081a1bf52823041fffebf8
0c09d8f60608e1dc81d3ecfa1a96d7ef
fdfd1ff52ee71104f2c7a599bf240bf5
c3c4de1942ee47e8271adae0eeed0f03
aaf0fa0113fdc6c7f90feafc0ad126be
d1d1d720e8d73ecd284dfdc00f1d01f9
26f8f90cde03f1f2f210e0e0f5e705f7
e827dd1105efeb04dd02fa1207d63954
04d8f60010161014e9ec01ebdfedf603
d6caba0c97ecffe9e8e1c2e6d9ca2519
27f105d3192607f4b5ee43d0e024c915
ec0af6bd0418e019e00ad90e0cf90a3a
d228390fe2dc45ed211a32d3ff174420
40ced3c7ebce1a2d48313890bf15f6c1
0af10bd9e2da480f2600f9ce00cde612
dbbaec0df006140a2df1f31ad7d81c14
a90c01cbcb2a09ff07e5e6c0fc09cbf2
c90519e4a6bcede5e4fcf8e102e600db
14e6e6db31f90b21d3f64413df2ffbd4
2131d6f911ecdceaed331025e9f813e1
