fcd5fcc00318bfd5e609c6ed0a1cf7ec
eb19eac81efbdd2312ecc31d1403041f
c90eef0804e6b83f251af415cbf41f0d
eefdf8fb1af4ecda002ad722c8a9df36
f034f6dde6e2e6060009d9daff0f0af4
f308f8fb121b16dae4f4dddee8f1e9f7
0b1703e52bdedd0501f10219fafcf20d
c927d0f4f9d2e54304ccfee128bcf5f4
e5e408e0f4dfc3ebe6e3020ecdc5e7ee
23e0dada1a0cfe0fe7dea8ef1e20dc1a
0f1630da0edd16de1a17ef11220bd93a
181ddf161913e5130cd917e4f9e40ed1
b9e5168bf105d9c0c8f6d6d1d61242dd
fa00c8e9dc0d33fe1fb0eaed0cf4e820
e4be1d001a16d60df73fd204eed1f60d
e30b24f331ec1ff1f734b81d21c9f7e8
e8e407c2fbebf2ffd437120dd9e8d1dd
11fdf709f3cf19093af5fbdd09d50805
ece9ccd9f6fc1302da12fef904fb2bd8
d813e8fcabef20d6fb0507cec9f8dcb8
fdf4d9cedbca01dcf8f8f8eaedce0205
2d040cd700eef5f2f5f5ed1dd2d006e1
d1ffe7faed11dae8e1f2f6edf1f51502
e13d1626f71125e21112ec161ddef6da
c9f10e05bed1111108e0e602fcb2fd0a
00060cc0250400f0d9c913e00cd0f417
0f0f10de0d0a17eefdf1dafe04b9ebc6
df0fe3eb0c09fe1ce808152b210c1142
f9d5239be7d4031fa419c60844e99ad5
01f6d520cdfe060effee08ffbad3d2ec
b70f0cf2cd342615e1e6183724f5fac8
1c313c09dee61f2afbdbe70400d508d5
0a02f106d104d73dcad195ebd7c2ca1c
caeb0021e9f0e5fefc30050a1228e8f6
04da04dcf6f4e3e504ee13ea16e1d7d9
0f38fdd8f2c71e090df7f3dd5d29f928
ebefe9f9bbee1dcbf8f90ecd01febdd3
f6f013f2fd11f2f5f7cb1540c2eb3a1a
fb1d00262ff2eff83902e5daf2c417d9
3828eaea4bf3381b1a0b89fdf216d4f2
d9c8dbd511f31449f7122af74af206d7
ebe31514000b1d15e100b6c302f3fa15
044809e6201c1a2a1d06111cf51251c7
f5020222ec29fbf61de41f2310ee04fd
fd2b270aa838e316d7bf0fec06eacc09
faedcf080a0b1ed23117c00235e81805
0606061509142b1b1705faf0ebe517f6
2d2eeb1ae7fd221ef417b0e6271213e5
ec1134d6d2230dfff9de1cfcf102beb2
1d1421eee90df505400b17f346ec010a
fcd6f109f9e2f8f61eebefe039fc021c
070238b41218c5d7ee1c3400c8e1eb31
a8e6daccc8e231d71d12c2ec3ce343f8
b2e7f2cf20111ddbf9ebea12f835d7ed
d7112ccd0629fc16f8c4f1cb16fce019
0af10b0b0c0ae00d08f6e2fdd517d90b
0af8dfd9dddab9e5f7edf2c11c1cdb01
ed19eef741c0e7bdfdfbf01e13f808f6
1d21f1ef24d3ec171703d82245030822
fdfefa0b2d1608002e1ae1121407271b
d9b60bc00c28139eba26320c4335c5b6
e1f9ec3308ec01df27ecf7e542cdebff
f5fde5140b18d20d05d6050eee40ea11
05171be0185fcbee070aea22f9eac413
ef0505fd011bd2ffccf60fd809e41af4
12dee3e7f4f9e8fa24011ff3e5d1f90e
cfee08fdd103ddb9f2da2131c2eee304
32a1ca0510cdceda20491edd111116f9
d312e4e9f5e3f6fed3ac2f2ad1b00a0a
07bff0020ce103cdf0e0ef43d1c0d203
fae5f71eebe7060215092ce51ef91a1f
0617132cf7d7e2f8192ee1cdd4eb2bcf
24f6ef0be2e50e042e09ceefd805f124
f5d3d0f5cb1a0ce2f0f3e4e50de0d11a
1eddd544e3fb073a0c1df728ed1ceeed
eff403dd2617d6ffe5c90338e120dbf5
c415b6d712b5dab4e500c2ece0c2c51d
40dc1e39cb42dc1a0603e9d12aea1be5
1e00b1f125bf35030bf525fcf603414d
0cf4ec2ee2f92f091d4a17e828050cf1
0f03142c1949d1f7e8eff7dfefeffafe
e11bc5de05d80de51d1e120512ffecfd
c7e2f8eb1b0ad3fabe0bf71ee9caec28
e9fdff20bddb044c3205f123d10efc15
c9e4edf00ffffdf217bdc3fbeedef708
e9ed08fd081ad1fce4fcc7c5f1072102
eff5ccd11b1725f5cb260e0502efdf13
bee8d82144f92e2613130e0fce2b252b
c4e7f110fc14ade9080dcb01f91710f0
e3c7eedf15d4d9edddfbf2f70b25041c
f8f835ff2e152303f50be1dd190b10fc
0d2337e73d380d32fc0625cf1101eb1a
f4011e1111f7e8fcc1c4e0e1dc1514ec
18fffc1bd5efeef406f8270bdf08bdf0
e813d9f11b18f7fc16fefef7272b242f
320f03050313200d2309e3eb0fec0916
def107ee1a2eb2cfd1351801c905fa9f
f6c1f706bf13b80a090bfcda08ef2309
dee4fc1011f5ecdbdaf9e919ff1908e9
38e9c60b1622d92c07dc15ce15f2ebfc
c5fce6e6e0d3c201eef0f215f6e20bfc
fa18edf1f9d7fcade50b00f0fef5fd2a
ff5002fff3fe3a03d70d33101af10406
272bf12a12bbeaecf203fcfc57f61c03
f9edebe8ec0209e106e4cef906d6dc11
f441ebc6dcf7e6e8f618f5e9e2edf403
f7fd070f4c29f234f029d62026f50c37
e92be0e9d012f82bf20303192301282b
bb3d13c8e3c5f7d59b1d1aeab315ccaf
03e4e247d000c614f7d30dfbeff01026
081ed8352101fcf0062206ef12f5dacb
12e7c2190b3516f4fb1f14ddfb1bddcc
b6154d02f1f90418e9ed2df902e900de
d2e9e5c94b09e117edef17f0f1ecf4fd
fffdc22a1dcdd9ddf206e130c3deeb05
fff9d4073835fbcff8d02bc1eef8fc33
dbd546df1618f7a4d5e12308e6f80bf6
d3e4fdd3ffd30af5e41c1a1d02cfe6ce
ef03cae008291519f2f9ebf9f1edfaeb
edfcbdfff72d2232ebda1eed0d0d24ff
07c1e3d80b1aec11ee060dc0f50f2306
f016e700e9131428e30506073e0ceed4
29fcf23008dc26160e041551fb140c0a
e6f1f0e9ec122a14ec090c0a28eef3fd
c9fcfceeb2d1e8d3f003a3d21115eee5
1b4c21001a1111dd0bdc2538f2edfd07
08d3d9eb0f1809d91b0010da17442824
00e503de371a24f12b1130e70a2f2d4d
dc030d00cef917e5f0f119d70fe9d2d2
03081010fa0b1de3fdcc1600f306f70e
dae606f6db14e82707fe070d3e05f7cd
38ee19d9f9e4edbe0ef40c23f8dbdafc
c6edf10db6ccea1b06e5fdef08f70d06
fae901f2f5fbd8f9063006e7e7fcea26
f30ac4ddc7d515fe2503fd071ddde7d5
e80f1fe0f92df01323eaebf8d329d805
e8ebfbf2e1272c10f30cd3b81634e508
e595cffbf4dcede50fd704d1000afc09
241ff1f6d0130825deeefa1df01b0619
120416d84e2800ea1bfc17db241f06e6
d4f1cbffd4e18f01370c22d81eecf208
10f80de835393110c0defc31c903fcb9
e6e804ea22f0ee17e91ff1de161ee240
27e110ecedd4d2182b3911d91625dd15
d6eeb9f60beddeeaf5f1f4a43910b021
fcf1c8c90ff41e12ff031434f4e5f5ee
fd10e605dd01d8b0e2ef230005dadcd1
dcd1bd029fa83ef805172c0beef7fb48
0bddeee33903dbd3d7e9dc27ee0fb714
ec030c17fb25bff7f21600d118ced2f4
25d6080317f3ec0ffa1307f4f20cd5ec
181efaecebc10cf2332fea012f1ce12b
e3c5e2e707e500f10514f2d4eee3f309
dce8fdebd5e414dadae9fddae119f818
18140eeacef4191b15224e14ec38c833
0a261b1bfb19f40ff1ea16be1e08ff3c
f4dbd800fcebd1aa94f7f5d53e27be27
32f5ffaa00f010eb1e3bbf21ecd1ece3
e3f0e60ee2c20413011b2714224e0b04
f7c8d7e3dbd1f131ff2afcf81217e318
e9fad4b8ea130dee171300eee4bf1ce5
f5e9e2e7250aed2ffcf6eb3cf4f608e9
d8e8eaf90027ebe5fd0aeefeedf5ee08
f911cfee1a053002e2c7fcdafa2ecc07
ffd4d40ce917e8f422d9eed3d8f725f4
21f7170afa0d1405ef08f4f1d8130c25
000b06fa063b15131fe60f0ef0ee1b25
1145fa1f26e80005faec1d1100aa0e15
f203cef1ede815ef072f162b23f10b21
e7f803e0d7ff14d743e0f4e4fc380ae0
244119e7101537ee30f70c2e1203e614
e22c1cef04cae70d1426fd22033416c8
46f1dbb7bde7ecdf4401cafce5ff1786
cbf103010dd911e31ce9f6f52fdc0e09
0e08dbf3e124ff10f4570229063edbf2
2213e9e0d7092ddbc71737e2dd19db06
c9cc2cefc4cec717e4faf2e6e211ecfe
05ebf0f41cf9d10ceebacc1cdffd06dd
f2f5f2f3dadb12f6edeaceced9e704e2
ee11d926fd05df20f5bb081102ee27e6
dce0eec6ccec19d4e7d8f9f5e0d3f5b3
10e716f4fa19dae619f212d1fbf60ffd
0bf1b11cccf0fcdc062432e9180cca26
e925b55404e8e609d6ff1f1104f71811
00de1309172c00fdeae418efe509e4f2
12dddce8cdfaee142f242f18d9d9c5eb
ebe70ff81a16f017060d1a33fdda13e7
dce013fa1fe71a2a2aeffd2f0910e30d
d3c6f0e6dcf1bc062000f6cbdd58c4cb
eae5ed071714e3ece3ccf0f316123fc4
19080618f7dd21ef16002a0adae10c13
14fbf7380cfddaf106082941f5df4324
2931ebc5fbbb09ce3bf92e091cc5e1ff
e2b7100238e4f91109f8142bd3f9fbf3
f4fadc22fbef28ef21b1d4dbded030f6
fbe744ef2bb5cf26defdce14e3251cf8
d1f9ec3228c601e502f5fcf8e1dbf0de
2df4ee041ef30201e7f0fcd1f305e1fa
0deb02df07d61af301d6e1f9f12d0306
05d826d13231d3fff8f6f5fbfc02fa24
fccf060afed5f40dfed4f9ebde06e51e
f40dd3ece5e702eb17f51eeafa22f8fd
1f13fa1b1212392533e40efcfa210333
30190110e8091df90ff5e30611f5e429
0d0dfbc3d2eb03fe08e5190728cea618
a8fc201e19180bee22040bf7f51df100
3c19d8f908eddb401401fa1007e9e624
2cf108e433d5f66232c20232051f0e14
0721d92496d6d6eaefbe2cfd3e2d2d07
2a00e9f7e30919f71afddb07f4ec0906
15fcdef8d2d3ff37f814091f0023dd01
212dd9d1d7245bf00ef8f115f3ddf0e8
02f1e6ef0bfcee24ffdfe6d9201302b6
fa04f5eac800e9f216ee0cc71b1ee804
0de2f93bf8c8f4fb0cd3ee27f1101b0c
f019e4fcf9be0804d9030b32e8011113
f315f8f4f6d700d7f102d9cfe32814f2
080208e9cf2523f119d9b4edddefe2ea
283d3bff69e20d13f7c92c0e0c0afdec
112e2c1aea271c0937f9e10e2204fc2a
ece90c1a9419a11400ce0bfd2ba31fe3
092afdf3cf23f2f3ffd3f70405bcdf1f
0814fb1413e61311f3150fd1d4210bfc
3c0efff614ee59f6eede0d26230d0112
c026d040fadd2bec0df7f1f8eff60b34
fee6f02fee1806fbfbe4fbef26eb03f2
0200dfe90ceef80711dc9b25fef4fada
4c05bbeadce72cd0e60cc7cc26ec20ba
0a3de8b35a09befc2e1d1b09ec021800
3c0fcbe702e3d3012d0108e0d4d6210a
d71ed51dfe05be0804d4ee1624f104f0
19f1dc0fcdf9ee2fc7f30edbe9d3c2eb
f2ffd137fefcd8f0dedf17d212f5e2e4
2ff6eff5ba0db100f3cde41be2d4e9e9
f9ecebe612f52d0a18ebf1ebf60c0a27
1845ed27f8fdfa15121704c6090101eb
29d9069cc3d98613c2d415afdfc83ede
1009ec3e10df11caecbee8f6132229f9
eef2e9e7d3e60401c7eae7e018f002f4
f8b1e80ec40d061fb2ebec22300f0fde
d5daf40ffc29030ee0d9c92b1dae1751
f316f2062bf9f511341405ebf107cdd9
21eaf6fad20eedd7b40d08d9e804f7d9
ddd9c6fb31030f0efef1d0cfeb1a1be0
e6e204fcf701c6bc04df2be5cddbeefe
ccc0fe070cf60d040017d51bfffffddb
d5f0ffb8edeeecfc10f2d22d1926efe2
3fffc493e9d5de1f2304d118d9f4e4cc
d1d1071a02f3ea1837d9c6290306e1dd
e604f4fd1eee04fee7e1cb03f4d6ff1d
251304f907f4080511c9fb19f60311f0
ee0e04120530eae64be3f253ebee0612
e21f002abffc04eeeaf6e501c005ea21
bacfe4e239c8c5c71ccffeabdc1222ee
f2e8e1271918493019f20138e12c1224
bfddcd302c3a22fd33f6e21c260b1afc
1cdd2a2910ebf307e10706caf70833dd
f2e6e0d3f501c489e02387cccdf7fffc
1323ec01cbe72af9cd0610dc1326fe52
da13e2f2e73eeaf51303e2f3226742ce
051a14dde1f5181c070cec3129193106
c70bfbc33903f90415f7c5f910f6e2eb
0b05ffdc26cf0d1a0fe1f71214c1f7e4
fae9dcf1fd0219f105edc5d80d090adf
db0cee2212e7e1211d071b0007e30524
ddf7df0dce02e8291edf3a10e3f3bcd9
0714221801260df422e8db06224e1102
f7b801e30604ffcdb705ccc2b1c2eaf9
13eccbede0d4f101abdd0116381fd0e4
fc19fe0ffb03c10d0abbd0002018f8fe
b9b200da1d2f0801b02dfa2af5d82fdb
231df8a30718081ddc1ae415300a00dd
fffef2fdebe50026ef1b12fb1d25e325
c4270ca1eeddedefdf29fcf9faf4d1d5
250adc2ce32f00280cf11cece3cc0c14
f4d3c9eb1ee8edfde20b073ecffcdf11
2ef7e4ef01fce217e3fe030bf6e6ed0f
1cfc0ffc23eceff7a732f910191be40b
fd0c02f8df19212614e20ec914ec22e8
d61cfef5f1fae701e3f21d2dbe3a04f6
291aeb0be610e9f8340910c50acd01db
e4cafbea0aeddedcf4d2faf7e80e0cb6
34f9f3e6421aef0b2c243d0efa3e043e
951536db9df0e319f73609d60b25cbd4
2b1cf6c4ff16d1f3e81913f7e6f4f122
dfdfda2526c9f9f7f80b1c27c0eef101
f545722af7ff0200216af8f345e7faed
f613e21a11ee3713f3e43042eb0c19f9
e9fa2b55d4e7cc1407e949ea1fbcf20e
f51a1c4fe5f22636dec0dfcae6da0502
eb03e7fe21e745ed0b49c820fc302acc
ffae3711c210d8e0d3af2ed6cfc4cf18
f9ff103f0400d5d9da080913ed13eb12
02010e2fea1be937eed7e0d118dcc025
2ef9f5fb2f01ee0f600ee615381afbdf
e4e10ce8cdeebbce06dc17f7eab8eab6
0ffce0ed03eae6faf7e602fe07322509
dd060ecd1dfd0a0afb12f0d61a06facc
ddebf7f41dfde4d9ea130a15f6080410
2015241eb1e3022a01e0cbd4e8caf438
14eefd0ec1f3dde902e0edf6eafac32a
dd1e1635c50306e6fbf50ff3c1fd01fb
025237480d094d58c8cfd8e7efeff52f
1417282b0d005524083b3924ef170601
f8145b210f102eeddbef04fd61dac2ea
aff815c5e738f3bdf6e709fafcd5d8b6
5ddcf4e8db0cbf186205d6eafae4ec5e
f1003200fecc2dccfa08d827320c3dd8
031ae9e3fc0040cee8be02eb35f7fdd3
c646e8ea2afa55b6df0f14252bd7dccc
010e092a0ff7dd13e51606fce718d809
e6c2db23fbe02a01cb2dc10130ea0bc4
f61201fb081be938fd0300f4e5ffeb16
009f0a10b5140dfbe11324d4d6e81cdf
15ec1e09cce72d12111119f11bc81212
e31be2e00418e00fdb0f1d0a91f3cd0a
da10f7ea10e01adafb32fa100a05e8b7
ff2efdefd8ce09101b00052720eb5fe9
d764ffda744212b9e6fb56372509bc06
0608ccfdd0222d09d7c3f120111917fa
e73f05dcf6fd06f4dc0d26f0d9b6ea15
c10190f3c9f5dfe2ba17fd18e7c0dded
3cd2e64fc4e6cf2837eef4b7310e13fa
f957e4d1c403ebfacfb6f0faf8e6cbd8
0813eae1cd21f5bfef09f9f4fdf0e522
f1aad6e508eee4f6191c13041af6effc
15cf0426d006fb101708fed550081a00
ea1f14b0eaeae6f6c6d12016bae4b0ec
5aefe0f7e0b20528111af7f2040de2e7
e32711e3f5e1cef7ecd7e9210edb0028
c62c0bfdeb07c4b8deec0b3112021df6
fe13e2de03e1e1df3424c4deb6ec32ef
dae90becdb190edddbf003062bf7fe03
161d12e21ebcdff3dfeb111c2a06eb03
0f23eafb0eef021bfc611207cde23f22
132ac6031cf2350016fc112824e10617
35182ff322c3e511cdf7e21c03ebbbdf
f5f51ebbf2f6f7f1d3f3aeac282007ef
cbcffb27b7051ae0172c0c0aa9dee4cb
ed193113090bd6ccf1da040501dccf06
15f3e313de1fd6bf19eb0e08140afddc
ca2f23160c22e1440100e5edffe6bde8
0005201207daf119e435e7ea0adff6ef
c5edf013c300fcd2deadfed3f7fdfbed
f20df30508ecf5fe0247fb2ff719eb00
2b030befe7ba3cd520ee36cf1ee8c5fd
d109ea03c72206161cf81d022bbf0600
fe1ed5cf3104ee45b9eed3bd0214fef3
f30c111d0ef6d80dcdbaf5f407f1e5f5
e115cb20f204d814f106e8db33e2f1f9
421529143dfb016ce5fab9ffdc2b20f3
100e11f20af42c01fde7f0d904441828
ddf62ed90ef7f8b013212626e45438e8
d412eab8e903dcf8e90f06b6ded9ddcf
64e5f13dcc4a376412cfd5ca24000907
c4f320ece6d8d6c698ea2c1dd3401cf1
cf081724caf4e5b8db120218ddf7feee
f908f3c6f4e0dfe0fb0c1dc8e61e0694
39f71c30f8f7fffafeeffa0e1c010af6
e0e6f4dac8f5cfd8d5f7110addf301ee
ea09e6203f12165a070026f43106eaff
d2fce910dc01df242ae40525fd0cf403
1cf952d5fb241411eff2104cd901f3f5
b30ac4f1370dedd3101232f7abfdc6d1
eef808cef1e4f7cfd8f70916e41f0204
ba02f7fddcf60ccae1cef72aee1e1005
391d030e4016ecd5ec2517f2184b09d5
17000ff0252f245efc1afbbe01d9de0a
a9eb28be190aede9e40b112c0a0619d0
d8ed1be3ed09d1bbee25e2f0f8f812cb
11edd0d90447512834063917e10d002b
e8321b0d0081baecf40cc7081af812ed
e32e1510e5fbcedef8ed21ebddf2160f
d72637ca29f7d6dfcfe9f1fa13d228e2
261bceeedde4003404f50e08e8e42320
e5ff2009fed5d9e11c3bce07caf0ff04
1cf9fed2f3f8f93ceaf20d16f1162d39
f9c8e70deed0e3eec3e0ea00c6d1edf5
03e12314d2f5c904fd10f6f2e908f4fc
d1f3d015c81ae4cbdb23f2d6fbf5feec
d329f6d6dac6d515d0f8f11cfed513d9
f0e933d919c9f3eceadecbe0cbca2bec
c427121f0d07e60af835200b2e523df8
00df2cf6e943263afa0de412111ae23c
0befdfe0ef15201807220fede54632e3
c5e8d7dec1e5c6dcf4ee04d6ee0ae212
1f07ece3053f4c19fb2ee514fb17d5e6
ebf3b3dfbae202ca62ac3dc0f3cf08e4
f905e509ddfcfd0627f506f72feb0fd8
bfebe4deb7cfebf528ef78fa2bc910d4
0627f6e533001f1fecdef5ddd51630ff
b4d4fdffd924d7eab3eef2ccedcc1ace
40ffeec426155ff9020fd7f3f7090efe
e006f8fd3df2f8f6d6e300e4f6fa31e7
e6f52516240addd1ebd5fb0a0dd5fcd5
fff6e6d5fbe5edf0e01505d915f7fe1a
f6e9e623d8f0e9dd1fe30af918fdf10e
041af53f04e80c2cd7c5d6ece1f4cc01
f8efbcf7e0f8d024102b37ff3af20d20
05dc180f0908da231437e5f1312e0d30
0a163cd20021cdd9eef24dff0ce947cc
bdbcf7f4e7fbdf04e1acfeca1610914b
36d0dbf620c247115c59c930de212f21
e7f2fec91922eae4b2d4f8d7c2f51dc7
0be7cb341f120fd2fee5100c53f3dacc
f9d6f6013334ab02c7080bbad0e6fd39
052c07eaf0db260f10182208ee17d212
02fcecc4082b98bbebd4f1ff0201ea10
33f20101fadef216eb2a060704021720
e4e1fee0edda1be606ddeed4169cf4ca
1934060a111a01d41de60035dfd9fdf7
d8f6e2bed3e4b5181ad6b9cbd813d351
ba10e9cc011de2f2f210e9d5f3deacfe
11ecf1ec2e2cd8f938c1e008cec5e801
d8a31ce6f4c3e3322013dfc30239d362
f123e027d90bf9ebf2040e2823283c11
eae506f0f101e4fedf25f820b81e43be
0401ec86a707aadc1cb3d6fad5f9a6d7
3206df1509fb1e27facb41eb50e9df3e
b4aa14d70a2ec9de1303dbf4c40634c0
bae8f4d40824ffe30928060eface35de
0a25f9d1010fccab3deec4fcfffb0db4
10230efe09f909e532ecf811f5dd0308
f407fcdfc0e2fcdee2e0f7fab5131bba
f5f806022225fc0804d00e17fff2dcf8
f3dbe701dddcebf8fe1ced072111e4ee
fcc7ee14200afdfafdd7f91323fe2f1b
171d0cb4e620c2e8141cdfde06da9efc
0ffffdcc061ff7f037e7d1e9eee1eec9
c5e9d10711ccbdf7d9e1e7f8f11138eb
296418dcf60614f8171df123f9e1f506
2b02c623d2eb43db0bf6190b314c1055
f10b1f0c0b0fedbf2e0acb17f620dd0a
ecbde59f07a0db1714f31edaecfcfd07
fbd4cf5338fbec3ba3d7e23aabd43fd0
f9b1e4b7d4c52cc713fff5e4ee1030be
d1f3f6fc03e82ef8040f07ce0039f8ef
f7b116d5cff0e11b14f914dff63fe9f4
fde808ef09f5be28e52655b7bcc9f009
0ffadfc4f2f42ed3fcdae7e7fbeaeed4
ff2d00082c15e10df5f8101fe103fc30
25d7e1ff18eeebfdc3e304d0e806bec5
1c4b0703e7103a0e0b1d27e4102413e5
c3fa1ff5feb4e52f363317dddde5090a
f9bc19e4f6f3df310f1124abdbcec424
da19f2f40bf227c102fce314ee2922e3
ccec4aea05d1c11a1a3f271811c3f535
cf051d0900e32b2b2becf4e0e3370715
12e50eddee13062716fa0f16e0e8cdc5
1622e5e1f6ba0b010bebe7e6f0dae92c
cfed191738ebf420011e1af8d853ed1b
d31a0b2df6e1cfd333fa03f8d5f6e4d5
03dee0fa2ddd06ed1a0c0e1dd2e821e5
0810e3c6d49e1bbc20d430450dfaca3e
12ca0c0cf721ecd9f01d02fbf30c02fd
c2ffd1e9d4f1f4ddbfcc0dd52cb9e4dc
26cd1815e7e502efeef4e208c9021e17
fe0ce80107ffe3bfdec6c4fa13f8ef09
0311f717f3ed12e11edafbf34df63eee
0914ea9fe4cf0801fa40f7162efec929
ff33d9b2e6ff0ded12230df4f0dcfcf6
f613e33d01e5cec7eaba07ea000908fc
3440e7b5fed3220123fafd3253f5ed22
23281754fcfedb40f2002c2afd120c2a
da1f1e6d19d30723fcf7260928d02ff1
11e712c7b11208e1ffa0e3db01fae5b8
1927f3e72fbe4737f2f3df13d007f320
110ede14b9fcd410070ee3e10fd805e1
2210f0fbdc02f8e607f6cff61efa21e6
e0122618b50104da32c12ce246d9e6d8
ec1100e430d5f70d01ed2c1009dd2543
10f4fd1ed207d1e4d60810dcea00efae
f613fdf2efdf09f12920ec1afcfa0c06
f4e6ec1af3fa0220bf0a1afb10faecf3
1a0de1132b27d41ff12cee152fcbf210
fd0c16fdd9dcfddd01b32d122c06f8ec
f8fb0208bf00fd0c01d02ade2703fbec
081fcbec1e0ad6fd0500f6e313cc18c3
21ed3c03f5142bfe0ece4f1a262a20dc
f3f4f1f7080d191ffe2a25b8d25213f2
0d17f207fb20eff8e927fe13ffe95424
13b7f2daf9cbf1f3bbd6a7e707cfebaf
e6e0cd08fe1d04fd0be600c914f8f5ba
021318e7301fe0eef70efa0df8f6f360
0529011cfe0c09190e472819e4f92233
423bf89f2fdc140d2a1919f0f8e8feef
2f1a06260117f51926f9130223e908e7
06ee28dd01f4d9d723d9c5d505f111f0
08e6d61bc20cf814de1dec0a0e0ce0d8
f1e6f31b2c1503dbdae0f6e7e9f5e0ef
1642102154150aaa0e3a4d02062e081f
3ba4cce7bdafe8ffe4cabcded1ca0aab
080708f516c3dbf634010723ca00e316
fc58f1182225fae0324e3ddf012c153d
4c11f7d9e3ee110df1c0f73e081c01f1
1bf903e51911e335ee1131ded821f247
09080cfbdb3dee070dd3ffdee1fe0514
bf0de0e80507262abedacf2affa6fece
2709f7fc3cfddced2e06ddf6d42127d9
0ed44406e326f3c8c99c03dee60cd3ff
f0ef10ffedfbe7d6e8d0e7e41c030714
d55bf7e8e84ff52bd6f9021512b110e3
07e0d31742f4180c0f0ae310fbc90ae9
c0f3ed02b6e6d5cebfdff7ccfffe1306
e2de06fd14f318fc1a131ef2c309d528
e933d820f5efeed8d4422408d4290cf3
2efc49edcae0ccd0dc133ac416e515eb
e019b1f4f7103c05de2dbe16cfc7e012
de22eecaddfbe8fdcbf1e0ebfda6efd7
21d828f4c2f4fce3cefaffe8050315f6
071dcde3e75f244c00d8e81feaa6232d
e817371f26f62d1303f82d0ff81cf646
f210fadf23e721020621d9fef0eb09fb
d0f1dce9d5d8d5f4ded7e7f4edffeefb
07102427041c03f21903fb141313f8e5
f932c30b08ed1c01f027212141fbde08
1cf1f828e614f41d030911e90efc040c
3def05f9dff3dc0f00e83e050b092d31
f5a8041d284734d5c6f7e80c16c308ad
160af0e1f60b0b2c17f8d713f5360edb
e924f21aca0f050f21fa130a2424f23d
b336fe00131ed90927e2f53ebbc5fcf1
d1da08013703f018ec10bd0df4b51301
0ced18de08e4fe2ff0f724f6f6081b26
dce602260613150dc31305f4f0190719
11fff6c1d73127dae0add1fe2c3130bf
1dfbf9f744dcf945b5fc0a06f1f41706
e131063521e113242def1a2300270720
f9f60700c0e5eb0d091300080ee9ed19
b2e4c6fdeaeefdfed6d7ebf1d620f5f5
f802060d24151824f7130423f8e6f044
17ec3724292020ee000b1f03f0051cf2
e1fc04f7040e08dbffe9060eecd9f0fe
f4e7fb0a41fd020713faaf06ec070736
cd0219fa0ad4cb0cc53d26f2242dedf0
fdf60aaef3e9e216e422371328f701ea
28fc13fe0d0003fcf1e4f3e9f73209fe
c33b1adbd4b228e1ffd43b043cc6c8ec
fb2b4038e3fc30fd095cdfee22b8bfdb
fdf30dffedeb3234051feca31aced3e2
3301fadf15ded5ce0924f30a13f30510
1ac3c9f0fed2e61ade351f27c017fe2d
16f10f45ceecdac8c9ce2805e9d90e5b
ca43fe060d182be9220bd31ceae1f92a
f8020f31e7e8080cd2c8da2bf3d8260d
0bf208c603f9ded3d7d4ced908f6f4c7
faf7241dffd1eb06d6ea052feff6150f
f0eee4e911f2d0f33017f950f70d0d0b
f60807e31fe416041df30c3803e80611
f7d326ededdec8f71525f926dff1e427
0f1a0c31e516f828ce976bd5cdfa1a47
dbaf0814f1eae3f3efeff4381104ea1f
cdeffdf60ff604d6f5f1effeee100afc
4bfce502fde60214cdebbfe819d0fcfc
3e46ebf3f8071e0d2112b2daf21341ff
241edfde22f40a2433e2e83428fa350c
d5eb3622f7fddefded1a3411f6e6e6e8
a2db4618be329ab7baf11119d3d6bf22
fad6221fddfbb3192ec810deee180b1d
f0f6d8d601fe212ae54ef501d70e2125
ebfc130c1bff1afef3e84022e5f2f1fa
a70eece2d1d7f8c50516d2e003d11dc8
ff29fd09d8c737fd05d7f4314ee317dd
001003fbf1271f130732fbf0182124dc
e40c0c12390fea0cf91fd41317dbf9fe
eafb3302bc0915ed1be9040be1deef25
15fd36f61835f60aab331a1de21c05c9
d83c250c1b1727d103fe0e1c0e13dfd0
ff341e2100de0e0dfd0cdeff10f2dbfb
260608b2da0ef4eb1dfee4e1161af9d8
f8d627e608fbd3c4ff1bfe0402f3e5ff
f20adc05f32a011af514b9130c01c4fb
fe401a3a3a0f0deffe26fb342ae211ea
fa5a2adef8cc14f9e000053619c23bcf
1b32110719f91c18d8e803ff18effcda
0214051be504f61c23f6ddca0404070c
e2f8feec18e400fb2dfdedfeebd0ef05
2c08e7dbb6f8efc71de10502f5cf09f0
f91c1ee6fe41d5e5eeea0dd9e7ddda0d
f5c00d0d0e2a03fe0fd4e1fe1af5ce1e
00bfcfefe4ffe7e903e625e5322409e7
0932ee2509f703061208f5bfebfcb6db
c63403d447110603de0e262ae8e0fa38
2328c824d558ece10de31edcfaf1f118
e107fd1be3e9ef2be702e9be261a0be3
0ceeadc2c6c3f9e7dddaec1b07fdd6f9
0207dee937d0e62f025e2311e74535cf
13bc0836fd1a2618dcfe00f7125209fb
f0e614d82eeb081e38ef21deee0ad125
e31ff0e6c524a90abc99360a12e1a7d4
201fd910110ffcecccf713d9210ce9f3
f504f2f6c4fafdf4f6102529dc1c180d
223b10101108f4e7e511eef6fd212403
c7e6cbc406cdf9c8f4c0d1e0f7ceed13
da25381eddf9eb011ed5201efbf7f2d5
cb07fe3502202de8f41a47eee4ddf128
ee031351f0081d1bd427f91cec0be611
baede00ec30426003a2b320ad3bfdaa0
030813132f15df5dbbf2130d25372c2c
0f0733002301cffed9f5ff09020ff90d
c53322070118f3e0f905210cdfecf006
00f215f7fd06feda270de7deddfc10f8
220d4eb156e819582825e819b6344cf5
17f208da0ff823eaf41cd908d304ed02
fb1e2bf904e62d1e18293b23ebc90dd2
f73e1f0ec309d60ef5db2c11d9c3a9c2
222f22fe49071801d9cafff8fae7ee00
21e7f1e6ea1938bd251118e8c81b0836
de3832fb2a0be5d1fb2018d50803f704
f0c4f1e405e7deecf8d0e1e7f3f7d3fb
1bfe4edb2fb911f8de110612db17271f
37fe19382421f0f1140c06521ebb261b
04e8052301cd022b080f01100bf6ee0d
19eeff0be0360b3a32eb092624f01a16
c81dc1cc31fbcec0e201290be2eebd0f
f9201f15ffdbe0ffe8ff10e6cb2605d3
130d1400f3f40e36fa05110218293b19
e61717e6ff07dddc17f117d8ecfddcbe
1310e41051f100071505f7fcf15007f3
1510c7002610ca3c13f4fadf30caf311
fe3a1506ae0ac5d7d700f623f7021100
96101db6cbe1e8c0dfdef4f3b548e0e4
0c0714efd634f4f6fe021be306e7d90f
f0aa3a1b1e021ee70526d707dfe307d8
eb1af60d1a16d6eb011b37fa3830ef05
fceae5c5e3bfdfcbfa1606e3d3ead7fa
f31ff2f82cdcf60009c018200cfbf322
1c25ff2108021f1516f72b2bf7faf8ff
0200e5d9c714220108c0eafcdee91ce0
07e501101812220cf2e22106e5efd915
e1101f21f1ebc9dde319fb043b2809d5
d5180de11bf90219ebe33a2a13f9f814
fa0903e9d6f2282e0bd21dfc21002f1d
dd01cdd600dcf3c623ced8f4ccf5f5e4
a418e1cd1ce422ca352633ee47171f41
0500fa01ed242800ef062cf9f12127e2
2dfdff21e1f81fe6fdfb131fe4ffe0f7
e21428f3048ec73bd1cf00ede0bd0c01
05ecc60cd4e0341e0af7dae4fe2bf2ff
4af7e70a0114fee91efdf30ffa2cf5f6
e1f1c728eceebefb0908112b3939f11a
f3e204ebcef2f622e0e0f8d7d3cd13e0
e50cf71deedec9f722f31615e21818e5
ec5f18d201ff1f0ae634e65519e41ce6
0c1525b8312c43e3fff11914fdd4c301
18100631fa141ed4fb1c13f8e2f0f701
dbf1c96cc0d1bff6190afcd217d20ef1
e5eff119d815ebf652ed31041cfee901
fb1cec2e1f020b1f130d0b06e41cfae5
d9dcedb7d0051c30f20cddac06e4d012
1fd93bd3f9e41318090615272c12e137
3516f8a923fb22ed322a102cee2ed926
e91d1839122be8202dd033d1121a0315
e8e20235e2b8d5d4ffb72cdef3e703d3
3901fcf921370915fad83d161df4d9dc
e9f75422f8f2c131cb06f6f0ead0cb27
0a0cf41b0d111012af08ee064a16d0e5
bc04b6e20eea0edefa09f10eece6d9db
da2206f3f7151304d711fbed02fedefa
17240c092400ee1b0e2ded14f4fafdc6
361226edd5c523f6e615094ed9fc1d13
04f8d3dc2c140a0107e1eb30aae9180a
af05f009e435ddebebafe2d8082dd846
fff21c0efbe108e0dd15f8fec6fad80e
0520f7fff518fd1c160e3012030c2ad9
e694fa152ede0337d5ededea0ebcf2e1
ba991eecbee3f90bc8243ee91548ea47
30f71018cfdeea3ff808fe1737530440
050a25e70b191226e81808c2cfdf232c
03e7f9d93947f2ced4e703c49cd1cbf3
030d1702e1fa0ff21e2223fdffef00f2
fc062bdd0048eb160dfe3a07003bdc19
fe26f0f9351a071839180df2294026ff
f0f4dc0101c5f0d1d8d4030e1901cee9
f0e204ea00f816e91c333a0a070338f9
240c0c1c1c0e24182c170ccaeb221739
edfc2f0b3b15f21d0ae702f30de20e12
f7161d01d2ee16fbe7cc0ff306e73c1f
f63017dfbff701cfe939cf1cbf33cfe8
10eaedc5ec442b031631a50c01263009
1e09e4fcfa03f8f412f1fdcc06bbf630
fa1b03c1acfdaf010d0f06fea20f11c8
051cd1f327cddaf619e6b1d41eb9fc38
05263a02122f2311f7ade5033902d13d
2a142bf00d22f8f2160313eeeb251708
bcc7ce08ea1f17c926f2f6f4c0d147b4
26cf23f5e6113c094505dcfc1516142b
040c111d05daf8e6ddea2efaead820f4
0bfa10dcfbc80122eaec3d1407f40d05
1ad2c4cadde016ffe4e5ddd6ffd5efff
1a051ee2d30c20daf2f7fee3d7211a0f
1628f10e273afeeb29cdc611fa47f41a
20d81806223ad5dffc11f825ede3e72d
cafe17310c360b9e0dcd9e17160a41d2
f71afbc9b6ffff44322823c2131a010c
e7da09ddffff2ff52a0917ebf70f3416
dd11f003f815df0af7f9dbf61aebf708
c4d5151bf1e458971fe21fbd9e35f914
b8e642fc1a0eb23313dd2b2ae7002c42
fc0efc0f06d0fa19eb2bfbeaf2daf81c
27291dd5dd13011bd41754fa20e00bde
ead83cd0da0551e1101dc6e4d71305dc
f90df215e706fbdc0ffe1ae8f2f8c4fb
fae60d14d618050fe5eaeb11f7edd008
fed0f2e530f712ee1b1b0022deebe3e1
0de5dddafdddffd9fbf9f1ddf4c8f6f7
022d2bff15f638012c0a252007ee2e02
17e835f91813d9cafbde02e9d41232f9
02d8080c14efd8e308cf18090f200bed
f9180413f6defcc5e910ec12cd22e2eb
4050160cd8d007c6f144020646e8ea0a
f5ea042422cc34150d171c3303fd1ae2
f0e901110ced1ce5f0f71bd3e3e909dc
fcf3f294f0cb0edcffe1f60deae5d12a
21181aac2bf522230617e836fa23ec1d
3bfc1ad82d29033d1a270b04ddf2140c
eef20a1522e91cc2d2eafd0c1feb25d7
ee06e8f3c1072ab033f50bef39d1f7ae
01020406ecdafadd34e5171c0ee417f2
cae616ea18eff3f3f2e00bfb260310f7
472c1431ed2ee13620f21a054317dc36
03eddaefe9dbf7f4f4d1d5e0e7d9debd
0e180812d828f32f14ddf8fd1ec5e4ee
f21f2b2af6fdf4340d0df7060903de1a
ecffff0afad41508f71612052c0a2f0d
fd28fc0a0df3f7ebff25f3273ccbde2a
0ae40bfec32a00c5ec4809d9072d14e1
2d111b1ff7f4020f2cf814070f1d201d
01e0ea0a35cde618fb1ad7e520e528fb
9cffd002d1bcf5eb03f30bf91d1bedd8
e21518eef8121c00f2d545c815fb129d
3b4b04f7ddf035d22ff105f1e1122a0d
320821380318ea0447300803190bd314
1f26e724e50bdc01f118e4e01a8914e5
0401fce1e71719e6f0121eed6931e314
da01052424f4d4541e0a19f003f7e3f6
1b0314ef13ff022f1fc9f60ad9e9f6fa
f1c4d5f005e70cf0e5260bf6e207cee4
3b2dfdfde035110d421b2f30da0a301a
1336d527434909100f512f453b180018
19fde502e304ce0a2feae8e930f003d3
f0471aff0013ff093ffe460a432ad617
34eb36efbcd2e9de28d53a03dbc90f04
172a051f22eb0a2013fa062a00e62b30
ed47fde407fde4ea30f91ee01d1adf0f
ce31dce024e0e8010a390c9d2e1d0bbf
39b7f2d0c2c51c4810ce961227fe10d7
d9cff4f2e7f1e937e8cfb6ed1cf4e0ca
eaf80dfb0b2bef3a260ae21eeffe091f
1b2c2ccd2400f4ea2b3f63f6cd21f62f
2100f6e8d7cd18f90de9ff2ae3f33e00
103808e92d08be1d084a22fe0a38fdff
cd111f0c03f4d938f0e9de3f12fc0435
dad9dbecebc8eccdc9d6ddfadef3f1bc
0bee34e0142106d3e3f5db04fbe71511
fbe9321025daead6201520f1e22e45a5
150cf7d9d9f5e8d10116db0706040008
2ede440b10f5cf3d2dff29c10e022fed
e02df9c9ebfe1e3edcfb0d3054e0da3b
f6dd190a0cf2def51808f41801d5fc04
38ea06eb02e0d8f3f4f3f8f422e81bd5
fee01013fa13f3d4dffb09e1f6fc26eb
ed40cdfc141018261b5688210ac93521
e813d80d28e1132d04e4e20525fa2ff1
fd2a42092820dcf4f8c70319e1171ed8
f8f643c5dc2ad5ff05e0eaaeddc81ff7
dff11c1904111bfbb209e0111c1ae5eb
f1f954fef8d918f6e600ce0c0012fbd5
caf734d40c19d0c7d709a3f6dfc4f101
fbecea1d1b18dacfebf0cbec13211ba9
f1f9fc3d441dc8faea1ee115dde8eadd
0146e41ed9df2ef41cefe11b451ed71d
0705cccf042bb9e71cbe11ecc1faeae8
dcdce3e72313f6fc1601ed06e2d8fde7
d6fa000fe5c1fbefe516fdf3ce05bf4a
f124283ddf29f61effe11c1b142d1808
1a271ffdf71ee8e75b07f8d9f317fa2c
e4b8d8052df3fab5b308f424dfdb0aa2
1ca8d6f724eefaf51318e6f7d9ffeee8
c122f7e101d8e8e9ed1c11e1eb09d949
e6feeed504dbce1c281cfd3bfb00f700
0602cbe92c00e4f2f7ebffebedd710d8
f8f60d47f5fb023d11f108ed15ec17f0
f8deefc706ebe4f8b632fbfce9f5f820
c213f4e6dce1ec13020b1b06f003b4ab
21ebfdc8e8c5e3f6c0d524fa0b0dd6c8
d91936a4ceca08160f5f19114bd6eef2
28f8d709384213f64300e0f3e4f725ff
d8fd16f2cbca02cbba17d5ffd608d3f0
c91b010b06e61ae9ff0f1b0209eca70b
28230934f0154be043f4ddc005e928c8
26e70b2a5214edf622370533f9ff222c
3307fe06e1e418021cbef2f1f8f91ef3
cb0cdfb4b5ded6e9b61dec2ce424e7db
ddf01d07eaf61114f00a0f1000e7dfda
20f5061dfcfe00f71df8edbcf3bdf7e0
c51d0501f00927ce17e828f035d50305
fddde0150f050ef5eaffd321fce00619
35cc0d06212a030b1500f232ea332332
e7eef108f2e913f109f832f80c9e23c4
fa13130ec5012003a3ccbfc8e2d0df09
07e8f4e1f100fef8d8c845d1cbbcebc4
381e2020e91e313bf9cf0dc6e7d1f83e
f5f9eaff3fcee4d95b4ae6ec5a5561d8
e215f4e6d2f7d6ebbadeead2f6c302d8
ed05ed06f8f61d1b08cbeb18e3e310d6
320af5ee42f93a233b48eeeb410d3ef8
1efc15f61409e4f3fb222301f90126ee
110de0c52c0a1ef42212cdf51b4d07cd
0203f2e1d633f0f3d89e06e1e89be50e
fb06d8f00a220017efffe0efe1f31a24
fb21ec2429d8031a3004c1d23a0b21fb
f62ceb04e9fe39fffd19f614161a11fa
f6f3f6ec08fe150cd70536eb0211e2f6
f3e0fa15e400c0da17051f2d0ef10405
21c30ef9cee20105e21102cb34fde3ea
ce0cf8a228e41eead6e6f316f9d6dfd9
b415c5060336f9c8eefde418e1f1dbaf
e4f6efd84e12ff01bb0026f6daeb00f3
39e10f36e108ef2444dcf4f2c2061e31
beebcbe8c6f00cdc4415e40301f41ac9
eefbf7e70f25f5dfe5d0ec03452b2ff7
22e9e6fc1e2ac3f04dd707e4d01cfb32
0e2dffecf419334cdf172d0509fb0517
13f5ea1cddfcf21928e6ded51af4f025
dd12d2f9f322e0cf8b0214e4eddac399
e3e4e1d805fd4ce9d8b8c81006fd13de
21cd0bd41c50d303290aff000a26db43
1df808d60005f80ed8e6e0031428f9f5
e20b051905d83619fe05e10210031701
10070efffff0301d07ed212434ec121b
1be8f0ff131d02f1212f0418051dd32b
e102b9c3bed1f2e2b0001301d2fd0be7
ef2b1fc6f4ece9e0d0e0dff6e6bbe8bb
bffbc7d721e91aad18461c36c6e31442
3e0a0b70d844dd112ef0f7f133241dea
cdbce9badcfdd9ebf7de0c261c0ad4cd
12fac8ccf3dd2ff7eaebd00f02080af2
3cdff00d0de3f84a4927ce070720290f
d72304f7f00e00f8d9e202181508e0fd
2af3d33ad2ed0a1d23e8d6fbff2f1bfb
abdfbeb8d60f2390e6f9e10fd894ead3
03f6e9dcf1fdf91bf221021509f2e3ec
20e8f303d5de00332a04c2c8084c1ae5
f3ec0029f6f02513ef2410fd06f015f3
19e407dbd41af9f1c4eef51f05eceae2
fe12f215072ee824f5f7f8ea28fafa13
1ce6bb18d704fdf53c13f3f8db051024
010813c81dff090bdae8e9dd18091303
2f0ccfe7daf6f6ceb5e0a2c0de10ff07
3113030638eb0f43e0e012ea1225ee11
d2e70a26050049033f201cffbf13cb0b
e113eae117eef0ec2db8eb02f914faea
fe0d0aed04f9f0fef600e6dff91a07da
dff705ea00ac311122260914eb1bf415
0d1f271bd00f0ff8e3fa1722f6f5f6fe
e30904fefb361c3a350f060a06ddfa07
f0e006ccf40ef1feeca7f5f20d381def
f00f01e3e40cfd03ffe4c7e015041a34
ee0626350dee20182633f02bdb001db4
de250d0ef51a0d0af313e2fa01281d1f
dce7ede82cf3dd29ffedd42700ecdd20
0b151affed11eeddfdf511320a0ae7e7
1c091121ebe1cb04fcffcced06efff20
d80c00b418b71dcdaf0df2e1b4eed0ae
f81106e3e4e2cbb4c8fdf513e22ce0c8
f929ec021dff12f6ee1d210be1e0dae9
37ae4b33bb351a2551f4d9054c2f2d38
dce0f112f2d4efcbafcde9bce303c9d7
0ed3ff0b06feddfef7fd0c18150f17f1
33f5e31a002c1c384236d6f122ed2123
16e123ed09ea25eb0dfe1a13090bfc01
37d70922f81c26362fdc16002310500b
d908e1e700ade9d3d7f127d1b8ffe6d4
e9000b22ec19f9d5de15ee0705ded2fd
26f7dd1c1e23da335d02f90179fe0410
1a04140e2a07de07f913fff226e514fb
fe1af1d9f4d0fcf4cbf411dc0a010523
eef842fae5fa20041210132f0c1518eb
0800d428f3f8db24060506f4f404c41a
e006fcffddedd3aab814db1c0efb07fc
d3d00200d6d8edece1ccdbf6e0000080
06d80820eb34ffe53737c91a1b3b12f7
42d6def32534162a1fc42de8ee192a17
f0d7ece5e2f9dccafc2cdfcdfceb0f25
e89cb6dae82cdcdf0110cfd0fe1e0c08
34e3e3ca404136eb341a451a09f80713
fa0f0f10fff8f71ef9fae1102702f205
f300ec0f291927ea15ed0d350004e03d
c2f302e802e1e3a8b727b7c8f3ef10de
e534e6d0ece60ae900102b11f1dcc3fb
ef0503d60d3930f81e0f1cf60f1bfb45
07d7d1c209fd0000f41d34feef171c23
15f0f30de9d7defadf09d5e1dd0615f9
0800f1f231f2032f02d10313d0cc2d00
fbf2f704ef21461708e10dd4eeff1c17
cfc7a2ebeac6b8fff2110fb729c5f1fb
eef2e5cec5abf0ebf9fde3d60aa1e61b
f2050e37f6200c20e22ceac534d7d60b
39301edc290d16e1f309e52d180a0f0a
c7bcd5c6f2e30944e217e1d3e5f1e200
eb05ffd9f3e6f63503080ddd0e00a417
553139dd321803ffee1d0a0a08500b1f
1c1e1735fd00211114f6f2ed09e101ed
144118f8f6391d1c22cef625d4160213
caa2affbd5ccf11ff5edf9cec0f1f027
02e79ddeec13d9240f06edec09fbce28
20fe25022be02705fdf2f10d04fefde7
fffc09b9e8fff849052e061509249637
ece3d80cd5fce802f7eff724fcb8e8ee
e2450b06020afd1429d1151a300feded
ebfa1fe5ebeddeed130c4d21fa23e8e9
b0b5c6e3fa26f00fbcf614c9cc16c3f2
e401e221fffdb5daa8c0070bffe5daf4
f1ddcd07cf19c606f7bcee0c103f0825
24030f192af45d12520c1a3d2ae923eb
0bded1ed170fd4eee202f6e4f1c605c5
18dafce227bafaf60e18e3050bfe12e3
08ebf802f1e40851382ae536e5ee32d7
00220a203a22dbf31307042109fc0efa
1a0c1cc92cd90a1a46183111d523f4ec
8dd1cbf0fbfbe9b99dc3f4c1df0afde7
e8daf6f3fc04f5e1ecf5e31ef3f811ec
1fcf0ae207c419251b29c21712221a05
1c00d12a01e22c192225062af825a5f5
ef1fe21017d9fbbbe9f2dc11130dbc0f
2412fc00112befd9f1103702eca9fff8
f5c70af9c3e42e411616f11f0025fc14
ff1afab6c60bf5ae1401dc0fefc3b3d3
fdf8e8e7c61edae11a06dae5fee3f8dd
ef40e3e4e405ccdd2af401ed16d3e4f6
262f17226df03f40f7b414c33507f80a
e311d6ccc9cadef413f002f6e9d2dedf
2419cf0d0404e91e1f0be8070ce52c09
38fdcb1e0294617fe91148043035d239
fc0c010419d3e0f60bf71a0009fd2a07
f305ca0d140c04f9f9e90fdd24df223a
135e16bc022bbbc7dfdc85e3d3abaca0
ddccdcdecffce90c1ae6f6f5aded1b02
2a4b05f612e2171bf1e512060a11fb58
1e26e8e4f3fd10fb0304240633fe0f15
19ffef1701fde5c40ec2f9f90f081f21
f1f000131c27fbf115ffeeee14e13736
141deee3ef0d271ff0fce60c1b23d200
8fda04dad2c7fb1e300d3900dbedf607
d9050ff9cacd15f90711f8ec21f8b4fb
b5d834f5de0e0456f7093709fe20f344
3717d833490ddb0fe7f6f84bd7fd14f8
09dddc12e9e3e8fbf6f418f7cbe31e02
f9d9f917f3fa0d09cbea28ede217dc12
001de95e3207b955f1ea1649020a4032
f9f518010811e60a0a100b112c0be404
282dda10f8f4dedee6ecfc010bce1a20
0fd8f5cedccae31b02d232aceae1c220
e9dfeafe04e4f2f7dee211fc0229f0de
0602e02e4709dcf3dbe32a4b05f2361e
0913f8151c09070deede0107c81d1d21
2e00e2ed08f725f1030512f00b1318fe
e6080501fdef0ccb1b06d40df8ebfdbf
e4ead701f8fed32ff8d60219e0cf23f0
feffc2b2ceabed141917e105dae8c8ff
00e7d2dbee08eccfe7131621eb0feac4
393712dfeaad1b110cf6e4ee1cdee015
e6de4d645530052ef91bf608a6293aec
e3e2f5c91cd100d905e507c305d900da
07daedf20af3e40de4f2dce6e8311429
44fe41f24d08d857dce5fbf903491737
e604f2fbf70811e50207cc10fefe11f1
13e1ff211c00221c4222fbe0e4267608
2613b4b0fdde0df800e8d2fd23bfd5ea
fe0ae3fdefc6171615e227020403fd0a
2000f8cc39def65314f9fbd7f04aeb21
2cd9040c2323e914f1d0032be70c3455
fc020b0a11fa03fe19f8eedffadd340b
e635ddf71a111ffa0c091c0ff9f6ddef
0b16dc0121bd3d1a07e3070705291a0a
ecf7eeeda70ae0df00b60dc621d4f9f6
dbdefd08ca0de7cf04f50ad0e20ee5e4
b9e8250def1416fd492124ed1135eac0
3724d9ed5ee46b21000bf53e2ffe0315
01d4f8d0fcf9f3cf0cdafab5c9f8e4dc
0e09e3def9c8f8e3360bfcdcfe1dcdde
2c3f1ad203f94519e7f21af02534f6d8
fdeaf322fb1cdd270713ef121efbef0b
0310ef0332d0100c0dbb0621fbf40f15
ced7eff9bce5a4b1c9c5ef02e7fc18de
ed11ed0bc9e1eaf5e2f0df0324e7dfcc
2e56ee092bdf642601cd20f6daecf5f5
0c0bf50803af26050ee614f50c1aeaf5
151df7fff9fcd90c220a04cb0209d714
131dfe331feef743fee3f51f04e32508
3905e605ef12fb0429dfe3e50900cbf0
1ee800f8d5f1dededdecee080df52acb
ccdb2bece4f000f5ddea02cac4d108ea
fbf1f7cee6f5f11a12140bfaf2fecd1a
d2220333073b12f829152b29305acc38
fd1cf0ca15e1e2f2ff12fdf92033d0df
d71edfed0c19b3fdef3b02d40b14e2ce
d6c6f828d30c392803bacbfa302828c9
0a250d232343f7e93a213b01fdeeed5c
e7f8b90201461edb133313132ef1224b
18ce0bebe1d10ce8eab3dbdcc2d3edd1
fa2614f203d30002e026e709c32e1e17
e1ccd0f8d0164fd105f9e7124cfc19e2
de1ac419fcddf9410e1af31903ebe7fd
0417ecf3eb1a0a14140ef110ea07f311
1f47f82e26f217fd431be71401292221
f807cbffe0fe0ae9f9c8e2e839eb30e2
ba1ce6d40309f10a06ebb8fbe5cbdac9
ed2a08bbee260b45020e16131b04da18
1905ef31dbf42f3307070166c1cfe428
31e236355fe508ca04fd36d3cf3919eb
bdf3f2f207f2cce9e2e0feeafd15ddcb
b6ef3a00d8f1e5182318d9ecbdd30b02
32d8e83953db22121e39d31a00402409
2f1628d5dd20c7ec0d2e0007031119e8
42f005e52101e30602d926e7080f1bf9
be05efe9d7a61d17abc2cbf6fcd8e5c4
e8f0edf809fc06f3f4bdd9110c00f9f5
2301d145361d3adb392ebae7f0f243b7
e6eb3e1c12ee13fd03da03ffe3e8fee6
ff1f04f5db0910cfe306350dfdd6e5df
16c83300fcfcd7f4def30fc612e5340f
f8e50de74bed1beaef03e503002b21d8
ffed00f82824090dfb3800f71fea0417
d0f61f6c0e170ef2ae1706ea1f2a47d0
0ef3da350fb40422eed52e07092029ee
d2cb1bf32940d5d1db07d9df0a0507da
02132506c7e80df11eceffe807f5095d
c0c907f80b28da04ef24bff7f9f627e4
2602fadcf6e10bda311502f0f731da1e
290c1c4df30cc90715bb06f9fa5ffd18
a6f01fb9e02fd0eae2feeb1324e0eefe
f30a1b2bec4bfec6f1dfcde71336e0d2
f8cd04110d02e2e3dc45e8f9e50630df
08041d0bef0de9d3bff4cac7dd1436e0
491516b9f2fe3a1922d8dbf7482bcf44
fad3061ed7f43d2de4f218eb081e2b24
e515f7f40012ed21d90fdc02ec0401c9
ffd60b0607f9c8dbbb190df91f1d06f9
c5e32717d8142ee6030413f3f6f8f8df
04d7f0fb0be4e4230b020b10c3fecb30
14fde9f40b050505600f0c0d060fdde4
ec2b03f002bb0f3dc73ff1ebeedfcde2
2619eb54e700feea000aec3bec0808f5
df13ede3dafafa29c232ddf5e42300e0
cfd7f2ffd8d9fcfe2113ea0ce31acd0f
25ebb9ee32131814350ad608cedc301b
ed212a13acc91700de0ef518dddce5d5
0af4dcd145dfcdf6fa4d0c073622f519
b612dff50c040e1113efcb1c2e17d1df
f3e3f8dcfdaed301de231d0dcd2deff6
63c6dd103142e8d91eccd9e6de002010
ebfee9dd090cfbe33119e3db080f22d6
f403f4ebffd8e627c02c19e014ebf203
071613e613e2c6e1eee1dff2e7301931
4919170615eff62107082ff9190d1c09
16b23b02ae03eedfc2d20911aed9b50a
1212facf06bdf01418efe402f0fd27f3
fb0c1e0dbe062bfcd4c9f3f8e3dfe804
de05cece3f1211e725f622db39360407
2ce3100fcef0e4dddff6e7c8f3d3dd15
3ae507152b1acee0050e23063e302426
d6f21518d00ad5a4f9273aef05cdf724
021909ebb135e320d4e50aeff9d9ffe6
06a81f24d2dff2dee3d02928c3df2410
1623eafa1e25003b0dde2d60f2012fd1
d2f30f29ce0deff8d20325f7c6bfd5f2
eddcfef930eceef6011713dffe1233ec
ec05edfd0ce4ff0d1dede30af204f529
f3f90319f3fbf905d6cbdae5e3d0fbd2
0abdfe02e90feafae3e30e1fccfef404
1e0cfff92b33d4e6ff11f5d9be21ed3f
000902e8221a19c6eb19232b49eec9f6
e6fa1a2ae1e32f0818f5e7cd3ee807e8
dd1f03c4e81c17b5c2171b30020bcfce
25f301def0c5e40e46f5c1efdbfd0e40
cf1413dc082bdac4d7f7fe111c240ec7
f4ea21de071eea0bf90024fbd3162f51
f7f823f2f8dc052113f0d4df30d6f5ff
eddd2ccfb416d7f0e5db2bf2f00df7e9
021510f5ea2725d4f0f4271914ef04cf
e2cb2838f41d0200fcfa25102f200f06
cfe70bdb1ff70404cfed4614c31ad9bc
f2eedc6af1fb263b1b2cfbe00ab822f9
0bf334341411262ce912f408d4c5f5e1
cf0705db082b15baea18e61f0806e0ed
3b051e1c32cfff0fbbf5242ce5fedad9
36c3253730c623fd18e829e5fbfffb37
ee2ae5cd0707f5dfc9c125f1d2cd0e23
24f5fa11fa1d00f6f0ef15f510ebd7ea
b6e7a9cd06f80cebe407f4efd6c00ae9
45eecf69c4fecf5814f8eed00634f90d
d506fa221bf4fce5fefcebf2eccbfc1d
f318db0b15b7f52530e0fae81d0ff615
f5f5170be50fa20f09b7fb01c612e703
f002c2c7f7244abbd133f10502bb25f6
d7232c0cfd111ae2d0d61660d6d8e7fd
f90ce7e92c0b28150a4afff017e41924
fd33fae4faf91de5b0e22330c5d4d426
01025b48f47fe8ff0cfdfafa5410fcf6
ea062712f405f1f1ed18fee3143b01e1
eabff7ca05f317bef11bf22903e30724
e33613040a3f1b06dfdf24fefff10cfe
20e514001ef509e1022eefd6e40a04ea
1b3e32f3d7ede0c8edb42901faf7eed4
c31bfae2020ccdf9e617141ff11bed43
26fc34f4ec02eb00cbe7e6dddbf2e1e4
f7e5f7fbdc0112f2103f0b0ca3c5ebd9
ee0105e9eb0bd8cfcfd1d104f236df1f
febdd5e6c0ec1a10532debb3d8d5fbc8
f810f907f010efd20fc6033cd0c6c9ea
c6aae2b50e0cd2c3efd4c9c408010ad4
2c341dfad700edfcd4a6180105fb1a01
051fe9080204cf22e0f62bd3b9322f2d
fcd6cdeeeb23c0f9e1b5fd1738eae310
e5dd34040bf6ec004e011205f304fdcf
18e0ebebe01718f6fb243f1cb6d8c2a8
dd0dfef9e9feee0dfbeef1f8e6010420
0fd51b0010041605bb13e12b0e0519f8
f5fae411212cca451b11dbf70509fa0b
d61a33eff1fcff8fde092737e6302eb3
f8f6034122f6f8f5e4d5012e1fdc261a
dffbe9d92cfbc1dcde0c25f6bc2931b2
59e60224e40718674306f9f735c22d0a
11f917f9c9dcbbbff4420dfac4f0c9d5
fa0105201908eaf525250c1312d3cb19
02ca26dbe3f5f0ccceed0f27f11518cb
efdbd100f8eee2d8001cdcd2050dd4d3
c11b3cd10afdecc2d8ff1512e030e6c4
f3370ef13c1fcd29df32d32946091216
afdfe7cbfad7f6b5aa1b08e0cf05f5ff
fed62314e608141c17e0c4e50715f405
34d1da0f1ceff9f0ffdbf02414030121
e3dc01ebf9fce2c3f1eb03f4edf2b9e7
12d801f4df1503e2f812041ccbf505ea
340aefe7090a50211df405fc0200f70f
e6e602f82ecfcaf1d7e7161e1a1225db
04203b180d280b2e2adefbe90e16cfe5
d82004ea2bece7d4d714f1cd1004f7d7
4bc2de291c2a11180ede43d8fbe2e604
07f2001338dfc4e7bcf7d6bfe7fdfde5
24d324f23f140d0d0cfa3a051af7cd12
e906cbfc1deaeb28ffdacd2ed0e3def7
b70ddce6dae30fc0df24ced0e7f9c2d1
d93e3838e9c6b0beea03d90617d501e5
0f552b0a24015b1c0a54f4f2241045fb
c0e50d19baa6c8eaf827bcd402f81daf
37181e18151c2ef0fd2316312cf0e229
0a08d0e7d62e4d2ef9ed231044e6cafa
f310fcebe7c9f2e1da02f409effc27d5
d7fc1aeae4050811db020a0a09fc39f4
20120beb060911ceee0fedfd142dd804
e0fdf8fccb19dddb22f20ffc00ef391f
17270a0d0b0f29fdf418d511e4f007f2
abbdf7d9d9dbf3ec0505f9d3f6fafc0a
4d223001290332cdfd04d31bf23dea15
f6d6ffe2e0a9082b181a15012408de19
0bf827d6fefc0e18fd10dee60b46c9de
e615d90921cccff2289e05fc0ff913bc
f6e1c418fbf8df18d718efc61112cb26
d52e0f32e309d1f4f6d22712211335ed
f622f6130f1e0643d860490c27090b1c
bcf2df1ad5d1b8ddf01bfbc7efb50af8
0e15383ff407d604ebec0243e7e91fdb
064f1f01264920e7e1ca361908c70521
dcd40e02b5d1f20cfe21e4f3f514effb
daebd6d50c20ee101cddf6f81f23060c
011e032cedaa331e4119082d350e3bdb
f0e0070b1a1dc9b6c3c7ebbee2d9f4da
20fa271cfcf919fe0bfc0a1c220420fc
f0f7e6f6eed9e3f6ffec05c0e216e807
ec040bdde7f233ef1d1e0b05ebd21fe4
def6e6e1f7c5f1ffe5f0dfe22aec2600
01b8c8ece9e331131c23da0609f7f9d9
ff18e3000d110ef7062212e400cceffb
e9eac2dbfacada2acdcdbefa0fe415c8
f1184f14f71f91e5d8fd39c901bbe3e8
010b0ce81003e514fdf00a09f132f922
b003e409e0219ee5d9c1e3b9fbfdd4f5
03070be6fb2509ff35f80a4608ce01f6
17493203f423fc412d001534e8150a2a
e6e2d6dc08ecd0d5d7ea0ed7030edfdc
03d51507dfe6cff4d9fb09e2eee30204
f70634ef1cf40b43fa02022a1916b6fe
ede51b1ae507d3fef32fddb99f2d2ff2
f1f005ed362402fff2dde24d1fee1411
0b1dcaf0ef13eeb3492ecee1f8c7e3f3
f804c0f7240f1b1cdee3283d47000a17
072de7efd204e0e8f504d118d7efd90b
eaf80816f3bb3f19ec211ce010103104
e3c1f6f7f60bfdbde8f3f7fcd2ac4cf9
130fe7de02109fea06f9c2fdd30509fe
c6c50fe5eb17f7ffe21010f083101b03
1dece8cbf812f5f50d10e0f7191f03eb
f306e70af6f8d2f80124c2d0f00ce8e1
e3dd431138184407e0d830263929343d
fbee261119f6c6f60ae5fcfbd1e8fd0e
0e10fefdd70fdfdcebe8cc1fe20bfbcf
09fa10e90a1ecbd427f5ff0ff72a35f4
eb17f92411e0e20e17feec26d70506fc
d6dee9bbcb01e3cc24e50ae218e8d8dd
fce7eef5ff3a25e3c2171cfdf40b00d7
cadc00e7d0f8eb2c1e061c09fc250310
ec39b3043e36e60af4f2c314ffe846c6
c6e218d0dbc4013ff7f2300404c81a0d
141501fa1b32301d02eed6fdf2054dca
06f909fbf8fd00a5e6eee820db18ffad
01de05e8f6e720edd43009f8e1beb2fc
fae215dcc5fe21d6352ffcd41918fef4
130e1fe80cf61e1a2f26f90ff3ff1c07
d0f40ccfdcffee12c5f0e6bc1ff7e9ec
233cf0071713f70e1b0bce1428eadd01
23e80aec10e2ead0eb08fdee240a0a2e
fec801d9d2d4dd2cd7e7fde109f7ddf5
1b03bae8ebe92527231830f1f712d62c
2ee90c192c26d04df1edd701ed12112d
f7f4c7fcc0db0107f82007330db1f507
2b070d1025fb1ed117f6bb0517135aea
2519ffb6d1db1b3307f12a09e7d5f0e9
d4f04e293422b337ebe21420da1cfdde
3704ead2ebb9f6cee8becd0410a1081b
1ef413f83aefe34eddfcc6def4413323
d3e91a09f5fa09d82211391d17ea08cc
0bd2f0c3b9d8c20502e0f0dfe2c8ce0c
0a1e00f7dde82fec03f9f90f3ecdfdb0
1a15f8c108d42bfd130510eed12a2521
2410f5ffe2fc0ce3e81924f4f8f1caf3
e40501561d3004000428f3f8d23a5cd9
0a19f6060624d5f4d918160e24141ee0
03f7d2cefce5f7f303fcf5ffe7d3e7ee
feead3ead703f2f0ea2422130d0f060d
121c0fff25ed2bf5e017edc9e6faf5d3
f8eceb19c0e401d7ccc7fb3e2b103200
0be301fa190de7e81df124f81100c904
dc1204f8c2d506baf79d0ed8023413ec
0a2ed9191df53c47dd1dd627cfe90113
f9dae71bb5f7f4a907e7e6d7fd03f6f6
1affc2d50dd24af91122e8f1010416d8
292f090d02dbeb07e6d8df1ff4d207fa
d9f0d616d8e9d0e9d5d2fdebf1fb1603
17f6f62bee01dc0019cbee0e371be5d9
0ef4f1f2062300c608ece4f31cfdf904
11bce301fc2cd9f7e807f7fc11fee505
17383116012f1ad5cc0b1b1c03f7df11
f39c07f303e6f2f312161047340f1d42
0300d8d7d6e8d8f7e6f300b7f407f4f5
caec33d9f7092e04f2e327e6142108da
14df0c2cbcc9f907bebcddbb0ffd00be
f8ea3501180fe514e115e924aeef002c
024eeafb402d07fd0a1336eb0f11f320
2de9e5f7cbbde3f9f2e8d70bd504fdcf
e401fe3bf5072cdffff80af2160d0ce7
08df06ecd5cede2feec8cac9d9da1cbf
d9ef0422091a13e1eff2e7f5263e1fd0
f957fd084202f8de353c23f20835e121
cbe3fcd7fceaea0a17cdc70ab5dabfed
141c0a00ef25fefe1c1f3c1bd0071a21
01fc09f111c91608f5ce0314f4d31f10
e92a28ebfde6d606f3c4ebeacdc3fbce
3df83f171f0621e5fe0d321f035ff633
19e404ef0b08def70dedf6da13e2000b
03fb17d4e214e3eff001eacfd2e2f4e8
02f10803fadcf12808e8f0dbdfd8dbf9
eef905142110172138e52c14fa25d01a
0c0502e9d1faf7e50ae5f5151ae30a0d
bc0c260b07e4061a37e8f0e4ff2168e0
cfd5f2e6033b0914e9fac71b10bfe603
3ad7091d3fedfe02292108c20bfb3ed5
0bc70115f5e71dfecaf711ff07fff818
fbd1f82625e3e1c224f81f00f7240e15
230928f619fea0d3fc05efe4eee41ad2
cad803f3e7d7ffe9e8e4ebe8ef1eed10
12f932f1d40fdbfdc105fa0b030f11f0
cbfcf0f53f243d1d19fe1b502b1a0ce1
a0dbd6b7d80832f2d1e131001ae0d629
014007fc4dc4fee605d4160d31083dec
16e2eee8efe225120f15e9cff2e4ea19
f30ff6dbdeda1dda00f7b610f9b8d3f9
07d8f7e8e617160b19010b1d00ddd600
d0f0eb0adf02f4f0faeeec30dd2d02e7
1a16f9df00f8f0f01314ee0fa9f7021b
de01f3fbe7f8cd02150b0504baebc500
3d121507e213fbe012d7ece62d3032cc
ee06e41f030404e3ffe3c3aaf30af1d2
f2d6dc14f425151eeaf20df3df390edf
eae252fa24c9f1f2f20504f7e3e00f18
acedc9bf08ffc5eb412ddaf902ece61c
11e90aea102a3de9bd00c5fdf3d4febc
2d2508da0c1f142c26c02f0c2b18f3d5
08fc06120d4002f0f328f505413714e5
084127493302ff0941d6faf641490fd2
30130c17ccf7d91226d9221813efff1e
2313feadfe1bf924e70def09dc14a7d8
30ed1a0bec0f0de5ea2f00f23c20dbf6
0610deeefe25f439f225cbf7d8f3e72c
ef1418ef0aeb0d08fee2f802f21607d9
0124f7cc29ecfeef1a0b0206e400e3f7
d6121d13cb1313d8141f0c08e2f9bddb
1cf1e5d918ec19e8132a1a1ef41a0212
03eacbe7fae3d302cee2e006e6e708d2
0f06d40504da2c15c2f7f70ecdeae821
1b262203cd0bd8f9ede3f7dd08cced0b
df1745fdc90f36daee3ce01840adc5e6
f7e80ec4ddd6df0bc70afe000119dce4
f4c3bcc13fe20b03e61c001fe6f00b51
00fa19edde160c0cea50f400210de8eb
0ce6d9d823d7f52209021f0bf3edf610
e910cf003e0701eb0feff2150918cb30
d3feebd610d5f529b751f52f11bc09fa
fdee020cdce4d4c6ef321e16fb1d26d6
caf7c9e90dfae715ff420427dad9e60a
1afd0ffe2b333105f2f0e8e2f5ceffe7
e5ce121b08ececc9f0eff20817e9fbed
1225fc0df50434e42e08ff0d32e81716
c3ee04130d0af0def71f219cedfceb0e
d8bf17ec17d7cedfc4f4f5eacdc7ddd3
f7edef1f0408f9e5baec1e02d8f300ef
0202f408f71b284bda0afff2282515e6
ff2602f5f5ca0850e415c1e001060628
0dea192ecd290811bbc94105bc0de1d2
9fd2151f0a03e0f11008e22104ffec22
edeb36f7eff0e7051cf0f2e8d5e5fedb
f0dc44132e13edeee5f724270ee01821
b1defff2171bb7fa291b10f02015e81e
10ad1b19e90fc9f1cdbd03f608ebfcf0
19ed211afff7130bf3002b1327fa29da
01c415e8f8ec1017f50318eafed21031
f00eeed31437f0dbefebeff009fbf927
1403a80b11d7e9ea0beb07f805dcf211
f7e4e7c10d10fcfc1c0300f4ca050933
e80a0800cee52ef70c0c370f00ce38f6
ebebe9e8f0f60a02f30f1934efca0cc9
c1e7111c01fe31cb11ec0e1a07f30ac2
0ae324ee10fec0e8180bf702ee29ea54
e50feacf1146c9d4270108e0f3eeecec
da07d31b08ff0210b811222be5fae4dd
1400071ce9cf561c0a2eceea2bc858e3
d04444d9122cf7c1f4102e1733ebd6f1
0e3b660d11ee58fe07f20c2a63d222f1
1d1c01e2f7ec124a1604d40127dd1b1c
dafb24cb3ff854a105eced1346c9dcea
eaf80c1e0b091efe2e131103c71c01f9
f5f1f7e0ef05f010f4eaf8c80ff70efc
f7eed0d7edf8fc1cea1ae2f3ff021612
e5140ee9ee09de18bd0dea0f31de01f6
2cc1f82306beeb210cffdae1ca14041d
db390e011a23cc0ce2e41a2c10e3e8e7
a72121b5e90dd6c5bccafa3714eabce0
c8f7e2bedefc0beae8dd051204e8f71e
1dadbd1115b6410e281ae0b9f2010c0d
09dfa00dd2c91511dc36fe14dadf0229
e8110ebd18d4f703da03eb05ddfbfb1d
e043fe0bd020a81415de2e2317eb9ad5
f52cc0eb362147ed06fd48f210d4fa1d
024cecf2ea00eb01cdf1300b11fef411
09ef0c14fe0baa410feaeeed05fde2f5
e8e0e5facbf5faf6df003e1fe0d4daca
232d0d133544fbde12ecef24cff4fc5b
ecedee030cdb1c00e700eaf200f81704
19e1e0c51d0718e2100d00dfe82df723
0bf31bbb06f1fbe7d7d500ee36dcf316
fceff50706f74606111ceee0100e2ced
151a46f5f00bf4050be50e1effbdde10
e9012cefee12e007e4ae0cdc18e400e3
07fd15fc05f8c303d1b3f5e81de90b1d
eef7f7c413d04edff618d8a9e50507f5
17e6e90a19e1f02e01eadcc40d0a2507
1800de0ae621b7ecacb4f3f203fe081c
db182843d21c0fd20500f208f0b2cad8
42e32903f83de3e1eee609ec0ccdf5ed
e91832d6ecf807fc23f62e0bead9cccc
f8f60c49f2ff1112330714fcede915e5
0e1d19dcf145d5210dc003ca02171202
f006faf9f2e5e8f81308edfb0afb2a38
1b1de1e8fed90ebaf5dd0c02e1dae1da
ef0a22c8eaf8bb00f400fe02f114fcef
13130919d92ff0fbd908eaf8cfe5f4f1
0f1aee141359ce351bfe1af811cf00eb
dc0723fcb5f3fc12eef7e3dddbf507ee
be000bb7d6aef0abc90e0113b9e201fb
eae2f7f8d6f3fadee5fd221fef3fdec3
fc0c02011c2919341f25faf5070614c7
f919b3260d02d7dd222d00b327e2eab0
e7e69ec21cd8ebd2e12c2606d51d0bdf
1f052be3f0f3f3fdc407302d20e717dc
f7f422cff11eeae8ef0de7b91516fe01
2af54cf2f10bfdf018ee251ed05213d6
13e124f4f00915feefcd2a01fa1f042c
eaf80e08e9df06adda3d22f0ab2213e1
193aec073629d309370bf70111fcd707
01dfec09df01dfcff6dddb07fa06111c
e2feb8f31ffd05f8f2060c17db3d13f6
0d0e0cff10dbdffeca0bcf0004e8dc02
0a08f9f11e0217fd351714d830f4ee0a
f402f42d1bf1e7ebf411211913f2ff09
ef010f16e2d7e0f6eb0dde30ffce08bf
dfed072c26dad3b2d31b072607fce5e7
13cac2e9393df8ebfdd259e207f0edfb
ba0505cb26f737bdec2048d8fb191329
00cf2618e8eb22dae37fc7d31dff1ccb
12ff370f2ddd0cfe0adfecfcddf4af3f
e5e224e72fe716c9d90b2dff20130ce4
effddcf73340f2da040eff151ae9fa24
16d00ef7fdf6031af2dd0cf109f5e2f6
f90cf0c5d4fc14d6e9debd14f5f846e6
e9faf74f041d10fe043b20060be207f2
db16e00208f5d4ece920bf15f0dcedcf
efd8d9c4ed0cdef8e7f1f8e40e0204fa
e91010fdd0ddd7e20fe8f21509fb3111
fa12050412fe15dfdb3d04eb081de414
d7040a09faf0dafc03ea221d06e518c6
dbd3ec48e1f7ecfceee1f4f529ce1eca
f2f7d73c08f4f11001293f08d61709f7
f9181debefe8d4f80e2df11b0d5bcd2c
f9dfccf2ec0f1af4f42d10de1f25eb05
c0cac02ac200cfe1ec272dcb1ff3f7fb
ec0f193ef310e9e4f3ebf204bcf4fe83
14e4f120f9ebbcf751f406fc2032ef30
fc241c16fbed04030e0123f1d843f7e9
da0f1325ec17f41d01f3fbf3ece706ae
d500f917e1dcf4022db01ed61eedf4f7
1e042107f11b012dc62df0f3f61f5dfc
d6f416f8f4fcfbf5ef33f00c0ee5db1f
05d6f31e3af1fa082ae5e6d7f6f90ce3
06f602260606ccdec8d9f111ecebf4f1
f4e5fee8e6cd264a19ffd911ff462636
e0eeebc73944020913f405fa09bbf9e4
edee04d12c2acbb7c1f012d9f5d0fedd
e1f5dbfb310af0f6d9d6e4cf0900eff2
24dfc3dce5c7f32114fe0fe40808ddde
cbdcf001eee30010dffff0ea3607d933
d20ce9edb8eee0e1dace11db12150628
1bf3fcda322714dde5eb2307cdd1dde3
10d70a0f2402ef18efe31ee915ce1019
f9e41305053ef3ed06f5f5f8dfe8d6eb
253000b93d34441305120b11cffefdf1
0edc11b904e4d0b6c60a20ed2b08d911
d635f4fbe8fade22fdf1fd3f0b18e2f4
d1d417190c0ecee0daf2df05fef30a12
11f5e7e3f1f0ae0505f6dd0af30cffec
15f611f9211312d3261df1f8d90ece15
1859f7d8cded122ffdf0f9e41f00faf2
d7abf7f4e9f50dd8faedef11e6f83d0a
a7f8141619c5ca04f1c1e8d7e1d8e09e
fafae9e6bd17deabe003c907cf380001
1c1cf8ec1b164810cc1a0bfb4118c13b
153edbc802f5eddb08ec03e9d51bdedf
02fbf1f9e028efc0c7e5c010d1fc92dd
c20a09fc00ff04e016c7f4f633cc401c
1de9eee8fedd24f11016e2e3d93634d2
ffed10dff701290427e0140af8ee530c
d5e80f191a1be51e0dc40609e6d33e04
e6f7b1000d28ddcf5fcfd93ec3d415cc
0b1a34fc1fed2040d416fb0f0f5bf104
fbf7fbe6d710ecd8e814f6fbdada26da
f9c3fa3e00df14fafee2f7f1f1e8d527
e80aeef3e10b17cdf4e6f2f6dd0b01eb
0af8043132efb04306d71d3f02001419
1e202ee4e6e527e924fe03ed0e22fed7
05b9e9d8bcb93108fb1317d91600d8d7
e594c7c1f2e003df1913e0e80a15f6fd
d204ff22ea00b903011eef0fc4df6d04
dbbee5eefad4f9521effebdde3cd2106
eaf50bd7d5ca1037ec0f03e308d3f5fd
13fffafdf12f36e8f3f608c1144115bf
f5f0f2f701d9e0ed1b39fd08e4f3ee0d
2b0f371fd50529ec1b29ee111ff538cf
1b1c3cfa1a1e3de9fb0afb09101410f2
c1f52afdce12141401d009c4d8240f16
31e0ec08ebeaf9eaf5fd06214d050eee
d9e5f40503eb150cf1c3f80efdedfd1f
19e5d9ed0cf6ff00dbc9e61e07e2e2f5
e921e1fb17fe1af402ec0d1414d216ed
11082fe0fffbfc20da0dfbf2151ad60a
ef24e306f627efcbf4e10b04011c03f2
d921cdf6e4f6bbc81d01d9fc3dced6bf
1222dd08d3fe11d1fc0ece000fd7f012
32cb00ac09cd174ce0e30429173c0636
24db00fa0eafdf22f00df2091822e229
1028df07b3e4ebcde1370f1a26b4ee1a
b451f94b12fd17c7f2ecf7231f2606d9
24e0f6ed0fce2c1d10fa21ea1acefbdb
fd51e12de2f8350e0dfce5221ae6c108
d94f32e2240343e4fdecf6d60c0e1dbf
fdf4c5d6cbd030f52d03e3130fc5cbf0
d70af371f4fbd524071eea00e0010449
09e2dddac72903ca1ed4d60607f2f7fa
e5f9de1ee2aedfe0f4fd07ebe106f6de
dcfde2030e1ffbfdecf7f0150ef2e9d6
f505e2f135f00cf9f91807f0e0f0fc11
35140119ea51f02cf4ffdee91b0527ee
ed05f3f7ee01d6f9c429f1eb04d6e9fd
1812e202eae7fa05f5e12df431ccfcec
7267f00c08d059d805d304efd91b1fcd
3a3b00f2dafc19ee19ef1d0408fbd6cc
d1c00b02fcfdd8dede04100b03f417e3
2cfa0b3d5010f43a192af9023bc8f911
122be832ed234acd0609f30739023b1c
2f341b0b09c024551707e50e2ce12b24
001ded17faebf8feee20d711eeb72200
38111116c0cdfd001bac0bc32fe029c5
130710fffe4d11e6df27f50bc204eff7
1bee0cf31dfa10e7e600041305f10118
f631dd1cfef2e50bfb1704dafcf102ff
2f0306ecd506e0fc0f0dfafdf5ccf8ee
2bdcf1dbacf8400ccafedfd3f002f7db
2f343618412b15053a2b371cfd171b3a
f6fa0fc019fcf7b9f20d0b03e3f5e828
311430e436fedf0a0c151bfdc0f00a17
d1bf0419bcb12b04d89fabecf7ee22cc
21f2fefddfede2eed7c6def122e20d93
38cf36dcf1e3d6ecb5b710d2dcc8eecd
0b3c18e4581b1aca3c047f33293c0931
ed1edfddd7e9ee0924dcf403feca441c
0058fd08f80b030c454029f232106466
0f5720fb3e0eedcc45470f0a1624fb38
4041083b202ef8f2f2eeecf7c017161b
eb0a24e6e21327e9b6e1172b04cfe508
0806eb1ebffc1e121ce4b9cbdc05dceb
0dc339edde0604f9feeec815dc001e4a
00f6f8162e41090ec317da1510351edf
290ac33226f5024b24183831dd2d2c27
eee422f40f28e5c4f5f2f6c52610fdfd
02f3f8cadc15cdc7dffa2fe30a17fcf0
1af2e01bd222eee0e2f112d00411ec09
f6f5c91c0af41a032a25cdf4fd0d11fa
f01dcbf931f7381afdd8ad4ef4c00109
d026eadbc00e2f23c8fd0d0d03d8c019
f00c6c09220bb5d3eded22bfeff833a5
01f2f9fb0343103d0809191f171bf729
4efc25f72111f60e02390ce9f6df090c
1d0037fe1f0bcbf609fe3dd6c0ed19c9
eae142bf2d15f00dca0adadae2dff402
e0320a2109f6f0291e384824f249f507
05e7e6dff30615f5ec0c3aec2b2bd622
fff43d12e81ccb04c537e7dbe63020d8
e2dcf2f60d0be1d9eae8d0ffedf93bcb
e7f3a6ecf105e81fd8131debeaf6f00f
ee5afefe1fe8fe1500e9ea0d0f0be8d0
fb0d2ec7efc9e3de371801e51be4f82d
de1f22fb05d9c3102ced301f4904040b
f7effa08d3c5e10ef0280ad9e3170719
222af1ed0b1d38f0181401df35381b08
092313ed31f0e714fa25db0ee5e1eb22
f405cb19000e0a1e0ae7fee8befae0ec
1ce3f0e121db05e2f6f0c5dbac273e04
0bd8b2ee1edae9131429211426cfc716
4d47d910feeb01f71e80fce6fc451313
f6c30af3d211c7cdede1bcf8e5dcc1fc
274c25e3c8ed0e2d49bcff152b23d824
c3e6dbf6e0ff1aef0bc1e6d7c80bd20a
e5ff1ebef113f5f8e825ef2112fadbfc
eac8fb01e6e20014ccf1454d1a28eceb
38e4faf2041d01ed09f8e8fc09061211
20e6e1f52ff3e5f40800f12be3032dbe
ffeaee25ea2408cb15ea09ea1dd21923
d9e0c5db0dd30aef170407fec921fc1f
e711170aeb260310021501ed02b2c9af
141eedc521f2210ec85d123ffff01a45
e1fa3012e205200508f402defee2e20d
c10202e418e710edbe15ec1cfed81000
f1b2fbe4d6f4f5fd0a0d301d09dc0b09
03183adbbafb07ceffea0b2dfceffe0e
3fbbcf0f1a03cc0617112828e915fbfd
f11928dceccce7ee04f445db21fcbeab
1606f1eaf40500e730fd0308f307415a
fab3f8141437df00f40efc33fab60d12
05091c2ece01ee2ee80f1ceba8c712f4
dce6241dd60bdfede2c2f311edfba735
e72200001bebd50436f8c441f710e5e3
011b2a0720f7c4940460fbecf726070d
16f401d918ee0dd41042a9fa3ddd26dd
eaea160cf300f2ffee01fbb4e41fca0d
173114f808dc08070dea0eedfd11fd10
d0da4123faf2ef16bdf5e1cec911ff27
e709cff351d42a3134ffa4d5333f3cc5
dabbc9c10deddc19f9ea04e0e6b2e1ce
d30306271f030a04f2f230e8e3f60218
3520f0c244fb2d1cfd06200b312a0630
cebc2e2012ce96e8d4fe21142be11f0b
fd530f1fef033ef6d6f3f6df08da0b3d
eb16cb2646fdeaf64342232b16392aee
f4fee0f0c40be5fa0bef0704cbe5dc0d
e7eb07ee050521c5d40b00411400e8b4
b1f012ec0ff5e1e5d20e271de9d1fdd3
fdee102e01e712151eefecf9130d033b
ef111f06deda25f0db1ec7fc0e13f10b
f3d2e2b1c80185d11bf7d702c6f4cf49
d4d7fcefcfed3a121700fae629ee1ae8
090ff8df1337efff14ede1e62a12fa22
2147dffc03ea60e2f5de214b5a241df0
36e111090b0ec4ee43eddb0e0417d748
ac00db28e70bdffd2c01c2d8f5cb06d1
dc0943ef070322efe4ff0ddeff0ce7b4
050414e6170517e008e5cfad1c171bfa
fb37df35dcb64ee608c7fc0342db2010
e93d19c0003dfbaddb09f62b1420c0fd
0433e758ceea1c1b081fcbf209cc3b32
ceffd7e202ed32e20b14e1ee4ff8f0f7
d524daf933d610ebcee4f5f323cfe112
fa07efdf15f9e8ecd2e2221bd6effe38
f1f02325ef40ddff16f201cd3805f9db
d3fa160c0e2beb06fadd0cf414e70035
19c8d829d0a4f80d22f0e5fdc8fe2cc2
0723f5d3e626facee1143e1422ec0ab2
11e5daf2d8fd27f6fd2c0df8f60af20f
f62b0b0d0c1cfadffb2a134b0bf126e0
64d7f417ecf31f3e160fd4cae11441ea
c01011a719041ebad4fbf12ae9c80012
cbfffaedf71dd6cef6e6230fdfcff83b
09c9cd19c8541e23212ffa2028f4fe42
132e2a44c7f3e1ffdcdd2a1414f5bdd0
e8f8d8ec0eca09fc2aeb0709b9e61202
14f8213ee128f13342010bee441504db
ecb7f9f5d817fe1cf5eceee4ed2803f8
3e640dbff902cb37bec0ef0743350b01
1045170ee4e6d20df1e909d214ae0ff1
08ca1a182aeafc141813eaf1f3dac8f6
f2ff2dcd12fa21341d18f839f9cf2a2c
b502ba09f194f30004f90edc1f03b218
e30f1126c5e6f3c21d0a0627cdf7f90a
0a3530d3ef2e3727ed410202df28ff17
170649f137efd9200bdc11ea32131225
ffe5db0615f1292b0b29d2d2f01bd018
f6bcf6b3afb2d31af5baefde0ffff3dc
f815f3e506deeefbf41cf1e2071722e9
d5fcebf2f742f80cf417f9120b34200f
d31005f9d22622113231f1f814dae3e5
1627200af9020364e9e7b4cefff50de8
cb03e8f9d01d50e83616dcfeae06f9cc
f3e40300f1d4e30be94ee01007eaead2
ea150ac90f08d4bae41a45faed2825c5
a715f5defa070fcaffc620f8c12c01f8
5202ee2601dced22e9d1f4013cd4fe23
02e6e6e20e0defe7d1feff26080b240f
28b7cd3308ef1e2d30ebd7d007e4e2f0
1b0a14f819d4f1f9b6fc07dbfd04f734
f5ece52a0de22bf51911fef61bc02114
2f5545d801d40afdd11627f8eef1daee
2ff4e0361a3dfd125821f6e7030af51d
d1fb1fbd039cf2aeaef0e415d9010721
06f608f4fa09c4dee3fa2b04c1fcd5e3
18faea121eeeff12140afd0715cd0332
ff001703cd2e2b081cd7212600fe0ed0
e613c5d11114c3d4ea2c13bdfd1106dc
5af039cbde281d253baffbf937ef4928
ce08ebf5fce8c4e303b1e517faeb3109
ef043ee7ddf0bcf9ce17eb2522143401
ff321adf0bd6d8fff51700e6e20423d0
fa0b0f07d913132817f6300bf500dbef
30e0060f0abc1ee1feded927e0ec0f10
efe510d21b0d17c311db3cd03a2dd81c
e8df1ce600fa0bf6f3120a12f205000f
1906090f03e502270703e802200e0bd1
f025133f32e5f3e3d6373c1dffe2cffb
f7feead1474115f4060812e2f00ef52e
d9041a1bafc1c211cafcb90cf101cbdf
001ced0ef0ffe613ef2002ee08eb0dfc
0d16e4e65323330606f90fe6e8fff1f0
2b031f0e12f30e0e02b81b30a8d1fa0e
dd0423fd30def8d2ff3829092dfafaec
f2e9df071361094601c25725fa20181a
fe08eadce9cf071706fb3a2409f905e3
e29e231ac1ece1ea2dff47c81ef1ff08
e9f6ea2804eefdfd02ba0ee6ead5ebf5
fe1d0fc71f1702eeefcfdffa16f3d6f3
d9f60616e8e80a1afaf2ff0c17e30afc
282719ba17ddfd09e026d500c25bc530
0cf31825eef92125e624f8ded7ddd9cc
ee1818f11a10130dd4091e3029fce00c
b5f4e107e1ffe80e09f110643b2119f8
21ee06c412d3010b2cebf0eeec3ecdf6
c6f0f427d7dbe409d8e6d504fbcce8b7
ea130e23f4e9dbdb060a050104110130
cef723f02a0e0020f6453fd712f1c710
dddf12dc05fee8e322d7ef3efd01e2f1
f6e5fdd1c2d2cf140ef60bdf051deb21
f5f93429210209e1ea1cdb3ed214fed7
eef111001229f7eece01cef0f8e7f3e6
d1f3f8e3e341dcd6a9cb1fae26121e0f
d6031016f32b05f1fee8fbf0eaf21bb5
14b5d5c002fc2e12fcf0d11ce3bff812
0cfa31322405e82308edf82aef9fa607
d9e69dc5fbbd32e921f9d620f3f5c60e
0ed421083efdf2f20f12030ae8f3ebe8
011b13f6f3ddfc15e5fa0f1044101122
05e50de74c32f804f14316e60f2baefc
f5e0e2c9cdeb3628152de23a0aee0c27
e52b03e20de0c8babbc3e103f6f9d9ec
04182af20c32e130e6e7fc25fbe7b9fb
de03d90d08cdfb060b20f420fe451b07
0611f9fb373cfa131d131fe7c501e9f5
b5ce0bdd2e1517efb6ef06c8032ce52c
29fcd5f70bfe42125663f656dfca1de0
d1c2e209460ac8e11d20c1f311151ee7
2cf51dc0fc2febc7faf7d0f4baedf9ed
ebaffae8fdead5eefd4ff3fac405fbc5
ffbcf9fe0dfaf4d813f012ff23cc06eb
edee2031262a01cc2df133f41c160534
ef19d32f2dfaf7d0fe0506153ae9b61e
e30de5ed17f1ceed31e3ec1cf7bf3df0
ff0d11ce0415df181309c1fffe41ef2d
2e0b11e3f20ff1e2fa2509dac2473e40
f9f5ccd0e8d1414510ec36fb38e9da3e
f0ed1116e0e1d9b8271be72ad81700d8
f3f302fe0425f0f61d1b1036c8200ee3
414319e3e8fa0a05dc1204fc050c28f7
fbc5170ef525fadcfdfe201901c62e43
fe10cac3ee07f6bb3303f6f1d71bfefd
e112f6230adf3d05119b50dc13fd3c42
d5e4e1200dfc133034e713190ee3312b
d2b1fddae0e6001b1a060793fcfccdc6
0cf513d9f1d00bd2052908fa0e18d0d6
2212e5063a2ee12df61b072e1de5f6b0
24fbfd0d18d0efe2f312170deeebeec9
1002d10efbf6ca21decf0a33ecc53901
f202fed1e41215040be3ca19ca38fa24
0a16b40211e5b53be800130f0ab33617
db12e4b7140406163203360ce5191d02
1e01e4351dfcaf0af7c1f844f5d53af9
00fc04add5ed53e0f1d9f6d30c03c4d6
0a01f9fac6d20dea1bf817053b14f9ff
f2fd141a3309110ab3ed061fac000918
362e15182e0401d2d216f705f42316eb
bbfae5d900cffb340ffc24d6d4e53a21
1aeb11300d290ff7eadfdb5611b63fe4
19faea11e00d0a33b4dd1d1335f2ead6
200ed2d5b6ed24cc1e1d55eb33bce010
0829ee18c21e1610d2fb022717f706f1
f9c6f52e18fbf9210cfdf3cefc301c0c
19e12133540c141218fcdbf4eef53704
d1ca21d41c070570fcc6fcf6cc2feb06
13e2d1000ce0f3d421c32fe716ed190b
fff7f816ff0d1fe125fbdbff1623f3fc
c81efb2508e6151d02d5eb1406182cfa
0ede361351bfd967dbf402dacf4ef212
e5fecb08dc2d1bebbf110cd61ac82c09
1d0eeddb1fe417b126eee3060600f7e6
333027fcfad8042bf805d7e7f52c2b26
9be01f20e74dfceadce2fbf12fe91ecc
09e9fea7edd8160014181138ef14c023
b7e9433628fd33f80fe719ea021824d2
d70905dffcebf5c7400940cfd2f7efca
bddb181abc11f7e1ecd2fde62ed31ff8
e5f315dca50dfc172325d9f30c2513fa
e0de10da05f1161e08f5ff030cf3c81f
4f0c09e04fe20221c80705170ce63228
f7251f06e39f4413d3c7de2eca08bed1
f40b0c19f9f6e2091814dde104e8e415
04ca26dd000b20f6e51538392727dd1c
3b27fffa2c331c1817e3351d6201f614
463ef41213c4471030db0c0f04e8e8f6
bac6e402ed1f12f4d91c17e007ccd3f7
f52aeadd04efefe6ffd0050311f519f3
03e614f2efe4081031e83cfed440d80e
2b5bf35124ee0afaf9f99f1f46a2e1df
28061bf4d30027a216dc27effee004c7
330fcb1c5ff450200850d7e4f9bf1f17
25f2e9e8fa2613fc0aece8d632310bd6
351d03e010e9f31cfd03f315f8d70e1b
f0f9fad0dd10f3cef6d6feeafee113ea
08db14f7f81508b2e3ccf9f0fae9e8f2
0b30fb341ff51b0801380437071f280a
c8f1d743c8e0d706dd26ec1a071ee1c2
181116f72112f3e45100210a083d0b4b
bcfed612ed0f2112ef00d1d2eed7fcf5
4b7ff4092a0036dc3d26364b1023d93f
dadef6ccd50046fc1710c4ec201213f5
11d521c91c030bd2f619f899dbf5e9fd
3fd5112e19011e0b1cedabf4c7d619bf
281deaef1ce1b00effe4cff014f918c0
123910293b1310f4024928170f0f1b0e
52ebd509e7e7fa13e5ddc20224ff1df1
df2f0612192836ab20460ee73dfce5ef
ebcdd0d71b18fae110d8c10f27fb26f4
dc0be1d8fa2a1430d1efe1fef6aff122
18dfebeedce5e200c6a816f3051ae92e
dc29e9eae11bdc041bf6130123e2f0af
2cf6371c1f10fa10e40910e3e1ef1410
e1f8d6113cc742c83501f9140cf205d7
07cf47e5fbf5f2d9fdf40ad9d6cef7e9
ff0c02d837e9192bf81cea2cda28000c
f61c48112e20100cd710162217185324
100eea4348e91ef3101e06ff311316cf
0e32fdded30fb8c8b39b109e251de8ef
02d7c3f6fc0aeefcfc1ce4f8163115fe
fa192c1f00ce3af5fce32e01de13f7dd
21e62729f118f6c129f910e3180031da
0504f4eafa331707faf6be22e5ca1602
3d050a0e2b0dcff10a0912bbfae717e8
0208dce2f0efc7da0bc90c0c0211ece3
de00f800f0e5bef7e230000400d50de8
04e702e803fce3e0f5f20e0aedfaff11
cef9e0c4131ed5cae515ca23efd80c09
05e70f14e7fae90518f60efa2c1c2d08
09391df00af80f070102fef3e707e1f2
ee3b0b05b10c04d3dee7fa030eeae4fd
0a33352c1222f8e204dff0f7285b48eb
f52d10c816ffe3eaec09ae2b231ad6eb
08efd22b26bcd9ef240e1b07f809f125
fa03d6c5bcdfeaed19e110f03dc5e933
2ff5eac7f21df8f6d9d1d8bedbe92899
fa2f1113ee0a24df37d8d7062d3a3c06
e2f123f503ecead5f5df1814f6e100c6
ea042634fa02fcdd25d338052d28ee3e
e3121e2bf6d1c1c9e806f21e0afcf405
f02002f72406ed1513020f10f7f3143d
d62e0fedfcf056e1102125f91acfdee9
c2f509f9e5cf11cf18e5ded0ddf8fba9
d902e4a7c2cdf8fdd3df16171af0de01
e61fece8f90b061ceef8e9311816e728
1ada27e5eb07d1500446d70cf9b0e10e
d2ccdbe20ad113e4e1fffb13d022c6e9
1c1cf8ee0d0127082f2e5813020629f9
050d05db00d3e910c808311912e5afec
2700fa30140a61ed20f2c8d6d70305ba
ffebe7f2e91af7dd25d1d0d2ed06de18
ebbef5ba23dff301c31318e30b15e9ed
0df7bce059bed9fc103e4625de0bd175
b92214dbf9db2306bec6e30fef0ee1d5
3d17ed0d084107f221fff6d711f7f42c
2be703e923dd180af205f1031cc7c20e
fd1707e0fd5728f1f20b0c1511a5f8ff
f317d4fd15ef443df42fff0bf9f62226
11fff6eaffdc3edfe42c20f0f20df2ee
a728ebeed4e9fd15babff8d81fddf5f9
00f21a29e12c132cdddffa00f1dfec24
cce7f7373d09e2ff0418ef00f5cf0a0e
c6a4f5dbde01dbfbc1b90df1dde3ebed
f3fa261f1e14dbeee92fff1205fb5c14
d20bec02ff0fcf05a00302d809e3d3ff
fa22ddd84a1a2bf12317a33614422e25
12f7beae03eaf2122907a7ff3016ed17
eef6150ba95006eaf8a5c2e3edc2b6c8
cf98191e0a1ccef329361bf8f9fcf32c
f61df4fbddf11f0bdec60007d2a616eb
1010d4f80a2519fe2afb0720232a3ff4
331bfb19db040107e30c0816f4bdfe2c
0a11e0c71c1753f83a22f52f08f733ea
16260ab62504f104ceee0ddc0b2fd514
d6eaf0f3ebeff3d42a0ebd00fa01ffe4
f4ff24d70e131ec6c910daf8330bd1b0
030821e6ee3053f7f9fdf50d070011d6
f5ef2a050ff12feb262615280f0b0e04
d9f1dde2ecf6eacd1700d7e203c9e8ee
f71923df17d15818fbd9083939e527f9
c731ecb70fe241d5d905de2c62f42df8
4fe3d5041ae9e7211f0cef05cdfccefe
28bde41bda07d31a4ee3c2b5f2d90a44
bf2d14fa22fdece2ba07251716ebddbd
06253ee9e91a36f8cfd4f4f439e2251b
c52ef1b6e6123aeeebfbd3eb06f4feb9
12ffe91a0636fd34100811f215f0f6f9
eff9fbd019173412bde0ecf901043707
0d232809d225e42cfaeae2eb071617fb
28dcdaf7c7dcba0e1c3be6c4f0d4cdef
f4fbe2ccd0e5e7eed71af5fd0fe82118
d9d7e1cbdbf3f3f2dd26260c0bcc04d1
ca2202e6ebf9f6d2e10af7f21ed9f9e7
030fe9f9013ad4ef16e71ce0f902d207
de110eb6d1dcbdf8bff5044ae20a06df
da33f623cd150db700081f10de05fb26
e813d4f60112fb02dde43313dfebf5e8
3be31e0de6e2e737431fc2f8f13e0aeb
4ed80025b6ce0b23331df7be100fffe1
bc05e9ce19f0fbc0b5d02132e8010fa3
d830e4d9ac0cd70d06d42bd6f7eddff0
a926f1b4e8fd08c2cb37f0d5f2c605f9
271e0d4118f532052305d10f1c0e0307
f7e6f9baf2c7f2050314e8d6dad10bde
23bef511e5d82c12fb1ae9d81c11170c
fe3501f1fd12d411eb1bf71fd7272bfe
f7f6ded7f5eed8d3f9020afcfacf5706
092b23db15dea3ffbec0c8cc0c08f315
f3eb041af4f8c90801c3f824e528f202
f43727070d0d183a07c3021223bf17ff
bce4cdf6e9e7abc019b0dcd101021500
171b18e5193e26dee904260ce9b8e1f6
0d180bf8f119f8fd1fd725f127d917e2
05e9171f1be60503ea6b2650e61917d4
af06e11efff0fbee112b16f0d6e6fdcd
1b2e0be30111c7e8bacfecea13d5ec27
f92b030bcdf81dd230df2511e8bcabd6
01e738211a18b9f400ddcf04280c0d0d
38fc24f3eb2e1de2fdff0923f40a3205
f6fa103bf1e5e5021d030104da131f0a
2e17b4372e07f411f73ad5ef05192129
f029ed28160d18e5f229d5de2a172be0
bc1c3218db0b12d2ece0e90cf0f600e4
9dfee9fe0adfe4dafe0df0e6ebd2f5bb
b80134f2f7dce1e5cebdd4f5bddae9d8
0118ffdc0dd617d305f021ebfc1b050c
c6c4efdfcaceccbdbfc8dc1ad6f72402
19163213ef192cf6fea71563fe3900ef
d31a11eceafec8b9e0edfe09e465f7e7
4a11153e1c2834441cf61df135f0222a
4dd9f6fbd2201d4b2814f7b816e9091b
d5e2facd16c8e9a5aae900fcb3ebcac8
f2ff1bd1de2b2824c3153e2606320fdc
acbd1ec916c9e9bbbc02fe05caedcdfc
07f90e340f221936d815f22821dbe5fd
e01d3fe012f72bb3dcfb0832dbc0ce01
2f14ee19fd12041c2f06f9eb1cea0e11
ea23ddd813f1f0fd19f31a073908eeda
00b7e6c704fcf1e3eb17cd11dc12f6fb
dc15d4fe03dfd3d0b61fed110f1aebee
c1e6ece2eef8eadbecef04fd020501bb
0640bd0c150403d8f91ec62814f5ed07
15ddf40a2eceb2cdc4f5e5f0dcf50415
fa1a3f4a23d1d6c3efdbce0d0ae8eb31
d0d70fe610cff1e40103e228fdc5f403
18db0cdfb8370f1915e54110ed46ec43
09c9d2cdf0083a301ee304c4e002fb1f
aeee1e17cdaee3e0e310c0eb15cae1c7
f1ea090f0618fb0300c60b46efe4e50c
f0de0904f2e092f1d429ebe9e4e301be
09f40a0c10fe0a0a0bd9f515f61c033b
dcddf8e52514d701e31505ecf32cd60d
0ef3e8d4ff1823f4f23de9ff060d01f9
ecf7fde1e313021e251120fd16e30a28
e91205f1e00bd2101003ebeefae0f114
e1cbfafcb2eed408fcfcf7db11f4f4f4
fac3f30beefb01111529f8e2fffad2cb
df001930e3d7cbf90de001d109d940d6
0adbfbecf3f6e8eceb05ceb7e4dce3d3
c21113550aca091723f612410c0e0145
f6e7f311dedce3f008d20ff8e0d0eee0
343a1cc317062827f4190becd01f0d2a
1911220167071b01c6e9a4cce632c9d1
c0ad04f1bfcf80e8f4d209e3f2ccdbd7
d2ec3e25ddfeedd2f4cb1ef0f7e9f6de
b7e91706d7cff331ef0c0ca4fedcedff
341520fc161f06faea230ce4fb2503fb
f40709cac516e42f1219d1cfe6eac815
1b0739ce1854021920161313eedd052e
ffbe08f3ffd2cfff0ffd16fb02fae444
dafdda0519e3ea3a0cde03e61903edfa
fed9ecd00f3be7ebb010049b0b19befd
ecf2d6f5080df4c5cfb6fccafee2dff8
fcd005de0c31def717ca09dbdd03f701
f3f90ed8200a07f2ffd5f721d1c417d9
0e2b2ee4307fdcf0d8dafc13fe2dfb00
e3e6f6fc123ad9e9dddf2edfe614e11a
19e219f2ecca1c233234ec35290d0af6
2d09c4e8f8b54bfc4f22ff36f60946d2
bffcd6d0eb40ace7a1e3d89308deb30e
d4f5dd1268720bf5f9d8f6f2c2aa07ed
e809f22f150bd1dbe7c031c302d8ea02
26090e273732561927031b33f60a06ef
ece814e33d26e017f81f07f417d2c723
2df3ec2020f1f9201f3e0d0ae9171efa
1b090af50a04f6c71405bdce09b7cd01
fbf5f8f9b2fccc0ed4f0ef14060dd00b
0010f0bfe7ecf0f40afa010ddfcaede3
f82611dee202e7ef0ce7c8f3e509fbd2
1bfe0fe5f01f25a34af0c1ec13f41402
099edfda08eadfefdaf3e4dbd1c1cdb2
fe132103ec3413f917d9fceb0d0a5b0c
1801edeaf016ea201720b8e2bce426f8
22e5d10a3ccde612dad9e1ff22d6cc29
f3000d03eff0190903b406bb38021a16
d429e084c60dd8d912f8dceec70a03be
cba8f908d00c2dfe06010601dedc4c04
07d4ecbabd0cc4daebfcdb09ccd60ce1
f90a1fe90a04d83e0cca24c7e1f4321f
140eefe0e20cdb0c38def8b8e7e33dea
290c0ff230fc19fe0d06ed16eef2ff1f
bcc1e3141fecec282efaee17def1092c
f8fff1dfe0cf23c4ebeae1e2f4dcef16
b1c6fce7bebbdf1cfee33abbfbf0d3f9
e6f3f000f7f2f60021dfdcd2041ce9fb
0decffcae79a092808061fe21e05e7f7
14e2cbdaf4e121dd0a2eebd7ec0425ed
f6331f1bebc835f70e13e6e8f81f06f2
d5da0de3e9d9f9d81c1dfd06ecfb0925
2b14ff244206940afde52522f6a13c4a
1922e021261bc7fed7d9da1eb61216e8
9edaf907ddb10ced3e292c8a0920f002
00032aefe3f93a03440240f6de401ebf
30ce10f3e0ee250df800b8c3ec07f7d7
0608f82b072ae1f2eb1ad71cf4f1fc01
27d40312010f202dd4d9f7e9dc29d01b
0a1acf030e0ef423d4e03a2fe5eaf961
34e516e50be648f50f040019e7e2e239
e6def2e5dcdcf206d3cbe10cf1f50904
2512dbbee6db05d0fb0f0bfeeec7d30a
f9f4cdfeea0201ee1cd73318fdd40cf3
3b42d20415c329e6f521d51315c3f21f
c201c00df8ff15d9ec08f2e1f1d5e002
10220032f60435062349f229062711b8
3028fec2e8c634fa3bd7f10f28eff0e4
2cf81cde2712162212e2ece8ed31f23b
cfb53a090dcd0057fbd7170eb328f1d7
02e0e5b3e5e6f1ee1a40f5220da2dc05
c505e20201e1fdf733c3231ff50dffd6
010096e4c0c7fa1edcdcef041ab2f7e8
e62d1d1c14220400f9050de6f52a1d16
d10aeed4dcd0de35e9ef240df2fdf0f6
1b1a2bf7ee12ffdce6f50b25f4f74e4e
1f1f25e8c0ce090d0edd11db2009e4ad
daed04e9d6e2e1efdb0afe1907f7dbe1
e903fb16be05e0d615b109ba11d3e6b4
1d1deef5f10fdadf34cffbe502e6fad3
1bd8141cfc0ff7f605a63af41d01f6f3
db00b9f10304eb08ffdfc2d6fcfb0ada
1c2d184f32121130f300ec423c060611
303b120fc1c9f5fa3dea44cd33f6e2d3
d3fffefe13d2020d1ed7292fda1ec5fc
2513ccf204c925e90714d9f6f1e7cf1c
c5d2e9f7b8eed4d92e9738b7111f00f6
4044f544f3fec21013e1c4f82ed21803
c8ebf901e60cf4f51ee4e1d5fbdaf4df
240b081f3def192810e245e000eff133
0ec02717feddede50a0b0ffc1207fbd5
04ef14140ea4de13274b1e202e3605ee
10eaebf0fbf4f3fcf3ecf1dfed1927cf
ffdde1ee06e6fb12dbf7ecedece8f4aa
2af30806db90cdf0f51a03e8d3f3f9df
121cf5eb1e10e5fb140e1a06da10f00d
170cd6e939ce120341e5f00317121104
fcdd19cd0efae31503edfcf70bd41b13
382d1904e20917f6632211081a4b2856
241210073229e9e62c3cf21eb90e2907
0bbee236afeaf914d5c4e62430eae6da
c0fed81bd7f113e2b580eacf16f600fb
20c42bebffd6f606fcc40ce9acfd0dea
173427ff4b3b09d83945381c16200d43
e23a15e01d12d5d215f70ee5e024ea10
c30105352bf5000a17f1e242050ae525
d336250f2929d9d829341ee605360238
f31cbd37141ed41fe201ed253a32f1fd
0410d9d8fd292205cd00daf0e9b61de5
31e314fc0edcf1e2dceff9faedf103da
e20ae3ccecff23e9e9d5d2020ba6bcfd
e4122de5d00bdcebcddfe50cfeb9cef4
fd0cf5f1d71ae8f6d91ae90725e70517
fcf61af5c6f2b8ffc3f916c8e404f3fc
16e7190d2b32d4f10230ee11f0131c30
e02401272926eed6e0f9f0280dd71500
7205c3ee07da12223d3ad70cefc518f9
def7062822d001d230fa0ecbeb3503e0
d009e4bffb01f2ffa0e5e2dff6d3f514
08f83d031532ade4f8c4facfe2063be6
d5001be3e0fde8ddcce60504efda150b
27070aeef51de608fa0d11f3ebd0f218
07d222cabeea0203fbd6f70bcbdc1113
edfa261e1d2a1cc2090b1b33b0fd0008
e4f64efb07fdcae1c41df3d9eff515ee
1de61136f4ef0c2c21e32d035f04e22e
d9def6fb0e21f613e8d8f0fabce71dbb
17e5e9030f0c3df90de72606f5cec661
ebff2821e107ee2bf7f009123503fef7
d2e0f92a24f2e6eef20ef403d307d907
c4fd0ceb47fbc8f6d8f6fc0bcc0cfcc8
ca28423ac6dbecddfdf837f92e241513
f1edf3dfcbeafb1db8f9c32034d8053d
02e019171ec5f41be801ebeb02f4f0f8
c3b0c2d2290c19eadc1caa0d09de0beb
f4f6ee0418ffe30ee350de36f80c0cf0
121b1deffe5a26e0f2e00bdbf62803db
08efc30b060104e5b7ecffd904d6f709
0108f5fcf4ed20f61b28020cfbc61e2a
1f09dad437151fe9e821c935f2dc2a43
ef0e3903f9ff2930ee553a0a0918d1cb
3cefe92527f6ff1d0909d6e2c9eafd29
ccd108ffeae70b21eafee11f02d6dcc4
17fee960e602f0f70ec4c802f8f7fbfe
e312d4c90df1e8df0e0a2308f4ed0115
fde41b0ae4d609efcef20cc611f5f1e2
002a45160edc0bf1ef5002ff33b5c6ef
29ffe9df2a151c0c12adc7e0b3f8fd47
0e26eb08fb31f6e8e1bad0dcc7eb123e
050624bbd0e5fed507fffc144a0cc81b
11e935e0f4fef0f5c024320538f20526
f81635e802e0efe9ee4921f52000d1ed
f20510cff9f400dae80be9d2f510d1df
3bc0090edbeddf003721e2f9ecde19ee
fe1d0ff61bffe90411f0f410e30e1dff
0e44400af9f3033632e3e6d21dc41e0c
20e5f443f4f52b4311d1fd22ecd18508
da0fbb1d3009cce45731de0937231c14
e40502efccf6fd35feffede0bfd1e6f9
d5ffd7ea2a0930f6d823170d5f57da13
f2cffc08e7fcdcb8e9dd050ee210cb15
2defd3cb00f20f24eaf9eb12bcbd06ed
012ae50eca19123fd8c7c90dd3cff5f7
e8f3effd0cd1fb0513df03c7e90f1208
cfebe0da22fc05d03712073a47fef5da
0f08dce1f2f92c2beaf7dbdcfbe1f1fb
2f35fa35091f0721e0f80d062febf8f4
df391f18e0e70634ace4c8fafee51afc
db154741ee2cdc0aeef9d6fa10c33cf7
03d5f2c20de0af0f26d71ef603270be5
1610f609e1020f110f322af12b1e2aec
3cfadd3413d2150b111ec2110ccc3c14
db4705c832e5d6f5c4f90f1ddc1cc605
29f1e8f6e4110d103c06f1f305e11228
c5f504e604e7f9f1e6fc08df2ff2e6dd
08fde21c1802cb03e7ddfb01f2b70921
0f12d8e42b070be101b1ebe30af8fdde
dedafde51500e9f4cedbf8f5f31fdfd8
06011a022216f2affef2cdf41e00aec1
01dbe9aef3faf1142206c31be111aa15
2bf2080efde3cbebf0c4e9d6fec4ff18
0347170b2dfbff22dffdd52509d8cae1
221c2807191c32cb123df12519e0a8d3
dc2005eb040e1ec201fb1019faff1bf7
f416ddf7f1e313fe130fc80bd5d4bd1a
f9cef50af02e0d0702f2e8c313f8d11d
08f9f00a2333dd05100f1b02f6130327
dd1fd31cf647f6f00608db0ef610fb04
f917aedefdda32f6e932e41994f8cc30
2ccb0957cd57062c3cecd4e41722fedd
c5c8dfdad6e9dfb9a9e3eeebbbc0f4e0
3b180cfefb00a6253b3e05c146112fea
05dc2a03cef3eaebd3fd0e14e3feffc2
e3e4c40ff8cf05d6f7fef8ede7ec0317
cb1fe21c04d914faff260018d1d2ddfc
0deceaf7e52b0b191818cab802fb1ad1
15bfd919dc14020817f4f2ee26d905e4
dd14c80d09f5e311e4fe0ef8dcdefdf2
e302ef0e050ffccbe5382a46eaecfbfe
e2df02e405f0f40ce902d23a0114fb32
f20aee3cea02f8feeaf6061d25e1fdf7
2cabe6f2b004df0612dad61bff0afed8
f506fb2f15dd4508312a05f201353229
3707e45af90a0bfb462a1fdd291b06ef
133d51f41507e92ba7ce121b0b2b12fa
c5f7ec0d0b06ed0a25331831fb21d5d7
0e16d0effa1102c5c5bbdd031c09f31e
05d90fe0ca0d2a0f3601f201cbdabfef
c4e3f302da0010f213caf1010acfe100
de04da020807e901cd0c23fb2c14f94d
1947011249fe281bc8ee0d0b0b212d20
09d5c1d3f5b91fce44f81fefdb06dce3
dce50c2104ece2c3dcfaee1ac2bdf848
360a0cdf0c350242c9effa091a1c1838
051b4f3d0513e763dfe5c1e617003f35
25d646e90e0d111cf514f6021e1227e0
226e26cafbf0d8530b0a12fe02ec3c02
04bd2010ce11eb1c0e1f060a08bd28ef
2611f51220120900e91221052144f412
34e9fffd43fa21386437dd10c632df3b
ef2903f30bf009f2f3571afdf213e8da
21fa3a29c814062c500f0def4afd1b31
d2fafcd5fce7c7bbd20ee6d3d3f4f4fd
f5fccc14222bde1124a4f3a8f7e5dafc
24fb2a0cabf213cddcdbf638fce51905
ef01e7c0039e11c405dbeb23d9ededc6
e925c2d035c7dad5fa5a1706ea02d7aa
dfc4eb16ebcc24e4f4e5ff18380802eb
fd0ed528f0e6eaeb0db40bf62d091601
ec19ffcb0cd7cff3e0fd1514c4faf9d2
164d27d4fb36d80ed62113e5f2f5a0f8
e9eb15def9baf0aedaeefe24cdcf1de0
f54120b9410ae007cc31f70f26222ce1
0712e70b0afdfef3dcdb1cf8fb0b03ff
08d0131b2a13121e2ff709fff8e6f223
1de20935263fe4541a15effd26fc00e7
d32b0becfed9dcf0d9cde41609e90eff
51fdd5f4160d2c2d17f248effcf1e41c
c1c7c5d7f80be7c706e7cef3fdfbf3db
fee0edf8222a0d0ee71067e04708f20f
fbe8d7f1fbdcf7d11019e217a1b7e9e2
a4f5d0ecf506d9b2bc28091a2f23f0ff
c5e7fcec01faefb00442e333fa230ce7
38f1d8e9efe4010f0fee1716d341ee08
16f2eacefeeef43011ed14c8efef0401
cf1c05dbf70a03e1093613e5440606f4
f5ff400eddd8023be246faee3240f8e8
d8f303f8ff17fb9aef25f82d15faefec
bdd6e1cfcffca9c9e622dc3426074b2d
0243f0181be70b0fe5101216ef1ddf1c
09f4d0ee220821120f14060c0a21000b
1ef130ab231a200111083b0b0cfc2c1b
13dbc4e1e7d511f130f21bca200e041e
0e05f9d4070c3115ebedf626e6ee14f0
c3f8e0e7e5d4021b06ffe8e6ea0dde1b
17dd19ccef22deea03002d210a13ebd7
e601e2bc071437e5e2cdc7cb0dd0fee1
c7debdd4db130b04ed0ef1bb0504e207
00c7f60bee161f272a11fec707f3e736
1718e6d6f43025fce4280c0af4defa05
14fde9f2011509d4f720071cccfadc09
e101f800f6ede753f6cef109fde5f634
c2e5f940f6f1decdfe2c10ea32071812
08dc18fbc005c2df10ec262435f905ee
06f1eb0507ebfc013bd61ee917c0fefb
d5dfd2f3f139381ad610e004c2ff2b13
1405090a0f141813e42ad9f8d922fe03
baf5eebf1a09e7ee323402331f1e2af5
0dffd22bdb0fb9daf60447fe09270629
2d05fabd04de373b115a393efde11de5
dcb40b03e4b9dff5f7dd11e90220e903
2b1909a1e2e3265f212a0c05e7131203
ecf2d0f0fac4f0bbdbf1c5e5e5ee1be0
ec041d070201d817cf1008b63511df1a
f0f80bfce410b70debd602ca1704f1f2
15efb3e7fe0d09f8d0f907c30be7ebeb
cee7f9dfc6b21b06fcf92bc90abbe9c9
dae422f9e8eef318dfdf32b72535fd33
b8f204fe2509d90400d9f4143d4cb7fc
fbf757de0aefce010b03f9f619680d33
fa013df115fa07ee1ad409cac512e22a
01cff7bdcbf711e90827e7fbdc02ff08
f7ea0f16f7092b050cff00111b2acdec
1de5031de0d00d37081830e70606f926
dd2f0211db26e7e70301cfcee310f1dd
e8f8134a07c63b3e17e52610000b1443
fceaefe5e1e0c9e119c9b302a2d9e9db
e70afbf9fd0d1bd8d7d21c1e2b06e31a
d306d915f1ffb1e32bc1b60abc14f4fd
1303dedde80203e216080018800eecf1
ff2efcbeeeff05f0261112f1d61bf0dd
152407f324f11a1102f918b80cff1235
10ffcd0506eb2029f2ad0fd9e9d80c13
011543d00ce5db0f2ff8f31bd6effdf0
e73719ccd8e612ee381f170ceb4a1ffb
172a11dfe920e8f1222118a4a74015f1
2de5040501dbe1ddf807062eb2f71216
f91819ed13fa11d8f0b2e4130804e41e
2e0bfc05f201f50adffffd350526f70b
1531f3cfdd072c20f9f027134e16d824
af1f0916e1e7c7134204f7deec0809ed
422dd5eb6569f1dad4e1f72ff8fe143b
0edef39ce1afe2eaead9ffdacbedeeff
0606252e250bbebfde24f6fdf0bf2729
22d200eddefb1fed04c814b4d118f401
edc9cad5dbe2022d02f42f071de9ffe7
ede0e715abe60510ccd02beeffe20826
e4fad2050811cdf3cdd601bfd5f30918
0bf6dafe040de5f110c8aee0d3f605f8
f1bfe50d04e2e018fb282bf811d8eb04
0007f6d1ccd40134011317070feeee01
04f5ff12fde8243921d532f8e1ebdb16
e4eb0cedf2e3ff1f2c371ee9f803e20f
0b04ed1afaf6f4e1ead219f520efdde8
1fff1711ed0d14f1d11b1c34d9ebf205
07fffe511403eb2bf3130316e7eb36d7
ff18b3c9f9cffbe81b2b1d2f44171822
e9b947df18f626d041173007812a1fe1
ff0cf8cfdfdc1fd0e1deef01e6aab810
e9bb33fb4a02fe1f10e4110a113cfff6
1d18e702ebf208d527bd1fd9d3ef22c7
1ff1b0d0f20d0c0429e5faeef0f3fa12
00fa0dd4abaaf400f8fd0af9f3bf0afb
1c02f9ebf417e22dd30df7c7e4e8f0f6
e3f002000312dc372aed3ad4b80bfb00
36f501beee0f2ef1f130001430f1ff1f
2e2bd2f2fde137152e07d1e80fddfa1f
1604ce06e6f2030c0d26e80d0ec7c802
09f80c29e509e90a0fe91a065af0e81c
f3d051e0f5fc050e04e126d1e60fe6db
03000f1b3b00ff22e0f1e8f91226121e
14022dd52bfa3855ff1dea2202111662
09fc2815f8e9e60f07d808f6182604e7
132c12e030e51b2cf401f9f0fcdc0729
eae4f2e9c8d2f3d1ede1f9ee03e80dca
0e3de1ebffc93de2c4effa1001da1408
d717be0ff228e1eef8efccedd90eed06
e4bee5ecc7d803f0edc20d03f120d6fd
da2c100ccd11fc1023d513fcf117f1f3
c8de0102e40dce05febac7fafa0cd803
03eee8331febf6dff0e6bcdcaccffdf9
e4e91e15f3eee5f637d3274134042ff0
f30815dbe01f12cf53f22bbb041217e1
121d151cf3131bdc0adbfe093914f1e3
f70d12fc0900d4270a09130d23fff92a
f7dfe7b7fa2233c5f62ee9d822dfef13
1f1a0aee2dd54023f80fdf01ef09021d
1a3d1c100bd4200cf1f2bfb91126330a
21f918f3ece4f81e020ddee52dd41aed
ff2ad0310d581addf7f81b3e2ff6f450
02f4ced717f5e1cedad206c6aff1ffe4
0a16f3fc07c8080bef03fdec1903df07
2927e40e4e21d9d841fd190ede100d21
e4e1f5131de5e317e3f1c918e6aef507
3fbfe6eae3f1d918f107ba09ffaf3ad2
ba250811e110bed809052f26f8f1ea14
c1bde9102a0d08ede2d7fb14f9e5e3f0
3905d2f8e9f81621f439dd11b604f614
2c31e8d41ee1f104f30b140e200504f3
13f60a19290c0a0504f9c219f4de2be5
f8e9021f2708d8d70a02190a00e21814
1fd3e81acb0d1eefdbce260f19d007f4
07eaee23f9e90f09dff3ef14051104b5
f7f0fc05e9edf82e0303d3df21291de8
0229fbf403e52524e3faa51b38da09fc
f9ea07ef50e4fbe3281df3ed11ff31f0
d4eafbaed3e9b7d7c217e0ffc70417d0
d92af31c3cbeecc8013a0bd537114bf9
e3d4e40ff2c3f200a4e9f7f9ce0307d8
ef32ecf0bffb160dc604030f16cccde9
fd4bbd131b0d3f36da0bb74deb10ab09
0001d2e8e9cff2092ad9d8dbf6d0f509
eccff9fb0af1dddc21d7cfecf623eee8
043ce910ec092d16e12cc537f904e61d
d92a0df0e8ff1a38fce613272bdc1b1b
f8f520000018182a1e243146c9031ceb
272bf50eec05f510e0bfc533f2c5f823
c2e5bf0c2415f2f40ef4eb2747f606a5
0b0fdd0df2fbfc2b182e0c231f030309
d5c7d8f3542d37ea3f22fcf6f8ec111a
fa11fb0703221821d3ebd719fa1b0ace
e6d71df5fa09e1b4eff5d4e5cf0920e7
cff52307e8f4fabacff319f248e41017
f8f7b3b30110fbf2e3ecffd3ee0de4ee
fbe8fbf92e291efefa052b1fd61b1df5
02162ae5180fd0fc1d1cd90657f218f5
f4f5160503d0f20e09e2c702240adcd9
c9f6c4eecdc6faf3c01217fc09e8e0d4
25faeef80de725251fe1fff732fc0824
afddd6090ff2fffaeb260716ddd4d6d7
2d36c107edf7ff1c1ccc271bed05e200
1718190eef1204223cff29f6f20c113f
fc0b30fdfaf40315fdf1ececf60f070b
3037b508f30c082f24e91e0827fcd61d
e1e64421f622e5df28060fec13fcf811
25fee7e8d4391a0e381af50216172032
ddeeecd916c5f769ef0805daf5cef0f3
e0e51e1ef71ad82e134e28f50423f980
33f5e14adf02ebff13eebdf7e9ed0fe6
08cfe5f7e5ee0d3ec44a021b14d2e715
f8f4030cdf130e23fa10172810f0f3e6
0dcd181b020a3409f1fc0afb15cf1c1a
2dfa21d2cce0d900e8eb0ed6e7e0400d
1211e2fcd40602f203fb032ac902ef09
39d20955245501051ce4cefbee00020e
dcfae70cfcdb0204e716d4e410dcd8b2
17fedeca44240729ec062f27c6090e06
4724f439f0171e19380006fc26031505
fefa03efeefb16e2fa17340ffd0106ec
23e0ec1c101f100f550c202dbb2a1a04
ef095503dec6221d1716e9072a15e41b
2302151033e33113cb00da17f22f28f7
fce1fc27bcd8f8e6b3bf0acfb1ce0431
ec1b1dfc1040e1e3fde3fdb5eedfe8d6
db04e0e1f3160a0ffef9f1c636272505
cdc1fc1cdcc2b6d8ffc805ffcbfad024
fe08032a3d0f121ff1dfe807e922e00b
d809f4461ced16ebeeccdee7f4fce9f9
30170a1cedfcedfdfadcc74efa2ef3dc
f5fe0afdb2faca07fec1fde8ccd9e6e6
d407e3ca150114da2bf8df16084a2df8
fa0be2c0e6e1f7f6e3d4cfdad9d1dde1
bc0a1e1f2433f3e4000a31d5c2fce6e9
0135f711074e03ed431ff6170cf32c15
0b32f61dd216271adef6f408e00f10f6
e7f511033919e9d21317041612f41bfd
1a19092d2800221d040ad4111d161d0a
4e29351135221e041840293b14310be4
be4c41de5df22ad6d4da1e1541d4cfc1
1e27f2cb25e9f3f6fa25f016e8f200f6
1ec9dfe7fe09d90e42f8ece0f4d8d909
c437003ceee03a1e07f300ff3d01e1f3
1a270c020a2d17f00a1d18ef0107e9ec
18311bddff090edcd1db130e5a18ea08
1ff2c2f113040a1ad1f10a0e3ad9dfc1
d404d4fbd1f6042bc5dc03f4dddef3ad
0bf51328d1e8ec453ac2dddbf3f00e12
d7ecb0e5e8f7e3fef0d1dcc3f21510e3
0e1cc72ccba3231313ebf9f3b7e55016
2806010122fbeb4518fc124414e11a32
ff3bf4f0061a0fe70e0601213ff6f0f9
4618f743e9fc0233f430d5a71a111f1b
4026f5c81123dcdedcc603f82022f706
31d10f28f6c7fa13fbfb2f100df52d06
f5fee3dc22facdd2e0d221cd00d3ebf5
dd070ce8fe99dcba0a120500bd131117
03f20f1400122d1f1d1a221526ef1bd1
b4030eb9f6dad121f1c01cc3c1c3fce6
dae102e7250a0ee906350914e70cd524
172607f41504000a071407000c02f043
24dd2104e807f1f513e6effe20f801f2
f218ddc1ece1c902e7d3fdedeacaa3f4
5af3e42bdf030d21f22afce2401509d4
d2cc13c5ed03e508f6ef1002cfb9ce20
de2e31e4eb09da27f7da11061935f8fa
3017f00ee8f8f3345cf905f4ee1afd0d
18fec5de0b0313ca07f81023df07f818
41ed1e0ae73be8df0a0ee5fdf90f02f3
202cfe1006fd01f90f2a03042917f9f5
3124300f3819ee0934f912df0c15f9e3
5f2a270415402029efc716fef3e415be
0b2cdbd4f8d5223ae0e006e212f700e7
ef03e43017a3feec3be4e4da04fddd0a
27f9e72acb1eb02d100e02d215d3dfca
edf01c1b2537fb3503f5da0f1ff3f20a
261321061c16e520d7ebcc30eb28daf2
fd02f8063b12f6e8dbee0d0fd324c4f4
c8c3cf0fdc16f4dabb0cdcfde0b1b117
f9f212ffe01208b4fd0f300afb29c4eb
07d9d4de13ecccddf3cbf4e713faf508
c5f11514cff00e1b0b0b1b311009f0da
1013fb282512172821322f11c0ff0ac6
13030e2119e6c723d0bb490611041504
fceefef2e00a18ca09e9ff33fac9dbfc
0cd522f613ef141e0e112f40f72a11d4
ef0935d5f800f54b4718f413ebd8dc41
9be539e6dbe4cdf702251124c53604e6
ecfa08f0f5f610a6dbd701f0fa02e5f8
3434f651eff9225e1edbdff240221b12
dd22fee7d2c0f3efddd6fa02c8f710ee
093c28fb1bfdf0eff50820f1cceb0610
1b450d28141a1cde0b25fb0a0d4721ca
00d8def514e5fa1df0ead914031d47e1
f4c6dfe5fdd80cc2bcb3f8f99f1efe2c
3d00e8400530e7341ef313f62d15011d
dee9ece31ee4eccb9cf6e2cccfc8e4cf
0d1332eadcf510e61ce906f009042b21
2d10e7270a304efa2cf40b11f8122418
f31220f41daef4d1e9e42731df0b13dd
0a064c36ddf1130116fe090cf8f90f2f
0202003b0c3ff01b01ffff15341238f3
3bf40903282c1e271d1420ea2c210320
e51b1f0809fab0d5d8edea242ada1dc2
e60618e3f5c8e2b7f6f8cd2df9f4f1f8
d606ffc8f6230f1febfe461fee0ec704
eb1aedf009f8bee103f1c8f416bf0fd7
f4fef10d0e02c301e9ffc825fcff0ef3
00ff2bc0fb0af2271630fd2c13e12be0
181dd8bff4b0dc0bfc05081012170e0d
f8fcfcfd1726e007e7fdcfe0caf6c308
3c09f1070910584109d57305edddf939
bbea1ed7efdfc6bfa6deb9d4def3f7de
02ed0eff1abc14c4141ac0000500ef27
cf0cc4e1172f271140f12530fce9f726
eb29f4e5dddf2a17e022070cf3f703e9
29100fe2070528053dee00f7dd07ff0f
162dfcbe3d071f31fefc4952f3eaf71c
2b1d644ffd170e4f15ddf5e5ad181620
f6eebaf2c8d6f7ca48e4260c050bd8c2
00f91c1e16fa021707ea11ed24f0c920
20f8b9e0f80425e5eb030403fc21f8fa
3dfec1dcdcd60edf3e12f010faaf0fe1
cfead2c6d40325090f0202052fd8e914
fbda26a7f6191bd82df9fdce13d1f7f2
f521e29df1301517d00716f90600e4f0
c5dfe915dd0104e107dcdefaffe6edb6
ec3312d7fe1d0dfd0005f34ce00ef3f7
bafdf1caaeacc9f3f80ff0cb12e7eecb
0f13185608115608c0e0e414cad4faf5
f72728a80d0817f21bedf51ae748edf6
f413fde7e819fef9eb010cfe2cfef51e
33bd504c0c1f271bedf7d22bded62ee8
1b1507f00c362217410cfd083816fe25
21d4253637f2e709f3230556d527e30f
e1e949e11c438d05cfc4fca6fed8bf05
0004f2cdf133fdf100c606bbdfe010fd
ec0fe6faedd01932053eede8e2e7b730
ff0415080e0fedecd8e20026b6103712
d2e32d0a0ad40cdfe9ff09d52719f516
21dfdaee47f6faf2172422ab02050443
0c0a15e011ede9f2132025da2e06cbf3
da15e9f6944800ecc5cbe2dee6d9f0c3
180203b10ad441f82724faeed03ed4ea
0dd407f1f8dacbf600eafbd7e00fccdd
24f917f3562effc224dffa0feac649b0
080e29e2b722100c0f41ebf718ff1629
0acb11fbfdf5e3f5061308e0ec002917
3c2016b43722012815ead10abad931c2
d6e8eb05dcfa110a13f9280a113406fb
3d1919ee082e390b542b1626fff8fae1
0af1c3b0c009f2fb21c1e5cae6f4fbf6
e724e7e70f1bd9ec0b0e25fcf1fec3c1
f8f5ee0029d93222f2f622f223181c19
f1d414d0fcfbd9e20bdfc8ede4d622b8
1ee8220efb10fac019f202f7e01e03e4
1324e8eff815dd1c56f31d19dfd61b05
251c2f061601e0ed0a1d0dda22e706f7
fcb6d8f6fdbccdf4deadebe820d5eaee
0300242b4d00363809cb4fe71e0d302f
e4e3b8fc03eed0ecd8f4e719d92cf116
d2cfddf70d01e2e727e3350017df5a00
0517fe1af506090500ebcd033cbbf722
130d0fe9ef32d1e70ceefadaf2ee08f3
b2f040140114fe1a19aa141a2ce11809
00041de4f716eee51bf4fc130404c6e9
0ddf122b40fb37e707046016f7291413
c1d346c0e0c7390c201d40c7b6df17e3
f4c703eec3fdcc150421fcf635e911fc
03edef062413d8f10fff1310efdb05ce
c9f0f517dc0129f203eeab1cead5ddfb
11cc0bfdf228f516131322140eef0009
e8e92d400b1af02645011b04fa0bcb05
fceef7e40109d409f0070de4eaf9ba04
ef0bead2f6f9eff8fdbbf2bd03eadaf6
0e1cf4121c33f332f002d70fdfec15f6
d1cacde9e5f1edf4bf05fed0b20dfcdb
0209182d0821671df612f50f343609dd
de101a1e27fdf90f1214ee3f23ecfb10
03d8effaf61afcfaeb0521f8180acffc
3121ebecee14251b0affff4bed3801fe
f61ef62d25d7f20fe003135bee071b1a
1d435419f4355db0f11ef63ee1f26813
312e06e9a7e5070c3ff80a3a3fe4d4dc
f5fce69dc0d715e7dbde27f91912c4e3
060938ed49cfed1a0eef59ebeb4c1c18
faff3ddbcdc62bb5e3dc3a031bdafad0
002dcff60af102dedee815f6f8e0f92d
0bf014d8f1e22400211919f2210df307
e9fa03c3f50bedf1201042090004fa01
d0f812e6e508f1eed9d7bdc72bd6d510
d5e327fd1a350c0412e22c10cb2130fb
1eecef03d3d0ebd6ddd4e5c9e7e407d9
fa0e072e080cfaa4ebbbdaee371725ea
191c17122e0c02d903d7370d313c270c
f0f105cefa0a3ed4eff50be818faf10a
ed14091bec3aeb040f06f4b7ef335e0a
d10652ef3bf32d271cfde3062809130c
0c21283621202864f3e72610311b1346
02191f68d0120314fbe133cd090038d4
e3f61f04c6f10be6e5d41d09fafaff0a
0c26f224ec0b3314f7f3f3010ad509e3
e7bc0effbb0a03f80014e3ca13de32fa
fad812ece003d7e52ff310e0250d1022
f4e92aebd9f1ca0e21ce1aeb240cf711
d5da24d3e1efec0ef4d3f5f0310f053f
d6abef0eccd9f400cf23a8ff18d5eb11
271506012e121919f9dc121cdfbe20d7
d9e1f6d4e7f70ec9e0cae1e0f113dde6
1a0fe5423d0af53e1b11cc3ddecffb0b
0e09013c41fa241cecff2d41f6fe0303
f4fb21e9d00adb0402e507071b02f9ea
4840b928fb31093e082dfbe036cee010
21341106d2c94b09e3dafe18ea03fe1f
1d19f42719ce382210162627430b214a
111709030acf01fae915e3d6c5f04f3f
5cf4f200def002f60627faf3f4f007ff
00f8be07c4e1e2ded5e11f060de6da02
0e4111fb47f1efc8d7dce3cce3f32e41
3908e80d1ee7f51729e60efcddca11fc
431dd3f6eb0fe725cd040ef9f2300d0d
e5f0bd2cea2dfb26ece7e92cd5e6f123
fa0a07ece90acb97e4eeef04fcc6fbdd
e8169bfdd3031ed6e0cc31f41afeefee
030cdbcff7f9ffe7fddb8ed8d2ecd7e1
327c2cf03b23f6ed5a444107ee46ec53
e2fadf0bf4161dcae30ee21c11141813
fd05dbfb0be9ebf11de8ee4bf9e5e311
016f0c267f2adce5263a41231225f004
dce4d407c2f2090bc307c41521deeff6
3722fb23e60a010beff5250640f91a1e
dfd1ece8e2ded226e4f3d8f8fee3ff0e
fdd9b90dc80218f406f0d4faece6f112
f10ceffe05d41918f322eec2fd2919f1
010005e9c1dad21aed0100d5bb12dfff
f4f9ebffe00e20f6f5fefb0fe1facd17
061ed1071419da13071cb5f3d4e1efef
0b081ebc1ffcff2309fbd8df14d8ec01
c7f8e1d5b1fadec9eef1f9d5c424cacd
f8e0f01a6af31aff0627faedd6f509dc
ebe907e517c8d7d2ddfd0718e7eaf6cb
1ce47fd9eaf8f0e3f1ea17c9f6e21ebc
5003d71045e31bf0053619e9d101072a
de0d18ed0df60418f604d62ef70eedfe
0f182df4c417e6a604e92db6f1ef20ff
fe1be90d27f80d1cf122f5310d05c732
06203d1c0f140cdc241e4ce734fe1bec
dee1f4dd2a1203e1d12cd7f7feeceac2
fbff0302dc1b180808d3fefd0ce50cfd
1c5c2efd07dcf6393603fe19f73511d0
10efeb23f4ff0a550f2b2711f1e5ea01
fe17cded3626e8110205ffec2c0a3e1f
2210c0e0c1225ae524a90ff520ea0533
2e0f13330f3f530725103dca08ea020c
f1e12cdf3435f6ffe50ed40310e817fb
dce1010230f3e6edf52e242fd30f0ffb
f61df52710d4bf2b1ce41f3ff0dee4f6
f0e723150be0ad071b111d20e1c0210c
07f8ddd20f271cedd2ebdcf7e0dee324
e2060ccc11f1ea310a24f01dfdecf3e9
131bd6e7f311f4f8d388f31f1b22f7e2
11c514d3020e17dce0f4ddfee6ea09ec
ee4def1baee6e0f92905082613f8eef4
d1e454c8e9d4daf1d11c041328e4f7f7
e5efe80a12ebeb12e1f20cf9d2fbddd1
e117eff6fefd2500d03c0afdedf51e0c
0cf40606193ee3f8f535f2f7f80b4a00
1be7f81a11341b0253422e00032eff10
45e6ac6aeb20d9f31b181931ac2b3b26
5cf31a303036f319fc2712d8353a00ff
f2ef1310fbcdf933e8221a1e11bf19f8
e2010cd2f0f01ffef5f61f24fc1ee700
e30523e7eaec030018de18f1eca909cb
4648ec2bd057370d05e702001dde2819
261d4912cd0f03f3106df6df0bfb22f2
eef3f6f9e619f1f4e65a1bf4e601db10
0daac1e104f1c029fb3d4531d50a0807
251930d3e501faf3df09dbfbffd91ae4
120cf6d91b3c11f21bee08ecfbcaff15
f41df7e6c1f7330da0ebdaf8ffc91f0e
e41ae3eade10e9d207bbe4e1f4e9edbc
e3faf8f0ed010111b5d9f8feb61bf90f
0f24220514ec2021ea1411e5e5132a35
032d14eb03fe40fd00ffe8ec0f232902
01eccafc5d0a9db5572c1f163b32def1
051d2a2203021d04320bf82915193bff
f8ee3125db0711eae9e5fae2dbf1f927
0aebea0ccb13101008eb0ab701f0ed0b
1bd9d7dcc50cfa16fae8e5471df3f8cf
f830e6f5e5e51e2613f21333316329fa
05390f170d42492dc7f3e62ce8e70bfc
eb33e8ec2ef50358cfb72701d5c3fdea
cbd33231dbedcfaad6c112d1ee068009
f7f30f2dd500eef9c6fae2e5c039091c
07fdfbf0f91809f413fed1401a160aed
def50dfa300ddf01d3052ce3fdf7e2c5
022aeb15d00d12f3f810f81404fe12e1
0a311fd7f6203d11ed0b1fdc0a241aea
d4fa0e03f920fdf7310e00e41f1d2613
03202b0dea2318f6112ac21e1d070822
2ebecf1ef3e8222d2af9fc0404b4082b
0324423e140c0bf1e1332201020fe60a
fb2921e63ae113fcdbf5fd190b15c211
e5260af73a0bec00f4d3df152628f0d3
c806fb0eb80c0e04d3fcf1d032072bfd
2ae4c2de144814d50fffd717e9e4bb15
db200809180924b3ef1af61c13fad809
dc07f7ea210104d3ed272a04f70bfc80
1e0829ebfac34006bd0434ea21f30ef8
d42b083544fe1bc41027ce1530edd904
27edcee4e21b0f2bfee6f7071efb21ec
c20dface11010ebdb702d1d80adff530
03f623e0c11608bae4f9f51b03eada00
da19f0e4dbf0f5f6f509ef0a17d1f721
efaaf302f63811f8c548d04408f31be9
1a1001081aff09442c1235f43d12f0d2
330e2543bd3be34731d8f9e73d2fd8f3
fa04373810320a0f0e09ef22223bfdee
fb0822c31531f5c7f1063510e6e0f31b
ec0d0500f804d0df162524f6eedd1229
15fbcfeddbb9dffd290af5d92c2624db
2704f80de1d8112c6448cdcd153d130e
0e0a00060d391bf1032bec2139d316d7
abe9ffcb08d21206d7181734a0ecca34
0d59f1e9f701c4fedbb5040402d5d3e9
efe8020704351e06ece5f12a06cada06
102914f5b8090cee0c12eee73ceeefd1
100cec063208b22db49d3ad6feed21e3
d8d92507d0fcb4f106cdef010205cc08
f322daec2af0ed16fce4f12519f61609
091704482810470c20f4f31e040c1513
283a030e0a271103023c27161711f9e7
bd2d0a13b40b1fcc4720313b11caf295
280431e612d7de750c21341e4613f518
46261fea304b0430db14db04f80a04e3
fdeb31ce31ffffe505d9faf41d161507
f8dec73e94fdfbd505250730f423dd09
23ebb93acecc2bff23464545f0e6ee14
07dd4fe70f1bef2ce73ee8241729163e
170226fd4714fb3cd8f806d0f8053224
f337f226d726ea25c4ee2013adcad2b8
39fb140df1fb16ecdd05cc03f2fae8e7
eaeae02ae805f8e22cf00e0feb041b15
a11de4b821c8fc98d11b0911bcead0fa
fad6f60a09e3dcf1d5d4db05f105d5f6
de4e0ddd07cf150afb12260bbdf40614
051012090df6f6dbc2d80b0812411e1a
35360910335514562215fce31b0f16ef
24c82800fa2f233f2bee012723e22dfc
13f80602fd161f06dc0d0138e01f1dfa
f3060808dcd7f10ffd2625f3bd1ffebe
c45109121a02e1fee40e1d06ea1101df
edf51df8010220f6fe01e0fa2f1022f2
291701251a0af71b0322c22f0d020823
ef3bef293feedc03f7050116f8f80e0a
9d2300dc16def0c3c41bf9f2fd0ee4dd
cb3034e4a5effa1ff2d90524df1d1704
01f4fc08fb1ac0ced31725112908f1fc
110c2c240f2b36f4fd05b01d1dbde5fe
bc1f14fffc14eceac5ecd2f852ef0ada
03eb01e9f9f7e4f5f7ffe2e2e5f4debe
f72cfe0c20e3be08f409cf35e0132109
b529cd2419fd0ca7f604e4250f39f9f0
1cf90e031b13154519033e04e50e0329
371b120320182142f6d132fb15d9e70f
fc392d2b1f3e17013f36ee4c41e5480d
f91929cae813ed16eaf7eeffe2c1320a
03e1cbf4d9e1c4bd1309de0bfa2bf0f0
f6d8c6e928dced10143fe9dfc7f1b207
ee2dff0c2e6537211bf6120c1fe3e917
ef192af30d321401163c16f7150cdbf9
b62c2b11d7dabbe9e21dd22334d3feee
ff2c3e3b10d8dfffecd7f3db0ddde1f2
fce6e026ec0edd07dffffc5415fe1110
08f712bcd90410f91ae4fa142734d919
dee8a61bcfe6dd11fb170305292bf2f2
f7f9c8f9edf13721ecfee3e3c70007f2
0d1811050af4e4e6f6def8eaf50fdcdd
100e11f0ddf0fe1a152ef61bfc0fe7f7
fe2afc032e16f3f20f12f21b221328ec
21f5f92e0a060300fafed15fd9543fe5
09031771344023f61adb224203205613
0715f1ecddf0ffd639dd30ed32fcf607
d104d0f7f4b4de0b0305ffdf2a03ce46
0cfb09eae3f406f8ed12f0d9f4000402
38f633d4ff19351df0f4e115f8320dfc
fbd304f2f011f6e0f946c94afd201e02
daeff1e0eaee02e9291315e84a092323
150df90eebfe0dd8d5c4fc1900f00ed4
e1fd0ae5d7dee8ba02d1311cf631010c
f71af319dfc3fd15e10ce41ae000f80b
cc05fc35ed04efef96f5fabd11f4fd48
dd02fbdefaef02ac08eafcf9e1eb0201
27d51d093527edd6d8b019fe1dd10319
2cd1f70744021ada01d41adbec26f90f
30fb0df5eedf2017f340ec0b26161e27
1800f2e31f071812fa2eac10f3c717c7
091b50f2c4340df21b4d1ceaea2c000e
d5fb2104c3f5dae1cd013406fbe2d510
faf1f7132001d31b0adabb0f111bf2fc
f30ff6010b03d8010414e901fee82ee6
42061c24c19ee24508352d08f4231119
e6c50ee2c434fa0e0d23f1d03123082f
eaf533f22000a60108f70ed12b24f018
080efb04223bf4e0eafcfdddafd31003
13ef0a1bd80cb008c3fb19ddebdcef19
2d1b3ce8571ffe10122eea201441d61e
f61419c9e11210d3e61dcd05c904d5fc
f4ebf7db08cdf0f8eb090effe1edfeea
0fd6150f08fbdb095a24c8d9eafe46c5
f106021207fceef2feee1d13ea0c28d9
101c19e3470c3a1436f5f9e12c21f917
acb0261942125828f5ee0a0d58e50d2d
dceb50f76710c9f2dfea1839200ee31d
25e203dd0a2a05ee0120f5f1bf34f6f2
2b08e8e1cf00d2dd100c0414fbca2ed7
03f6f4f6fddbf6011808fbed11fc33cb
1852e70e01ca1516ebd525173d3ef716
041af3d4e03df2f732e30d30f93d0305
201aef18de0bc71517dbd705cce1f906
01e0faf5f014f71219ef13cef618f800
ebf5f6ebf8bf0212fe10c0220600d7fe
1320d72f3ba808dc0ede20d21a1b3005
dcfeebe9f6cef313260703b815fdcb08
05deefd5fcddfde9f108f6cffcfdd1f4
07a9f1ec0ce8e00edd3021ff061900f1
2108b7da13d1ea0916f61a1a09191646
031cff3f08ff0330fa0a254cff411538
0019f971246022c005e3bc29210a2eca
d4232119010503f8392b15f460f913fb
f2d806f7030d15081c1b3ff803f60d1b
e4ed10d1d7fd17fb0ffc3cf1f62bfaf8
f0cdca38c9ff070817f9170600483b15
db20fd343b1cd11134cdf83409d5ee47
d4e0fe0b13f11432fb0a2cfffdc20024
bfe322bcd1f608140b0928bc24eab90c
c108f7ea111d12000f0010fb2325f8ca
e202ecb2e2dfc5e416131afe00ee0ad8
e4f6191432d604fd00f6af09121ddd04
3217ba0ac7defb0d0cfb2a0beac2c701
ddffd9ebcbedecdcf0fe15ebfcc20f24
2aeceafea7e41bf806eafb161ecb2517
15121e00fd01f5c7f6200f2ae91a01c5
27e426f026f304f71c352d3cf82a4df1
c532f7f5131be0fddcd6e91018263ded
12730719f0123007ecff25d65b190f04
4cecf3cfdbd11d0b0a3a321d62deec02
18fc1a03efbd1410c1f2dcfb2117e5fd
d205d20e0221f502c3cad4d3f5000bf1
3bd1f3a82edcbd4209d746e3ed395c19
2c2ccdfd09f930410426e731190f1227
26febadd01e010071a47e20c21e1affb
0613fc0ee9cb2db702f9151319d2eaeb
151a030ed6daff1012383b2835ef40ef
dedee723e5213502dbf3e7ece1182e08
17f31b05c62115bd0ad13df806170ec3
f302caeae415c8e5dddd0fe3e6ee0aeb
16f7fbf8d308e10429fe02220dedf7da
f82205153942f71df4e3e5de14e7f3e5
0a1e06220c0c073a22d61df9420629e3
4e2bdd132f10fe310718d40e22b60348
3f20233a486d0afc1d3f020e31ecea4e
03062720d90be7fa43dd00fd0e031913
070ee4f404d2f1f322dee52a112e1a06
6703c41306e5141e00fdc2e9e210d010
4f1405f0faa70e0ffcecf21ab9e2e4e3
0e3515cf0c071ecc34daf9ef18effdea
f0f701cc2cfbe7f54d220a1f4123e01a
fded1e34cc07c40a3d42d1d414bd25e4
faf640f0b70e0af349ee0811f81ff211
3beafdc4441a190733fceab321efdeed
47cdd4f405ed17f2ecb00cf0c3d600f6
03fe0fe820f2e3f1161907fad7ebe400
3a4ffee414f5f4d62e45f4e91a0dfc0b
2a2c015670040ce63ff7290ffb09eb53
230a0e2cf30d131921d1e7fc3c1d0f07
cc0818233d366ee824ff4a462c0def13
04fb51d7f73b45e63911451419e5e6e0
060c04180c04070fefd1d519e0ef2c34
07d9bae0f504d6ed1e15ece800250e16
e628f3102707fcc6f36334d41848db12
03e4ea1bcc110e22a2f9e21d1ae8e894
00c1fe27e5d123dec1deeeef16bd0616
39e8f6dc08d30ff8330fd6f0d1ea48f5
0a5418ea30fcec9e23212fe8f90d124d
34e8d7efd6daf42028e5c400e9f2230c
0d42e6052c12f212772628e4f521e946
073cdfd8e8eefe0ee8fb161c28f90f00
e9e3d7d2e2cf05c4cbd5f1a01c0cb2e2
fd022af6dd08f834fe06c0000fe807f8
d4f22bce04ede10b1205131d07f810e7
0e2021273e1c1419042401fb1ef513f1
f6fb1e1a2ff2e6c43e052dd722f617f1
2d5313090a220c2646052a3031190603
dd30d4f20b1ff928e80af8e62ce0dd26
e908eae8fd330e1103f31404ce34ee0a
08bf1500e2e8d5ba0ff6feffe6125afe
eeffdcfd0b0ffd1e372fd2291aabcdf3
bf55f6f62bcf2b03fcf9121710cef908
f53fe6fefa2bfd2d0915ee2f04bbb92e
111f1502fbf7d0f3d6aecafa22e3f0f6
e835dd020613bd20df07020e33eff430
16d73e140b0108f01ffcfc14f2cf41b8
031812e119380ff632fc0ccecc01280e
02dd013ffededbfae6e4e214ecfd1da3
3530d621ea08032025df102618fffc14
f128e62a04b0ebe23020f432140ae911
ec06f9cff8d2a12001d006021af0f00b
fb01feec143bfa2f06e7f24a13fae2fb
d3260dd7f2def3b10ef8e7f9aceeef17
1928ec03fde9eef324ef0a19fe12f503
b9e1020d10fcccbaf0f2f6e30b1414e9
10284ffcdefce02d0e2124efc5c8e725
e9e42cf0fb0811dee3eef10bfddb05e2
c92718d1dffe19defee1f904ffbfca08
17f2e30d2117fc2cea0ef42540f3f2ea
f3b318ebe608cddfd7ebf2d720f0d6f2
f307effc1103daeef7dc12efff0413c4
ecc7f398f80eebc7c612bd07f8f5fb2a
02d4fcddf6fa1b1915163ff0f9dce8ee
0cf4d2dfe1fbfae709c5060516c3e51a
451ffb4b09070ee84901d2ed272004ee
ff0be013f91532f20cacc34205ecf72a
fb11f406f4fe2bcfd4061614f3fd04f0
f0072503f7fe09f702af331512f5fd14
dd2af9f5ca002af1ea0bfdfd23fcfac2
0dddf6001700e306f63c3409f307fcd7
def41eded8fbf4e6dc1c2c0d21dbcfdc
1e10faffec0e05be1312cbf60913130d
f2f5fc11fcfb040301ed08d816e7e8ee
231cff00ff100dcce5dce3c0ddd2ff02
ff17f61a0208f7ed03f5f30a0beff61f
e0f6ee02f604ede1dfd6df04f219d7ee
e9e8050e01f60e04e3202a25e6cde6f1
2b1609d1e301f908ca2f2bfb25d1cbed
03fd0d33fb0df213f2cdcff905010e15
1efd0811c3f3f8f610f90322e5e61102
db0ab8d11225d4f4ff0306fa642311dd
eaf6f2d2030efccdeffe28072b101ad2
001508ffde1cc7d9e000e1e63e01b52d
301815bfcfeef810c5fbfbefeef61cf5
ff12fdde0e0af71bfc1fffce0c1af01b
f414f334e31a01fc0a1401d603eb1511
eff2edf10c041518ead6e0df05eaf0fd
0401e7e316faf11f2423121f4a2c1ae9
eef7ef0bf62b1a08ceeeddf0ead8d2f8
05100ffc23d21de810f7cd0b09e20fd8
191def02f302f92500eaf82303040bc8
d5e5e5ede1f617d5c2c00ad2f7fcc610
f1d1fa26e9f2c5f1e5ddddf5ecf11020
fffc4c2efaeb0b27f8d2f9e111e4fe0b
fe33f40825cadfd90a17ef2b04edb6f3
cfe5f817defa062d02e7fb06e9e31bde
21e3e90607d709580be6d0d3100b0d13
16f1cb02e90af00b48a99fcd0bdcfa0a
d8e3f81607d50aee0909e4df2efd11ee
f811fd0cd3f6fcdcf3de0afe16f6de0f
31ebf8c3df25f0f31edaf6daef0c262e
091c080318eb2d011216ccec0ffc19f5
110af2d418010eeff21ff90e271911ea
2f0bec150ee1e0f7f1fd151ee6ecda1a
fc1e08de1be3fbe2e7e302090ef8bee9
e9ed0ae4fa0216f717d4f4e6d911d612
f92b2919d71a0b1af2feb1f51e3ffae8
e8dddbd0b11109fb0bfdf5bff4ee05ad
e80a0be4e8f714d7e1ce0918400b06f0
d5e70ff225e607d7fcfde42a10233bcc
0c0de1ebe9d7bf3d1f221c1fe001f224
f8310ce516e5da04fbdce8b5d4f4f9c1
30153015031fe81820f5e001251cf6f3
0fe40f17effd221e03fbdd090a1035ee
e901c4f0df0106bc102ee21d19ea10e2
1013bfead3f5c9eef61701e10cf0f2c7
3e08e013f207f421221a0610f0220008
fb12f0f30206ed1cebebfa3b16061206
ff01d2e0d606f4e0faf60102f0e92835
0afc07fae93ff3e2eb360049111211c9
f507e1e9ed1800fad50509e3eee2d807
48c9da27e713d300471e08e20ffb14ae
1becfe0ce32d1ee70a2d31bffc1b0ff4
f0f7cde7f6e20ac8d5f2eb01e8c0e505
de0001f0d5f5c2e9fcf8f728dedfe4f3
effee90d04021b0cf313d40cf6f9050e
f30d18edf7e13a4bfa0803f4fd0b1c03
d809e30e182c1be4ebbef3fed40ac9ee
e3aff2040e0d25154b1e0b65dcfbeaf6
b3fcdbbde0f51fb4232be109d4f8fce8
c4e6e60ff50df206eef0cc16ecfaf608
decdf3e8cdc1f60e1bfef6dd0fe3e0d7
ecf3e7ca1f0406460df2e7ec04fdef04
db181318e936243f25fc010612de0015
2a1af6f92906daf4140f07cf341e294e
dfcfe50d1dfef9320c08281ade112609
e9fd0c0d33e9fb1ac5c009de0a01fef1
1abd06ecc1f81b1afe0fed19e4ff0102
08cfd7101e14d2f4ffe9d9fbf02cfa1d
c3ccfefbefc0c009d6d6cad7191dff12
ed11fa18fb34ef02f7f81ef6faede4f5
082b31ec0900f0152ef8b4d5231c051f
f10bec151afc11ee37cf320c0eeb2719
ceb1ffced89f0ddad6f30022e0f31229
15dd2212f618423131dcf0493ae4130f
101713fdf9412b4015fce11116d432fc
d416211c1d02f8eaf9d1e2e1e503f805
ef1028dd1b0105ce14ecd61d03e4e2cd
2b190efdea03f0fc3402ef1027c9effb
f02220090b1ef107e91e12ed1a0d0423
faf6f6d92ae9d400f22207dde60df3f8
eb3dba3009dc2bf50600f804dbfb290b
0cf3f80ffcc119d9ec08deecdaf200b8
f0df0d14261eed051815ccec05cff9c1
1d1121ff30f40709d41ff3f40d05d7e9
dff9fdd502eafcddb2faf2ccfdf4f52d
f42d0ef8f417f0e5f40641110419f0fe
2d23eed5000fd301d809f2c0dfeed5db
e33dc60afc1df8ec08f7043afa060505
dbd306f4ca0ae10b0bd101f5f0dfdafc
0b23d3df2d490a4a271528101c2bff2f
2d0fdfd92924475ef1ff4317d9ebe248
06f808dcfff7f1cb2604dbede8ec2bf0
bcd1d5e609dddfdeceecf9f8f007f8fa
e5ccbae91b28f2040c1e09cf0ff0e457
09df1001d6061f160c21e1fa1a02f30d
fde709dc09ece0fec644f4db2e011ef6
f8f3e0ff0c0304e03913ea3327bf0420
091f1cdfcff9de2fe1eb0ff000fced0f
f9f5f5be3423eb36e7e27ff726e7dc26
051532fefffb0c491b2c1213f51b1a05
f1fdd8f3f4d5e6edd1effdf9daee16b2
f3e8dee2131aeff9dddceb19e3e23412
d50e39e4f0dbfbebd71b0ae515f904df
25fde0eadbfedd190ff114e42520cde6
eee7f3d1e6f1fcf3edfcff1cabaad4e8
1c1e0a0b264a1ce411160733220b44e1
2ffefdf91e0e0c17aa2604e5f705f4df
f3ea1efd11001751d309f39adecee300
fa0814f7be12f21debfef3d4eff4e20b
170131c20618f807f80fe5f80a0ac0e9
12fd0a17e5111e1100ff092014e6f2f4
eccbfccce301fe2f0a0d2cbd0af6d3f3
150bddeef70227f73cd7f40cf9070403
f1fcd1d7c4bcdc0b06eb15fd08ebf106
0314e7c7ea18ee14a105f408d82efaef
e713fb0ce107024b0b24f70bcd07f60b
e3da8002c7ec0f2ec5d5e3bdf7c2f42b
d5fcf7fa1606fae828f531de17f6d0d9
c8dde3faead5b6ed150febea1701f5f6
13ff08fb1603ec02e608f2e3fc1b1c1d
17fafff0e7f402efe2cee3e1f60121f0
310f1df4dff4ff311c50f3faf5fe1cd4
22efc0023c051d3b204027102d0d0eb3
f0e017f61fece9fcd6feb712fe0116f6
e8051c003304e504011707c51b08f00b
ec0909e837fcf92c1dffe05f2f041133
11df3a042836240a25f8021103ecf911
d7eede1419faddf4aa0202ffff09d9f6
1413f918d9f7380a12132302034b3452
d3d905e4f2d9caeabd0724c911e7fa12
03d006e2d7b92cfc0d4a1ee2f61ad90e
f8310edbdc1ff5e6190ceaed141df1dc
e5fcd70203f6e1b5b8db2b16110810d5
01db27f510fb08edf2ef110d01ede2f6
f1d9bb3bfae0ea04ebdb11d72202cf40
f8f8e4df0d2323f704021e20ca07cff3
de14f304d30beaf3b3e1e6e9d3f11700
daeff93f2dce2d311bec2f0a20d8303a
cb15f0ef29d5120bf2dc231342180e40
0518ca2103db001ff6c82116fcdd0205
f526fdafe1d0effb23eae5bff1232f1a
0601feb00fd5122f28093508040f091a
1020dfee2109d7fa1c01e10011fc04ef
15f3d208f4f4e01d3ad001f1df1dbfcc
0243360eedcff604e8e616ebdf14dced
08f7dd10effff1ea0de8e10ab2c2f500
1c0ad0231cb7d5f51bd6032229dbe31c
2325081612faf9e50dd4180f0512070b
fb0ce616ecd9afd5171ed6210c0cd8bc
f302f8cafd08f2001bffea14f2b824f7
15fdfbd1c90a0d081024eaf4f1fdf109
fed4121911ffe11c31362ff21eff040b
19e3f8e6ceee03bdf9e9abd8c029aafd
16010a230c1a191b13e21633041cee26
331afd182afd0ab6b5b7f111ab3e51ff
13d20cd8e0f90705ebd3f5e4ecfc1c16
f109d0f2f9dcf3f9dfdc00f8f50d1c0f
cdcce2ff2304e413060e0619dd172ff9
fcf9eaf306f70b112bfd0eea12f8ecfc
ede307e2ebfe3019f4280f0dccfffa1a
35f2fccfeb06073225fa1a133dfcde4e
c0e60bd7e0ace303f114f0da0b23030b
e9fbcb153325be0adbedf30beee24701
0fea1212db0afc08f9f115faf4f1260b
04b5dddeeff905f0fe0202d9d3f8bd07
00e30feeeef313fa0905c6fdb4effaf6
c70329d50ff6451f26131e0b0dc8ff27
0e08e8d10d070135ffec020120f4f217
dece0d0ffeec0f0fedd2d51d0ce51a35
15032a252f07e60cef04eb0dfc29f2e4
d3db0932040fd44ddd1f28cfbb0225ff
0af0f0eaf2e4e906fedcfbc8d4e419e5
ea04eaeadbdfe4dc0407e506ede1d3fb
20f210cf1ae7042fdde312f3c641ebf7
f3081dff19011ff4fbdb0d2e10143ff1
0affe9cef2fb06ff04ddf901ee1de3e6
11f9feeb1e0600f6070f1f191115db0f
2800dbf3dffb27fd00f32223f6cdda16
0ae228cbfaf01e2129e20de4ee2cff09
eee5fc3af306d8eaf9ef12290a00210d
eed30506d9c1c9e617d3e3e0eefc161d
ef0deafe05f70af6f4eae705feea0414
1503db02f1d703271acedffb25e21106
e90034f9110ef70934f9f9010dd7e0d7
f60fb608fef8edee2a1111efb3051807
064310143cfc363c2af030160fd6b82f
5a2dbd07400e5867eb121e04c9d8d61b
d60bf3f609c6d7fe2b0802e40004e405
f805f4ffe8dad51309d10e0ffcccd61e
